{"<|endoftext|>":0,"!":1,"\"":2,"#":3,"$":4,"%":5,"&":6,"'":7,"(":8,")":9,"*":10,"+":11,",":12,"-":13,".":14,"/":15,"0":16,"1":17,"2":18,"3":19,"4":20,"5":21,"6":22,"7":23,"8":24,"9":25,":":26,";":27,"<":28,"=":29,">":30,"?":31,"@":32,"A":33,"B":34,"C":35,"D":36,"E":37,"F":38,"G":39,"H":40,"I":41,"J":42,"K":43,"L":44,"M":45,"N":46,"O":47,"P":48,"Q":49,"R":50,"S":51,"T":52,"U":53,"V":54,"W":55,"X":56,"Y":57,"Z":58,"[":59,"\\":60,"]":61,"^":62,"_":63,"`":64,"a":65,"b":66,"c":67,"d":68,"e":69,"f":70,"g":71,"h":72,"i":73,"j":74,"k":75,"l":76,"m":77,"n":78,"o":79,"p":80,"q":81,"r":82,"s":83,"t":84,"u":85,"v":86,"w":87,"x":88,"y":89,"z":90,"{":91,"|":92,"}":93,"~":94,"¡":95,"¢":96,"£":97,"¤":98,"¥":99,"¦":100,"§":101,"¨":102,"©":103,"ª":104,"«":105,"¬":106,"®":107,"¯":108,"°":109,"±":110,"²":111,"³":112,"´":113,"µ":114,"¶":115,"·":116,"¸":117,"¹":118,"º":119,"»":120,"¼":121,"½":122,"¾":123,"¿":124,"À":125,"Á":126,"Â":127,"Ã":128,"Ä":129,"Å":130,"Æ":131,"Ç":132,"È":133,"É":134,"Ê":135,"Ë":136,"Ì":137,"Í":138,"Î":139,"Ï":140,"Ð":141,"Ñ":142,"Ò":143,"Ó":144,"Ô":145,"Õ":146,"Ö":147,"×":148,"Ø":149,"Ù":150,"Ú":151,"Û":152,"Ü":153,"Ý":154,"Þ":155,"ß":156,"à":157,"á":158,"â":159,"ã":160,"ä":161,"å":162,"æ":163,"ç":164,"è":165,"é":166,"ê":167,"ë":168,"ì":169,"í":170,"î":171,"ï":172,"ð":173,"ñ":174,"ò":175,"ó":176,"ô":177,"õ":178,"ö":179,"÷":180,"ø":181,"ù":182,"ú":183,"û":184,"ü":185,"ý":186,"þ":187,"ÿ":188,"Ā":189,"ā":190,"Ă":191,"ă":192,"Ą":193,"ą":194,"Ć":195,"ć":196,"Ĉ":197,"ĉ":198,"Ċ":199,"ċ":200,"Č":201,"č":202,"Ď":203,"ď":204,"Đ":205,"đ":206,"Ē":207,"ē":208,"Ĕ":209,"ĕ":210,"Ė":211,"ė":212,"Ę":213,"ę":214,"Ě":215,"ě":216,"Ĝ":217,"ĝ":218,"Ğ":219,"ğ":220,"Ġ":221,"ġ":222,"Ģ":223,"ģ":224,"Ĥ":225,"ĥ":226,"Ħ":227,"ħ":228,"Ĩ":229,"ĩ":230,"Ī":231,"ī":232,"Ĭ":233,"ĭ":234,"Į":235,"į":236,"İ":237,"ı":238,"Ĳ":239,"ĳ":240,"Ĵ":241,"ĵ":242,"Ķ":243,"ķ":244,"ĸ":245,"Ĺ":246,"ĺ":247,"Ļ":248,"ļ":249,"Ľ":250,"ľ":251,"Ŀ":252,"ŀ":253,"Ł":254,"ł":255,"Ń":256,"áº":257,"ng":258,"Ġt":259,"Ġc":260,"ĠÄ":261,"ĠÄĳ":262,"nh":263,"Ãł":264,"Æ°":265,"Ġv":266,"há":267,"há»":268,"Ã¡":269,"iá":270,"iá»":271,"Ġl":272,"Ġtr":273,"Ġk":274,"Ġb":275,"Æ°á":276,"Æ°á»":277,"hÃ":278,"Ġs":279,"Ġm":280,"áº¿":281,"Ġnh":282,"áº¡":283,"Ġn":284,"Ġth":285,"ĠÄĳá":286,"ĠÄĳá»":287,"áº£":288,"Ġh":289,"Ġg":290,"Ãª":291,"Ġd":292,"Ġng":293,"iá»ĩ":294,"Ġp":295,"Ġch":296,"ĠT":297,"ĠcÃ":298,"áº¥":299,"´ng":300,"Ġvá":301,"Ġvá»":302,"Ã¡c":303,"Ãªn":304,"Ġtá":305,"Ġtá»":306,"Ġcá":307,"Ġcá»":308,"Ã¢":309,"ĠvÃł":310,"»Ļ":311,"á»Ļ":312,"Æ¡":313,"uy":314,"Ġkh":315,"Ġq":316,"áºŃ":317,"Ġthá»":318,"Ġgi":319,"áº§":320,"Ġph":321,"ĠÄĳÃ":322,"Æ°á»Ŀ":323,"ĠN":324,"Ġx":325,"»ĳ":326,"á»ĳ":327,"iáº¿":328,"Ġhá»":329,"Ľi":330,"Äĥ":331,"Ġqu":332,"Ġcá»§":333,"Ġcá»§a":334,"Æ°á»£":335,"áº¡i":336,"ĠlÃł":337,"ĠC":338,"Ġr":339,"Ġchá»":340,"an":341,"ong":342,"ĠcÃ¡c":343,"áº¥t":344,"Ã¬":345,"ĠH":346,"ĠcÃ³":347,"iá»ģ":348,"»±":349,"á»±":350,"hÃ´ng":351,"Ã¢n":352,"iá»ĩn":353,"ĠB":354,"Ãły":355,"Æ°á»£c":356,"áº¯":357,"»ĭ":358,"á»ĭ":359,"ch":360,"iÃªn":361,"»Ł":362,"á»Ł":363,"Ġtrong":364,"Æ°á»Ľ":365,"ĠÄĳÆ°á»£c":366,"ĠV":367,"Ġcho":368,"Ã´":369,"inh":370,"âĢ":371,"iá»ĥ":372,"ĠÄĲ":373,"Ġvá»Ľi":374,"Ãłnh":375,"Ġ1":376,"Æ°á»Ŀi":377,"Ġ2":378,"uyá":379,"uyá»":380,"ĠÄĳÃ£":381,"iá»ģu":382,"Æ°Æ¡":383,"hÃŃ":384,"Æ°á»Ŀng":385,"á»Ļt":386,"Æ°Æ¡ng":387,"Ã¬nh":388,"anh":389,"áº§n":390,"»¯":391,"á»¯":392,"ĠngÆ°á»Ŀi":393,"Ã³":394,"ĠÄĳá»Ļ":395,"ao":396,"ay":397,"ai":398,"áº£i":399,"©c":400,"am":401,"áº§u":402,"ĠkhÃ´ng":403,"Ã´ng":404,"ang":405,"Æ°á»Ľc":406,"ĠM":407,"©ng":408,"Ġmá»Ļt":409,"Ãłn":410,"áº·":411,"áºŃn":412,"ĠL":413,"Ġmá":414,"Ġmá»":415,"ĠnÄĥ":416,"áº¿n":417,"ĵng":418,"áº£n":419,"ung":420,"ÃŃ":421,"Ġlá":422,"Ġlá»":423,"ĠTr":424,"ĠhÃ":425,"áº¿t":426,"ĠcÃ´ng":427,"ĠP":428,"ĠS":429,"Ã¡t":430,"uá»ĳ":431,"Ã¢y":432,"Ġ(":433,"Ã¡n":434,"Ãłng":435,"iáº¿n":436,"Ãłi":437,"ĠÄĳá»ĥ":438,"ĠTh":439,"ĠÄĳá»ĭ":440,"ĠnhÆ°":441,"á»¯ng":442,"Ġnhá»¯ng":443,"Ã£":444,"ĠNg":445,"ĠthÃ":446,"iá»ĩt":447,"Ġho":448,"Ġngh":449,"Ŀi":450,"Ġtá»«":451,"on":452,"Ġsá»ĳ":453,"ĠÄĳÃ³":454,"Ġtáº¡i":455,"Æ¡n":456,"Ã½":457,"»ķ":458,"á»ķ":459,"ĠnÃły":460,"±c":461,"Ã¡o":462,"Ġvá»ģ":463,"¹ng":464,"in":465,"Ãº":466,"Ġphá»":467,"ĠÄĳáº¿n":468,"ĠnÄĥm":469,"¥c":470,"au":471,"eo":472,"Ġkhi":473,"Ġá»Ł":474,"Ġhá»į":475,"ĠphÃ":476,"Ġgiá»":477,"áºŃt":478,"Ġsáº":479,"ĠQ":480,"ĠK":481,"iáº¿t":482,"Ġra":483,"Å©ng":484,"iá»ĩc":485,"áº¡n":486,"áºŃp":487,"Ġthu":488,"Ġhiá»ĩn":489,"áº©":490,"ĠÄĳá»ĵng":491,"ĠtrÃªn":492,"ĠvÃło":493,"00":494,"ĠA":495,"Ġthá»ĥ":496,"Ã¡ng":497,"ĠÄĳá»Ļng":498,"Ġdá":499,"Ġdá»":500,"Ã´i":501,"áº±":502,"ĠÄĳáº§u":503,"Ġviá»ĩc":504,"ĠchÃŃ":505,"Ġbá»ĭ":506,"Ġnhiá»ģu":507,"Äĥng":508,"ĳi":509,"Ġcáº£":510,"iá»ĩu":511,"ĠD":512,"Äĥn":513,"ĠcÅ©ng":514,"ĠâĢ":515,"iÃª":516,"Ã¡i":517,"Ġbá":518,"Ġbá»":519,"ĠngÃły":520,"Ġsáº½":521,"áº¡t":522,"ĠG":523,"Æ°á»£ng":524,"iá»ĥm":525,"Ã²":526,"áº«":527,"Ġtrá":528,"Ġtrá»":529,"Ġquan":530,"Ġdo":531,"Ġsá":532,"Ġsá»":533,"ĠÄĳá»ĭnh":534,"ĠlÃłm":535,"ĠnÆ°á»Ľc":536,"Ġsá»±":537,"ÄĲ":538,"ĠchÃ":539,"ĠthÃłnh":540,"ĠnhÃł":541,"Ġhá»Ļ":542,"âĢĿ":543,"»ĵ":544,"á»ĵ":545,"áº¥p":546,"Ã¡ch":547,"áº£ng":548,"áº¡o":549,"ĠNam":550,"ĠnhÃ¢n":551,"Ġ20":552,"áº£o":553,"Ġdá»±":554,"ħn":555,"Ġ3":556,"Ġchá»ī":557,"Æ°a":558,"Ä©":559,"oÃłn":560,"Ġgia":561,"á»Ļc":562,"¬nh":563,"ģn":564,"uyÃªn":565,"iá»ĥn":566,"áº¥n":567,"Ġláº¡i":568,"Ġ-":569,"á»Ļi":570,"ĠgiÃ¡":571,"ĠcÆ¡":572,"áº¯c":573,"ĠhÃłng":574,"ĠViá»ĩt":575,"ĠchÃŃnh":576,"ĠâĢľ":577,"áº¥y":578,"ĠtrÆ°á»Ŀng":579,"Ġtiáº¿":580,"áº±ng":581,"ĠdÃ¢n":582,"á»±c":583,"Ġquy":584,"Æ°á»Ł":585,"Ġpháº£i":586,"á»ĭch":587,"Ã¡p":588,"ĳng":589,"Æ°á»Łng":590,"Ã©":591,"Ġnghiá»ĩ":592,"Ġhá»įc":593,"Ġthá»±c":594,"áº«n":595,"uyá»ĩ":596,"Ġthá»Ŀi":597,"Ã¢m":598,"£p":599,"Ãło":600,"ĠtÃŃ":601,"ĠÃ´ng":602,"ĠphÃ¡t":603,"er":604,"Ġvá»¥":605,"uáº¥t":606,"ĠthÃ´ng":607,"ĠhÆ¡n":608,"ĥn":609,"Ã¡nh":610,"Ġkho":611,"Ġhá»£p":612,"uá»ĳc":613,"ĠÄĳá»ģ":614,"ĠhÃłnh":615,"Ġnháº¥t":616,"Ġnghá»":617,"ĠÄĳiá»ģu":618,"Ġxe":619,"Ġhá»Ļi":620,"Ġká":621,"Ġká»":622,"īnh":623,"Ġy":624,"Ġtáº¿":625,"¢n":626,"ia":627,"ĠviÃªn":628,"Ġchá»©c":629,"Ã¹ng":630,"Ġtá»ķ":631,"ĠÄĳang":632,"uyá»ģn":633,"áº¡nh":634,"ĠNh":635,"uyá»ĩn":636,"en":637,"áº·t":638,"²n":639,"áº·c":640,"iá»ģn":641,"Ġsáº£n":642,"Ġsinh":643,"Ġtheo":644,"Ġbiáº¿t":645,"Ġmá»Ľi":646,"¥ng":647,"áº¯t":648,"á»ķi":649,"ĠcÃ²n":650,"Ġcao":651,"Ġá":652,"ĠThá»":653,"Ġá»":654,"Ġsau":655,"ĠnháºŃn":656,"ĠÄĳá»ĳi":657,"Ġqua":658,"ĠmÃł":659,"ĩnh":660,"ĠPh":661,"Ã¹":662,"hÃ³":663,"ĠU":664,"20":665,"ĠlÃ½":666,"áº£m":667,"Ġnghiá»ĩp":668,"ĠÄĳi":669,"ĠnÃ³":670,"ar":671,"áº¥u":672,"Ġcon":673,"ĠhÃ¬nh":674,"Ġtiáº¿p":675,"Ġbá»Ļ":676,"ĠtrÃ¬nh":677,"Ġxuáº¥t":678,"Ġkhá»":679,"ĠtÄĥng":680,"Ġdá»¥ng":681,"á»ĳc":682,"ĠtÃ¡c":683,"Ġtá»īnh":684,"ĠcÃ¹ng":685,"áº¹":686,"ĠQuá»ĳc":687,"ĠnhÆ°ng":688,"uá»Ļc":689,"áº¡m":690,"ĠlÆ°á»£ng":691,"iÃªu":692,"Ġlu":693,"įng":694,"áº¡ng":695,"Ġlo":696,"Ġcáº¥p":697,"áº»":698,"ĠthÃ¬":699,"ĠÄĳiá»ĥm":700,"Ġ4":701,"Ġtin":702,"Ġ5":703,"Ġtá»ĳ":704,"ĠtÃ´i":705,"ºng":706,"Ġtriá»ĥn":707,"²ng":708,"Ġtu":709,"Ġkáº¿t":710,"ĠtÆ°":711,"ĠtrÆ°á»Ľc":712,"Æ¡i":713,"Ġtháº¿":714,"iá»ĥu":715,"ĠxÃ£":716,"Ġan":717,"Ġ\"":718,"..":719,"Ġlá»Ľ":720,"Tr":721,"ĠÃ¡n":722,"al":723,"ĠTrung":724,"Ġlá»±c":725,"»Ń":726,"á»Ń":727,"Ġráº¥t":728,"hi":729,"»¹":730,"á»¹":731,"Ġthá»ĭ":732,"ĠCÃ´ng":733,"Ã´n":734,"ĠQu":735,"Ġchá»§":736,"ĠlÃªn":737,"Ġkinh":738,"Th":739,"ĠÄĳÆ°á»Ŀng":740,"ĠnÄĥng":741,"Ġcáº§u":742,"ĠbÃ¡o":743,"áº£nh":744,"ĠnÃªn":745,"ĠtÃ¬nh":746,"iá»ħn":747,"Æ°á»Ľng":748,"Ġgiáº£i":749,"ĠcÃ¡ch":750,"»į":751,"á»į":752,"ĠtoÃłn":753,"áº©m":754,"Ġ201":755,"Ġdá»ĭch":756,"Ġdoanh":757,"ĠthÃ¡ng":758,"Ġkhu":759,"ĠmÃ¬nh":760,"ĠÄĳá»ĭa":761,"Ġnay":762,"Ã¡y":763,"uyá»ĥn":764,"ĠHÃł":765,"Ġbáº£o":766,"áº¿u":767,"Ãªu":768,"áº¡ch":769,"Ġgiá»¯":770,"em":771,"im":772,"«a":773,"iá»ĩm":774,"Ġbá»ĩnh":775,"Ġthá»§":776,"Ġtá»Ľi":777,"Ġquá»ĳc":778,"Ġsá»Ń":779,"Ġváº«n":780,"Ġcuá»Ļc":781,"oÃłi":782,"ĠphÆ°Æ¡ng":783,"ĠphÃ²ng":784,"³ng":785,"Å©":786,"ĠtÃ¢m":787,"ĠÄĳÃ¢y":788,"ĠÄĲá":789,"ĠÄĲá»":790,"ĠGi":791,"Ġquáº£":792,"ĠBá»Ļ":793,"ĠvÃ¬":794,"ĠkhÃ¡c":795,"ua":796,"Ġgiao":797,"áº¯ng":798,"Ġanh":799,"Ġvá»ĭ":800,"Ġthá»ĳng":801,"uyá»ħn":802,"Ġtiá»ģn":803,"Ng":804,"Ġlá»Ľn":805,"Ġtáº¡o":806,"es":807,"Ãºc":808,"Ġgiá»Ľi":809,"Ġgian":810,"ĠCh":811,"ĠR":812,"ĠnÃ³i":813,"Ġ6":814,"Ġquyáº¿t":815,"ĠÄĳáº¡o":816,"ĠphÃ¡p":817,"Ġtá»±":818,"ĠNguyá»ħn":819,"Ġhai":820,"ĠMá»¹":821,"á»ĳi":822,"Ġcá»©":823,"ĠkhÃ³":824,"Ġthi":825,"ĠTP":826,"Ġbáº¡n":827,"ĠtÃłi":828,"Ġtá»¥c":829,"Ġtra":830,"ĠtáºŃp":831,"ĠX":832,"Ġhoáº¡t":833,"ĠtiÃªu":834,"ĠÄĳáº¡i":835,"Ġpháº§n":836,"Ġná»¯":837,"£i":838,"Ã²ng":839,"Äĥm":840,"Ġbáº£n":841,"ĠI":842,"or":843,"Ġcáº§n":844,"ĠhÃ³":845,"ĠÄĳá»ķ":846,"Ġráº±ng":847,"ĠliÃªn":848,"Ġdiá»ħn":849,"Ġáº£nh":850,"Ġmáº·t":851,"Ġvá»±c":852,"ĠnhiÃªn":853,"Ġtriá»ĩu":854,"Ġtrá»ĭ":855,"ĠhÃ³a":856,"Ġná":857,"Ġná»":858,"Ġso":859,"Ġkhai":860,"ĠÃ½":861,"Ġtá»·":862,"Ġhiá»ĩu":863,"Ġtrá»įng":864,"Ġdá»±ng":865,"ĠphÃŃ":866,"Ġláº§n":867,"ĠthÆ°Æ¡ng":868,"iáº¿u":869,"áº¯n":870,"ĠÃ":871,"Ġhá»ĩ":872,"ĠÄĳá»Ļi":873,"ĠNá»Ļi":874,"ĠchÆ°a":875,"Ġtham":876,"Ġtháº¥y":877,"Ġvi":878,"¢u":879,"Ġmáº¡nh":880,"áº¡c":881,"Ġgiáº£m":882,"Ġsá»Ł":883,"ĠChá»":884,"Ã¢u":885,"Ġthá»©c":886,"Ġbáº±ng":887,"ĠkhÃ¡ch":888,"ĠtÃŃnh":889,"Ġty":890,"áº©n":891,"Ĺi":892,"Ãµ":893,"el":894,"ĠtrÆ°á»Łng":895,"ĠthÆ°á»Ŀng":896,"Ġcháº¥t":897,"Ġtuá»ķi":898,"Ã¡m":899,"Æ°u":900,"Ġtrá»Ł":901,"Ġpháº©m":902,"Ġnhiá»ĩm":903,"ĠxÃ¢y":904,"Ġ7":905,"ĠyÃªu":906,"ĠÄĳáº¥t":907,"ĠbÃ¡n":908,"Ġchiáº¿n":909,"ĠÄĳiá»ĩn":910,"),":911,"ºc":912,"Ġtrung":913,"Ġnhá":914,"Ġnhá»":915,"ĠÄĳÆ°a":916,"«ng":917,"Ġphá»ĳ":918,"ĠmÃ¡y":919,"Ġhuyá»ĩn":920,"áºŃy":921,"á»ĵn":922,"Theo":923,"ıi":924,"ĠChÃŃ":925,"ND":926,"ĠtÃŃch":927,"ĠcÃ´":928,"000":929,"áº§m":930,"áºŃu":931,"ĠÄĳÆ¡n":932,"Ġsá»ĳng":933,"ĠÄĳá»ķi":934,"ĠVÄĥn":935,"ĠHo":936,"ĠlÃ£":937,"ĠsÃ¡t":938,"Ġgáº§n":939,"uyáº¿n":940,"ĠchÃºng":941,"Ã©t":942,"Ġngá":943,"Ġngá»":944,"et":945,"Ġchá»ĭ":946,"Ġquyá»ģn":947,"Ġcháº¿":948,"á»ĵi":949,"Ġchuyá»ĥn":950,"ĠsÄ©":951,"Ġ10":952,"ĠquÃ¡":953,"Ġem":954,"ĠF":955,"Ġhay":956,"ĠY":957,"iÃªm":958,"ĠnÃło":959,"Ãºp":960,"ĠKh":961,"Ġbá»ĳ":962,"ĠÄĳáº¥u":963,"Ġkhoáº£ng":964,"Ġ8":965,"Ã³ng":966,"Ġthá»©":967,"Ġkiá»ĥm":968,"Ġhá»ĵ":969,"ĠbÃłn":970,"oáº¡i":971,"Ġvá»«a":972,"Ġcá»Ń":973,"Ġtá»ĳt":974,"Ġbiá»ĩt":975,"ĠÄĳo":976,"Ġkiáº¿n":977,"áº±m":978,"19":979,"uá»ĵn":980,"Ġ19":981,"ĠTá»ķ":982,"Ġká»³":983,"Ġmá»©c":984,"ĠÄĳÃ¬nh":985,"ĠAnh":986,"Ġbáº¥t":987,"Æ°ng":988,"Ġkhiáº¿n":989,"ĠsÃ¡ch":990,"ĠPhÃ":991,"Ġchiáº¿":992,"Ġnghá»ĭ":993,"áº³ng":994,"Ġbáº¯t":995,"ĠÄĥn":996,").":997,"Ġcáº£nh":998,"Ġtrá»£":999,"ĠhoÃłn":1000,"ĠtÆ°á»£ng":1001,"ĠquÃ¢n":1002,"ĠcÃ¡o":1003,"ĠÄĳÃ¡nh":1004,"Ġ9":1005,"ĠvÄĥn":1006,"Ġtráº»":1007,"Ġá»©ng":1008,"Ġthiáº¿t":1009,"uá»ĳng":1010,"ĠÄĳoÃłn":1011,"Ġcá»©u":1012,"ĠgiÃºp":1013,"ĠgÃ¢y":1014,"Ġloáº¡i":1015,"Ġtrang":1016,"ĠbÃł":1017,"Ġpháº¡m":1018,"Ġdiá»ĩn":1019,"áº£y":1020,"id":1021,"Ġváº¥n":1022,"ĠsÃ¡ng":1023,"ªm":1024,"Ġban":1025,"ĠBÃ¬nh":1026,"âĢ¦":1027,"uá»ĳn":1028,"Ġgiá»Ŀ":1029,"ĠláºŃp":1030,"ĠngoÃłi":1031,"Ġchu":1032,"ĠÄĳá»ģu":1033,"Ġtá»ĭ":1034,"Ġcáº£m":1035,"uá»ĳi":1036,"Ġdáº«n":1037,"Ġphá»¥c":1038,"Ġca":1039,"Ãłu":1040,"ĠÄĳáº¡t":1041,"Ġmua":1042,"Ä©nh":1043,"Ġtruyá»ģn":1044,"Ġnghá»ĩ":1045,"...":1046,"Ġsá»©c":1047,"âĢĿ.":1048,"ĠE":1049,"ĠthÃªm":1050,"Ġtá»ĭch":1051,"áº·ng":1052,"Ġxá»Ń":1053,"áº·p":1054,"ĠtrÃŃ":1055,"¯ng":1056,"Æ°á»Ľi":1057,"ºt":1058,"Ġbiá»ĥu":1059,"ĠgÃ³":1060,"Ġvá»ĩ":1061,"ĠhÆ°á»Ľng":1062,"ĠÄĳÃ´":1063,"ĠngÃłnh":1064,"ĠÄĳáº·c":1065,"Ġkáº¿":1066,"ĠváºŃy":1067,"Ã¬m":1068,"ĠtiÃªn":1069,"Ġlá»ĭch":1070,"ĠnháºŃp":1071,"áº¢":1072,"Ġmang":1073,"á»Ļng":1074,"Ġthuá»Ļc":1075,"ĠgiÃ¡o":1076,"Ġta":1077,"Ġbiáº¿n":1078,"Ġgiá»¯a":1079,"Ġlá»£i":1080,"ĠhÃ´":1081,"§y":1082,"ĠThanh":1083,"Ġquáº£n":1084,"ĠthÃŃ":1085,"ĠbÃ¬nh":1086,"Ġphá»§":1087,"it":1088,"Ġtiáº¿n":1089,"Ġcá»ķ":1090,"Ġhoáº·c":1091,"ĠcÃ¡":1092,"Ġtá»«ng":1093,"ĠdÃ¹ng":1094,"Ã²a":1095,"ĠAn":1096,"at":1097,"Ġhoáº¡ch":1098,"ĠtÃ¬m":1099,"Ġviá»ĩn":1100,"ĠbÃªn":1101,"is":1102,"ĠJ":1103,"as":1104,"ĠtráºŃn":1105,"Ġtay":1106,"áº¢nh":1107,"ĠluáºŃt":1108,"Ġrá":1109,"Ġrá»":1110,"201":1111,"ic":1112,"Ġnhau":1113,"Ġchá»ĳng":1114,"ĠnÆ¡i":1115,"ĠkhÃŃ":1116,"įn":1117,"ĠChÃŃnh":1118,"ĠthÃ¢n":1119,"ĠnghÄ©":1120,"Ġtá»Ń":1121,"Ġkiá»ĩn":1122,"áº¹p":1123,"ĠchuyÃªn":1124,"ĠÄĳáº£m":1125,"Ġtá»ķng":1126,"Ġchá»©ng":1127,"Trong":1128,"áº¥m":1129,"ĠMinh":1130,"©p":1131,"áº§y":1132,"ĠChá»§":1133,"ĠÃŃ":1134,"ĠTá»ķng":1135,"Ġphá»¥":1136,"ĠváºŃt":1137,"Ġhá»Ĺ":1138,"ĠgÃ¬":1139,"om":1140,"ĠW":1141,"ĠtÃªn":1142,"Ġmáº¡ng":1143,"Ķng":1144,"il":1145,"us":1146,"Ġmuá»ĳn":1147,"Ġbay":1148,"ĠvÃ¹ng":1149,"Æ°á»£t":1150,"ĠnguyÃªn":1151,"Ġchi":1152,"ĠxÃ¡c":1153,"ĳn":1154,"áº©u":1155,"ol":1156,"Ġbá»ı":1157,"BND":1158,"Ġchung":1159,"Ġnguá»ĵn":1160,"Ġháº¡n":1161,"Ã³m":1162,"ĠTrong":1163,"Ġtá»Ļ":1164,"Ġchia":1165,"Ġlá»Ŀi":1166,"Ġtrá»±c":1167,"ĠâĢĵ":1168,"Ġtiáº¿ng":1169,"ĠváºŃn":1170,"Ġliá»ĩu":1171,"Ġháº¿t":1172,"Ġmáº¹":1173,"áº¯p":1174,"SD":1175,"CM":1176,"Ġto":1177,"áº¡y":1178,"Ġná»Ļi":1179,"Ġbao":1180,"Ġthanh":1181,"áº¯m":1182,"Ġtranh":1183,"ĠThá»ĭ":1184,"Ġchiáº¿c":1185,"ĠdÃłi":1186,"áº½":1187,"ĠHáº£i":1188,"Ġthay":1189,"Ġhuy":1190,"ĠbÃ³ng":1191,"Ġvá»ĳn":1192,"ĠrÃµ":1193,"ĠhÆ°á»Łng":1194,"Ġmá»į":1195,"ac":1196,"ĠUBND":1197,"Ġcá»ĳ":1198,"ĠNga":1199,"á»Łi":1200,"Ġbiá»ĥn":1201,"Ġminh":1202,"Ġnghiá»ĩm":1203,"Ġdu":1204,"Ġmá»¥c":1205,"Ã¡u":1206,"Ġ202":1207,"âĢĿ,":1208,"Ġnáº¡n":1209,"ĠphÃ¢n":1210,"ĠÄĳá»ĳ":1211,"Ġgáº·p":1212,"ov":1213,"ĠthuáºŃt":1214,"ĠÄĲáº¡i":1215,"ĠxÃ©t":1216,"Ġkháº©u":1217,"ĠBan":1218,"ĠÄĳáº¹p":1219,"Ġnáº¿u":1220,"ĠTuy":1221,"ĠBáº¯c":1222,"ĠlÃ£nh":1223,"ĠkÃ½":1224,"Ã¢ng":1225,"ĠchÆ°Æ¡ng":1226,"ĠtÆ°á»Ľng":1227,"»ĵng":1228,"á»ĵng":1229,"Ġ12":1230,"ĠlÃºc":1231,"Ġmá»įi":1232,"iÃªng":1233,"á»įc":1234,"ĠÄĳá»§":1235,"»Ľi":1236,"á»Ľi":1237,"ĠÄĳoáº¡n":1238,"ĠkhÄĥn":1239,"Ã³c":1240,"ĠUSD":1241,"ĠO":1242,"Nh":1243,"áº«u":1244,"Ġbu":1245,"ĠHá»Ļi":1246,"Ġrá»ĵi":1247,"Ġcuá»ĳi":1248,"Ġchuáº©n":1249,"ur":1250,"Ġtiáº¿t":1251,"Ġmá»Ł":1252,"Ġxáº£y":1253,"ĠÄĲá»©c":1254,"Ġcá»Ļ":1255,"ĠThÃłnh":1256,"Ġmá»Ĺi":1257,"Ġgiáº£":1258,"Ġdanh":1259,"Ġchá»įn":1260,"ĠSÆ¡n":1261,"Ġlao":1262,"Ch":1263,"ĠÄĲÃ´ng":1264,"ĠsÃ¢n":1265,"uÃ¢n":1266,"á»ĵm":1267,"ĠphÃŃa":1268,"Ġkháº£":1269,"ad":1270,"Ġcáº¡nh":1271,"Ġ15":1272,"á»ĭp":1273,"áºŃm":1274,"ĠNhÃł":1275,"ĠgÃ³p":1276,"iá»ĩp":1277,"ĠtÃłu":1278,"ĠnhÃ³m":1279,"ĠthÆ°":1280,"Ġsáº»":1281,"Ġsao":1282,"ĠmÃ¹":1283,"Ġnhá»ı":1284,"Ġxem":1285,"»³":1286,"á»³":1287,"un":1288,"Ġngay":1289,"Ġtráº¡ng":1290,"Ġgá»į":1291,"Ġchuyá»ĩn":1292,"Ġmáº¥t":1293,"ĠPhÃ³":1294,"ĠluÃ´n":1295,"ĠÄĳáº·t":1296,"Ġcung":1297,"Ġgá»ĵm":1298,"Ġnhanh":1299,"ĠkÃ©":1300,"áº©y":1301,"há»¯ng":1302,"ĠnÃ´ng":1303,"Ġnháº±m":1304,"Æ°á»¡":1305,"ĠÃ¡p":1306,"ĠThá»§":1307,"Ġcá»±c":1308,"Ġtráº£":1309,"Ġ'":1310,"Ġyáº¿u":1311,"Ġcá»Ńa":1312,"ĠtÆ°Æ¡ng":1313,"ĠngÃ¢n":1314,"ĠthÃ´":1315,"Ġphá»ĳi":1316,"Ġghi":1317,"Ġ11":1318,"ĠluáºŃn":1319,"Ġká»ĥ":1320,"ĠChÃ":1321,"ĠvÃłng":1322,"ĠnÃ¢ng":1323,"ĠdÃ¹":1324,"Ġchá»ĵng":1325,"Ġbá»Łi":1326,"Ġdá»¥c":1327,"\".":1328,"os":1329,"ĠÄĳá»ĳc":1330,"Ġkhoa":1331,"ĠTá":1332,"ĠTá»":1333,"ĠÄĳá»ĵ":1334,"Ġsáº¯c":1335,"Ġáº¢nh":1336,"ĠkÃŃ":1337,"ĠÄĳá»Ŀi":1338,"Ġxuá»ĳng":1339,"ĠtrÃ²":1340,"Ġ30":1341,"ĠÄĲáº£ng":1342,"Ġvá»£":1343,"ĠHoÃłng":1344,"ĠÄĳÃ³ng":1345,"Ġtuyá»ĥn":1346,"ĠkhÃ":1347,"Ã¨":1348,"Ġtuyáº¿n":1349,"HCM":1350,"le":1351,"ĠÄĳÃºng":1352,"ĠcÃ¡n":1353,"Ġmáº¯t":1354,"ĠháºŃu":1355,"ĠvÃ´":1356,"Ġsang":1357,"©a":1358,"ĠgÃ¡i":1359,"Æ°á»¡ng":1360,"tr":1361,"ĠThÃ¡i":1362,"ĠÄĳÃ¡":1363,"ĠphÃ©p":1364,"ter":1365,"ĠmÃ´":1366,"ĠtrÃ¡ch":1367,"ıa":1368,"Ġphim":1369,"¢y":1370,"ĠÃŃt":1371,"Ġ0":1372,"10":1373,"Ġrá»Ļng":1374,"ĠcÃ¢y":1375,"ĠbÃ©":1376,"Ġtáº¥n":1377,"Ġlá»ĩ":1378,"Ġtinh":1379,"ĠDÆ°Æ¡ng":1380,"Ġná»ķi":1381,"ĠthÃŃch":1382,"ĠlÆ°u":1383,"Ġphong":1384,"Ġtáº£i":1385,"Ġláº¥y":1386,"Ġhá»ĵi":1387,"ĠÃ´":1388,"ĠLÃª":1389,"Ġtá»ĳi":1390,"ĠTráº§n":1391,"Ġtuáº§n":1392,"ĠcÃ¡i":1393,"Ġcá»Ļng":1394,"ĠÄĳÄĥng":1395,"Ġchiá»ģu":1396,"Ġgá»įi":1397,"Ġá»§y":1398,"ĠtrÃ¡i":1399,"ĠchÆ¡i":1400,"ag":1401,"Ġtháº¯ng":1402,"Ġná»¯a":1403,"ĠvÃ²ng":1404,"ĠbÃłi":1405,"ĠÄĲá»ĵng":1406,"ĠÄĳÃ¡ng":1407,"ĠHá»ĵ":1408,"iáº¿m":1409,"ĠquáºŃn":1410,"ĠÄĳáº©y":1411,"Ġdung":1412,"ot":1413,"¯u":1414,"Ãªm":1415,"Ãºt":1416,"»¥":1417,"um":1418,"á»¥":1419,"ing":1420,"ĠnghÃ":1421,"Thá»":1422,"ĠcÃłng":1423,"ĠdÆ°á»Ľi":1424,"ĠsoÃ¡t":1425,"ĠTÃ¢y":1426,"ĠQuáº£ng":1427,"Ġnhu":1428,"ĠhÃ´m":1429,"Ġcá»¥":1430,"ĠphiÃªn":1431,"ĠNghá»":1432,"Ġtáº¥t":1433,"Ġká»¹":1434,"ĠtuyÃªn":1435,"Ġhá»¯u":1436,"ĠsÆ¡":1437,"âĢľ":1438,"Äĳ":1439,"ĠgiÃ¡m":1440,"Ġdi":1441,"Ġhoa":1442,"CÃ¡c":1443,"ĠLong":1444,"§ng":1445,"Ġhá»ıi":1446,"Ph":1447,"Ġtháº§n":1448,"ĠhÃ²":1449,"iá»ħ":1450,"ra":1451,"Ġmáº«u":1452,"ĠSá»Ł":1453,"Ġnguy":1454,"uáº¥n":1455,"ĠmÃ¹a":1456,"Ġ200":1457,"Łi":1458,"th":1459,"Ã£i":1460,"ĠnghÄ©a":1461,"ÃĶng":1462,"Ġlá»Ļ":1463,"ĠCÃ¡c":1464,"ĠchÃ¢n":1465,"Ġtá»Ļi":1466,"ĠÄĳáº£o":1467,"ĠNháºŃt":1468,"įc":1469,"ĠcÃ¢u":1470,"ĠLan":1471,"áº¡p":1472,"ĠkhÃ¡":1473,"ĠÃģ":1474,"ĠriÃªng":1475,"ĠmÃ´i":1476,"Ġvá»įng":1477,"TT":1478,"»¥c":1479,"á»¥c":1480,"ĠlÄ©nh":1481,"Ġai":1482,"Ġlá»ħ":1483,"ĠÄĳáº§y":1484,"ĠSau":1485,"Ġáº¥y":1486,"ĠthuáºŃn":1487,"Ġthuá»ĳc":1488,"ĠchÃº":1489,"Ġpháº£n":1490,"Ġsuáº¥t":1491,"ĠcÆ°á»Ŀng":1492,"ıe":1493,"ĠNgá»įc":1494,"Ġmáº¡i":1495,"Sau":1496,"ĠHÃ²a":1497,"Ġthiáº¿u":1498,"Ġ18":1499,"Ġbá»ķ":1500,"ĠlÃ²ng":1501,"Ġchá»¯":1502,"Ġkhá»ıe":1503,"ĠtrÃº":1504,"Ġngoáº¡i":1505,"ĠÄĳa":1506,"ĠTrÆ°á»Ŀng":1507,"uÃ´i":1508,"ĠmÃłu":1509,"ĠnhÃ¬":1510,"ĠchÃ¢u":1511,"\",":1512,"ĠÄĳÃ´ng":1513,"ĠÄĳá»Ļc":1514,"202":1515,"ĠXuÃ¢n":1516,"Ġká»·":1517,"ed":1518,"ĠcÆ°":1519,"Ã²n":1520,"Ġthiá»ĩn":1521,"Ġvai":1522,"Ġba":1523,"ĠTheo":1524,"áº¿p":1525,"ĠGiang":1526,"ĠnghiÃªm":1527,"ĠThu":1528,"ĠnghiÃªn":1529,"ui":1530,"ĠhÃ£":1531,"Ġkhá»ıi":1532,"Ġná»ģn":1533,"Ãłm":1534,"12":1535,"ĠcÄĥn":1536,"Ġphiáº¿u":1537,"Ġtháº¥p":1538,"Ġháº¡i":1539,"Ġtho":1540,"ĠhÃ²a":1541,"Ġkhoáº£n":1542,"ĠÄĳÃłn":1543,"á»Ńi":1544,"ĠtÃº":1545,"ĠbÆ°á»Ľc":1546,"ĠniÃªn":1547,"NgÃły":1548,"Ġdá»ħ":1549,"ĠmÆ°a":1550,"ĠphÃ¡":1551,"á»±a":1552,"iá»ħm":1553,"oo":1554,"Ġ14":1555,"Ġdáº§u":1556,"uyáº¿t":1557,"Ġlá»Ľp":1558,"Ġcháº¡y":1559,"11":1560,"Ġ16":1561,"Ġhiá»ĥu":1562,"ĠÄĳÃªm":1563,"Ġgá":1564,"Ġgá»":1565,"ĠxÃºc":1566,"Ġhiá»ĥm":1567,"ĠnhÃ¬n":1568,"ĠÄĳá»©ng":1569,"Ġ13":1570,"Ġá»ķ":1571,"Ġbuá»ķi":1572,"uyá»ĩt":1573,"ĠvÆ°á»£t":1574,"ĠtÆ°á»Łng":1575,"Ġcháº¥p":1576,"Ġgá»Ńi":1577,"Ġtrao":1578,"Ġpháº¡t":1579,"Ġcháº¿t":1580,"ĠLiÃªn":1581,"Ġkhá»Łi":1582,"Ńa":1583,"iá»ģm":1584,"ĠLu":1585,"ĠmÃ´n":1586,"Ġtai":1587,"ĠthÃºc":1588,"Ġnháº¡c":1589,"Ġmáº¯c":1590,"Ġtiá»ĩn":1591,"Ġnáº±m":1592,"Ġthuáº¿":1593,"¦y":1594,"ĠtháºŃt":1595,"TrÆ°á»Ľc":1596,"Ġtrai":1597,"ĠbiÃªn":1598,"Ġkháº³ng":1599,"Ľm":1600,"ĠÆ°Æ¡ng":1601,"Ġnáº·ng":1602,"Má»Ļt":1603,"ĠtoÃ¡n":1604,"ĠPhÃº":1605,"Ġcáº£i":1606,"ĠphÆ°á»Ŀng":1607,"Ġchá»ĭu":1608,"Ġngá»Ŀ":1609,"Ġhá»įp":1610,"ro":1611,"ho":1612,"Ġthoáº¡i":1613,"Ġnam":1614,"ĠdÃłnh":1615,"ĠBáº£n":1616,"ĠIn":1617,"ĠphÃ¹":1618,"li":1619,"ĠtÃ´":1620,"Ġnhiá»ħm":1621,"ĠthÃ´n":1622,"ĠNinh":1623,"and":1624,"Ġtháº£o":1625,"Ġsá»Ľm":1626,"Ġá»¦y":1627,"ovid":1628,"ĠtrÃ¬":1629,"Ġnghá»ģ":1630,"Ġduy":1631,"Ġgiai":1632,"ĠBá":1633,"ĠBá»":1634,"ĠkÃ©o":1635,"Ġháº¡":1636,"ap":1637,"Ġlá»Ńa":1638,"ĠÄĳÃ´i":1639,"ĠCovid":1640,"ĠnuÃ´i":1641,"ĠvÅ©":1642,"ĠxuyÃªn":1643,"á»Ńa":1644,"ĠphÃºt":1645,"áº§ng":1646,"Ġxa":1647,"Ġxin":1648,"ĠhÃºt":1649,"ĠsÃ¢u":1650,"Ã³n":1651,"ĠGiÃ¡m":1652,"ĠtÃŃn":1653,"Ġ25":1654,"Ġ17":1655,"ne":1656,"ine":1657,"ĠHoa":1658,"Ġ100":1659,"ĠHu":1660,"»ĩ":1661,"á»ĩ":1662,"ĠHÃłn":1663,"ĠPhÃ²ng":1664,"Táº¡i":1665,"ĠquÃ½":1666,"ĠÄĲÃ¢y":1667,"ir":1668,"©t":1669,"ĠÄĳÃło":1670,"Ġtáº§ng":1671,"ĠQuang":1672,"hÃ¢n":1673,"ak":1674,"ĠÃ¢m":1675,"ĠÄĲÃł":1676,"ĠbÃ¡c":1677,"Ġá»ķn":1678,"ĠTÃ¢n":1679,"ĵn":1680,"Ġninh":1681,"Ġvui":1682,"oi":1683,"Ġmiá»ģn":1684,"up":1685,"ID":1686,"Ġtá»ĳc":1687,"ĠvÃłi":1688,"Ã£o":1689,"Ã³a":1690,"ĠDo":1691,"áºµ":1692,"LV":1693,"Chá»":1694,"Ġchá»īnh":1695,"ĠÄĲiá»ģu":1696,"ĠkÃª":1697,"ĠÃ¡o":1698,"Ġnghá»ī":1699,"Ã£n":1700,"Ġchiáº¿m":1701,"ĠphÃ³ng":1702,"áº·n":1703,"ĠKá»³":1704,"»ģ":1705,"Ġbiá»ĩn":1706,"á»ģ":1707,"ĠPháº¡m":1708,"Ġmong":1709,"ĠlÃ¢u":1710,"ĠngÃ´i":1711,"Nhá»¯ng":1712,"áºµng":1713,"Ġtáº¡m":1714,"ÄĲT":1715,"Ġly":1716,"ĠNguyÃªn":1717,"á»ĭnh":1718,"OV":1719,"Ġbáº§u":1720,"Ġtháº©m":1721,"ĠÃĤ":1722,"ĠthÄĥm":1723,"ĠNáºµng":1724,"one":1725,"Ġná»£":1726,"ĠBÃŃ":1727,"Tuy":1728,"Ġthá»§y":1729,"Ġ24":1730,"ĠPhÃ¡p":1731,"Ġxanh":1732,"ĠNhÆ°ng":1733,"ĠÄĳÃ¡p":1734,"ĠÃĶng":1735,"ĠchÃ¡y":1736,"eb":1737,"Ġkiáº¿m":1738,"¨o":1739,"ĠChÃ¢u":1740,"ĠsÃ´ng":1741,"Ġgiáº¥y":1742,"30":1743,"ĠchÄĥm":1744,"Ġ2020":1745,"ĠdÆ°á»¡ng":1746,"Ġvong":1747,"ĠHá»ĵng":1748,"ĠKim":1749,"ĠVi":1750,"Ġgiá»ĳng":1751,"ĠTáº¿t":1752,"ĠtrÃ¡nh":1753,"Ġchá»¯a":1754,"Ġká»ĭp":1755,"ĠTiÃªn":1756,"ĠphÃª":1757,"ut":1758,"Ġháº¡ng":1759,"Ġ50":1760,"Ġbuá»Ļc":1761,"Ġda":1762,"»Ĺi":1763,"á»Ĺi":1764,"ĠthÆ°á»Łng":1765,"Ġsai":1766,"Ġtháº¥t":1767,"Ġdáº¥u":1768,"ĠÆ°u":1769,"ĠKhi":1770,"Gi":1771,"ĠquÃ¡n":1772,"Ġvá»¯ng":1773,"ĠVÅ©":1774,"Ġkháº¯c":1775,"Ġnghi":1776,"PT":1777,"pp":1778,"Ġuá»ĳng":1779,"ĠthÃ¡i":1780,"ew":1781,"ĠLuáºŃt":1782,"ĠdÃ²ng":1783,"ĠTH":1784,"ĠkhÃ¡m":1785,"ĠMá»Ļt":1786,"Ġmá»ĳi":1787,"Ġtá»©c":1788,"Ġviáº¿t":1789,"¬n":1790,"ĠNghá»ĭ":1791,"ph":1792,"ĠCá»¥c":1793,"ĠchÃ¡u":1794,"Ġtá»Ļc":1795,"ĠPhÆ°Æ¡ng":1796,"Ġnghe":1797,"ĠTÃ´i":1798,"Ġtá»ī":1799,"Ġná»ĳi":1800,"ue":1801,"ĠtÃ¹":1802,"Ġcam":1803,"Ġvay":1804,"ĠÄĳÃ³n":1805,"ĠsÆ°":1806,"á»ĳng":1807,"Ġ22":1808,"Tá":1809,"Tá»":1810,"Ġtáº·ng":1811,"ĠhÃ¡t":1812,"ĠLe":1813,"ĠtÃ¡i":1814,"ıng":1815,"ĠnÃ³ng":1816,"»ĥ":1817,"á»ĥ":1818,"Ġbá»©c":1819,"ĠNáº¿u":1820,"Ġchuyáº¿n":1821,"ĠtÃ²a":1822,"ĠkÃŃch":1823,"Ġ21":1824,"ĠBá»ĩnh":1825,"á»¯a":1826,"Ġtrá»ĵng":1827,"ĠkhÃ¡n":1828,"Ġma":1829,"Ġnhiá»ĩt":1830,"ĠHLV":1831,"ĠÄĳau":1832,"Ġcháº¯c":1833,"Ġphá»ķ":1834,"Ġxáº¿p":1835,"ĠTuáº¥n":1836,"ĠÄĳá»ı":1837,"ĠNhá»¯ng":1838,"TV":1839,"Ġtá»ı":1840,"ÃŃnh":1841,"Ġchá»Ĺ":1842,"uá»ĳt":1843,"ĠthÃ¡c":1844,"ĠNgÆ°á»Ŀi":1845,"ĠbÃły":1846,"Ġquay":1847,"ĠCOV":1848,"ĠlÆ°á»£t":1849,"Ġlá»±a":1850,"ĠTÃłi":1851,"Ġbáº£ng":1852,"Ġluyá»ĩn":1853,"ĠÃĤu":1854,"ĠCOVID":1855,"iv":1856,"ĠMai":1857,"ĠmÃ¡u":1858,"Ġcá»¥c":1859,"Ġ23":1860,"ĠgiÃłnh":1861,"Ġmáº·c":1862,"ĠBáº£o":1863,"Ãºng":1864,"Ġxá":1865,"Ġxá»":1866,"Ġloáº¡t":1867,"Ġsung":1868,"ig":1869,"ĠChá»ī":1870,"ĠlÆ°Æ¡ng":1871,"ent":1872,"ĠLinh":1873,"Ġtrá»Ŀi":1874,"Ġnhá»Ŀ":1875,"ĠnghÃ¨o":1876,"Ã¹i":1877,"¢m":1878,"Ġsáºµ":1879,"Ġthiá»ĩt":1880,"Ġnháº¥n":1881,"Ġsáºµn":1882,"ĠcáºŃn":1883,"ĠYÃªn":1884,"ĠTá»«":1885,"Ġgáº¯n":1886,"VN":1887,"Vá»Ľi":1888,"Ġquanh":1889,"Hiá»ĩn":1890,"Ġkhá»ĳi":1891,"Ġhá»įa":1892,"Ġthá»Ń":1893,"Ġ2018":1894,"Ãºi":1895,"ĵi":1896,"ĠlÃ¡i":1897,"ĠthuÃª":1898,"ĠlÃłng":1899,"ĠKhÃ´ng":1900,"ĠChi":1901,"oa":1902,"Ġ2021":1903,"Ġnháº¹":1904,"ex":1905,"ĠchÃ³ng":1906,"Ġbinh":1907,"ĠcáºŃp":1908,"Ġniá»ĩm":1909,"NgÆ°á»Ŀi":1910,"ĠDN":1911,"Ġtáº§m":1912,"ĠcÃ¢n":1913,"50":1914,"ĠVÃ¬":1915,"Ġnhá»Ľ":1916,"Ġná»Ĺ":1917,"ĠsiÃªu":1918,"ĠcÃ¡nh":1919,"ĠÄĳá»Ļt":1920,"ĠhÃ£ng":1921,"ĠquÃª":1922,"Ġrá»«ng":1923,"ĠHÃ³a":1924,"ĠtiÃªm":1925,"ĠmÃłn":1926,"ĠÃŃch":1927,"ĠhÃ´n":1928,"Ġtráº£i":1929,"Ġsá»Ńa":1930,"Ġváº»":1931,"ĠÄĲoÃłn":1932,"TÃ´i":1933,"ĠlÃ£i":1934,"Bá»Ļ":1935,"Ġtháº³ng":1936,"ton":1937,"Ġháº¡t":1938,"Ġmay":1939,"ĠlÆ°á»£c":1940,"ion":1941,"NgoÃłi":1942,"Ġáº¥n":1943,"ĠTháº¿":1944,"Ġcháº·t":1945,"av":1946,"Ġchá»Ŀ":1947,"ul":1948,"ĠLÃ¢m":1949,"op":1950,"Ġlá»ĩnh":1951,"iáº¿p":1952,"£t":1953,"ĠThÃ":1954,"ab":1955,"ĠNgoÃłi":1956,"ĠLá":1957,"ĠLá»":1958,"Ãµi":1959,"ĠtÃºy":1960,"ĠZ":1961,"Ġdá»«ng":1962,"Ġthao":1963,"Ġ2016":1964,"yr":1965,"Ġsong":1966,"ĠngÄĥn":1967,"ĠCÃ³":1968,"ĠtrÆ°Æ¡ng":1969,"Ġdáº¡y":1970,"ĠÆ°á»Ľc":1971,"ĠsÃłng":1972,"KhÃ´ng":1973,"Ġ2019":1974,"ĠkhÃ³a":1975,"ĠloÃłi":1976,"Ġsuy":1977,"Ġdáº¡ng":1978,"Qu":1979,"ĠKhÃ¡nh":1980,"Ġ2022":1981,"ĠÄĳÃ¢u":1982,"Ġ27":1983,"ran":1984,"Ġláº¡c":1985,"Khi":1986,"Ġdá»ĭp":1987,"Ġ199":1988,"ĠmÃ³n":1989,"ik":1990,"Ġliá»ĩt":1991,"ĠÃ¡nh":1992,"amp":1993,"ĠrÃºt":1994,"ĠÄĳáº£ng":1995,"Ġkháº£o":1996,"ĠÄĳÃŃ":1997,"ĠThÆ°Æ¡ng":1998,"Ġquen":1999,"Ġ26":2000,"te":2001,"Ġthá»¥":2002,"Ġcáº§m":2003,"Ġ28":2004,"ĠÄĲÃ¬nh":2005,"Ġcáº¯t":2006,"ĠNgÃ¢n":2007,"ĠRe":2008,"ĠKinh":2009,"ĠnÃªu":2010,"Ġf":2011,"ĠphÃºc":2012,"Ġcan":2013,"%.":2014,"ĠTriá»ģu":2015,"SN":2016,"ĠTN":2017,"Ġtruy":2018,"Ġkhá»§ng":2019,"ĠThÆ°á»Ŀng":2020,"Ġ40":2021,"ĠHÃ¹ng":2022,"Ġtrá»¥":2023,"á»³nh":2024,"Ġtá»ĵn":2025,"rai":2026,"áº¤":2027,"Ġmá»Ļ":2028,"ĠcÅ©":2029,"Ġcáº¥u":2030,"¥p":2031,"ĠHÆ°ng":2032,"Ġsáº¯p":2033,"ĠDÅ©ng":2034,"Ġtáº¯c":2035,"ĠViet":2036,"ĠTiáº¿n":2037,"TC":2038,"ĠHÄĲ":2039,"Ġquáº§n":2040,"Ġsáº¡ch":2041,"Ġtáº¡p":2042,"Ġthá»ıa":2043,"Ġtiá»ĥu":2044,"ĠtháºŃm":2045,"ĠNgh":2046,"ĠHiá»ĩn":2047,"CÃ´ng":2048,"Ġ2017":2049,"ĠNgÃły":2050,"ĠMar":2051,"23":2052,"ĠNhÃ¢n":2053,"Ġ2015":2054,"Ġsuá»ĳt":2055,"ĠHiá»ĩp":2056,"ĠsÃ³c":2057,"Ġá»§ng":2058,"Ġháº£i":2059,"ie":2060,"uá»ķi":2061,"ĠAr":2062,"ĠTrÆ°á»Łng":2063,"Ġtráº¯ng":2064,"Ġngáº¡i":2065,"ĠQuÃ¢n":2066,"Ġxung":2067,"Ġngá»ĵi":2068,"ĠmÃ£":2069,"ĠVá»Ľi":2070,"Ġlai":2071,"ĠbÃ¡nh":2072,"ard":2073,"Ġthá»«a":2074,"Ġcoi":2075,"ĠthiÃªn":2076,"Ġlan":2077,"ob":2078,"ĠtáºŃn":2079,"Ġcha":2080,"ĠsÃ³ng":2081,"áº¹n":2082,"Ġchá»£":2083,"TP":2084,"Ġná»ķ":2085,"Ġcháº³ng":2086,"ĠgiÃ¡c":2087,"Ġkhá»ķ":2088,"Ġ29":2089,"ĠnghÃ¬n":2090,"Ġtá»Ŀ":2091,"ump":2092,"Ġngá»§":2093,"ist":2094,"Ġtháº£i":2095,"ĠmáºŃt":2096,"ĠHÆ°Æ¡ng":2097,"II":2098,"Ġtháº§y":2099,"ĠVN":2100,"Ġthá»ĭt":2101,"ĠDá»±":2102,"ĠlÃ¡":2103,"ĠGD":2104,"ĠBa":2105,"ĠÄĳua":2106,"ĠgiÃ³":2107,"oan":2108,"ĠGia":2109,"ĠCÆ¡":2110,"ĠdÆ°":2111,"ĠdÃ¢y":2112,"ĠnÃºi":2113,"re":2114,"Ġchá»©a":2115,"ĠthÃº":2116,"Ġnguyá»ĩn":2117,"Ġgá»ĳc":2118,"EA":2119,"ĠÄĳÃŃch":2120,"ĠPhÃºc":2121,"ĠThÃ´ng":2122,"yria":2123,"co":2124,"ĠVÄ©nh":2125,"ĠÄĳÆ°Æ¡ng":2126,"ĠlÅ©":2127,"Ġháº¥p":2128,"Ġdá»¯":2129,"Ġngáº¯n":2130,"ĠdÃµi":2131,"á»ķng":2132,"ĠÄĲá»Ļ":2133,"ĠdÆ°Æ¡ng":2134,"ĠNew":2135,"Ġchá»©":2136,"Ġdáº§n":2137,"ĠSyria":2138,"se":2139,"ĠthÆ¡":2140,"krai":2141,"ĠbáºŃt":2142,"ĠthoÃ¡t":2143,"ÄĲá»ĥ":2144,"ĠCáº£nh":2145,"ĠkÃ©m":2146,"Ġcháº¯n":2147,"²i":2148,"ly":2149,"ĠBiÃªn":2150,"ĠÄĳá»£t":2151,"á»Ļn":2152,"Ġnáº¯m":2153,"ĠÄĳá»ĭch":2154,"ĠrÆ¡i":2155,"Ġin":2156,"Tá»«":2157,"Ġtráº¥n":2158,"ĠPhá»":2159,"Ġkhuyáº¿n":2160,"ĠMan":2161,"Ãºa":2162,"do":2163,"ĠTrump":2164,"ĠNÄĥm":2165,"ĠTáºŃp":2166,"Ġchá»Ł":2167,"ĠkhÃ´":2168,"Ġbáº¡c":2169,"ChÃ":2170,"ĠBÃ¡o":2171,"ĠNghá»ĩ":2172,"ĠbÃ£o":2173,"ank":2174,"ĠxÄĥng":2175,"ague":2176,"ĠkhÃºc":2177,"áº¤n":2178,"Ġbá»ĳi":2179,"ub":2180,"ĠPar":2181,"ĠBÃł":2182,"Ġcá»±":2183,"ĠtrÄĥm":2184,"ĠNgoáº¡i":2185,"Ġláº½":2186,"įa":2187,"Ġtháº§u":2188,"Vá»ģ":2189,"Ġxáº¥u":2190,"ĠUkrai":2191,"ĠHá":2192,"ĠHá»":2193,"ĠPhong":2194,"ĠquÃł":2195,"Ġniá»ģm":2196,"ĠpháºŃn":2197,"ĠLÃ½":2198,"Ġcáº¥m":2199,"Ġnháº¯c":2200,"Ġlá»Ĺi":2201,"Ġmá»«ng":2202,"Ġ31":2203,"ĳt":2204,"Kh":2205,"Ġgiáº£n":2206,"á»Ļp":2207,"ĠhÃłi":2208,"ĠphÃ³":2209,"XH":2210,"est":2211,"lo":2212,"ĠvÃ©":2213,"ĠThá»§y":2214,"Ġchá»¥p":2215,"Å©i":2216,"ĠPhan":2217,"CÃ³":2218,"ook":2219,"ĠhÆ°Æ¡ng":2220,"ĠnháºŃt":2221,"ĠPhÃ¡t":2222,"ĠTo":2223,"ĠcÃº":2224,"Ġbáº¡i":2225,"Ġtuyá»ĩt":2226,"GT":2227,"Ġláº¡nh":2228,"ina":2229,"ĠViá»ĩn":2230,"Ġxu":2231,"Ġmáº½":2232,"ĠKhu":2233,"Ġthiá»ĩu":2234,"Ġcháº·n":2235,"ĠTá»īnh":2236,"Ġsá»£":2237,"ce":2238,"Ġháº¡nh":2239,"ĠÄĳen":2240,"á»ĳn":2241,"Ġhy":2242,"Ġphi":2243,"ld":2244,"CC":2245,"ĠThuáºŃn":2246,"ĠCup":2247,"Ä©a":2248,"don":2249,"ĠÄĲá»ĭnh":2250,"ĠUkraine":2251,"Ġtá»ıa":2252,"BÃªn":2253,"ĠNha":2254,"Ġbá»ģn":2255,"ĠCS":2256,"ĠAl":2257,"Ġtim":2258,"ĠÄĳá»įc":2259,"Ľt":2260,"Ġgáº¯ng":2261,"ĠLa":2262,"¥t":2263,"2020":2264,"Ġáº¤n":2265,"ĠbÃło":2266,"ĠphÃ¡n":2267,"ĠTrá":2268,"ĠTrá»":2269,"Ã©p":2270,"ĠtÃ´n":2271,"Ġi":2272,"Æ°Æ¡i":2273,"įt":2274,"%,":2275,"mar":2276,"ĠVinh":2277,"ĠkÃªu":2278,"Æ°á»Ŀn":2279,"Ġlá»¥c":2280,"Ġchá»¥c":2281,"ĠsÃºng":2282,"ri":2283,"2021":2284,"ĠkÃ¨":2285,"Ġmiá»ħn":2286,"ĠcháºŃm":2287,"ÄĲÃ¢y":2288,"Ġ2014":2289,"ĠTrang":2290,"Ġkháº©n":2291,"Ġkim":2292,"Ġmá»Ŀi":2293,"Ġnáº¯ng":2294,"ĠkhoÃ¡n":2295,"kg":2296,"ĠGiÃ¡o":2297,"od":2298,"ĠÄĳá»¡":2299,"ĠÄĳÃłm":2300,"ck":2301,"ĠThiÃªn":2302,"ĠngÅ©":2303,"ĠViá»ĩc":2304,"Ġ60":2305,"ĠcÃł":2306,"ĠVÃ¢n":2307,"ĠÄĳÃ¡m":2308,"ĠhÆ¡i":2309,"ĠbÃŃ":2310,"NÄĥm":2311,"ha":2312,"ĠÄĲÃło":2313,"Ġ198":2314,"Ġngá»į":2315,"Ġláº¡":2316,"Ġkáº»":2317,"ĠTrÆ°á»Ľc":2318,"ines":2319,"ĠNhiá»ģu":2320,"Ġbang":2321,"Ġhuáº¥n":2322,"ĠlÆ°á»Ľi":2323,"Ġsá»¹":2324,"200":2325,"ĠTáº¡i":2326,"ĠtrÃło":2327,"ĠhoÃłng":2328,"Ġru":2329,"Ġháº§u":2330,"Æ°á»Ľp":2331,");":2332,"ĠVÃł":2333,"Ġtuy":2334,"»©c":2335,"á»©c":2336,"ĠÄĳoÃ¡n":2337,"ĠrÃ¡c":2338,"LB":2339,"Ġtá»ĩ":2340,"Ġká»ĭch":2341,"Ġquáº£ng":2342,"ĠHuy":2343,"ĠChÃºng":2344,"ĠÄĲáº¿n":2345,"Nhiá»ģu":2346,"Ġthua":2347,"Ġphá»©c":2348,"Ġbáº¯n":2349,"Náº¿u":2350,"ĠTPHCM":2351,"Ġláº¯ng":2352,"Ġtri":2353,"ĠthÃ¡ch":2354,"Ġsáº¯t":2355,"ĠgÆ°Æ¡ng":2356,"iáº¿ng":2357,"ĠhÃ¨":2358,"Ġrau":2359,"ou":2360,"ĠrÃłng":2361,"ĠmÃ¡i":2362,"ĠBr":2363,"ĠgiÃłu":2364,"Ġgh":2365,"Ġrá»Ŀi":2366,"Ġduyá»ĩt":2367,"ģm":2368,"Ġliá»ģn":2369,"áº¯k":2370,"Ġbá»Ŀ":2371,"Ġná»Ļp":2372,"ĠDu":2373,"Ã³t":2374,"ĠÄĲH":2375,"Ġhiá»ĩp":2376,"Ġlinh":2377,"Ġtáº£":2378,"Ġngo":2379,"ore":2380,"ĠnhuáºŃn":2381,"Ġbá»ĵi":2382,"Ġgá»¡":2383,"ĠCÃ´":2384,"ĠTHPT":2385,"ĠgÃ³i":2386,"ĠHai":2387,"á»Ļm":2388,"ĠTÆ°":2389,"la":2390,"Ġkiá»ĥu":2391,"ĠLÃło":2392,"Ġngá»«ng":2393,"ess":2394,"onal":2395,"Ã£y":2396,"ĠbÃ¨":2397,"ĠngÆ°á»£c":2398,"ĠhÃ£y":2399,"/.":2400,"ĠbÄĥng":2401,"Ġsá»©":2402,"ĠCao":2403,"ĠÄĳá»©a":2404,"HÃł":2405,"ae":2406,"Ġpha":2407,"Ġlá»ĳi":2408,"ĠÄĲiá»ĩn":2409,"Ġcáº·p":2410,"Ġdá»©t":2411,"Ġtáº¥m":2412,"ĠPhÆ°á»Ľc":2413,"Ġchiáº¿u":2414,"ĠthÃ´i":2415,"Ã³i":2416,"ĠDÃ¢n":2417,"Ġkhiá»ĥn":2418,"Ġná»Ńa":2419,"ĠÄĳÃ²i":2420,"Ġo":2421,"ty":2422,"Tá»ķng":2423,"ĩt":2424,"ĠÄĳem":2425,"ĠsÃłn":2426,"¨n":2427,"Ġthai":2428,"ĠHCM":2429,"net":2430,"ĠBÃªn":2431,"qu":2432,"Ġhuyáº¿t":2433,"ĠbÃ£i":2434,"ĠtÃ¡":2435,"ĠkÃŃnh":2436,"Viá»ĩc":2437,"Ġcá»±u":2438,"ĠÄĲÃ³":2439,"ĠNÃ´ng":2440,"Ġquá»¹":2441,"ity":2442,"ĠdÃłng":2443,"ĠcÆ°á»Ľi":2444,"âĢĻ":2445,"ĠBH":2446,"ĠTÄ©nh":2447,"ĠKhoa":2448,"ĠHuáº¿":2449,"ĠtráºŃt":2450,"ĠChÆ°Æ¡ng":2451,"Ġthá»ķ":2452,"CÅ©ng":2453,"15":2454,"ĠQuáº£n":2455,"ĠCLB":2456,"Ġhá»§y":2457,"HH":2458,"§i":2459,"ĠmÃª":2460,"á»¯u":2461,"Ġsá»¯a":2462,"ĠNhÆ°":2463,"Ġmáº¥y":2464,"Ġxong":2465,"¹a":2466,"Æ°á»£u":2467,"LÄĲ":2468,"ĠTháº¯ng":2469,"Ġkháº¯p":2470,"ĠHá»į":2471,"ĠtÃ³c":2472,"ĠCáº§n":2473,"ĠLá»Ļc":2474,"22":2475,"ich":2476,"Æ¯":2477,"lip":2478,"ĠkhÃ¡ng":2479,"ĠHá»¯u":2480,"Ġláº«n":2481,"Ġtiá»ģm":2482,"ĠtÆ°Æ¡i":2483,"ÄĲáº¡i":2484,"Ġthiá»ĥu":2485,"Ġw":2486,"Ġ500":2487,"ĠPhi":2488,"ChÃºng":2489,"ĠMal":2490,"Ġ2013":2491,"ĠkÃªnh":2492,"ĠÄĲáº·c":2493,"Ġdá»±a":2494,"ĠngÃ´n":2495,"Ġkm":2496,"ĠAS":2497,"ĠCÆ°á»Ŀng":2498,"io":2499,"ĠSa":2500,"ĠcÆ°á»Ŀi":2501,"Ġcuá»ĳn":2502,"PhÃ¡t":2503,"ĠmÆ°u":2504,"ĠQuyáº¿t":2505,"sia":2506,"ĠVÃµ":2507,"st":2508,"nam":2509,"ĠVÆ°Æ¡ng":2510,"Ġdá»ĭ":2511,"Ġmá»¹":2512,"Ġ70":2513,"ian":2514,"Ġngang":2515,"Ġchá»ĳt":2516,"km":2517,"Ġgáº¥p":2518,"ax":2519,"ĠcÄĥng":2520,"ord":2521,"ĠdÃ¡ng":2522,"ĠSÃłi":2523,"ĠDuy":2524,"CN":2525,"Ġkhen":2526,"ĠtrÆ°ng":2527,"ĠSt":2528,"ĠBar":2529,"¥y":2530,"Ã´m":2531,"Ġdá»įa":2532,"ÃŃt":2533,"ĠÄĲá»ĥ":2534,"ĠrÆ°á»£u":2535,"ÄĲá»ĵng":2536,"az":2537,"Ġxáº¿":2538,"ort":2539,"orld":2540,"Ġcháº¡m":2541,"ĠÄĳoáº¡t":2542,"ĠBÃ¹i":2543,"ĠcÆ¡n":2544,"./.":2545,"Ġcháº¥n":2546,"Ġdao":2547,"ĠJo":2548,"ĠkhÃŃch":2549,"ĠTT":2550,"SÃ¡ng":2551,"Ġtrá»¯":2552,"ĠÄĲáº§u":2553,"ĠTNHH":2554,"ĠÄĳá»īnh":2555,"ĠGÃ²n":2556,"ĠThe":2557,"TS":2558,"ĠtháºŃp":2559,"com":2560,"Ġláº»":2561,"ĠThÆ¡":2562,"ĠTrÆ°Æ¡ng":2563,"ĠyÃªn":2564,"ÄĲáº¿n":2565,"Anh":2566,"Ġcháº½":2567,"ĠcáºŃu":2568,"Ġthuyá»ģn":2569,"ĠÄĳá»£i":2570,"Ġ2012":2571,"ĠTrá»įng":2572,"Do":2573,"Ġngá»¯":2574,"ĠÄĲá»Ļi":2575,"Ġváº¿t":2576,"Ġáº¥m":2577,"ĠrÃł":2578,"ĠchÃło":2579,"Ġthuyáº¿t":2580,"vn":2581,"ĠhÃ¢m":2582,"ĠhÃło":2583,"ĠmÅ©i":2584,"ĠchÃºt":2585,"ÄĲá»ĳi":2586,"ĠkÃ¨m":2587,"ĠlÃ¢y":2588,"ack":2589,"Ġchá»§ng":2590,"ev":2591,"Ġung":2592,"Ġmá»ģm":2593,"Ġkiá»ĩm":2594,"ok":2595,"Ġro":2596,"ĠngáºŃp":2597,"ry":2598,"ebook":2599,"son":2600,"ĠHy":2601,"Ġmáº¡ch":2602,"ain":2603,"Ġpháº¥n":2604,"Ġcháº¥m":2605,"if":2606,"ĠcÆ°á»Ľp":2607,"CP":2608,"£n":2609,"ĠÄĳe":2610,"Ġmáº¡c":2611,"Trung":2612,"ĠCÃ²n":2613,"ĠLÆ°Æ¡ng":2614,"Ġcáº£ng":2615,"Ġmáº¯n":2616,"Ġxá»©":2617,"ÄĲÆ°á»£c":2618,"ĠgÃł":2619,"ĠÆ¡n":2620,"CS":2621,"ĠGiao":2622,"Ġgáº¡o":2623,"ĠThá»©":2624,"Ġ2023":2625,"acebook":2626,"Ġháº¹n":2627,"2018":2628,"Ġtháº»":2629,"era":2630,"Ġbuá»ĵn":2631,"á»ĳt":2632,"ĠtÃºi":2633,"Ġtráº¡m":2634,"acc":2635,"ĠbuÃ´n":2636,"ĠgiáºŃt":2637,"ĠÄĲÃłi":2638,"ĠÄĳÃ¨n":2639,"ĠThÆ°á»£ng":2640,"Ġ35":2641,"2019":2642,"deo":2643,"Ġtung":2644,"ĠLeague":2645,"áºŃc":2646,"ĠWorld":2647,"Ġtrá»Ļm":2648,"nÄĥm":2649,"Ġgiáº¿t":2650,"ĠngÃłn":2651,"ĠtháºŃn":2652,"Ġvideo":2653,"2022":2654,"Ġtrá»«":2655,"ĠCon":2656,"ĠlÃ¢m":2657,"Ġhuá»ĳng":2658,"ĠchÃłng":2659,"Ġsáº¡n":2660,"»ŀ":2661,"á»ŀ":2662,"NN":2663,"ĠXÃ¢y":2664,"ĠtrÃºng":2665,"ĠCá»Ļng":2666,"ĠPV":2667,"how":2668,"da":2669,"Ġ197":2670,"Cá»¥":2671,"Ġ80":2672,"ĠÄĳáº³ng":2673,"ĠbáºŃc":2674,"ĠSh":2675,"ĠkhuÃ´n":2676,"ez":2677,"Ġsá»ĳt":2678,"Chá»§":2679,"60":2680,"ĠIran":2681,"ĠtrÃŃch":2682,"Ġkháº¥u":2683,"Ã£ng":2684,"ĠPhil":2685,"ĠNai":2686,"ĠÄĳáº¡n":2687,"ĠlÃºa":2688,"ĠÄĳuá»ķi":2689,"ĠMy":2690,"Ġhoáº£ng":2691,"Ġvá»¡":2692,"Ġgá»Ĺ":2693,"18":2694,"500":2695,"á»ĭa":2696,"ĠmÆ¡":2697,"ĠnÃ©t":2698,"ĠtrÃ¹ng":2699,"ib":2700,"iz":2701,"ĠtrÃºc":2702,"ĠthÃ¡o":2703,"ĠghÃ":2704,"BÃł":2705,"ĠÄĳai":2706,"Ġhá»ģ":2707,"2016":2708,"Ġ300":2709,"ĠHÄĲND":2710,"ĠvÆ°á»Ŀn":2711,"ĠLai":2712,"40":2713,"uch":2714,"ĠrÃło":2715,"2017":2716,"Ġgiáº£ng":2717,"ĠlÃłn":2718,"Ġláº¯m":2719,"Ġkhung":2720,"gi":2721,"ĠHÃłng":2722,"ĠNgÃ´":2723,"45":2724,"alia":2725,"accine":2726,"ĠnÃłng":2727,"ĠÄĲá»Ĺ":2728,"ĠInter":2729,"ĠThá»Ŀi":2730,"ĠgÃ³c":2731,"ĠngÃ£":2732,"esia":2733,"Ġáº©n":2734,"Phone":2735,"EAN":2736,"2015":2737,"ĠChiáº¿n":2738,"ĠtÃ¡n":2739,"ĠÃ©p":2740,"TVT":2741,"Ġtá»¥":2742,"Ġ90":2743,"ĠthÃ¹":2744,"Ġláº¯p":2745,"ĠLao":2746,"sen":2747,"NT":2748,"ĠxÃ¢m":2749,"Dá»±":2750,"ĠNghÄ©a":2751,"donesia":2752,"ill":2753,"17":2754,"ĠGiá»":2755,"Ġxo":2756,"rus":2757,"Ġbáº¡o":2758,"25":2759,"ĠPr":2760,"Ġtáº£ng":2761,"ĠlÃłnh":2762,"Ġgiam":2763,"Ġchuá»Ĺi":2764,"ta":2765,"Ġvaccine":2766,"Ġhá»©ng":2767,"sk":2768,"ĠTÃ¢m":2769,"ff":2770,"ĠÄĲá»ĳi":2771,"Ġtrá»ĳn":2772,"ĠBiá»ĥn":2773,"iáº¿c":2774,"Ġmai":2775,"ĠÄĳÃ¡o":2776,"ĠCity":2777,"Ngay":2778,"CÃ¹ng":2779,"han":2780,"NG":2781,"ec":2782,"ĠÄĲa":2783,"ĠThá»į":2784,"ĠgiÃł":2785,"ĠHáºŃu":2786,"ĠCA":2787,"Ġhiáº¿n":2788,"Ġmu":2789,"Chiá»ģu":2790,"Ġngá»įt":2791,"Ġná»Ĺi":2792,"ĠTiá»ģn":2793,"ThÃ´ng":2794,"aysia":2795,"Ġrá»ĳi":2796,"Ġtang":2797,"ud":2798,"ipp":2799,"ĠtÃºc":2800,"ĠviÃªm":2801,"ĠKiá»ĥm":2802,"ĠPark":2803,"ĠASEAN":2804,"ĠCá»¥":2805,"16":2806,"Ġá»ŀ":2807,"Ġthá»Ł":2808,"Ġcháº£y":2809,"ama":2810,"Ġgháº¿":2811,"TrÃªn":2812,"og":2813,"Ġrá»§i":2814,"ĠhÃ¹ng":2815,"ĠÄĳÃłi":2816,"Thá»Ŀi":2817,"ĠHáº¡":2818,"Ġbom":2819,"Ġloáº¡n":2820,"ĠIs":2821,"ĠÄĳá»©c":2822,"ĠGiáº£i":2823,"Ġlá»«a":2824,"Ġ2011":2825,"ĠQuy":2826,"ĠbÃ²":2827,"ĠÄĳÃ¢m":2828,"ĠMáº¡nh":2829,"Ġlá»£n":2830,"NhÃł":2831,"GiÃ¡":2832,"ĠThá»ķ":2833,"ĠbÃ¹":2834,"ĠbÃ³":2835,"ĠxÃ³m":2836,"Ġtá»ķn":2837,"Ġngon":2838,"ĠdáºŃy":2839,"ĠSing":2840,"ĠchÃºc":2841,"ĠGTVT":2842,"ĠIndonesia":2843,"ĠcÆ¡m":2844,"ĠEU":2845,"ĠtáºŃt":2846,"ĠngoÃ¡i":2847,"ĠKáº¿t":2848,"ĠCP":2849,"ĠchÃ³":2850,"Ġbá»¯a":2851,"ĠkiÃªn":2852,"PhÃ³":2853,"ĠNhÄ©":2854,"Ġnon":2855,"áº³":2856,"ĠtrÃ´ng":2857,"ĠMo":2858,"Ġcáº£n":2859,"ĠDÃ¹":2860,"KS":2861,"ĠSp":2862,"Ġngá»«a":2863,"ĠphÃ¡o":2864,"ĠÄĳá»ĳt":2865,"24":2866,"ĠquÃªn":2867,"Ġdá»¥":2868,"Ġhiáº¿m":2869,"ĠEm":2870,"Ġhuynh":2871,"Ġ36":2872,"Ġtráº¡i":2873,"ĠLoan":2874,"Ġá»ĳng":2875,"apore":2876,"ĠÄĲáº·ng":2877,"ĠToÃłn":2878,"ĠMalaysia":2879,"ĠQuá»³nh":2880,"Ġxinh":2881,"ĠgiÃ¡p":2882,"ĠÄĳáºŃp":2883,"Ġhá»ĵng":2884,"ĠngÆ°":2885,"Ġlá»Ĺ":2886,"14":2887,"35":2888,"ashi":2889,"ĠdÃły":2890,"Nguá»ĵn":2891,"Sá»±":2892,"ers":2893,"ĠthÆ°á»£ng":2894,"lÆ°á»£ng":2895,"Ġvirus":2896,"ĠiPhone":2897,"Ġkia":2898,"ĠphÃº":2899,"Ġngáº§m":2900,"ĠCáº§u":2901,"rid":2902,"ah":2903,"AR":2904,"ĠTÃ¹ng":2905,"ey":2906,"Ġgiá»ıi":2907,"bank":2908,"ĠÄĳáºŃu":2909,"Ġvinh":2910,"ĠchÄĥn":2911,"Ã£nh":2912,"Ġclip":2913,"Thá»§":2914,"ames":2915,"ĠmÃ£i":2916,"ĠPhilipp":2917,"Ġngá»¥":2918,"ĠSá»±":2919,"ĠCamp":2920,"ber":2921,"uk":2922,"ĠHuá»³nh":2923,"ĠÄĳÃ£i":2924,"Ġbáº¡ch":2925,"ÄĲiá»ģu":2926,"ĠNhÃ":2927,"Ġhá»ıa":2928,"ĠtÃ¹y":2929,"Ġ45":2930,"ĠBá»Łi":2931,"ĠbÃ¹ng":2932,"ĠngÆ°á»¡ng":2933,"Ġcá»©ng":2934,"Ġbá»¥ng":2935,"21":2936,"Ġha":2937,"DÃ¹":2938,"Ġuy":2939,"ĠUn":2940,"ĠVá»¥":2941,"ĠlÃ£m":2942,"ier":2943,"ĠvÆ°á»Ľng":2944,"ĠAF":2945,"ĠNháº¥t":2946,"iá»ĩng":2947,"Ġtháº£m":2948,"2014":2949,"Ġhoang":2950,"áº³n":2951,"ip":2952,"ĠCan":2953,"Ľp":2954,"ĠTrÃł":2955,"ĠÄĲinh":2956,"man":2957,"Ġcá»Ļt":2958,"Ġpháº«u":2959,"und":2960,"ĠnhÅ©ng":2961,"ĠSingapore":2962,"ĠKáº¿":2963,"ĠnÃ©":2964,"ĠMáº·t":2965,"ĠtÃ´ng":2966,"ĠLá»ħ":2967,"ĠkÃŃn":2968,"pple":2969,"sea":2970,"ĠthÃ©p":2971,"ĠÄĲT":2972,"ĠchÃ¬":2973,"ĠÄĳiá»ĥn":2974,"Ġrá»Ńa":2975,"ĠTháº£o":2976,"ern":2977,"ĠCá»ķ":2978,"áº«y":2979,"Ġmiá»ĩng":2980,"»·":2981,"á»·":2982,"XVN":2983,"ĠFacebook":2984,"Ġhá»ıng":2985,"Ġe":2986,"ĠÄĳá»ĵn":2987,"Ġsáº¯m":2988,"ĠtrÃłn":2989,"Ġbáº¿n":2990,"AT":2991,"ell":2992,"Ġhá»Ļp":2993,"Ġmá»ĩnh":2994,"Ġsá»ķ":2995,"ĠbÃª":2996,"ĠniÃªm":2997,"Co":2998,"ĠAir":2999,"Ġháº³n":3000,"VÃ¬":3001,"ico":3002,"NhÆ°":3003,"Ġlá»įc":3004,"ona":3005,"Ġgiá»įng":3006,"Ġthang":3007,"Hai":3008,"Ġnáº¥u":3009,"ustr":3010,"ĠPhilippines":3011,"Ġ&":3012,"Ġtriá»ĩt":3013,"ĠkhÃ³c":3014,"ĠTuyÃªn":3015,"ĠsÃºt":3016,"ĠKho":3017,"ĠTÃłu":3018,"ĠQuÃ½":3019,"ĠhÆ°":3020,"ĠnhÆ°á»£ng":3021,"ĠHá»£p":3022,"13":3023,"Ġáº©m":3024,"Má»¹":3025,"ĠTrá»ĭ":3026,"CB":3027,"ĠÄĲÆ°á»Ŀng":3028,"Ġtiáº¿c":3029,"elsea":3030,"ĠHá»ĵi":3031,"ĠTáº¥n":3032,"Káº¿t":3033,"ters":3034,"ĠAs":3035,"ĠtÃłng":3036,"ep":3037,"ĠHoÃłn":3038,"uchia":3039,"Ġnháº£y":3040,"ĠlÃ´":3041,"ĠthÄĥng":3042,"Ġruá»Ļt":3043,"ĠÄĲáº¯k":3044,"Ġthá»Ŀ":3045,"áº¥c":3046,"uro":3047,"line":3048,"eg":3049,"ĠÄĳá»ģn":3050,"ĠmÃ¡t":3051,"Ġváº¯c":3052,"ĠBáº±ng":3053,"Ġnháº¯n":3054,"ĠMad":3055,"ĠnÃ£o":3056,"Ġga":3057,"Ġchá»ĳi":3058,"ĠvÃŃ":3059,"all":3060,"Ġkhuáº©n":3061,"Ġ32":3062,"ĠcÃ£i":3063,"hÃŃnh":3064,"Ġcá»Ŀ":3065,"ĠLÆ°u":3066,"ĠCSGT":3067,"ĠtÃ¢y":3068,"ĠSam":3069,"Ġtrá»¥c":3070,"Ġdinh":3071,"Ġkhoe":3072,"Vá»¥":3073,"ĠHoÃłi":3074,"Ġláº¡m":3075,"ĠCÄĲ":3076,"ĠVin":3077,"ĠReal":3078,"2013":3079,"Ġtrá»©ng":3080,"Ġbáº¯c":3081,"ĠNhá»":3082,"ĠNH":3083,"ĠBl":3084,"ĠTA":3085,"ow":3086,"80":3087,"ĠCN":3088,"Ġnhi":3089,"ĠxÆ°a":3090,"ĠHáº±ng":3091,"ĠThá»±c":3092,"Ġsu":3093,"Ġ2010":3094,"Ġal":3095,"istan":3096,"Ġhá»©a":3097,"ĠCar":3098,"ca":3099,"ĠCá":3100,"ĠCá»":3101,"ĠdÃ¡m":3102,"ei":3103,"ĠBV":3104,"70":3105,"ĠgiÃ£n":3106,"ĠbÃ¢y":3107,"Ġcanh":3108,"ĠBÃ¡c":3109,"ĠApple":3110,"ĠxuÃ¢n":3111,"SC":3112,"ĠNgay":3113,"LiÃªn":3114,"ĠBáº¡n":3115,"Ġmá»±c":3116,"ĠchÃ¹a":3117,"ĠchÃ©":3118,"Ġráº»":3119,"Ġweb":3120,"ass":3121,"ĠnhÃ¡nh":3122,"ĠHá»įc":3123,"ĠPhÆ°á»£ng":3124,"tá":3125,"tá»":3126,"ĠxÆ°Æ¡ng":3127,"Máº·c":3128,"Ġvá»ı":3129,"ĠQua":3130,"In":3131,"ĠTS":3132,"Lá":3133,"Lá»":3134,"VÃło":3135,"ĠCampuchia":3136,"ĠThá»¥y":3137,"ĠKiÃªn":3138,"Ġfan":3139,"ĠSá»ĳ":3140,"ĠÄĳáºŃm":3141,"Ġthuáº«n":3142,"ĠThÃº":3143,"hn":3144,"Thá»±c":3145,"ĠcÃ¡t":3146,"ada":3147,"ĠtÆ°á»Ŀng":3148,"ĠmÃ¹i":3149,"Thá»©":3150,"ĠSong":3151,"Ġtráº§m":3152,"ĠTÃº":3153,"90":3154,"po":3155,"iss":3156,"Ġliá»ģu":3157,"ĠnhiÃªu":3158,"ĠTiá»ĥu":3159,"ĠÄĳiá»ĩu":3160,"ĠDi":3161,"ĠcÆ°Æ¡ng":3162,"ĠSu":3163,"Ġche":3164,"ĠsÃ´i":3165,"ĠnhÃ£n":3166,"Ġgá»£i":3167,"ork":3168,"Ã½t":3169,"ĠdÃ¢u":3170,"iver":3171,"CÃ²n":3172,"Ġlá»Ł":3173,"á»įi":3174,"ĠthÃ³":3175,"hoáº£ng":3176,"ĠtÃ´m":3177,"ĠChÃ¡nh":3178,"uters":3179,"Giá»":3180,"ĠlÃ£ng":3181,"Ġmá»ĳc":3182,"ĠTam":3183,"ĠdÃ´ng":3184,"Ġcamera":3185,"ĠIS":3186,"Æ°Æ¡n":3187,"tÃ´":3188,"Ġcá»ĳt":3189,"amin":3190,"rael":3191,"ustralia":3192,"ĠÄĳá»«ng":3193,"ĠbÃ¡m":3194,"ChÃŃnh":3195,"ĠNgÃ£i":3196,"Ġtreo":3197,"CT":3198,"Ġbá»ĳn":3199,"Ġdiá»ĩt":3200,"ĠdÃ¢m":3201,"ĠTruyá»ģn":3202,"Ġ.":3203,"NH":3204,"Ġgá»įn":3205,"Ġbá»Ļt":3206,"Ġbáº¿p":3207,"ĠMá»Ĺi":3208,"Ġ33":3209,"ĠTrÃªn":3210,"ht":3211,"ĠtuÃ¢n":3212,"ĠTáº¥t":3213,"ÃŃch":3214,"Ġven":3215,"ĠChelsea":3216,"Ġxá»©ng":3217,"ĠChu":3218,"ĠvÃ¡y":3219,"ĠBHXH":3220,"mp":3221,"Ġ,":3222,"ick":3223,"Ġshow":3224,"ĠxÃ³a":3225,"2023":3226,"ĠCÃ¹ng":3227,"chá»":3228,"ĠChung":3229,"ast":3230,"ĠÃ´m":3231,"Ġyáº¿t":3232,"Ã¹a":3233,"CÃ´":3234,"ĠdÆ°á»£c":3235,"ĠNhi":3236,"Chá»ī":3237,"lin":3238,"ĠKhÃ":3239,"onald":3240,"ĠÄĳÃł":3241,"ĠII":3242,"ĠtrÆ°a":3243,"ĠTÃ²a":3244,"ĠÄĳiá»ĩp":3245,"NhÆ°ng":3246,"ĠláºŃu":3247,"xi":3248,"Ġgiáº¥u":3249,"Le":3250,"¥i":3251,"Ġbá»ĳc":3252,"Qua":3253,"ĠlÆ°ng":3254,"Ġtráº§n":3255,"ĠtÃ¢n":3256,"Má»Ľi":3257,"Ġmá»ĩt":3258,"ĠSan":3259,"Ġquang":3260,"ame":3261,"ĠHar":3262,"27":3263,"ĠHiáº¿u":3264,"Ġtiá»ħn":3265,"mart":3266,"ĠAm":3267,"Ġphá»ıng":3268,"ĠAnd":3269,"iet":3270,"ngÃły":3271,"Ġcá»ķng":3272,"ĠBÄĲ":3273,"ĠCai":3274,"ĠTAND":3275,"GS":3276,"CoV":3277,"ÄĲáº·c":3278,"Ġla":3279,"ĠIsrael":3280,"Ġthan":3281,"ĠAustralia":3282,"ĠchÃª":3283,"ester":3284,"ĠLÃºc":3285,"ĠVá»ģ":3286,"ĠVietnam":3287,"Ġ38":3288,"zil":3289,"Ġláº§m":3290,"Ġ37":3291,"ngÆ°á»Ŀi":3292,"ĠmÃ¢y":3293,"Ġmá»ıi":3294,"ĠÄĳeo":3295,"ĠÄĲá»ģ":3296,"Ġbia":3297,"senal":3298,"áº¹t":3299,"Ġvá»Ŀi":3300,"Ġtáº¯m":3301,"Ġtá»ĳn":3302,"ngton":3303,"Ġ34":3304,"ail":3305,"Ã¹m":3306,"Ġsa":3307,"ĠQuá»¹":3308,"ĠdÃłn":3309,"26":3310,"ashington":3311,"Ġva":3312,"ĠGiÃ¡":3313,"ĠReuters":3314,"Ġmá»ı":3315,"ions":3316,"khÃ´ng":3317,"ĠBáº¿n":3318,"Ġ400":3319,"ĠNÃ³":3320,"ĠSo":3321,"Ġtrá»«ng":3322,"ĠThá»«a":3323,"ĠThá»ĳng":3324,"»£":3325,"ĠTrá»ĭnh":3326,"ĠBra":3327,"Ġváº¯ng":3328,"Ã¨o":3329,"á»£":3330,"ek":3331,"ĠTÃ¬nh":3332,"ĠLoÃłi":3333,"ĠXÃ£":3334,"Ġcáº¥t":3335,"Ġxáº£":3336,"99":3337,"hÃ³m":3338,"aw":3339,"Ġmáº£nh":3340,"Ġcáº¯p":3341,"ĠÄĳáº¡p":3342,"onaldo":3343,"ini":3344,"Ġ150":3345,"ĠThá»ĥ":3346,"Ġháº§m":3347,"Ġnhá»±a":3348,"28":3349,"Ġtan":3350,"ĠMos":3351,"Cuá»Ļc":3352,"ĠmÃ¬":3353,"Ġtáº¯t":3354,"Con":3355,"ite":3356,"utin":3357,"ĠThÃºy":3358,"to":3359,"Ġhá»ĳi":3360,"ĠdÆ°á»Ŀng":3361,"ĠWashington":3362,"ĠCr":3363,"ĠPháºŃt":3364,"Ġlá»ĩch":3365,"ĠMáº·c":3366,"Ġ196":3367,"BÃ¡o":3368,"ĠSAR":3369,"Ġtháº£":3370,"Ġdá»įc":3371,"ĠÄĳáº¯t":3372,"PhÃ":3373,"tin":3374,"ham":3375,"con":3376,"ĠCáº£":3377,"ĠduyÃªn":3378,"ĠtrÃ²n":3379,"ĠHiá»ģn":3380,"Ġhá»ĵn":3381,"ĠCo":3382,"ĠThÄĥng":3383,"ĠLá»£i":3384,"TM":3385,"CÆ¡":3386,"ĠGu":3387,"enn":3388,"ĠÄĲB":3389,"Ġháº£o":3390,"Ġlang":3391,"ĠbÃ¡":3392,"EC":3393,"ĠÄĳá»Ĺ":3394,"ĠÄĳáº¥y":3395,"ĠTrinh":3396,"ĠCam":3397,"ood":3398,"ĠthÃ³i":3399,"Ġthoáº£i":3400,"Ġtáº¿t":3401,"Ĺng":3402,"ĠMau":3403,"ĠtrÃł":3404,"Ġbá»Ľt":3405,"Há»Ļi":3406,"tel":3407,"ĠThÆ°":3408,"ĠMadrid":3409,"BC":3410,"Ġgan":3411,"Ġháº±ng":3412,"Ġmuá»ĳi":3413,"ĠAb":3414,"29":3415,"ĠCáº©m":3416,"Ġchuyá»ģn":3417,"ĠtrÃ´i":3418,"ĠSer":3419,"á»±u":3420,"ĠInternet":3421,"ĠthÃ¹ng":3422,"2012":3423,"ĠsÃ³t":3424,"Ġnhá»ĭp":3425,"Ġhung":3426,"Ġcá»§ng":3427,"ĠÄĲÄĥng":3428,"ĠKhá»":3429,"ĠmÃ¢u":3430,"ĠBáº¡ch":3431,"ĠGiáº¥y":3432,"Ġvua":3433,"ĠgiÃ¢y":3434,"ĠPutin":3435,"Ġmáº§m":3436,"ĠGr":3437,"ĠhÃłm":3438,"QÄĲ":3439,"ĠLÄĲ":3440,"Ġsáº¡t":3441,"ĠthÆ°á»Ľc":3442,"thá»":3443,"Ġkhuyáº¿t":3444,"CÃ¡ch":3445,"ĠtÃ¡o":3446,"ĠÃļ":3447,"ĠphÃ¡i":3448,"Ġná»ģ":3449,"end":3450,"75":3451,"Ġthiá»ĩp":3452,"ĠDonald":3453,"cel":3454,"ĠAi":3455,"¹y":3456,"ĠTim":3457,"ĠbÃ©o":3458,"dex":3459,"ate":3460,"AG":3461,"ĠHuyá»ģn":3462,"ĠÄĳáº¿":3463,"lymp":3464,"Ġkhiáº¿u":3465,"ĠNhiá»ĩt":3466,"ĠvÆ°Æ¡n":3467,"ĠThá»ĭnh":3468,"rab":3469,"ĠIt":3470,"ĠTháº¡ch":3471,"ĠCÃł":3472,"ĠhÆ°u":3473,"ge":3474,"oy":3475,"Nam":3476,"ĠDung":3477,"ĠCuá»Ļc":3478,"ĠCÅ©ng":3479,"ĠMÃ´i":3480,"Ġngá»±c":3481,"Ġmá»ķ":3482,"Ã¨n":3483,"Ġcá»ĳng":3484,"ĠkhÃ¢u":3485,"Thanh":3486,"Æ°á»£n":3487,"ĠSARS":3488,"Ġláº·ng":3489,"Ġheo":3490,"ĠlÃŃnh":3491,"ĠVÅ©ng":3492,"ĠYork":3493,"UBND":3494,"Ġlá»ĵ":3495,"ĠchÃŃn":3496,"ĠthÆ¡m":3497,"ĠArsenal":3498,"Ġmáº¡o":3499,"pool":3500,"ĠCÃ¡t":3501,"xÃ£":3502,"Ġkhá»ĳng":3503,"ĠMi":3504,"ara":3505,"Ġdáº¯t":3506,"ÃŃn":3507,"ĠMa":3508,"Æ¡m":3509,"Ġkg":3510,"):":3511,"ĠgiÆ°á»Ŀng":3512,"huyá»ĩn":3513,"ĠSinh":3514,"á»Ńu":3515,"TN":3516,"TTQ":3517,"sung":3518,"TX":3519,"Ġhá»ķ":3520,"YT":3521,"Ġlá»įt":3522,"land":3523,"Ġáº¥p":3524,"Ġmiáº¿ng":3525,"Nghá»":3526,"phone":3527,"ation":3528,"ĠChá»ĭ":3529,"ĠCÃ¡ch":3530,"Ho":3531,"ĠsÄĥn":3532,"ĠBrazil":3533,"iverpool":3534,"ĠGames":3535,"Ġngáº¡ch":3536,"Ġviá»ħn":3537,"ĠTu":3538,"Ġ55":3539,"Ġngá»Ļ":3540,"ĠChamp":3541,"Ã¹n":3542,"ĠOlymp":3543,"ĠQL":3544,"Bá":3545,"Bá»":3546,"ĠCH":3547,"ĠvÄ©":3548,"OS":3549,"Ġráº¯n":3550,"Ġkhá»ķng":3551,"ĠÄĳam":3552,"Ġtrá»į":3553,"Chá»ĭ":3554,"ĠgiÃły":3555,"'.":3556,"ĠCty":3557,"ace":3558,"Ġtrá»ĳng":3559,"ĠkhÃ¡t":3560,"ĠvÆ°Æ¡ng":3561,"ĠkhuyÃªn":3562,"Ġáº£o":3563,"ver":3564,"ĠKiá»ģu":3565,"ĠÄĲÃ´":3566,"Ġcá»ı":3567,"ĠThÃ¹y":3568,"essi":3569,"ĠNews":3570,"QT":3571,"ĠNá»¯":3572,"ĠQuan":3573,"giá»":3574,"ĠmÃ³c":3575,"AS":3576,"ĠDoanh":3577,"Ġbá»ģ":3578,"ĠJohn":3579,"Ġcá»¥m":3580,"ĠghÃ©p":3581,"ĠdÃ£":3582,"ĠLá»±c":3583,"yo":3584,"Ġváº½":3585,"ĠOb":3586,"Ġchá»«ng":3587,"ĠmÃ©t":3588,"ani":3589,"Ã©o":3590,"ĠLá»ĩ":3591,"ĠÄĲÆ°á»£c":3592,"ĠYo":3593,"ĠrÄĥng":3594,"Ġháº¹p":3595,"ĠDe":3596,"ĠchÃ¬m":3597,"Bank":3598,"iá»ħu":3599,"ĠbÆ¡i":3600,"Báº¡n":3601,"ÄĲá":3602,"ÄĲá»":3603,"ĠXII":3604,"tain":3605,"ited":3606,"ero":3607,"ĠÃ´tÃ´":3608,"36":3609,"IC":3610,"ĠHáº¡nh":3611,"ĠCho":3612,"ĠBÃłi":3613,"ĠDiá»ħn":3614,"Ġleo":3615,"Ġhoan":3616,"ĠCÃ¡i":3617,"oog":3618,"Ļi":3619,"100":3620,"Ġdáº¡":3621,"ĠRonaldo":3622,"»«a":3623,"á»«a":3624,"Ġgiáº¥c":3625,"ĠKH":3626,"art":3627,"Ġcá»¡":3628,"League":3629,"orn":3630,"ĠdáºŃp":3631,"ĠkhoÃ¡ng":3632,"ĠmÃ£n":3633,"ĠnhÃ©":3634,"ĠtÃ¡ch":3635,"ĠvÃµ":3636,"oogle":3637,"ĠTháº¡nh":3638,"IV":3639,"Ġváº£":3640,"Ġtuá»ĩ":3641,"ĠTrÃŃ":3642,"ĠtÄ©nh":3643,"Ġ48":3644,"thÃ¡ng":3645,"Ľn":3646,"HÃ´m":3647,"ĠthoÃ¡i":3648,"ash":3649,"MT":3650,"ĠNguá»ĵn":3651,"ĠsÃ¡nh":3652,"ĠSeo":3653,"ĠVáºŃy":3654,"raq":3655,"ĠGal":3656,"ĠTháºŃm":3657,"ĠtÃłn":3658,"ĠChampions":3659,"na":3660,"%;":3661,"ĠAle":3662,"Ġco":3663,"Ġtiá»ĩc":3664,"ĠHÆ¡n":3665,"ya":3666,"ma":3667,"ĠHÃłnh":3668,"Ġtrá»įn":3669,"Ġnghiá»ĩn":3670,"37":3671,"ĠXuyÃªn":3672,"±ng":3673,"Tiáº¿p":3674,"ĠÃ¡i":3675,"ĠSEA":3676,"NÄĲ":3677,"DC":3678,"ĠThÃ¡p":3679,"ĠgÃ¬n":3680,"ĠlÃ¹i":3681,"ĠLiÃªm":3682,"Ġná»ĵng":3683,"Ġchua":3684,"kh":3685,"Trao":3686,"Viá»ĩt":3687,"ĠBo":3688,"ĠHuá»ĩ":3689,"ech":3690,"age":3691,"ĠkhÆ¡i":3692,"ti":3693,"Ġláº¥n":3694,"ea":3695,"ĠbuÃ½t":3696,"Ġráº¡ng":3697,"Ãģ":3698,"ĠLam":3699,"Ġváº¹n":3700,"ĠÄĲáº¥t":3701,"Ġgame":3702,"eng":3703,"ĠÃ¡c":3704,"ĠYáº¿n":3705,"Ġpin":3706,"ĠVÃłng":3707,"Ġof":3708,"ĠMU":3709,"Ġsá»ĳc":3710,"ĠPl":3711,"ĠThi":3712,"ĠTHCS":3713,"ĠnÃ©m":3714,"Index":3715,".\"":3716,"34":3717,"Ġkhá»Ľp":3718,"Ġná»Ł":3719,"ĠThiá»ĩn":3720,"QH":3721,"ĠCanada":3722,"hÃŃa":3723,"ĠIraq":3724,"ĠLiverpool":3725,"ĠTá»Ń":3726,"īa":3727,"ĠSÃ¡ng":3728,"Ġlá»ıng":3729,"ota":3730,"ĠdÃŃnh":3731,"300":3732,"Ġ39":3733,"ĠkhÃ´i":3734,"Ġtop":3735,"TrÆ°á»Ŀng":3736,"ĠUy":3737,"ram":3738,"Ġ75":3739,"ĠEl":3740,">>":3741,"idae":3742,"ke":3743,"Ġcáº©n":3744,"Ġváº¥t":3745,"ĠnÃºt":3746,"ĠÃĿ":3747,"',":3748,"ĠTriá»ĩu":3749,"ĠOlympic":3750,"ug":3751,"Ġthuáº§n":3752,"ĠnhÃłng":3753,"ĠMTTQ":3754,"AM":3755,"Ġbá»ıng":3756,"ĠgÃ¡nh":3757,"Ġnhan":3758,"ĠLH":3759,"Ġsay":3760,"Ġ2008":3761,"Ġ01":3762,"Ġphá»ķi":3763,"Ġváº£i":3764,"ĠPhá»¥":3765,"ĠÄĳá»Ľi":3766,"38":3767,"BÃ¬nh":3768,"Viet":3769,"Ġvit":3770,"ĠTiáº¿p":3771,"eal":3772,"ideo":3773,"Sá»Ł":3774,"ĠdÃ¢ng":3775,"ĠÄĳá»±ng":3776,"Ġ65":3777,"tor":3778,"ĠObama":3779,"Ġtá»©":3780,"ĠNS":3781,"ĠHang":3782,"Quáº£ng":3783,"Ġ2009":3784,"ĠrÃ©t":3785,"ĠkÃ¬":3786,"Ġvitamin":3787,"ĠÄĳÃ¡n":3788,"ĠSamsung":3789,"NháºŃn":3790,"ĠrÃ£i":3791,"Ban":3792,"NhÃ¢n":3793,"TTXVN":3794,"ĠlÃ²":3795,"ba":3796,"ĠlÃ´ng":3797,"ĠAP":3798,"di":3799,"ĠUnited":3800,"ĠDáº§u":3801,"Ġngá»įn":3802,"ĠLáº¯k":3803,"ĠngÃµ":3804,"HÃ¬nh":3805,"LÃł":3806,"mm":3807,"FF":3808,"ĠRiÃªng":3809,"Ġu":3810,"Ná»¯":3811,"ĠNN":3812,"ĠgiáºŃn":3813,"ÄĲÃ³":3814,"ley":3815,"ĠMC":3816,"roup":3817,"va":3818,"ĠCol":3819,"55":3820,"ĠHS":3821,"TÃ¬nh":3822,"lor":3823,"ĠMessi":3824,"ĠsÆ¡n":3825,"ĠMil":3826,"CH":3827,"Ġsoáº¡n":3828,"áº±n":3829,"ĠJu":3830,"ĠÃģnh":3831,"Ġmuá»Ļn":3832,"Ġláº¥p":3833,"oc":3834,"ĠGoogle":3835,"inho":3836,"TÃŃnh":3837,"á»ĳm":3838,"ĠVáºŃn":3839,"46":3840,"GD":3841,"47":3842,"´n":3843,"ĠÄĳáº»":3844,"onda":3845,"400":3846,"%/":3847,"ĠÄĲáº¡t":3848,"quáºŃn":3849,"martphone":3850,"ĠNghi":3851,"Ġdá»įn":3852,"ens":3853,"FA":3854,"ĠNhÆ¡n":3855,"95":3856,"ĠHuyá»ĩn":3857,"go":3858,"ĠLy":3859,"ĠAng":3860,"ĠTÄĥng":3861,"ĠchiÃªu":3862,"ĠVÃło":3863,"ft":3864,"Em":3865,"Ġxoay":3866,"Ġvá»Ļi":3867,"Ġtrá»Ļn":3868,"Ġhá»Ĺn":3869,"ATO":3870,"ĠÄĳÃ³i":3871,"bo":3872,"ans":3873,"Ġchim":3874,"ĠquÃ©t":3875,"Ġthá»±":3876,"ĠSÃ³c":3877,"Ġtaxi":3878,"Sá»ĳ":3879,"ĠHÄĲQT":3880,"ĠTÃŃnh":3881,"ĠPháº§n":3882,"ĠÃ¹n":3883,"Ġbá»¥i":3884,"Ġmá»¡":3885,"ĠbÃ³n":3886,"ĠTÃ´":3887,"ĠÃ¢n":3888,"Ġtá»§":3889,"iden":3890,"ĠrÃ¨n":3891,"ĠkiÃªm":3892,"Ġ600":3893,"Gia":3894,"NguyÃªn":3895,"Ġngá»£i":3896,"KT":3897,"©o":3898,"ĠÄĳáº¯p":3899,"ice":3900,"Khu":3901,"ee":3902,"Ã²i":3903,"ĠâĢĺ":3904,"Ġ120":3905,"ĠcÆ°á»¡ng":3906,"Ġrá»¡":3907,"Ġnháº¡y":3908,"ĠvÃ¢y":3909,"AGL":3910,"Ġmáº·n":3911,"ĠDá»ĭch":3912,"2011":3913,"CCC":3914,"Ġvang":3915,"BÆ°á»Ľc":3916,"ÄĲá»Ļi":3917,"ThÃ¡ng":3918,"ĠHá»ĩ":3919,"ĠThiáº¿u":3920,"ĠSÃ´ng":3921,"HÃłng":3922,"ĠxÆ°á»Łng":3923,"ĠhoÃ£n":3924,"Ġsá»¥t":3925,"ĠBá»ĵ":3926,"ÄĲV":3927,"ĠbÃ¬":3928,"ĠÄĲá»Ļng":3929,"ĠRo":3930,"IA":3931,"Ġ43":3932,"Ġngáº¡c":3933,"Æ°á»Ľt":3934,"ron":3935,"ĠPrem":3936,"ĠBÃ¡":3937,"sinh":3938,"ĠThÃ¡ng":3939,"aly":3940,"ĠCSÄĲT":3941,"ela":3942,"ĠbáºŃn":3943,"ĠkhÃ³i":3944,"Ġdá»¡":3945,"anmar":3946,"ĠmÆ°á»£n":3947,"Ġxá»ī":3948,"TA":3949,"ĠÃļc":3950,"Ġbá»ķng":3951,"ix":3952,"Ġdá»Ŀi":3953,"Giáº£i":3954,"ĠBu":3955,"ost":3956,"Ġmá»ĵ":3957,"xin":3958,"ĠEr":3959,"ĠTráº¯ng":3960,"--":3961,"Ġthe":3962,"ĠMer":3963,"Xem":3964,"ĠDav":3965,"ĠHiá»ĩu":3966,"Ġlá»ĵng":3967,"cÃ³":3968,"ĠHÃ¬nh":3969,"ĠhÃ´i":3970,"Tháº¿":3971,"ĠPro":3972,"ĠParis":3973,"Ġtruyá»ĩn":3974,"Ġ46":3975,"Ġmáº£ng":3976,"ĠÃ¡m":3977,"ĠNa":3978,"PTNT":3979,"ĠHÃ£y":3980,"Lá»±c":3981,".âĢĿ":3982,"Ġkhoáº£nh":3983,"33":3984,"Ġhá»¥t":3985,"Ġcu":3986,"Tin":3987,"ĠTrÄĥng":3988,"ĠAd":3989,"entina":3990,"Ġruá»Ļng":3991,"ĠBHYT":3992,"Ġon":3993,"ica":3994,"01":3995,"lad":3996,"Ġsmartphone":3997,"Ġtá»įa":3998,"ĠBáº¡c":3999,"ĠBKS":4000,"ote":4001,"HÆ¡n":4002,"88":4003,"ĠPal":4004,"ĠPC":4005,"ThÃłnh":4006,"ink":4007,"ĠLee":4008,"ĠPet":4009,"ĠgiÃ¡n":4010,"ĠrÅ©":4011,"ĠXÃ´":4012,"ĠKr":4013,"ĠAFP":4014,"axy":4015,"Ġnáº¡i":4016,"ĠÄĲiá»ĥn":4017,"ary":4018,"ĠMÃ£":4019,"CV":4020,"Ġbá»įc":4021,"Ġá»©c":4022,"uc":4023,"ert":4024,"DI":4025,"ĠrÃ²ng":4026,"ola":4027,"xy":4028,"ThÃ":4029,"Ġ42":4030,"ĠMV":4031,"Bá»ĩnh":4032,"ĠBe":4033,"ĠLiÃªu":4034,"áº«m":4035,"ĠRob":4036,"Ġtháº¯t":4037,"ĠlÃ£o":4038,"Ġ2025":4039,"SG":4040,"á»ĳp":4041,"Ġkhá»©":4042,"ĠbÃ¡t":4043,"Ãºn":4044,"ĠMyanmar":4045,"Ġ47":4046,"Ġchai":4047,"ĠÄĲá»ĭa":4048,"Cáº£nh":4049,"Ġdá»Ļi":4050,"Ġráº£i":4051,"Khoáº£ng":4052,"Ġcháº©n":4053,"ĠDanh":4054,"ĠLÃ£nh":4055,"48":4056,"31":4057,"ĠÄĲá»ĵn":4058,"39":4059,"ĠCáº£ng":4060,"ĠHTX":4061,"Ġdá»ĳc":4062,"ĠSc":4063,"Ġnhá»Ł":4064,"PL":4065,"Ġbáº¿":4066,"BS":4067,"49":4068,"ĠPCCC":4069,"Ġgom":4070,"Ãºy":4071,"ĠmiÃªu":4072,"giá»Ŀ":4073,"ĠkhoÃ¡c":4074,"VÃł":4075,"ĠLon":4076,"Ġluá»ĵng":4077,"Ġthá»£":4078,"Ġ:":4079,"Ġdá»ĵn":4080,"cow":4081,"ĠthÃ¢m":4082,"Ġlá»ģ":4083,"Má»Ĺi":4084,"ros":4085,"Ġeuro":4086,"ĠbÃ´ng":4087,"Ġtá»±u":4088,"ĠBÃŃch":4089,"ark":4090,"he":4091,"tre":4092,"Ġtrinh":4093,"ĠQuáºŃn":4094,"Ġ2030":4095,"65":4096,"HLV":4097,"Âł":4098,"Hoa":4099,"ana":4100,"ĠKiáº¿n":4101,"JC":4102,"TB":4103,"ĠHAGL":4104,"ĠTá»±":4105,"Ġngáº¯m":4106,"Ġmáº¡n":4107,"ĠMin":4108,"tainer":4109,"ĠTÃŃn":4110,"Ġquyáº¿n":4111,"ĠCháº¥p":4112,"Ġkáº¹t":4113,"ĠJong":4114,"ĠThiáº¿t":4115,"á»ĭn":4116,"ĠLáº¡t":4117,"ĠRá»ĭa":4118,"Chiáº¿c":4119,"Ġvá»īa":4120,"Chia":4121,"Ġtriá»ģu":4122,"ĠMay":4123,"Ġnháº«n":4124,"ĠÄĳÄ©a":4125,"ĠMat":4126,"ĠkhÃ©o":4127,"ĠsáºŃp":4128,"Ġá»ĳc":4129,"ĠPremier":4130,"Æ°á»¡i":4131,"ĠchÃªnh":4132,"tp":4133,"ĳc":4134,"ĠNhá»Ŀ":4135,"gentina":4136,"EO":4137,"á»įn":4138,"ĠngÃło":4139,"Ġbá»įn":4140,"Ġnháº§m":4141,"ĠmÃºa":4142,"Bá»ĭ":4143,"Æ°á»Łi":4144,"ĠNghiÃªn":4145,"ĠLondon":4146,"Ġlá»¥t":4147,"ĠdÃ²":4148,"tá»«":4149,"Ġmáº¿n":4150,"ĠmÅ©":4151,"ĠIII":4152,"ĠBiden":4153,"ĠAf":4154,"Ġnáº£y":4155,"ĠláºŃt":4156,"Ġlá»©a":4157,"let":4158,"LÃºc":4159,"ĠcÃºng":4160,"ED":4161,"Xe":4162,"ĠGDP":4163,"ĠnÃ¡t":4164,"ant":4165,"ĠSÆ°":4166,"Ġtiá»ĩm":4167,"ĠNATO":4168,"ĠchÃ©m":4169,"thÃ":4170,"Ġrá»±c":4171,"ĠLáº¡c":4172,"Ġgáº¯t":4173,"Ġ51":4174,"ĠBarca":4175,"ĠMoscow":4176,"ĠLáº¡ng":4177,"ĠTÆ°á»Ŀng":4178,"ĠFran":4179,"ĠsÃ¡u":4180,"IS":4181,"ÄĲoÃłn":4182,"ane":4183,"¯a":4184,"ino":4185,"ĠÄĲáº¡o":4186,"ĠgÃ£y":4187,"ĠÃºy":4188,"ĠPhÃ¹ng":4189,"TCP":4190,"ĠTop":4191,"Ġ49":4192,"NÃ³i":4193,"ĠKon":4194,"ĠCáºŃp":4195,"Ġ195":4196,"ĠGalaxy":4197,"ĠÄĳá»ĵi":4198,"//":4199,"má»Ļt":4200,"bum":4201,"05":4202,"Ġmá»ıng":4203,"32":4204,"Ġvá»£t":4205,"ĠHong":4206,"site":4207,"ĠÃĲ":4208,"Ġcontainer":4209,"ĠHonda":4210,"ĠKhÃª":4211,"ĠSte":4212,"Ġchinh":4213,"ĠÄĳá»ĩ":4214,"ĠRom":4215,"Ġnáº¿p":4216,"Ġ56":4217,"ĠlÃŃ":4218,"ĠÄĳáº§m":4219,"Ġ250":4220,"XX":4221,"Ġlong":4222,"celona":4223,"ĠBay":4224,",âĢ¦":4225,"ĠAT":4226,"otte":4227,"ĠlÃŃt":4228,"ĠChá»©ng":4229,"ĠÆ°a":4230,"ĠVKS":4231,"ĠTÃ´n":4232,"Thá»ĭ":4233,"ĠVH":4234,"Ġ41":4235,"ĠSao":4236,"ĠÄĲiá»ģn":4237,"%),":4238,"ĠGS":4239,"app":4240,"ĠÄĲan":4241,"CO":4242,"ĠAt":4243,"ose":4244,"ĠAg":4245,"ĠTrÃ¡i":4246,"ĠBal":4247,"ĠMon":4248,"Ġphun":4249,"ĠEd":4250,"Ġlá»ĳc":4251,"Ġ44":4252,"ĠThuáº¿":4253,"Tá»ĳi":4254,"old":4255,"ĠArgentina":4256,"ĠHiáº¿n":4257,"ĠxÃ¡ch":4258,"://":4259,"ÄĲÃł":4260,"ĠTw":4261,"ath":4262,"ĠsÆ°u":4263,"ĠMáº¹":4264,"ĠCal":4265,"ĠbÆ¡m":4266,"ĠEx":4267,"%)":4268,"Ġsá»£i":4269,"ĠMiss":4270,"ĠMá»Ľi":4271,"ĠÄĳáº¯c":4272,"ĠBen":4273,"Ġong":4274,"NA":4275,"USD":4276,"Cáº§n":4277,"ĠSen":4278,"Ġsan":4279,"ĠchÃ¢m":4280,"Ġnáº¥m":4281,"ĠSang":4282,"ĠlÆ°á»Ŀng":4283,"Ġtrá»Ļi":4284,"Cho":4285,"Ġchuá»Ļt":4286,"exico":4287,"ĠAlex":4288,"Ġkem":4289,"Ġxáº¡":4290,"QG":4291,"ies":4292,"biz":4293,"Ġvá»Ł":4294,"CÄĲ":4295,"urg":4296,",...":4297,"ĠMich":4298,"ĠVI":4299,"ChÆ°Æ¡ng":4300,"berg":4301,"Video":4302,"ĠNhung":4303,"OT":4304,"ĠGiÃ³":4305,"trong":4306,"ube":4307,"Ġ800":4308,"PC":4309,"ĠÄĳá»©t":4310,"ĠVÄĲV":4311,"Ġ95":4312,"ĠtÃŃm":4313,"ĠngÆ¡i":4314,"ĠsÃ©t":4315,"áº¹o":4316,"ĠTTXVN":4317,"Ġonline":4318,"ĠBÃ¡i":4319,"ĠViÃªn":4320,"ĠNÆ°á»Ľc":4321,"Ġhiáº¿p":4322,"ĠSch":4323,"Ġhot":4324,"ĠChá»£":4325,"ĠvÃ³c":4326,"ĠÄĳuÃ´i":4327,"ĠcáºŃy":4328,"ĠOs":4329,"ĠOn":4330,"ĠnÆ°á»Ľng":4331,"LÃ£nh":4332,"ĠDuyÃªn":4333,"ĠVTV":4334,"him":4335,"ĠÄĲÃłm":4336,"Ġcáº¯m":4337,"iá»ģng":4338,"NhÃ":4339,"Ġgay":4340,"BP":4341,"Ġdá»ĭu":4342,"ĠBang":4343,"ĠKong":4344,"ĠVFF":4345,"85":4346,"ano":4347,"ĠtrÃ¢n":4348,"ĠtrÃ¹m":4349,"ĠthoÃ¡ng":4350,"600":4351,"yl":4352,"Ġngá»±":4353,"Ġlá»Ļn":4354,"Nguyá»ħn":4355,"ĠchÃºa":4356,"ĠSal":4357,"ĠkhÃ©p":4358,"44":4359,"ĠMc":4360,"Ġtá»¥ng":4361,"Ġcai":4362,"ĠlÅ©y":4363,"ĠláºŃn":4364,"ĠToy":4365,"ĠlÃ´i":4366,"ĠtrÆ°á»£t":4367,"ĠSJC":4368,"Ġkhoan":4369,"ĠSon":4370,"Cuá»ĳi":4371,"77":4372,"ĠQuyá»ģn":4373,"oun":4374,"ĠPGS":4375,"ien":4376,"ĠCa":4377,"ÄĲáº§u":4378,"ÃĢ":4379,"lÃŃt":4380,"lines":4381,"Ġ2007":4382,"Ġcháº·ng":4383,"ics":4384,"ĠUS":4385,"ĠSun":4386,"Nga":4387,"ĠTham":4388,"orm":4389,"Ġvu":4390,"ott":4391,"Nghá»ĩ":4392,"»Ŀi":4393,"á»Ŀi":4394,"ĠSáº£n":4395,"ĠGiá»Ŀ":4396,"ghan":4397,"ĠArab":4398,"Ġ700":4399,"ĠWin":4400,"Ġxao":4401,"bia":4402,"ĠFC":4403,"ĠLáºŃp":4404,"ĠBN":4405,"ĠSá»¹":4406,"Ġhuyá»ģn":4407,"ĠlÃ¢n":4408,"An":4409,"Phá»":4410,"68":4411,"ĠEn":4412,"Ġ2000":4413,"ĠMexico":4414,"ĠBarcelona":4415,"ĠÄĳÃª":4416,"ĠCl":4417,"ĠTok":4418,"ĠWil":4419,"ĠtrÃ¢u":4420,"ĠcÆ°á»Ľc":4421,"ĠBS":4422,"Ġbá»Ĺng":4423,"ĠSe":4424,"ĠdÆ°a":4425,"ka":4426,"ĠmÃŃ":4427,"ĠÄĲiá»ĥm":4428,"Ġgáº¡ch":4429,"Ġtha":4430,"Ġ54":4431,"chester":4432,"Ġmá»Ŀ":4433,"Ġmáº»":4434,"Ġinch":4435,"800":4436,"Háº£i":4437,"ws":4438,"urinho":4439,"Cáº£":4440,"´i":4441,"itter":4442,"ĠbÃºt":4443,"ford":4444,"eria":4445,"Ġná»¥":4446,"ĠtrÃ¡ng":4447,"Gáº§n":4448,"ĠToyota":4449,"ghanistan":4450,"ĠlÆ°á»¡ng":4451,"ĠmÄĥng":4452,"DA":4453,"ĠTráº¡m":4454,"ĠMac":4455,"aul":4456,"ight":4457,"ÄĲiá»ĥm":4458,"LÃłm":4459,"ĠLá»ĭch":4460,"ĠCÃ¢u":4461,"PV":4462,"Ġhoáº¡i":4463,"ĠSH":4464,"Ġlá»¡":4465,"»©":4466,"á»©":4467,"ĠSÄ©":4468,"ĠCá»Ńa":4469,"ĠAirlines":4470,"ĠÄĳÃ¡y":4471,"CK":4472,"Ġim":4473,"ko":4474,"ĠmÃłng":4475,"Ġvs":4476,"Ġháº¯n":4477,"67":4478,"olf":4479,"ĠToÃ¡n":4480,"oáº¡n":4481,"Ġ85":4482,"ĠKiáº¿m":4483,"ĠNhÃ³m":4484,"gan":4485,"ĠTiáº¿ng":4486,"Nhá»":4487,"ThÃ¡i":4488,"ve":4489,"âĢĵ":4490,"ĠthÃ¡p":4491,"Ġtháº¥u":4492,"Ġngá»±a":4493,"Ġá»ĵn":4494,"Ġthá»į":4495,"Ġnháº¯m":4496,"Tham":4497,"ĠsÆ°Æ¡ng":4498,"Há":4499,"Há»":4500,"ata":4501,"ĠViettel":4502,"ĠÄĲÃ¡ng":4503,"ĠBá»ī":4504,"Ġ02":4505,"ĠAfghanistan":4506,"Ġhá»Ł":4507,"Ġtráº¯c":4508,"ĠTin":4509,"ĠPer":4510,"ĠDavid":4511,"ĠPhá»§":4512,"Ġrá»Ļn":4513,"ĠGroup":4514,"ive":4515,"omp":4516,"Ġsuá»ĳi":4517,"ney":4518,"ĠTre":4519,"ĠLÃł":4520,"ĠRa":4521,"ike":4522,"Ġ57":4523,".,":4524,"Ġwebsite":4525,"ÄĲÃ¡ng":4526,"DL":4527,"ĠchÃ¡n":4528,"uba":4529,"Ġsáº¡c":4530,"Ġáº¢":4531,"vent":4532,"ile":4533,"02":4534,"ĠÄĲÆ¡n":4535,"ĠOanh":4536,"eh":4537,"Ġbi":4538,"Ġ+":4539,"98":4540,"ler":4541,"Ġcáº¡n":4542,"Ġdá»ĩt":4543,"ear":4544,"ĠMá»įi":4545,"Ġ67":4546,"BÃłi":4547,"ĠHol":4548,"ĠTuyáº¿t":4549,"ĠHN":4550,"Ġphu":4551,"ĠXV":4552,"ĠnhÃŃ":4553,"ĠNHNN":4554,"combank":4555,"Ġphanh":4556,"ĠVal":4557,"ĠKá»¹":4558,"ris":4559,"me":4560,"Ġphiáº¿n":4561,")-":4562,"Táº¥t":4563,"ĠdÄ©":4564,"Ġ52":4565,"Ġbáº©n":4566,"Ġcay":4567,"Ġ63":4568,"ĠCB":4569,"¹m":4570,"ĠMÆ°á»Ŀng":4571,"ĠhÃ¡i":4572,"ÄĲá»ģ":4573,"tu":4574,"ternet":4575,"ives":4576,"khoáº£ng":4577,"Ġvoi":4578,"ĠXIII":4579,"§a":4580,"Ġhiáº¿u":4581,"Tá»ķ":4582,"Ġgá»ĳi":4583,"08":4584,"ĠlÄĥng":4585,"Ġpháº¿":4586,"ĠmÃ³ng":4587,"Lu":4588,"cm":4589,"Ġphe":4590,"Ġcá»ĵn":4591,"NhÃ¬n":4592,"ToÃłn":4593,"ĠsÃ¡p":4594,"ĠcÃłi":4595,"ĠxÃ´":4596,"ĠTM":4597,"ĠNhÆ°á»¡ng":4598,"EU":4599,"Ġmá»įc":4600,"Ġalbum":4601,"¥n":4602,"66":4603,"Tiá»ģn":4604,"ĠKháº¯c":4605,"Ġchip":4606,"ĠÄĳÃ¹a":4607,"Ġ58":4608,"Ġ64":4609,"NhÃ³m":4610,"khá»":4611,"Ġmen":4612,"ĠÃ´n":4613,"The":4614,"ĠTrÃ¬":4615,"ĠmÃły":4616,"ĠTum":4617,"ĠLÄĲLÄĲ":4618,"NháºŃt":4619,"phÃ":4620,"ĠTwitter":4621,"ĠTrÆ°ng":4622,"ari":4623,"Ġchanh":4624,"Ġmm":4625,"ĠÆ¡i":4626,"ĠMÃ´n":4627,"Chiáº¿n":4628,"hÃŃch":4629,"Ġngá»Ļt":4630,"TáºŃp":4631,"ĠBer":4632,"Ġde":4633,"nham":4634,"Ġtáº©y":4635,"ĠCá»Ńu":4636,"ĠTV":4637,"ĠMod":4638,"Ġbáº£y":4639,"Ġ68":4640,"ĠÄĳá»įng":4641,"ĠTokyo":4642,"alo":4643,"%).":4644,"ounce":4645,"ĠbÆ°á»Ľ":4646,"Ġnháº¡t":4647,"Ġhi":4648,"ĠHam":4649,"ĠCuá»ĳi":4650,"Ġbáº¯p":4651,"ĠKCN":4652,"ĠlÄĥn":4653,"ĠxÆ¡":4654,"ox":4655,"ĠVen":4656,"ĠCor":4657,"700":4658,"ĠHÄĲXX":4659,"za":4660,"ĠGeo":4661,"tá»īnh":4662,"ĠcÃ³c":4663,"ĠCÆ°Æ¡ng":4664,"Ġná»ĵi":4665,"Ġmáº¯m":4666,"ĠlÃµi":4667,"Ġoxy":4668,"ĠKar":4669,"ĠnháºŃu":4670,"ĠgÅ©i":4671,"ĠMor":4672,"ĠquÃ£ng":4673,"Ġdá»«a":4674,"Æ¯á":4675,"Æ¯á»":4676,"ĊĊ":4677,"ĠMourinho":4678,"Ġ2006":4679,"ĠkhÃ¡nh":4680,"Ġthá»ķi":4681,"roid":4682,"2010":4683,"NQ":4684,"ĠKhoáº£ng":4685,"ĠLáº¡p":4686,"eon":4687,"ĠÄĳuá»ĳi":4688,"ĠcÃ¡p":4689,"td":4690,"ĠcÃºm":4691,"Ġ98":4692,"ĠVy":4693,"43":4694,"Ġbá»ĥ":4695,"AN":4696,"ĠCTCP":4697,"ĠchÃ¨":4698,"ĠSaudi":4699,"Ġchuá»ĳi":4700,"ĠManchester":4701,"ĠBáº¥t":4702,"ĠAFF":4703,"ĠLÃłm":4704,"ĠQuáº¿":4705,"ĠChÆ°a":4706,"ĠDel":4707,"Thu":4708,"Ġdá»Ł":4709,"Ġmanh":4710,"Ġtá»±a":4711,"42":4712,"Khá»":4713,"Ġinternet":4714,"outh":4715,"ĠRáº¥t":4716,"ottenham":4717,"Ġváº¡n":4718,"07":4719,"Ġká»ģ":4720,"ĠItaly":4721,"ĠdÃ¡n":4722,"ĠÃĶ":4723,"ĠngÃ³n":4724,"HÃłnh":4725,"HO":4726,"Ġháº¡m":4727,"PP":4728,"ĠxÃ´ng":4729,"Há»įc":4730,"Ġhang":4731,"Ġtháº¯n":4732,"ĠnÃ£":4733,"ĠÄĲÃ£":4734,"ĠHe":4735,"ĠÄĳÃłnh":4736,"ĠUA":4737,"car":4738,"ĠTráº¡ch":4739,"Ã©n":4740,"Ba":4741,"ovic":4742,"Ġpr":4743,"eth":4744,"ĠbÃ¡ch":4745,"Ġtáº§n":4746,"Ġrá»§":4747,"ĠGiÃ¡p":4748,"ĠKhá»ĳi":4749,"ĠdÅ©ng":4750,"ĠMas":4751,"ĠDai":4752,"Ġtháº§m":4753,"ĠÄĳá»Ľn":4754,"bao":4755,"ÄĲÃ£":4756,"BÃŃ":4757,"ĠBÄĲS":4758,"ĠxÆ°ng":4759,"ael":4760,"mer":4761,"ĠNhu":4762,"ĠhÃ£i":4763,"ĠHiá»ĥn":4764,"ĠVP":4765,"ĠFed":4766,"ena":4767,"ind":4768,"Ġná»Ľi":4769,"ĠBOT":4770,"ĠMark":4771,"Báº£n":4772,"ĠCuba":4773,"VÄĥn":4774,"ĠÄĳÃ²n":4775,"Ġnáº¡p":4776,"Ġkhoai":4777,"CA":4778,"ial":4779,"ĠTá»ĳi":4780,"ĠÄĲá»ĳng":4781,"Há»į":4782,"Ġchuá»Ļng":4783,"ĠVan":4784,"ĠÄĳÃºc":4785,"Ġcá»ĳc":4786,"Ġ72":4787,"Lá»ħ":4788,"ĠHÃ¡n":4789,"97":4790,"06":4791,"ĠCÄĲV":4792,"ĠYou":4793,"Ġkhe":4794,"ĠThay":4795,"Ġshowbiz":4796,"Ġ53":4797,"TÄĥng":4798,"Ġkiá»ĩt":4799,"Ġráº¡p":4800,"41":4801,"Ġá»Ľt":4802,"Ġkhá»Ń":4803,"Ġkiá»ģu":4804,"Ġdáº£i":4805,"áº»o":4806,"ĠMus":4807,"ĠHIV":4808,"ĠWal":4809,"ĠvÃłnh":4810,"ĠUB":4811,"TW":4812,"ĠVÃŃ":4813,"ĠngÃ´":4814,"ĠhoÃłnh":4815,"ĠHCV":4816,"ĠcÃºp":4817,"DN":4818,"Ġ66":4819,"ĠngÃ¢m":4820,"ĠBÃ¡ch":4821,"ĠATGT":4822,"IM":4823,"ĠPak":4824,"ond":4825,"CÃ¢u":4826,"ĠKhang":4827,"ura":4828,"Ġxi":4829,"Tráº£":4830,"ide":4831,"¨ng":4832,"Ġrá»ĥ":4833,"ĠchÃ©p":4834,"ova":4835,"ĠNiÃªn":4836,"Ġcar":4837,"ĠAndroid":4838,"ĠFDI":4839,"ĠPháº£i":4840,"Ġoan":4841,"itco":4842,"ĠThÃ¢n":4843,"Nhiá»ĩt":4844,"LÃ½":4845,"HS":4846,"ĠTimes":4847,"Ġá»ĳm":4848,"Ġ99":4849,"iel":4850,"Ġgá»¥c":4851,"ĠEuro":4852,"ĠhÆ°á»Ľc":4853,"ala":4854,"»µ":4855,"TTg":4856,"á»µ":4857,"ĠHÃ´m":4858,"ON":4859,"ĠKÃ´ng":4860,"Ġchá»Ń":4861,"Báº¯t":4862,"ĠNÃ³i":4863,"ĠNhÃ£":4864,"ĠXanh":4865,"Ġranh":4866,"Diá»ħn":4867,"ĠxÃ´n":4868,"ĠÃło":4869,"Thay":4870,"BÃ¡c":4871,"09":4872,"ĠXe":4873,"ĠchÄĥng":4874,"ĠCáº¥p":4875,"Ġ1990":4876,"ĠTriá»ĥn":4877,"atar":4878,"tÆ°Æ¡ng":4879,"ish":4880,"oft":4881,"Ġand":4882,"Ġhiá»ĥn":4883,"»«ng":4884,"á»«ng":4885,"BN":4886,"ĠVáº¡n":4887,"phÆ°á»Ŀng":4888,"HoÃłng":4889,"Ġlá»Ļi":4890,"ĠgÃ¡c":4891,"ĠBÄĲBP":4892,"GiÃ¡m":4893,"ĠmÃ²":4894,"ĠkÃ©p":4895,"Ġphiá»ģn":4896,"ĠAN":4897,"ĠDÆ°á»£c":4898,"ĠSport":4899,"ith":4900,"Ġsoi":4901,"ĠTháº§n":4902,"aoke":4903,"by":4904,"Ġdá»ĵi":4905,"ĠtÆ°á»Ľc":4906,"03":4907,"Ġtour":4908,"Ġ59":4909,"ĠSÃ¡u":4910,"....":4911,"ĠLig":4912,"Ġ05":4913,"ĠVlad":4914,"ĠHD":4915,"Ġao":4916,"Ġdá»ĳi":4917,"Ġbá»Ļi":4918,"Ca":4919,"Ġbá»Ļc":4920,"Ġ2005":4921,"ner":4922,"ªnh":4923,"ĠxÃł":4924,"ĠluÃ¢n":4925,"ĠthÃ¡nh":4926,"ĠnghiÃªng":4927,"ĠÄĳá»¥ng":4928,"een":4929,"Ġtháº¥m":4930,"ĠGl":4931,"ĠSol":4932,"Há»ĵ":4933,"ĠIV":4934,"hop":4935,"ĠxÃ¡":4936,"ĠchÃ´n":4937,"DÆ°á»Ľi":4938,"ĠLib":4939,"ChÆ°a":4940,"ĠKá»·":4941,"Ġná»©t":4942,"á»ĭt":4943,"Ġkiá»ģm":4944,"rl":4945,"pr":4946,"ĠVá»ĭnh":4947,"ĠChiáº¿c":4948,"Tuá»ķi":4949,"ĠLá»¥c":4950,"ĠhoÃłi":4951,"Cá»¥c":4952,"ĠMilan":4953,"men":4954,"Ġtá»ĵi":4955,"ach":4956,"Ġmá»¥n":4957,"Ġráº½":4958,"ĠNLÄĲ":4959,"ĠgÃ£":4960,"ĠÄĳáº¯n":4961,"ĠBÄĥng":4962,"ĠgiÃłn":4963,"ÃĶ":4964,"ttp":4965,"Báº£o":4966,"Ġloa":4967,"ĠngÆ°ng":4968,"ĠNTM":4969,"Ġ62":4970,"ĠHÆ°á»Ľng":4971,"ĠViáº¿t":4972,"sh":4973,"Ġkar":4974,"ĠTá»·":4975,"ĠnÃ´n":4976,"ĠBayern":4977,"ĠCháº³ng":4978,"VOV":4979,"ĠcÃ´n":4980,"ĠMic":4981,"err":4982,"ure":4983,"Ġhttp":4984,"DÃ¢n":4985,"TÃłu":4986,"ĠMá»¥c":4987,"Ġcua":4988,"ĠJack":4989,"ĠTottenham":4990,"GB":4991,"Chi":4992,"ĠsÃºc":4993,"Ġtháº¯c":4994,"ja":4995,"Ká»ĥ":4996,"ĠGre":4997,"ĠKhai":4998,"Ġeo":4999,"ĠNÄĥng":5000,"Ġlá»Ļc":5001,"ĠChiá»ģu":5002,"ania":5003,"Ġtuyáº¿t":5004,"Ġcong":5005,"Ġtrá»ħ":5006,"Ġmá»Ļng":5007,"2025":5008,"ational":5009,"AP":5010,"ĠPhá»ķ":5011,"âĢĿ;":5012,"que":5013,"ĠChÃº":5014,"ĠGrand":5015,"wood":5016,"theo":5017,"ĠLáº§n":5018,"ĠDiá»ĩu":5019,"»ı":5020,"á»ı":5021,"ĠbÃłng":5022,"ĠTuá»ķi":5023,"ĠÄĳoan":5024,"Ġst":5025,"enz":5026,"ĠPSG":5027,"ny":5028,"ĠDon":5029,"ĠtÃª":5030,"Ġláº·n":5031,"oll":5032,"Ġ110":5033,"ĠFI":5034,"TÆ°Æ¡ng":5035,"bon":5036,"Ġhoáº¡n":5037,"ga":5038,"ĠNÃªn":5039,"ĠÄĲBQH":5040,"ÄĲÆ°á»Ŀng":5041,"ĠHuÃ¢n":5042,"ĠMTV":5043,"HN":5044,"Ġdáº¹p":5045,"Ngh":5046,"ĠmÃ¨o":5047,"ĠKháº£i":5048,"ĠVic":5049,"ventus":5050,"ĠEVN":5051,"ĠCung":5052,"ĠxÃŃch":5053,"Ġbáº¥m":5054,"63":5055,"ake":5056,"imir":5057,"les":5058,"Ġ03":5059,"ĠMá»©c":5060,"ĠFPT":5061,"Ġrá»ī":5062,"ĠXuáº¥t":5063,"Ġthoáº£ng":5064,"TÃłi":5065,"ĠCá»©":5066,"ĠCEO":5067,"Há»ĩ":5068,"ĠLo":5069,"ĠAngel":5070,"GP":5071,"ĠBel":5072,"Ġchá»Ńi":5073,"ĠGÃ²":5074,"Ġghen":5075,"ĠChar":5076,"Ĥn":5077,"ĠhÃł":5078,"ĠbuÃ´ng":5079,"iev":5080,"57":5081,"ĠTiÃªu":5082,"ĠNhÃ¬n":5083,"Ġdáº¡o":5084,"gh":5085,"cho":5086,"Ġhá»ĳ":5087,"HÃ£y":5088,"Ġláº¯c":5089,"Ġngoan":5090,"ĠVKSND":5091,"tÄĥng":5092,"ĠPakistan":5093,"ĠphÆ¡i":5094,"rist":5095,"ĠHan":5096,"ĠVND":5097,"ĠlÆ¡":5098,"Ġhiá»ģn":5099,"Ġrung":5100,"LC":5101,"ĠTráº¥n":5102,"Ġ61":5103,"PhÆ°Æ¡ng":5104,"uz":5105,"rosoft":5106,"ĠTráº»":5107,"ĠVá»ĭ":5108,"Ġthá»ĭnh":5109,"ĠSk":5110,"52":5111,"ĠUyÃªn":5112,"69":5113,"áº·m":5114,"RiÃªng":5115,"ĠkhoÄĥn":5116,"Ġvá»ĭt":5117,"Ġ09":5118,"Vá»«a":5119,"ĠId":5120,"Æ¯T":5121,"ĠTR":5122,"ĠthÆ°a":5123,"ĠcháºŃt":5124,"yd":5125,"uss":5126,"ĠBlack":5127,"Ġkaraoke":5128,"ĠkhÃ¡i":5129,"ĠTÆ°Æ¡ng":5130,"ĠBáº£y":5131,"ĠlÃ¹ng":5132,"ĠChuyÃªn":5133,"ww":5134,"edia":5135,"ĠVladimir":5136,"QuÃ¡":5137,"Báº¥t":5138,"urn":5139,"ĠtÃºng":5140,"MW":5141,"ĠlÃ©o":5142,"iano":5143,"ĠhÃ²n":5144,"ĠBá»ĭ":5145,"'s":5146,"Ġsá»¥p":5147,"ĠBá»ĳ":5148,"akh":5149,"Ġláº·p":5150,"ĠPa":5151,"KH":5152,"Quan":5153,"Doanh":5154,"illa":5155,"ĠTal":5156,"ĠmÃ²n":5157,"ĠSiÃªu":5158,"Ġhá»įng":5159,"ĠGáº§n":5160,"ĠKiá»ĩt":5161,"ĠTuáº§n":5162,"Hu":5163,"CÄĥn":5164,"ced":5165,"ĠCT":5166,"Ãªnh":5167,"ĠKy":5168,"Ġa":5169,"Ġnháº·t":5170,"ĠtrÄĥng":5171,"ade":5172,"ĠGiÃ¡ng":5173,"Ġ78":5174,"IN":5175,"eta":5176,"Pháº§n":5177,"Ã©c":5178,"ĠLHQ":5179,"ĠDiá»ħm":5180,"ĠmÃ¡":5181,"Ġcá»įc":5182,"ĠrÃ¡p":5183,"Ġlives":5184,"Ġthá»§ng":5185,"Ġcá»Łi":5186,"ĠUtd":5187,"Ġráº¯c":5188,"ĠMÃ´ng":5189,"ĠdÃ£y":5190,"su":5191,"ĠBank":5192,"Ġnho":5193,"ĠBTC":5194,"ĠlÃ¡t":5195,"TráºŃn":5196,"»Ĺ":5197,"á»Ĺ":5198,"HC":5199,"etro":5200,"ĠVÃ¹ng":5201,"ĠbÄĥn":5202,"Máº·t":5203,"ĠthiÃªng":5204,"PhÃŃa":5205,"ĠquÃ¡i":5206,"ĠMá»Ļc":5207,"Ġsen":5208,"ĠkhÃ´n":5209,"HÃ£ng":5210,"ĠViá»ħn":5211,"ĠSN":5212,"ĠSup":5213,"SCL":5214,"ĠháºŃn":5215,"ĠJe":5216,"Ġvá»įt":5217,"ĠOr":5218,"Ġvá»Ľt":5219,"MC":5220,"Kho":5221,"ĠTX":5222,"per":5223,"Ġbar":5224,"Ġax":5225,"ĠTháº¥y":5226,"Ġmá»Ļc":5227,"ĠCap":5228,"Ġnhá»įn":5229,"ĠTp":5230,"iforn":5231,"ĠQuyÃªn":5232,"LuáºŃt":5233,"ĠHáº§u":5234,"aka":5235,"ĠGen":5236,"wn":5237,"92":5238,"ĠUN":5239,"ward":5240,"Ġtháº¡ch":5241,"Ġthá»ģm":5242,"ĠSá»©c":5243,"PhÃ²ng":5244,"Ġ2004":5245,"ĠBID":5246,"tra":5247,"Trang":5248,"Ġdáº¡i":5249,"Song":5250,"use":5251,"ĠMun":5252,"ifornia":5253,"ĠKhÆ°Æ¡ng":5254,"ĠQuÃ¡n":5255,"Lá»ĭch":5256,"04":5257,"Ġgiá»įt":5258,"Ġtá»ĳng":5259,"ĠHNX":5260,"ĠQuÃ¡":5261,"atch":5262,"ÄĲÃ¡nh":5263,"are":5264,"thÃ¹ng":5265,"ren":5266,"Ġj":5267,"iu":5268,"TH":5269,"lu":5270,"ĠtÆ°á»Ľi":5271,"78":5272,"ĠSeoul":5273,"¹i":5274,"Ġkhuy":5275,"Ġcáº¯n":5276,"erry":5277,"ĠÄĳÃ´n":5278,"ĠÄĳáº±ng":5279,"ĠWest":5280,"Ġtá»ıi":5281,"ĠlÃ¡ng":5282,"Ar":5283,"ĠJames":5284,"ĠHÃ£ng":5285,"wei":5286,"Ġbá»į":5287,"Ġ92":5288,"Ġsiáº¿t":5289,"Ġmi":5290,"ĠSÃ¢n":5291,"ĠtÃ¡ng":5292,"Ġngáº·t":5293,"ors":5294,"ĠHÃłm":5295,"oth":5296,"ĠQH":5297,"MÃ¡y":5298,"Ġchay":5299,"Ġbá»ĵn":5300,"itcoin":5301,"over":5302,"ĠÃģo":5303,"thuá»Ļc":5304,"ĠBÃ³ng":5305,"Ġthá»Ńa":5306,"ĠMob":5307,"ĠlÆ°á»¡i":5308,"NTÄĲ":5309,"Ġngu":5310,"ĠDaily":5311,"ĠOnline":5312,"mua":5313,"ĠArabia":5314,"Má»įi":5315,"ĠkÄ©":5316,"Danh":5317,"ĠPhÃ¹":5318,"ĠHua":5319,"ĠvÃ£":5320,"Ġman":5321,"ĠWe":5322,"ĠnhÆ°á»Ŀng":5323,"dar":5324,"ĠTrÃºc":5325,"Ġ88":5326,"ĠAI":5327,"ĠCalifornia":5328,"ĠKhanh":5329,"ĠNguyá»ĩt":5330,"62":5331,"Cáº§u":5332,"ĠHay":5333,"ĠJuventus":5334,"Ġvá»ĭnh":5335,"Máº¹":5336,"ÃĤ":5337,"ĠxÃ³t":5338,"ment":5339,"ĠItalia":5340,"Láº§n":5341,"port":5342,"mi":5343,"Ġ2003":5344,"ealand":5345,"ĠNo":5346,"ĠÄĲÃłn":5347,"yp":5348,"Ġtáº¡ng":5349,"ĠbÆ°á»Ľm":5350,"ĠÄĳáº¯ng":5351,"ĠGiá»Ľi":5352,"Quy":5353,"Ġson":5354,"ĠSai":5355,"PA":5356,"ts":5357,"ĠnÆ°Æ¡ng":5358,"ĠtÃ²":5359,"ĠghÃ©":5360,"ĠÄĲáº£o":5361,"ĠBuÃ´n":5362,"ĠChinh":5363,"__":5364,"Net":5365,"oss":5366,"58":5367,"ĠFord":5368,"burg":5369,"ĠNG":5370,"Ġrá»Ļ":5371,"undai":5372,"ER":5373,"Ġ69":5374,"ĠAli":5375,"ĠBlo":5376,"ĠCÃºp":5377,"ĠÄĳiÃªn":5378,"Giá»Ľi":5379,"ĠInst":5380,"Ġcuá»ĵng":5381,"Ġlui":5382,"otein":5383,"ĠvuÃ´ng":5384,"Ġkhoang":5385,"âĢĿ-":5386,"Ġrá»ĩt":5387,"ĠGuard":5388,"ĠJoe":5389,"ĠSw":5390,"ĠDáº§n":5391,"ĠKhÃ¡ch":5392,"ĠÄĳáº¡m":5393,"Ġxen":5394,"ĠZealand":5395,"ĠLÄĥng":5396,"Ġgiáº¿":5397,"ĠFIFA":5398,"Ġ130":5399,"Ġmá»ĵi":5400,"ings":5401,"ĠPhÃŃa":5402,"Ġ77":5403,"Ġtest":5404,"ĠRam":5405,"ĠÄĳáº¡c":5406,"Ġkhá»ĳc":5407,"ĠMÃ¹a":5408,"sky":5409,"uela":5410,"ĠxÃ´i":5411,"Ġngá»¡":5412,"ĠCAND":5413,"tream":5414,"oto":5415,"ym":5416,"agram":5417,"ium":5418,"Vá»£":5419,"Chuyá»ĩn":5420,"SI":5421,"ĠnÃ¢u":5422,"Ġnghiá»ĩt":5423,"ĠMicrosoft":5424,"seo":5425,"Ġkáº½":5426,"2009":5427,"ĠPan":5428,"TCK":5429,"ĠThÃªm":5430,"Ġdáº¡n":5431,"ĠTáº¡":5432,"lay":5433,"Ġneo":5434,"Ġtre":5435,"ĠmÃ¹ng":5436,"ĠthiÃªu":5437,"ĠÃĤm":5438,"Ġkáº¹o":5439,"ander":5440,"Ráº¥t":5441,"VC":5442,"ĠGP":5443,"ji":5444,"ĠchÃ©o":5445,"AD":5446,"rag":5447,"Ġ1992":5448,"Ġ180":5449,"ĠHÃ¢n":5450,"ĠmÃ¢m":5451,"MB":5452,"ĠKiev":5453,"áº¾":5454,"fe":5455,"ital":5456,"Há»ĵi":5457,"ezuela":5458,"khá»§ng":5459,"Æ°Æ¡m":5460,"ĠtÃ¹ng":5461,"ĠnhÃ¡t":5462,"72":5463,"Ġbáº¥y":5464,"ĠEver":5465,"ĠSl":5466,"ĠThÃ¡nh":5467,"ĠBÃłn":5468,"che":5469,"ĠCáºŃn":5470,"ĠGeor":5471,"cedes":5472,"ĠBus":5473,"ĠFor":5474,"Ġnhiáº¿p":5475,"Ľc":5476,"ĠGa":5477,"Ġsex":5478,"ĠLÄ©nh":5479,"NS":5480,"ĠxÃŃ":5481,"ĠQatar":5482,"ĠSil":5483,"ĠTuyáº¿n":5484,"Ġcháº£":5485,"Ġ04":5486,"ĠCÄĥn":5487,"ĠGT":5488,"lÃłm":5489,"Ġrao":5490,"Ġváº¡ch":5491,"oney":5492,"900":5493,"de":5494,"aco":5495,"NgÃ¢n":5496,"NÆ°á»Ľc":5497,"ĠAc":5498,"Ġgáº§m":5499,"ĠnÃ©n":5500,"any":5501,"54":5502,"Ná»Ļi":5503,"ĠvÆ°á»£ng":5504,"Ġ350":5505,"ĠmÃŃa":5506,"tá»©c":5507,"Thiáº¿u":5508,"64":5509,"dows":5510,"ĠXin":5511,"Ġno":5512,"':":5513,"ĠTom":5514,"ĠSouth":5515,"TÃ¢n":5516,"Tiáº¿n":5517,"QuÃ¢n":5518,"ĠXI":5519,"sa":5520,"ĠTrá»Ŀi":5521,"ChuyÃªn":5522,"Tá»·":5523,"ĠbÆ°á»Łi":5524,"Ġrá»ĵng":5525,"Ġlog":5526,"Ġvá»©t":5527,"yan":5528,"ĠquÃ¡t":5529,"MÃ¹a":5530,"cá»ķ":5531,"ĠbÃ¹n":5532,"ĠÄĲBSCL":5533,"Å©a":5534,"ĠTay":5535,"VáºŃy":5536,"way":5537,"ĠÄĳÃŃnh":5538,"ĠcháºŃu":5539,"ali":5540,"ĠCNTT":5541,"Ġlau":5542,"ĠthÃ¬a":5543,"ĠvÃº":5544,"Ġtáº·c":5545,"ĠTÃ¡m":5546,"Vietnam":5547,"ĠBi":5548,"ĠÄĳÃ¨":5549,"Ġgas":5550,"Nhá»Ŀ":5551,"Ġmá»ĭn":5552,"ĠSerg":5553,"ĠquyÃªn":5554,"Ġaxit":5555,"ĠTá»©":5556,"ĠxÃ¡t":5557,"Ġfacebook":5558,"andal":5559,"Ġviáº¿ng":5560,"ĠDiá»ĩp":5561,"ĠMu":5562,"Ġ76":5563,"ĠMáº¡ch":5564,"Ġtháº¯p":5565,"ĠhÃłn":5566,"ĠRá»ĵi":5567,"Ġquá»µ":5568,"Cá»±u":5569,"Ġgiá»ģng":5570,"Ġbuá»ĵng":5571,"Ġ1999":5572,"ĠmÆ°á»Ŀi":5573,"ĠGo":5574,"ĠÄĳá»ĩm":5575,"ĠÄĳáº¿m":5576,"my":5577,"ĠcÃłnh":5578,"aff":5579,"ĠChÃ¢n":5580,"59":5581,"ates":5582,"gon":5583,"ANTÄĲ":5584,"Ġcm":5585,"Ġngá»įc":5586,"ĠTÃ´ng":5587,"ĠKá»ĥ":5588,"ĠBol":5589,"ĠtrÄĥn":5590,"UV":5591,"ÄĲi":5592,"ĠnÃ²ng":5593,"att":5594,"ĠVenezuela":5595,"Ġ1995":5596,"abe":5597,"ĠKur":5598,"ĠÄĳá»ĳng":5599,"ĠSV":5600,"Äĳá":5601,"Äĳá»":5602,"áº»m":5603,"Minh":5604,"ĠYouT":5605,"ĠKhoáº£n":5606,"So":5607,"Ġprotein":5608,"ĠTháºŃt":5609,"ĠrÃ¡o":5610,"Ġngáº¥t":5611,"oz":5612,"ĠsÆ°á»Ŀn":5613,"hÃ³a":5614,"Ġháº¡ch":5615,"obot":5616,"sá»Ńa":5617,"¨m":5618,"ĠÃª":5619,"Ġgen":5620,"Ġemail":5621,"ĠKm":5622,"----":5623,"Ġvan":5624,"ĠNT":5625,"ance":5626,"ĠWar":5627,"Ġdáº·n":5628,"ĠÄĳiá»ģn":5629,"ĠKhÃŃ":5630,"etty":5631,"eymar":5632,"Ká»³":5633,"ele":5634,"ÄĲá»©c":5635,"UY":5636,"Man":5637,"igh":5638,"PhiÃªn":5639,"ÄĲÃªm":5640,"ĠAv":5641,"ĠShi":5642,"ĠthÃ¡m":5643,"ĠClin":5644,"ins":5645,"cÃ´ng":5646,"Vá»ĭ":5647,"ĠTNGT":5648,"ĠQuáº£":5649,"ĠLHP":5650,"ĠtrÃ¡n":5651,"ĠVictor":5652,"ĠMÃ¬nh":5653,"ĠVietcombank":5654,"ĠWindows":5655,"ĠNháºŃn":5656,"RO":5657,"Ġkhuáº¥t":5658,"ĠInstagram":5659,"ĠÃĤn":5660,"ĠHuawei":5661,"ĠkhiÃªu":5662,"Ġ900":5663,"ĠPhá»ĳ":5664,"táº¥n":5665,"our":5666,"ĠÄĲá»ı":5667,"Sinh":5668,"Ġ06":5669,"Ġkhao":5670,"Ġ2002":5671,"áº½n":5672,"ĠMÃ¡y":5673,"Ġ71":5674,"ĠSá»Ń":5675,"Ġdá»Ĺ":5676,"Ġváº·t":5677,"ĠHa":5678,"top":5679,"79":5680,"Quang":5681,"ĠPhiÃªn":5682,"yn":5683,"»¦y":5684,"á»¦y":5685,"lus":5686,"aya":5687,"ĠGar":5688,"ĠStar":5689,"Ġxá»ķ":5690,"Ġxoáº¯n":5691,"ĠkÃŃp":5692,"Ġngáº§n":5693,"we":5694,"Ġnghá»ĭch":5695,"ĠSL":5696,"Ġ81":5697,"BA":5698,"Æł":5699,"enc":5700,"Báº¯c":5701,"ĠdÃło":5702,"Ġgiáº¿ng":5703,"Äĥk":5704,"ĠCháº¥t":5705,"Ġmá»ī":5706,"Ġ73":5707,"Ġsc":5708,"ĠchiÃªn":5709,"ĠBIDV":5710,"ĠEs":5711,"Ġkhiáº¿p":5712,"ĠWilli":5713,"ĠOld":5714,"ĠTech":5715,"Ġká»ī":5716,"Ġ86":5717,"Ġham":5718,"Ġ1993":5719,"Ġgieo":5720,"ĠHolly":5721,"ĠLuÃ¢n":5722,"ĠKia":5723,"ĠIr":5724,"ĠChan":5725,"ÃĬ":5726,"Clip":5727,"ĠCATP":5728,"ĠMÃª":5729,"stan":5730,"Xuáº¥t":5731,"ony":5732,"ĠtÃ³m":5733,"ĠJose":5734,"amb":5735,"ĠCas":5736,"ĠAss":5737,"Quá»ĳc":5738,"náº¿u":5739,"ĠZing":5740,"Ġ79":5741,"Ġnáº¡":5742,"Ġcáº¥y":5743,"Ġgirl":5744,"ĠrÃ²":5745,"Pad":5746,"ĠÄĳáº·n":5747,"ĠSG":5748,"ĠRod":5749,"XÃ¢y":5750,"GiÃ¡o":5751,"chÃ":5752,"VTC":5753,"ĠLiga":5754,"ĠVáº¥n":5755,"Quyáº¿t":5756,"Ġ/":5757,"Ġgiáº·t":5758,"ĠTrÃ¢m":5759,"ĠYoung":5760,"Ġgolf":5761,"ThÃªm":5762,"?âĢĿ.":5763,"ĠPaul":5764,"Tu":5765,"ĠbÆ°u":5766,"»įng":5767,"á»įng":5768,"ĠThan":5769,"ĠKhuÃª":5770,"ThÆ°Æ¡ng":5771,"Ġ2001":5772,"ĠNÃºi":5773,"Ġ74":5774,"Ġ1997":5775,"tá»±":5776,"PG":5777,"ĠxÃ¡m":5778,"ĠNgÃłnh":5779,"ĠÄĳiÃªu":5780,"53":5781,"ĠhÃ©":5782,"ĠMichael":5783,"estine":5784,"ĠtÃ¡m":5785,"QL":5786,"ĠÄĲi":5787,"SCO":5788,"ĠcÃ²i":5789,"ĠBÆ°á»Ľc":5790,"ĠShin":5791,"Ġhao":5792,"Ġnáº¯p":5793,"Ġ08":5794,"ĠBig":5795,"Ġtháº±ng":5796,"ĠKT":5797,"Kim":5798,"ĠMÆ°á»Ŀi":5799,"Ġ82":5800,"NgÃ´i":5801,"Ġradar":5802,"HÃłn":5803,"ĠVá»ĩ":5804,"ĠsÆ°á»Ľng":5805,"áº¿ch":5806,"BÄĲ":5807,"ock":5808,"ĠDÆ°á»Ľi":5809,"ĠLÆ°á»£ng":5810,"Ġbáº«y":5811,"ĠPlus":5812,"ĠCNN":5813,"Ġná»ĳt":5814,"ĠHyundai":5815,"Nháº±m":5816,"chi":5817,"ĠNV":5818,"anc":5819,"ĠJon":5820,"TÃ¢y":5821,"ĠcÆ°ng":5822,"ĠAz":5823,"sá»ĳ":5824,"ĠRes":5825,"ĠxÄĥm":5826,"ĠChrist":5827,"letico":5828,"ĠbÃ³c":5829,"ĠMercedes":5830,"ĠlÃ³t":5831,"ull":5832,"ida":5833,"Pháº£i":5834,"erg":5835,"ski":5836,"ĠchuÃ´ng":5837,"Ġtia":5838,"ĠLÃ²":5839,"áºł":5840,"ĠlÃª":5841,"NLÄĲ":5842,"ale":5843,"ĠtrÃłng":5844,"ĠYouTube":5845,"ÄĳÃ£":5846,"ĠUAE":5847,"Ġ1994":5848,"ĠOp":5849,"ĠVáºŃt":5850,"Ġluá»Ļc":5851,"Iá":5852,"Iá»":5853,"ĠNSND":5854,"ĠOne":5855,"ĠÄĳÃ¨o":5856,"SA":5857,"Tá»Ŀ":5858,"Ġxáº»":5859,"enko":5860,"ĠGrab":5861,"ĠÄĲá»«ng":5862,"Huáº¿":5863,"Triá»ĥn":5864,"ĠvÄĥng":5865,"Ġchuá»ĵng":5866,"uel":5867,"Ġ?":5868,"ĠCÆ°":5869,"ĠVTC":5870,"ĠCom":5871,"Ai":5872,"ĠNSÆ¯T":5873,"Ġtáº¡":5874,"ĠThÃŃch":5875,"Ġnan":5876,"ĠTÃ½":5877,"Ġ1991":5878,"ĠxÃło":5879,"Ġnuá»ĳi":5880,"Ġháº»m":5881,"ĠMax":5882,"ĠdÃ©p":5883,"ĠNgá»į":5884,"2008":5885,"ĠkhÃŃa":5886,"ĠXi":5887,"ĠOm":5888,"ĠCá»ķng":5889,"ĠPalestine":5890,"ĠchiÃªm":5891,"ĠPat":5892,"Ġáº¡":5893,"Ġlá»ĳp":5894,"Ġbá»©t":5895,"ĠMiá»ģn":5896,"61":5897,"EM":5898,"89":5899,"Ġtá»ħ":5900,"its":5901,"ĠClinton":5902,"ĠBrun":5903,"HÄĲ":5904,"Má»¥c":5905,"Sao":5906,"ĠbÆ¡":5907,"Ġ87":5908,"Ġ1996":5909,"res":5910,"Kinh":5911,"ĠMunich":5912,"ĠkhiÃªm":5913,"Ġgai":5914,"ĠchÃ¬a":5915,"Ġ83":5916,"Ġquáº§y":5917,"ĠThá»©c":5918,"Ġgiang":5919,"ĠÄĳÅ©a":5920,"Ġlá»Ļt":5921,"ime":5922,"afford":5923,"Ġngháº½n":5924,"Ġgá»«ng":5925,"ect":5926,"nik":5927,"ĠLand":5928,"Ġnhá»©c":5929,"els":5930,"Ġ97":5931,"ĠNgá»¯":5932,"cÃ¡c":5933,"ĠmÃ¬n":5934,"ĠNor":5935,"ĠVua":5936,"ĠMB":5937,"ĠHung":5938,"ĠCÃ¡n":5939,"rol":5940,"van":5941,"ĠLi":5942,"ĠCá»ĳ":5943,"Ġ89":5944,"ĠTháº¥t":5945,"Ġquyá»ĥn":5946,"ĠLou":5947,"Ġcor":5948,"ribank":5949,"ĠTáº¡p":5950,"Ġrobot":5951,"lan":5952,"ĠnÃłn":5953,"EP":5954,"Ġ91":5955,"ĠJenn":5956,"HáºŃu":5957,"ĠVá»«a":5958,"national":5959,"ĠMel":5960,"ĠnghÃªnh":5961,"ml":5962,"Ġ1980":5963,"ust":5964,"Sáº£n":5965,"ĠFlor":5966,"ĠPhim":5967,"Ġkhan":5968,"ĠCro":5969,"uts":5970,"Ġgam":5971,"Ġá»§":5972,"ĠMáº«u":5973,"ĠLat":5974,"Ġtá»¥t":5975,"Ġ1998":5976,"uki":5977,"ĠvÃ¢n":5978,"ĠNov":5979,"ĠKhá»Łi":5980,"ĠvÄ©nh":5981,"zo":5982,"ishi":5983,"ĠHollywood":5984,"¥a":5985,"Ġnha":5986,"Ġlá»¯":5987,"ĠSá»Ńu":5988,"ĠTháº§y":5989,"ĠTrafford":5990,"ille":5991,"ĠCÃ¡":5992,"ĠTik":5993,"ĠKhuyáº¿n":5994,"chÆ°a":5995,"Ġxoa":5996,"chiáº¿m":5997,"Ġ96":5998,"ĠNgÃ´i":5999,"Ġ160":6000,"Ġ84":6001,"ĠRobert":6002,"ĠMart":6003,"Æ¯á»Ľc":6004,"cus":6005,"kok":6006,"TNO":6007,"Ġbáº¡":6008,"ival":6009,"įi":6010,"ĠvÃ¡n":6011,"ĠHarry":6012,"ĠphÃ¬":6013,"ome":6014,"Ġtam":6015,"ĠLá»¯":6016,"ĠÆ°á»Ľt":6017,"int":6018,"ĠtrÆ¡n":6019,"TháºŃt":6020,"istics":6021,"KhÃ¡ch":6022,"ĠRi":6023,"Ġá»¨ng":6024,"ĠND":6025,"ĠLáº¡i":6026,"ĠÃºt":6027,"ĠTri":6028,"erson":6029,"ĠÄĳun":6030,"ĠHá»Ĺ":6031,"Ġrong":6032,"ĠMÃ£o":6033,"ĠÄĳáº¯m":6034,"ĠNeymar":6035,"ĠghÃ©t":6036,"ĠWon":6037,"ĠáºŃp":6038,"ĠHoáº¡t":6039,"Ġquáº¡t":6040,"Ġkhuya":6041,"ĠlÃ¡nh":6042,"»ģn":6043,"á»ģn":6044,"ĠBÃ©":6045,"Ġ140":6046,"ĠbÃ³p":6047,"ĠNet":6048,"Ġam":6049,"Tháº¥y":6050,"ks":6051,"Ġhoi":6052,"ĠMot":6053,"Ngoáº¡i":6054,"erm":6055,"azon":6056,"ĠÄĲÃªm":6057,"ĠKu":6058,"Ġpháº³ng":6059,"ĠrÄĥn":6060,"ĠÄĳÃ¹i":6061,"ĠEa":6062,"eing":6063,"ĠJi":6064,"MS":6065,"bin":6066,"thÃłnh":6067,"ĠWilliam":6068,"TTP":6069,"áº¿m":6070,"ĠPH":6071,"ĠMe":6072,"ĠmÃłi":6073,"ĠLá»Ļ":6074,"ÃŃp":6075,"ĠNgÅ©":6076,"Ġbá»ĵ":6077,"ĠPep":6078,"ĠTinh":6079,"Phá»¥":6080,"ĠBitcoin":6081,"ĠRich":6082,"Ġgáº·t":6083,"ĠchÃ¨o":6084,"ĠÄĲen":6085,"ĠCÃºc":6086,"ThÆ°á»£ng":6087,"ĠPost":6088,"Ġkhoanh":6089,"Ġmini":6090,"tis":6091,"ĠGold":6092,"ĠLang":6093,"ĠVietin":6094,"Ġ1982":6095,"Ã¹y":6096,"ĠKo":6097,"ĠphÃ´":6098,"Nghá»ĭ":6099,"Ġváº¥p":6100,"LÃª":6101,"âĢ¦,":6102,"Ġnhá»Ļn":6103,"ĠÄĲáº¯c":6104,"ĠLibya":6105,"ĠGetty":6106,"ĠMÃ¹i":6107,"ella":6108,"ĠCá»±u":6109,"Ġchiáº¿t":6110,"ĠThuá»Ļt":6111,"Ngá»įc":6112,"aku":6113,"ĠxuÃ´i":6114,"Ġnáº¥y":6115,"SiÃªu":6116,"ĠhÃ©t":6117,"Giá»Ŀ":6118,"ĠHá»£i":6119,"Ġrá»ĳt":6120,"oshi":6121,"ĠJord":6122,"ĠHill":6123,"ÄĳÆ°á»Ŀng":6124,"ĠsÆ°ng":6125,"ĠTá»ĭnh":6126,"ĠRáºŃp":6127,"ĠQuá»·":6128,"ĠAtletico":6129,"ĠCha":6130,"ĠBor":6131,"aba":6132,"51":6133,"ĠÄĳan":6134,"ĠxÃ¬":6135,"itt":6136,"Ġkhá»ī":6137,"ĠHÃło":6138,"56":6139,"vi":6140,"ĠlÆ°á»Ľt":6141,"FTA":6142,"ĠInd":6143,"ĠSUV":6144,"ĠSuper":6145,"ĠÄĲÃ´i":6146,"Ġchá»įc":6147,"ragon":6148,"oli":6149,"ĠChiá»ĥu":6150,"Ġ(+":6151,"osa":6152,"Ġ1975":6153,"ĠVá»£":6154,"ernand":6155,"Ġchui":6156,"ĠRang":6157,"Ġlá»¥y":6158,"ĠMartin":6159,"ÄĲÆ¡n":6160,"Ġviá»ĩt":6161,"ĠCO":6162,"KV":6163,"ĠgáºŃy":6164,"ĠInternational":6165,"ĠPhÃ¢n":6166,"aria":6167,"ustin":6168,"ĠSÃ¡ch":6169,"Ġblo":6170,"ĠxoÃ¡y":6171,"ĠKS":6172,"ĠbÃ´i":6173,"Ġgu":6174,"ĠVol":6175,"ĠxÆ°á»Ľng":6176,"Ġset":6177,"Du":6178,"ĠCrim":6179,"ĠVÆ°á»Ŀn":6180,"CÃ¡i":6181,"ĠStr":6182,"ĠMÃł":6183,"TÃªn":6184,"ĠmÆ°Æ¡i":6185,"Ġ125":6186,"ĠSn":6187,"Ġsá»ıi":6188,"ĠSi":6189,"ye":6190,"Ġcá»Ĺ":6191,"ĠChuyá»ĩn":6192,"ĠOai":6193,"gia":6194,"ĠPu":6195,"OSE":6196,"ĠBMW":6197,"ĠBÆ°u":6198,"ĠJun":6199,"Ġláº«y":6200,"ĠTÃ¡o":6201,"ĠbÃ¡u":6202,"Ġlá»Ļng":6203,"ĠPhá»¥ng":6204,"eland":6205,"ÄĲá»ĭa":6206,"ĠXK":6207,"trÃ¡i":6208,"Ġ93":6209,"ĠchÃ¡o":6210,"ĠSHB":6211,"76":6212,"Ġcá»į":6213,"ĠCá»§":6214,"Ġthon":6215,"ĠAnton":6216,"ĠâĢ¦":6217,"ĠCáº£m":6218,"ĠBangkok":6219,"ÄĲÃºng":6220,"Ġbá»ī":6221,"ĠmÃ¡c":6222,"Ġsáº§u":6223,"ĠSLNA":6224,"Ġthá»ĳi":6225,"Al":6226,",âĢĿ":6227,"Ġcáº©u":6228,"ĠÃ¢u":6229,"ĠTMCP":6230,"ĠBarack":6231,"ĠCÃ¢y":6232,"Ġ1989":6233,"Ġtáº©u":6234,"low":6235,"PhÃ¡p":6236,"Ġ115":6237,"ĠCrimea":6238,"esh":6239,"ĠEur":6240,"ĠVina":6241,"out":6242,"ĠvÃ²":6243,"Ġlam":6244,"lá":6245,"lá»":6246,"ĠTráºŃn":6247,"ĠTá»Ľi":6248,"ĠÃºng":6249,"ĠColom":6250,"ĠiPad":6251,"Ġxay":6252,"CÃ¢y":6253,"Ġngá»ı":6254,"Tá»īnh":6255,"Ġchá»ĳn":6256,"ĠTháº©m":6257,"gg":6258,"ĠquáºŃt":6259,"ĠthÃ¨m":6260,"ĠUr":6261,"Ġ1988":6262,"Ġ07":6263,"esel":6264,"ega":6265,"ĠgiÃ²":6266,"so":6267,"ĠTD":6268,"Tráº§n":6269,"ĩn":6270,"FC":6271,"ĠÃªm":6272,"ĠlÃ¡ch":6273,"TrÆ°á»Łng":6274,"ĠVang":6275,"ĠNhuáºŃn":6276,"Ġná»Ļ":6277,"NgÃłnh":6278,"ĠKháº£":6279,"opa":6280,"ĠchÆ°ng":6281,"ThÃŃ":6282,"Äĳáº¡i":6283,"bÃ¡n":6284,"ĠÄĳá»ĳn":6285,"PhÃº":6286,"Ġdai":6287,"ĠThá»Ľi":6288,"ĠBlu":6289,"ĠbÃºn":6290,"ĠVII":6291,"bi":6292,"ĠCÃ´n":6293,"Váº¥n":6294,"Ġrá»ķ":6295,"isa":6296,"ĠÄĳinh":6297,"ĠBill":6298,"Ġtáº¥u":6299,"obal":6300,"ĠHal":6301,"TÃ¡c":6302,"ĠLÃłng":6303,"ĠCen":6304,"ĠSm":6305,"ĠtÃ¡t":6306,"ĠNat":6307,"TuyÃªn":6308,"ĠGiai":6309,"KhÃ¡nh":6310,"ĠVáº¥p":6311,"ci":6312,"ĠPol":6313,"ĠÄĳá»¥c":6314,"TO":6315,"ita":6316,"Ġthá»īnh":6317,"Ġngáº«u":6318,"ĠAmazon":6319,"!!":6320,"iban":6321,"BV":6322,"nÃ³ng":6323,"Thiáº¿t":6324,"ĠHÃ¨":6325,"nes":6326,"oid":6327,"73":6328,"Ġti":6329,"Wh":6330,"ĠChá»¯":6331,"ni":6332,"Ġmáº¯ng":6333,"ĠngÃłng":6334,"pper":6335,"Ġlá»¥a":6336,"ĠsÃłnh":6337,"CÃ¡":6338,"hip":6339,"ĠPo":6340,"!âĢĿ.":6341,"Ńng":6342,"Â²":6343,"ield":6344,"Ġgá»ĳm":6345,"ĠchÃ©n":6346,"ĠmáºŃp":6347,"Ġcorona":6348,"Ġtáº¥p":6349,"rov":6350,"Hiá»ĩp":6351,"ĠchÃ¹m":6352,"ĠOscar":6353,"ĠBloom":6354,"ĠTQ":6355,"mund":6356,"ki":6357,"ĠgiÃ´ng":6358,"ling":6359,"Ġngoáº¡n":6360,"Ġxáº¯n":6361,"Ġlung":6362,"ĠNÆ¡i":6363,"ĠAgribank":6364,"aki":6365,"ĠÄĲam":6366,"ĠAPEC":6367,"Ġdiá»ĩu":6368,"Phi":6369,"MP":6370,"ĠvÃ¡c":6371,"Bá»©c":6372,"ĠMag":6373,"Tuáº§n":6374,"Ġrá»¥i":6375,"Ġmáº¡":6376,")âĢ¦":6377,"ower":6378,"86":6379,"96":6380,"agen":6381,"press":6382,"Ġgáº¥u":6383,"ĠNghe":6384,"BTC":6385,"ÄĲá»Ļng":6386,"QS":6387,"ise":6388,"nhÃł":6389,"ĠÄĲÃºng":6390,"ĠLáº§u":6391,"LA":6392,"lie":6393,"ĠgiÃ²n":6394,"PGS":6395,"Ġráº«y":6396,"pa":6397,"ĠBÃ¢y":6398,"Tháº§y":6399,"ĠVNPT":6400,"ĠÄĲáº±ng":6401,"ĠMáºŃu":6402,"ĠTor":6403,"ĠnháºŃm":6404,"ĠBáº£ng":6405,"emen":6406,"ĠÃģi":6407,"Ġtem":6408,"osh":6409,"ĠRed":6410,"ĠsÃ¢m":6411,"tic":6412,"Tá»Ń":6413,"ric":6414,"ĠKi":6415,"udi":6416,"Ġruá»ĵi":6417,"aser":6418,"Ġchen":6419,"Ġdáº»o":6420,"Ġ2024":6421,"ĠJordan":6422,"eroin":6423,"ĠcÃ¡m":6424,"ÄĲB":6425,"ĠCáºŃu":6426,"ĠthÃª":6427,"ss":6428,"COP":6429,"ĠDam":6430,"ĠTÃ¡c":6431,"cá":6432,"azda":6433,"cá»":6434,"Ġbáº¡t":6435,"ĠLim":6436,"ĠDis":6437,"ĠIP":6438,"ĠWall":6439,"ĠRá»ĵng":6440,"acom":6441,"Ġser":6442,"ĠBoeing":6443,"amil":6444,"ĠbÃ©n":6445,"ĠLED":6446,"Ġscandal":6447,"ĠcÃ´i":6448,"Má»©c":6449,"ĠhÃ£m":6450,"Ġgáº¡t":6451,"ĠCR":6452,"ĠNghiÃªm":6453,"ĠVÃ²ng":6454,"ĠÃł":6455,"ĠLos":6456,"Ġ[":6457,"ĠKhÃ´i":6458,"ĠGaz":6459,"»Ĺng":6460,"á»Ĺng":6461,"Hoáº¡t":6462,"ivi":6463,"ĠchoÃ¡ng":6464,"SNN":6465,"ĠrÆ°á»Ľc":6466,"ĠYÃªu":6467,"Ġrá»¥ng":6468,"Ġá»§i":6469,"lah":6470,"ĠAsian":6471,"Ġmuá»Ĺi":6472,"anda":6473,"Kiá»ĥm":6474,"kov":6475,"ĠLÃ¢n":6476,"Bá»Łi":6477,"ĠÆ°á»Ľp":6478,"Ġ(-":6479,"ĠCu":6480,"ESCO":6481,"tion":6482,"GÄĲ":6483,"Ġhá»ĳt":6484,"Khá»Łi":6485,"ĠdÆ°ng":6486,"ÄĲá»«ng":6487,"Lá»£i":6488,"elle":6489,"ĠHáº£o":6490,"ĠlÃ©n":6491,"Ġquáº¥y":6492,"ĠÄĲá»ĵ":6493,"Ġ1986":6494,"ĠAbe":6495,"ĠIm":6496,"ĠCháº¿":6497,"74":6498,"ĠTho":6499,"ĠDa":6500,"ĠNgÆ°":6501,"ila":6502,"ogba":6503,"BÃ©":6504,"Ghi":6505,"ĠvÃ¡ch":6506,"Ġtáº£n":6507,"Báº±ng":6508,"Ġká»ĩ":6509,"ĠColombia":6510,"ĠÄĲÃ¡":6511,"ĠÄĲÄĥk":6512,"Ġcá»ĳi":6513,"ĠDani":6514,"Ġnguá»Ļi":6515,"ĠNote":6516,"Ġheroin":6517,"ĠlÃºn":6518,"âĢĿâĢ¦":6519,"Má»Ł":6520,"ĠSar":6521,"gr":6522,"ĠJin":6523,"Ġcuá»Ļn":6524,"ĠFA":6525,"ĠATM":6526,"ĠGB":6527,"ĠSA":6528,"ĠrÃ¡ch":6529,"ĠMaria":6530,"Chu":6531,"Ġrá»ħ":6532,"nhÆ°":6533,"ĠMoham":6534,"ĠKáº¡n":6535,"estival":6536,"83":6537,"ĠXIV":6538,"ĠTá»ĳ":6539,"ĠTrÃłng":6540,"ĠnhÆ°á»£c":6541,"ĠMed":6542,"ĠJer":6543,"Ġnhiá»ħu":6544,"ĠWHO":6545,"nhá»¯ng":6546,"PhÃºt":6547,"Ġsáº¥u":6548,"der":6549,"ĠCos":6550,"ppo":6551,"ĠTÃªn":6552,"ĠhÄĥng":6553,"ĠTae":6554,"ĠJohnson":6555,"SE":6556,"Truyá»ģn":6557,"ĠiOS":6558,"ĠTrá»±c":6559,"Xin":6560,"ĠÃļt":6561,"71":6562,"ĠsuÃ½t":6563,"ÄĳÆ°á»£c":6564,"IT":6565,"ortmund":6566,"MÃ¬nh":6567,"Ġnhá»¥c":6568,"siÃªu":6569,"Ġbong":6570,"Ġuá»ĳn":6571,"ĠÄĳáº¥m":6572,"Ġtriáº¿t":6573,"ĠRos":6574,"Ġkeo":6575,"chá»§":6576,"Ġ450":6577,"VT":6578,"ĠmÃ´ng":6579,"MA":6580,"ngá»¥":6581,"ĠDoÃ£n":6582,"ĠVHTT":6583,"Ġ1987":6584,"ĠtÆ¡":6585,"giáº£m":6586,"ĠNhÃ¬":6587,"ĠHÃ²n":6588,"ĠNhÃ¢m":6589,"ire":6590,"ĠGreen":6591,"ĠChÃºa":6592,"ĠCat":6593,"ĠFLC":6594,"Ġxáº¥p":6595,"ĠlÃ¬":6596,"ĠBÃ¡t":6597,"ĠLiá»ĩt":6598,"Giao":6599,"Ġbá»ĩ":6600,"82":6601,"Ġhttps":6602,"Ġsá»į":6603,"okia":6604,"Ġráº¡ch":6605,"91":6606,"ĠTaliban":6607,"ĠxoÃłi":6608,"Lo":6609,"ĠhÃ¡o":6610,"ĠSaigon":6611,"ĠBÃłng":6612,"Tok":6613,"ÄĲiá»ĩn":6614,"Ġpháº«n":6615,"84":6616,"ĠÄĲáºŃu":6617,"ĠKing":6618,"ĠANTT":6619,"ĠXÃ¡":6620,"ĠnÃ´":6621,"red":6622,"ĠHiá»ĥu":6623,"Thá»ĳng":6624,"ĠXem":6625,"Pháº¡m":6626,"TháºŃm":6627,"ĠLouis":6628,"atia":6629,"Lá»Ŀi":6630,"ĠNig":6631,"ĠPhÃ³ng":6632,"Ġgáº§y":6633,"ĠSim":6634,"Ġlogistics":6635,"ĠCanh":6636,"ĠBR":6637,"ĠXÆ°Æ¡ng":6638,"Ġná»©c":6639,"wa":6640,"ĠMáº¡c":6641,"ĠBern":6642,"ĠmÃŃt":6643,"air":6644,"ĠThom":6645,"ĠPle":6646,"Ã³p":6647,"ett":6648,"ĠGÃ³c":6649,"93":6650,"VÅ©ng":6651,"ĠhoÃ¡n":6652,"Má»Ŀi":6653,",\"":6654,"TÃ¬m":6655,"150":6656,"ĠTur":6657,"ĠBloomberg":6658,"ĠNgÆ°á»£c":6659,"ĠkiÃªng":6660,"ĠVÆ°á»£ng":6661,"ĠbÃ£":6662,"ĠHyun":6663,"ĠNáº¡n":6664,"ĠTuáº¥t":6665,"ĠhÃŃ":6666,"NghiÃªn":6667,"ĠDan":6668,"ĠxÃłi":6669,"ĠThÃ¬n":6670,"uck":6671,"ES":6672,"ĠLoáº¡i":6673,"arus":6674,"ĠmÆ°Æ¡ng":6675,"ĠQU":6676,"Ġ94":6677,"Ġcháº£o":6678,"ĠTa":6679,"ĠMur":6680,"Ġnuá»ĳt":6681,"cÆ¡":6682,"trÃº":6683,"ĠTel":6684,"Ġ220":6685,"MO":6686,"âĢ¦âĢĿ.":6687,"Háº§u":6688,"ĠphÃŃm":6689,"ody":6690,"Ġ170":6691,"ÃĿ":6692,"ĠVCK":6693,"Long":6694,"imes":6695,"ĠHáº¡t":6696,"ĠMail":6697,"VÅ©":6698,"xe":6699,"ence":6700,"lÃł":6701,"ider":6702,"Ġcá»Ľ":6703,"ĊĊĊ":6704,"iana":6705,"iola":6706,"94":6707,"Ġbáº©m":6708,"icester":6709,"utnik":6710,"Ġ1985":6711,"Ġ108":6712,"Ġbá»«ng":6713,"Ġná»ĥ":6714,"thá»ĭ":6715,"ĠDáºŃu":6716,"ĠMÃ³ng":6717,"Ġtá»ĳp":6718,"âĢ¦.":6719,"ĠQuÃ¡ch":6720,"Ġtáº¡t":6721,"gá»ĵm":6722,"ĠmuÃ´n":6723,"vel":6724,"bor":6725,"Ġdiá»ħu":6726,"DP":6727,"oC":6728,"ĠKurd":6729,"ĠCháº¥n":6730,"ĠHer":6731,"ĠSir":6732,"ĠVÄ©":6733,"ove":6734,"pháº£i":6735,")...":6736,"ĠJung":6737,"ĠvÃ¹i":6738,"eting":6739,"Ġchá»įi":6740,"sey":6741,"ĠKrÃ´ng":6742,"ĠMW":6743,"ĠTá»Ŀ":6744,"Ġhá»©c":6745,"Ġbik":6746,"dinh":6747,"Äĳi":6748,"ĠLá»Ľn":6749,"Ġxá»ĭt":6750,"ÄĲoáº¡n":6751,"Ġtrá»ĩ":6752,"ĠBin":6753,"ĠCrist":6754,"Ġtháº¡c":6755,"ĠLav":6756,"HÆ°á»Ľng":6757,"ĠPT":6758,"Ġhá»ķng":6759,"»ħ":6760,"ĠrÃ£":6761,"á»ħ":6762,"cast":6763,"Ġlá»į":6764,"ĠSE":6765,"ĠChÃ¹a":6766,"ĠliÃªng":6767,"Cá»©":6768,"ĠvÃ©t":6769,"zy":6770,"Ã©m":6771,"OC":6772,"Ġphao":6773,"ĠAsia":6774,"icron":6775,"rig":6776,"Ġdiesel":6777,"ker":6778,"ĠÄĲiá»ĩp":6779,"Ġbá»Ľi":6780,"ĠrÃ¢u":6781,"ĠAmer":6782,"ĠnhÃ´m":6783,"TrÃ¡i":6784,"Ġcanxi":6785,"Ġ...":6786,"TPO":6787,"Báº£ng":6788,"ĠUNESCO":6789,"Ġrá»Ľt":6790,"ÄĲH":6791,"ĠHoan":6792,"ĠVu":6793,"ĠBáº§u":6794,"exit":6795,"Ġáº¤":6796,"iku":6797,"ĠNav":6798,"Ġnáº£n":6799,"AI":6800,"Dá»ĭch":6801,"ene":6802,"page":6803,"ĠBÃ¡n":6804,"BiÃªn":6805,"Nghe":6806,"ĠvÃ²i":6807,"arm":6808,"ĠLiá»ĩu":6809,"Buá»ķi":6810,"ĠDinh":6811,"ĠLau":6812,"ĠRáº«y":6813,"HÃ²a":6814,"Ġmuá»Ĺng":6815,"Chá»©ng":6816,"ĠMH":6817,"Sá»©c":6818,"âĢ¢":6819,"ĠPogba":6820,"Ġráº¡n":6821,"ĠZh":6822,"ĠÄĲÃ´n":6823,"Ġtao":6824,"VÃ²ng":6825,"vo":6826,"ĠBur":6827,"kva":6828,"chá»ī":6829,"ĠNe":6830,"Ġá»©":6831,"Ġ105":6832,"phá»":6833,"ĠdÃ¬":6834,"be":6835,"ÄĤn":6836,"Triá»ģu":6837,"ĠGlobal":6838,"ĠHen":6839,"bra":6840,"ster":6841,"Ġáº¡t":6842,"ĠKe":6843,"ven":6844,"Ġcarbon":6845,"St":6846,"ĠMir":6847,"ĠMáº«n":6848,"tuáº§n":6849,"Phong":6850,"ĠÃ³c":6851,"Äĳá»ĳi":6852,"Ġ1970":6853,"ĠDortmund":6854,"Nghi":6855,"ĠHye":6856,"Ġnáº¡o":6857,"brid":6858,"ĠNguy":6859,"ĠPhÃºt":6860,"NamNet":6861,"eda":6862,"ĠPe":6863,"uez":6864,"Ġsá»«ng":6865,"Sáº½":6866,"ĠMoon":6867,"NÃ¢ng":6868,"XÃ£":6869,"ĠTáº¡o":6870,"Ġkhiáº¿m":6871,"BI":6872,"Ġláº©n":6873,"nay":6874,"arez":6875,"...,":6876,"Ġqui":6877,"Ġsexy":6878,"LÆ°u":6879,"phÃºt":6880,"Ġnhá»įc":6881,"Ġyáº¿n":6882,"ĠnÃ¡o":6883,"ĠTá»ĳng":6884,"ºp":6885,"tÃªn":6886,"ami":6887,"Fast":6888,"Ġac":6889,"ĠgiÃ£":6890,"Cáº·p":6891,"ĠÄĲá»ģn":6892,"ĠOCOP":6893,"ĠBÃ£i":6894,"ĠÄĲáº¿":6895,"ĠÄĳáº«m":6896,"ĠCM":6897,"imex":6898,"Ġphá»Ł":6899,"Ġmod":6900,"ĠgÃ³t":6901,"ĠAh":6902,"ĠRAM":6903,"BÃłn":6904,"Ġ1984":6905,"Ġbo":6906,"Máº«u":6907,"Ġkhang":6908,"Ġ00":6909,"ĠSev":6910,"ĠRT":6911,"utsal":6912,"87":6913,"ChÃº":6914,"Ġliveshow":6915,"uay":6916,"Ġmiá»ĩt":6917,"ife":6918,"XD":6919,"ĠDiÃªn":6920,"Bá»ĳ":6921,"ĠHÆ°á»Ŀng":6922,"Æ¯u":6923,"IDS":6924,"ĠnhÃ£":6925,"ĠTeh":6926,"ĠchÃ³t":6927,"ĠBáº¯t":6928,"ĠMazda":6929,"Ġtáº¡c":6930,"PhÃ³ng":6931,"»«":6932,"ĠNháº¡c":6933,"ĠtrÃªu":6934,"á»«":6935,"2007":6936,"ĠDÆ°":6937,"ĠHá»ıa":6938,"Ġthá»¥c":6939,"ĠthÃ²i":6940,"ĠBao":6941,"ĠcÃµ":6942,"ĠLG":6943,"ĠFrank":6944,"TÃ²a":6945,"pop":6946,"ĠSha":6947,"Ġthen":6948,"ĠÄĳu":6949,"nguyÃªn":6950,"Ġhit":6951,"ĠDr":6952,"ema":6953,"ĠMoskva":6954,"ĠSÃ©c":6955,"ĠQLTT":6956,"ĠTan":6957,"ĠYout":6958,"ĠBT":6959,"ĠBiáº¿t":6960,"ĠNic":6961,"ĠHOSE":6962,"Äĳiá»ĥm":6963,"ato":6964,"ĠbÃº":6965,"ĠGuardiola":6966,"Ġni":6967,"ĠkÃ¬m":6968,"ĠACB":6969,"Ġdang":6970,"ĠNik":6971,"Thi":6972,"Ġnhá»§":6973,"dogan":6974,"kho":6975,"Hy":6976,"ĠMÃ´":6977,"Ġnang":6978,"ĠSuá»ĳi":6979,"Ġtivi":6980,"ĠOmicron":6981,"ĠNSNN":6982,"ĠphÃł":6983,"Táº¿t":6984,"ĠVictoria":6985,"CÃ¡n":6986,"elen":6987,"vÃł":6988,"ĠHungary":6989,"ĠÄĳÃ²":6990,"ush":6991,"ĠJae":6992,"ĠNex":6993,"Cáº£m":6994,"Ġlen":6995,"ĠEV":6996,"ĠRON":6997,"ĠFin":6998,"ĠÄĲá»Ļc":6999,"ĠPhÆ°á»Ŀng":7000,"ĠThiÃªm":7001,"ĠAbd":7002,"cean":7003,"Ġ|":7004,"CL":7005,"ĠbÃ¬a":7006,"ĠTHA":7007,"ĠTÃ¬m":7008,"ĠhÆ°ng":7009,"YÃªu":7010,"ĠLHPN":7011,"ĠChÄĥm":7012,"Ġsáº¥y":7013,"ĠAFC":7014,"Ġvá»Ĺ":7015,"Ġdáº¥y":7016,"mail":7017,"ĠThÃŃ":7018,"ĠLin":7019,"ĠbÃªnh":7020,"Ġá»ĵ":7021,"ĠHun":7022,"ĠBL":7023,"ĠngÃ¢y":7024,"Ġngá»Ńa":7025,"Hay":7026,"ĠUSS":7027,"ĠlÅ©ng":7028,"ĠIreland":7029,"Ġnhuá»Ļm":7030,"ĠChÃºc":7031,"giáº£i":7032,"SV":7033,"ĠngáºŃm":7034,"oga":7035,"Ġgiáº·c":7036,"Ġbikini":7037,"aro":7038,"ĠMuá»ĳn":7039,"ĠFernand":7040,"Ġdáº·m":7041,"ĠBeck":7042,"ĠPlay":7043,"ĠDong":7044,"cÃ´":7045,"kin":7046,"EF":7047,"ĠBBC":7048,"iF":7049,"ĠMiura":7050,"ĠtÄĥm":7051,"ude":7052,"Vi":7053,"Ġmá»ĳt":7054,"kaku":7055,"gin":7056,"ius":7057,"ĠÃ¡":7058,"ĠTuyá»ģn":7059,"ĠSky":7060,"ĠVir":7061,"ĠInf":7062,"+)":7063,"Ġngháº¹n":7064,"ĠAndre":7065,"ign":7066,"ĠBelarus":7067,"ÄĲÃ´ng":7068,"ĠIl":7069,"ĠSC":7070,"kel":7071,"aptop":7072,"XB":7073,"ĠnhÃ¡i":7074,"ĠNm":7075,"ĠWat":7076,"Phim":7077,"ĠFl":7078,"cÃ¹ng":7079,"ĠSputnik":7080,"ĠBCH":7081,"ĠYemen":7082,"Ġsá»Łi":7083,"Kiáº¿n":7084,"ĠGeorge":7085,"ĠTehran":7086,"Ġngáº¡t":7087,"ĠLeicester":7088,"ĠComp":7089,"Náº¡n":7090,"uri":7091,"ĠKÃ½":7092,"thi":7093,"ĠNghiá»ĩp":7094,"ĠUber":7095,"ole":7096,"ĠFranc":7097,"Giá»¯a":7098,"ĠDj":7099,"ĠxÃ©":7100,"ĠVo":7101,"Ġbá»±c":7102,"ĠTrÃ¢n":7103,"ĠAngeles":7104,"ĠThomas":7105,"assage":7106,"XÃ©t":7107,"ixel":7108,"alk":7109,"\")":7110,"ĠphÃ¡c":7111,"LÃło":7112,"Ġnhuyá»ħn":7113,"ĠDÃ¹ng":7114,"ula":7115,"pt":7116,"ĠdÃª":7117,"ĠBrexit":7118,"ĠTCT":7119,"ĠKyo":7120,"Ġmiá»ĩn":7121,"ĠODA":7122,"ĠrÃ¹a":7123,"ĠWhi":7124,"ĠArt":7125,"ĠNhÃłn":7126,"ĠTPP":7127,"ĠTex":7128,"ĠÃ¡ch":7129,"mann":7130,"ĠIdol":7131,"Ġ128":7132,"ĠTuÃ¢n":7133,"ASA":7134,"ĠSGK":7135,"trÃªn":7136,"ĠIa":7137,"ĠBerlin":7138,"ThiÃªn":7139,"ĠLÃ´":7140,"ĠTikTok":7141,"phu":7142,"esla":7143,"ĠKrem":7144,"Ġnhá»ĭn":7145,"KCN":7146,"ĠgÃµ":7147,"Ġráº§m":7148,"Ġrun":7149,"á»ĩt":7150,"Ġná»į":7151,"Ġngoáº·t":7152,"mo":7153,"ĠÄĲá»Ŀi":7154,"LÃ¢m":7155,"ĠÄĳÃºp":7156,"PEC":7157,"Ġlá»Ŀ":7158,"Sh":7159,"Ġtháº£n":7160,"Ġ1983":7161,"kara":7162,"ĠthÃŃnh":7163,"Ġváº¯t":7164,"ĠDÄ©":7165,"Cháº³ng":7166,"Ġngá»©a":7167,"Káº¿":7168,"AC":7169,"dor":7170,"aceae":7171,"ĠRanh":7172,"ĠNokia":7173,"den":7174,"ĠChina":7175,"ika":7176,"Ġnhá»ĵi":7177,"Ġtháº¡o":7178,"ps":7179,"ĠJan":7180,".)":7181,"ĠKa":7182,"phi":7183,"ĠBro":7184,"Ġbá»įt":7185,"ĠCháº¯c":7186,"Trá»Ł":7187,"Ġháº£":7188,"ĠUÃ´ng":7189,"ĠMb":7190,"ĠnÃ³c":7191,"ĠnhÄĥn":7192,"ĠYoutube":7193,"treet":7194,"PhÃ¢n":7195,"lec":7196,"ĠSony":7197,"hÆ¡n":7198,"jet":7199,"ĠVÃłnh":7200,"Ġ=":7201,"ĠAC":7202,"ĠDie":7203,"ĠcÃºc":7204,"Ŀn":7205,"ĠCroatia":7206,"ifer":7207,"vÃ¹ng":7208,"ĠcÆ°á»£c":7209,"ĠRooney":7210,"81":7211,"ĠFestival":7212,"adi":7213,"US":7214,"ĠdÃ¨":7215,"ase":7216,"ago":7217,"qua":7218,"ĠCristiano":7219,"Ġchá»¯ng":7220,"ĠNiÃª":7221,"mit":7222,"ĠmÃ£nh":7223,"?âĢĿ":7224,"Váº«n":7225,"hiá»ĩn":7226,"ná»¯":7227,"Tá»±":7228,"ĠChile":7229,"Ġbá»ĭt":7230,"edan":7231,"ĠHÃ³c":7232,"issan":7233,"ĠhÃ´ng":7234,"ĠBos":7235,"TU":7236,"KhÃ³":7237,"»§":7238,"á»§":7239,"ĠModel":7240,"ĠNi":7241,"Ãµm":7242,"ĠNay":7243,"ĠKSND":7244,"Ġtá»¥y":7245,"XÃ¡c":7246,"Ġgiá»¥c":7247,"Ġ1979":7248,"jan":7249,"esterol":7250,"CCI":7251,"ĠAngela":7252,"aint":7253,"ury":7254,"Tráº»":7255,"Ġlogo":7256,"ĠÆ¯á»Ľc":7257,"Ġtrá»įt":7258,"ĠXÃª":7259,"ĠhÃŃt":7260,"ĠHaw":7261,"erb":7262,"ĠPleiku":7263,"ĠtÃł":7264,"cao":7265,"ĠTráº¡i":7266,"Chuyáº¿n":7267,"ĠkhoÃ¡i":7268,"ĠEURO":7269,"ado":7270,"BH":7271,"Ġsáº¯n":7272,"ĠYang":7273,"Ra":7274,"DÃ²ng":7275,"Tá»«ng":7276,"EN":7277,"Ġ1000":7278,"ĠÄĳáº£":7279,"ĠKremlin":7280,"du":7281,"Ġnhá»ĭ":7282,"ĠLá»Ŀi":7283,"oster":7284,"ĠHuáº¥n":7285,"Ġcáº©m":7286,"ĠTrÃ¬nh":7287,"ĠDub":7288,"ĠBÃ¨":7289,"itan":7290,"Sá»Ń":7291,"ati":7292,"Ġ(\"":7293,"HQ":7294,"ĠXá»Ń":7295,"field":7296,"ave":7297,"ĠNap":7298,"Ġviá»ģn":7299,"?\".":7300,"ĠCQ":7301,"ĠSX":7302,"Ġnhá»ĩn":7303,"fa":7304,"ĠMÅ©i":7305,"ĠLion":7306,"UB":7307,"ĠTÆ¯":7308,"ere":7309,"Ġgá»Ļp":7310,"ĠSel":7311,"ery":7312,"ĠNTK":7313,"ĠNad":7314,"ĠxÃ¡o":7315,"ĠMah":7316,"Ġli":7317,"won":7318,"ĠChÆ°":7319,"ĠCarl":7320,"ĠOcean":7321,"Ġ360":7322,"ĠbÃºp":7323,"ĠMong":7324,"Huyá»ĩn":7325,"ĠÄĤn":7326,"ilon":7327,"fi":7328,"ÃĬN":7329,"ĠlÃºng":7330,"ÄĲang":7331,"ÄĳÃ¡nh":7332,"ĠvÃ´i":7333,"Ġthá»ĳn":7334,"ĠAward":7335,"ĠKaz":7336,"Ġdáº¡t":7337,"ĠEverton":7338,"ĠCá»¥m":7339,"br":7340,"ĠSá":7341,"ĠSá»":7342,"ĠvÃłn":7343,"ĠChuyá»ĥn":7344,"Ġkháº¯t":7345,"Ġnguyá»ĩt":7346,"elli":7347,"ChÃ¢n":7348,"col":7349,"NHNN":7350,"Viá»ĩn":7351,"ĠFox":7352,"Mar":7353,"ĠAnkara":7354,"sá»±":7355,"ĠgÃ¢n":7356,"ĠnÃ³n":7357,"Khai":7358,"sau":7359,"ÃŃu":7360,"ĠST":7361,"ĠRáº¡ch":7362,"ĠKen":7363,"awa":7364,"ĠGiÃªng":7365,"IP":7366,"tro":7367,"appe":7368,"ĠgÃ²":7369,"ĠFab":7370,"Ġje":7371,"Ġthoa":7372,"Chung":7373,"ĠnÃªm":7374,"ĠMusk":7375,"ĠSerie":7376,"Tá»Ľi":7377,"HÆ°Æ¡ng":7378,"ĠSuz":7379,"ĠVá»¹":7380,"ĠDao":7381,"Ġxáº£o":7382,"Ġcalo":7383,"enger":7384,"ĠDO":7385,"rop":7386,"Ġlivestream":7387,"XuÃ¢n":7388,"ĠKhmer":7389,"KD":7390,"hai":7391,"Ġchá»Ľp":7392,"Cá»ķ":7393,"ĠCosta":7394,"ĠhÃ¡n":7395,"ĠThiá»ĩu":7396,"ĠtrÃ¹":7397,"ĠPhá»¥c":7398,"ten":7399,"ĠBTS":7400,"acombank":7401,"hÃłng":7402,"MÃ´":7403,"ĠTai":7404,"ĠgÃłng":7405,"TÄĲ":7406,"jaer":7407,"SÆ¡n":7408,"Ġsáº¿p":7409,"ĠÄĲTQG":7410,"rom":7411,"Ġthá»ı":7412,"ĠMáº¡ng":7413,"ĠGiá»įng":7414,"ĠCá»±c":7415,"aland":7416,"ĠSec":7417,"ĠVÃ´":7418,"DCND":7419,"ĠTesla":7420,"ĠVideo":7421,"Ġchá»£t":7422,"chiáº¿n":7423,"Ġtá»īa":7424,"Ġchol":7425,"WHO":7426,"Ġstr":7427,"amaha":7428,"ĠTC":7429,"Bar":7430,"ĠNoel":7431,"ĠMike":7432,"Ġháº¥u":7433,"lib":7434,"etsk":7435,"ĠGV":7436,"ĠTrÃ£i":7437,"ĠHag":7438,"ĠPháº£":7439,"ÄĲÃ´i":7440,"ĠKhÃ¡m":7441,"ĠHoáº·c":7442,"ĠsuÃ´n":7443,"ĠRodrig":7444,"Ronaldo":7445,"Ġnáº¿n":7446,"Ġliá»ħu":7447,"kÃŃp":7448,"ĠNáºŃm":7449,"Há»ĵng":7450,"ĠGPMB":7451,"GDVN":7452,"ĠChia":7453,"okovic":7454,"Ġquáº¿":7455,"ĠRap":7456,"Ġrock":7457,"ĠHari":7458,"ĠSand":7459,"ĠIntel":7460,"Ġmassage":7461,"Ġlaptop":7462,"NK":7463,"Ġcholesterol":7464,"Tuyá»ĥn":7465,"ype":7466,"ĠFlorida":7467,"Ġlá»±u":7468,"Ġquá»·":7469,"ĠÄĳao":7470,"Ġ)":7471,"Cao":7472,"ĠsÃło":7473,"skjaer":7474,"ĠMá»Ł":7475,"Ġgiáº±ng":7476,"Ġáº©u":7477,"itz":7478,"ĠTÆ°á»Łng":7479,"Ġtui":7480,"ĠTá»µ":7481,"Ġ1960":7482,"ĠcÃºi":7483,"ĠATTP":7484,"ves":7485,"rey":7486,"»¡":7487,"Ġtro":7488,"MU":7489,"ĠAlexander":7490,"ĠngÃłi":7491,"ĠGaal":7492,"dam":7493,"á»¡":7494,"ĠJones":7495,"NLÄĲO":7496,"láº§n":7497,"ĠbÃºa":7498,"Cl":7499,"Ãºm":7500,"CÃł":7501,"cá»§a":7502,"ĠgiÃ¡ng":7503,"ĠThá»ıa":7504,"http":7505,"ĠTexas":7506,"hot":7507,"ĠÄĲÃ¡nh":7508,"ĠErdogan":7509,"ĠcÃło":7510,"thu":7511,"ĠTuyá»ĥn":7512,"Quáº£":7513,"EFA":7514,"ĠXiao":7515,"imbank":7516,"ĠDÃ²ng":7517,"ĠChÄĥn":7518,"Ġká»µ":7519,"Ġ103":7520,"ĠBÃ´ng":7521,"hoáº·c":7522,"ĠPhu":7523,"Ġngáº£":7524,"ĠcÃ²":7525,"TPHCM":7526,"Dá»ĭp":7527,"Tráº£i":7528,"Ġmá»³":7529,"ardo":7530,"Ġkhá»ĳn":7531,"Ġ1972":7532,"Ġbáº»":7533,"Ġ2050":7534,"ĠtrÃ¨o":7535,"onia":7536,"VÃŃ":7537,"Ġghe":7538,"iness":7539,"Ġfor":7540,"Hen":7541,"MÃłn":7542,"Ġtoa":7543,"Ġquá»³":7544,"NV":7545,"Top":7546,"**":7547,"250":7548,"ream":7549,"ĠcÃły":7550,"wan":7551,"lig":7552,"Ġ1981":7553,"»¨ng":7554,"á»¨ng":7555,"ĠVn":7556,"Ġquáº¥n":7557,"ĠAll":7558,"VP":7559,"ĠrÆ¡m":7560,"ĠPower":7561,"TrÆ°a":7562,"ĠNigeria":7563,"Ġ101":7564,"ĠVinFast":7565,"Ġtrá»ķ":7566,"ĠLÃ£o":7567,"ET":7568,"Ġcá»«":7569,"Xá»Ń":7570,"ĠPVN":7571,"há»įc":7572,"ĠEc":7573,"ĠHi":7574,"ÃĲ":7575,"ages":7576,"Ġkhá»ıa":7577,"ĠBul":7578,"Ġgá»Ļi":7579,"Ġlay":7580,"ĠVilla":7581,"Giai":7582,"ĠEnter":7583,"ĠTáº§n":7584,"ora":7585,"ĠUkraina":7586,"ĠcÆ°a":7587,"ĠRoy":7588,"ald":7589,"ĠPhÃ¡o":7590,"aby":7591,"Ġrang":7592,"ĠGea":7593,"itch":7594,"ĠASIA":7595,"ĠFerr":7596,"amilk":7597,"castle":7598,"ĠVer":7599,"ĠMÃ¢y":7600,"Ġ113":7601,"hay":7602,"Æ°á»Ŀm":7603,"ĠXX":7604,"Ġráº£nh":7605,"Ġvun":7606,"ĠngÃ¡n":7607,"Ġhu":7608,"ĠPeter":7609,"ivers":7610,"Ġtoan":7611,"akar":7612,"ĠMáº§m":7613,"Ġtrau":7614,"ory":7615,"ĠAM":7616,"bus":7617,"Ã¨m":7618,"ĠChuáº©n":7619,"ĠEuropa":7620,"ÃĶNG":7621,"Äĳoáº¡n":7622,"ll":7623,"eam":7624,"ĠAp":7625,"Ġquáº¥t":7626,"bÃ¬nh":7627,"ĠWales":7628,"ĠÄĲá»ĩ":7629,"ĠhÃ³c":7630,"\";":7631,"ĠpháºŃt":7632,"ĠNob":7633,"ĠDes":7634,"tyle":7635,"vá»Ľi":7636,"ĠShow":7637,"Ġtháº¯m":7638,"ĠChá»ĵng":7639,"ĠphÃłn":7640,"ĠCHQS":7641,"Muá»ĳn":7642,"ys":7643,"ĠNhá»±":7644,"ann":7645,"ĠSM":7646,"Ġlá»«ng":7647,"ĠLiá»ħu":7648,"ĠIM":7649,"ĠMerkel":7650,"ĠRoma":7651,"ĠTranh":7652,"Benz":7653,"ĠMang":7654,"áºµn":7655,"ÄĲáº¡o":7656,"ĠSáº½":7657,"Ex":7658,"ĠTÆ°á»Ľng":7659,"ĠMotor":7660,"Ġsáº¹":7661,"ĠkÃ¨o":7662,"ĠVietinBank":7663,"ĠSin":7664,"cha":7665,"ĠTTHC":7666,"ĠBale":7667,"ĠlÆ°á»£n":7668,"Äĳáº§u":7669,"Ã²e":7670,"ĠCHDCND":7671,"ĠUng":7672,"ĠToáº£n":7673,"Ġsáº¹o":7674,"ĠSuzuki":7675,"artup":7676,"Náº±m":7677,"ĠCDC":7678,"Cha":7679,"aga":7680,"VÄ©nh":7681,"ĠlÃ¹m":7682,"ĠDNNN":7683,"ĠráºŃp":7684,"mÃ£":7685,"Ġsim":7686,"ĠNK":7687,"ĠvÃ¡":7688,"Ġáº¥u":7689,"KTÄĲT":7690,"baba":7691,"ĠÄĲá»ķi":7692,"ĠVPF":7693,"Ġthá»ĳt":7694,"ĠDamas":7695,"ÄĲK":7696,"Ġ1976":7697,"ĠDonetsk":7698,"Vin":7699,"ĠÄĲÆ°a":7700,"ÄĲáº£ng":7701,"ĠBá»Ŀ":7702,"á»įa":7703,"____":7704,"Iáº¾":7705,"ĠSuarez":7706,"ĠAlibaba":7707,"mad":7708,"cher":7709,"ĠCNVC":7710,"Ġ240":7711,"ette":7712,"ĠgáºŃp":7713,"star":7714,"ĠÄĲá»ĳc":7715,"eto":7716,"Br":7717,"agh":7718,"ĠNXB":7719,"ĠUl":7720,"ĠkiÃªu":7721,"ĠCáº£i":7722,"%);":7723,"ĠÄĳÃ¡i":7724,"ĠIns":7725,"CáºŃu":7726,"ĠKat":7727,"Ġmic":7728,"oni":7729,"ĠThÆ°á»Łng":7730,"ĠFrancis":7731,"ĠKal":7732,"ets":7733,"ĠrÆ°á»¡i":7734,"Tiá»ĥu":7735,"ĠDA":7736,"Mua":7737,"SÃ¢n":7738,"ThÆ°á»Ŀng":7739,"ĠLÃ¡ng":7740,"ition":7741,"Sam":7742,"ubishi":7743,"ĠLad":7744,"Ġcháº£nh":7745,"khu":7746,"ĠMbappe":7747,"ĠKhiÃªm":7748,"Ġá»ĳp":7749,"ĠDaniel":7750,"Ġmá»§":7751,"Ġbá»ĵng":7752,"ĠAR":7753,"UYá":7754,"UYá»":7755,"ason":7756,"med":7757,"ĠPháº¥n":7758,"ĠTTCK":7759,"ĠMid":7760,"ĠGiá»¯a":7761,"ĠBrent":7762,"act":7763,"ĠTrá»¥":7764,"TÃ¢m":7765,"ĠNhá»ĭ":7766,"ĠWenger":7767,"lott":7768,"ĠTaylor":7769,"ĠCáº§m":7770,"ĠNÃ¢ng":7771,"ĠLÃ£ng":7772,"ĠIbra":7773,"si":7774,"ĠSum":7775,"ĠMeg":7776,"ĠloÃ©t":7777,"ĠAut":7778,"Ġ135":7779,"EL":7780,"Ġnhá»ĳt":7781,"lopp":7782,"ĠxÃ¹m":7783,"ĠQuá»³":7784,"ĠAudi":7785,"Ãļ":7786,"báº¯t":7787,"ban":7788,"DÃ¹ng":7789,"itsubishi":7790,"ĠQR":7791,"cÃ²n":7792,"ampton":7793,"Cá»ĳ":7794,"ĠDamascus":7795,"Real":7796,"ĠGer":7797,"ĠDiego":7798,"Ġthuá»Ł":7799,"ĠThao":7800,"ĠUAV":7801,"ĠSoo":7802,"ĠPort":7803,"ĠRichard":7804,"ĠOk":7805,"Mo":7806,"ĠSud":7807,"Mai":7808,"ĠSung":7809,"ĠMP":7810,"bes":7811,"ĠmÆ°á»£t":7812,"ĠPas":7813,"Ġbá»«a":7814,"ĠTháº¯m":7815,"bek":7816,"Ġ102":7817,"Chinh":7818,"ĠAssad":7819,"ĠGun":7820,"ĠSolskjaer":7821,"rm":7822,"Ġvá»¥n":7823,"ĠNghÃ":7824,"Ġvá»Ŀ":7825,"ĠHoáº±ng":7826,"ito":7827,"ÄĲÃłi":7828,"KhÃ¡c":7829,"ÄĲTB":7830,"Chuyá»ĥn":7831,"MÆ°a":7832,"AF":7833,"Ġláº§y":7834,"ĠtrÃºt":7835,"ĠCapital":7836,"ĠOpen":7837,"ĠGra":7838,"ĠTrÃłm":7839,"ĠHold":7840,"cc":7841,"gáº§n":7842,"khi":7843,"tan":7844,"Ġhack":7845,"Ġmau":7846,"TVN":7847,"ĠAleppo":7848,"Ninh":7849,"ĠsÃ²ng":7850,"lian":7851,"Láº¥y":7852,"ĠFeder":7853,"Ġlanh":7854,"ĠSom":7855,"CáºŃn":7856,"ĠNou":7857,"tháº§n":7858,"ĠBuá»ķi":7859,"Ġcom":7860,"ift":7861,"ĠFo":7862,"Äĳá»ĵng":7863,"news":7864,"ĠSacombank":7865,"RE":7866,"ĠCá»Ŀ":7867,"ĠÃįt":7868,"ĠmiÃªn":7869,"ĠLS":7870,"oph":7871,"Ġrá»Ĺi":7872,"ĠScot":7873,"Ġnilon":7874,"ChÃ¢u":7875,"á»ķn":7876,"Ġse":7877,"ĠForm":7878,"ific":7879,"tw":7880,"Ġ1978":7881,"ĠTDTT":7882,"ĠlÆ°á»Ŀi":7883,"ĠvÃ¡ng":7884,"ois":7885,"ĠKhÃ³":7886,"abeco":7887,"tá»ķng":7888,"ĠGÄĲ":7889,"iFone":7890,"ĠTour":7891,"ĠÆ°ng":7892,"Chelsea":7893,"HoÃłn":7894,"Cháº¥t":7895,"ĠBas":7896,"ĠEng":7897,"ĠMik":7898,"Ġáº§m":7899,"ĠTiá»ĩp":7900,"Ġhá»ĩt":7901,"king":7902,"ĠSaint":7903,"ori":7904,"Ġcabin":7905,"ĠvÃµng":7906,"ĠPha":7907,"izer":7908,"ĠloÃ£ng":7909,"Ġz":7910,"ĠSub":7911,"ĠXÃ©t":7912,"ĠCáº·p":7913,"ĠHá»©a":7914,"Ġngáº¯t":7915,"\"...":7916,"ĠGiÃłng":7917,"ĠghÃª":7918,"ĠCá»ĳng":7919,"ĠVOV":7920,"ĠbÄĥm":7921,"LS":7922,"Ġláº§u":7923,"ĠEximbank":7924,"Ġcá»¥t":7925,"liz":7926,"Ġ2026":7927,"ĠÄĲáº¥u":7928,"ĠVit":7929,"CD":7930,"ĠrÃ¡n":7931,"Ġ1968":7932,"Ġthá»ģ":7933,"ĠThai":7934,"ĠKha":7935,"khÃ³a":7936,"INH":7937,"ĠLeon":7938,"TTS":7939,"ĠDubai":7940,"Ġkáº¹p":7941,"NÃªn":7942,"ĠVietNamNet":7943,"ĠVill":7944,"ĠNext":7945,"ĠASIAD":7946,"Ġcháº£i":7947,"tral":7948,"EX":7949,"ĠRai":7950,"SB":7951,"Ġcá»Ļi":7952,"ĠErik":7953,"Ġdá»©a":7954,"ĠMacron":7955,"May":7956,"ways":7957,"ĠNgÃ£":7958,"ont":7959,"Ġki":7960,"ĠDjokovic":7961,"ĠUSB":7962,"chez":7963,"Ã¬a":7964,"iverse":7965,"2006":7966,"âĢ¦)":7967,"ĠrÃ³t":7968,"ĠÆ°Æ¡m":7969,"ĠCá»ĳc":7970,"Chá»ĵng":7971,"ĠLionel":7972,"ĠthÃ¢u":7973,"gar":7974,"ĠAsh":7975,"á»įt":7976,"ĠSergei":7977,"ĠDiá»ĩn":7978,"ique":7979,"Ġstress":7980,"ĠHá»Ľi":7981,"ĠsÆ°á»Łi":7982,"ĠgáºŃt":7983,"tein":7984,"LO":7985,"2026":7986,"ĠSilva":7987,"idane":7988,"ĠLuis":7989,"ĠJav":7990,"ĠâĢĿ":7991,"UN":7992,"350":7993,"ĠRock":7994,"Ġ1974":7995,"ĠKÃŃnh":7996,"Ġngá»¥c":7997,"Loáº¡i":7998,"ĠJol":7999,"Ġnhá»ī":8000,"ĠnÃłnh":8001,"yÃªu":8002,"Ġsá»Ŀ":8003,"kip":8004,"ĠPau":8005,"ĠtrÅ©ng":8006,"ĠlÃ³c":8007,"ĠngÃ²i":8008,"atus":8009,"ĠThá»¥c":8010,"VáºŃn":8011,"ĠTuá»ĩ":8012,"ĠNewcastle":8013,"QuÃ½":8014,"ĠGe":8015,"Ġlá»Ńng":8016,"ĠchÃ¨n":8017,"pe":8018,"ning":8019,"ĠSav":8020,"Ġngá»¥y":8021,"rick":8022,"ĠMr":8023,"ĠKáº»":8024,"ĠVáº«n":8025,"win":8026,"ĠYamaha":8027,"ĠChÃ¡u":8028,"ĠGab":8029,"ĠchÃ¡nh":8030,"CÃº":8031,"CDC":8032,"ĠChang":8033,"ĠBá»©c":8034,"ĠTÃ¹y":8035,"»Ŀ":8036,"ĠSnap":8037,"ĠrÃ£nh":8038,"stal":8039,"Ġdáº§m":8040,"táº¡i":8041,"á»Ŀ":8042,"LoÃłi":8043,"ĠLux":8044,"!âĢĿ":8045,"unt":8046,"Ġhorm":8047,"ĠGh":8048,"ĠVietjet":8049,"ĠtoÃ¡t":8050,"ĠTÃł":8051,"ĠvÃ£n":8052,"ĠMedia":8053,"met":8054,"Ġdiá»ģu":8055,"Giáº£m":8056,"ĠngÆ¡":8057,"Ġ1973":8058,"ĠCer":8059,"tron":8060,"ĠCharles":8061,"ĠBrid":8062,"ovo":8063,"Å©y":8064,"Ġnáº§n":8065,"Ġquáº·ng":8066,"ĠSáº§m":8067,"ĠCQÄĲT":8068,"ĠBXH":8069,"ĠTá»ĳt":8070,"Ġseries":8071,"NÃ³":8072,"ĠUz":8073,"ĠThá»¥":8074,"uguay":8075,"ican":8076,"ĠLew":8077,"min":8078,"ĠKlopp":8079,"ĠMáº¥y":8080,"Ġgáº¯m":8081,"ĠVoice":8082,"udio":8083,"ĠUEFA":8084,"ĠxÃŃt":8085,"ĠLÃ¡i":8086,"ĠTW":8087,"ĠLavrov":8088,"MÃ³n":8089,"ķi":8090,"ĠÄĲáº§m":8091,"Phan":8092,"iger":8093,"ĠLÃ¢u":8094,"ĠvÃ²m":8095,"ĠHáº¡m":8096,"ĠPor":8097,"Ġá»ıi":8098,"cuá»Ļc":8099,"Äĳá»ĥ":8100,"ĠSSI":8101,"eva":8102,"ĠAwards":8103,"Ġ230":8104,"ĠquÃ¢y":8105,"ĠTÃ³c":8106,"ĠBrad":8107,"Ãįt":8108,"ĠQuáº¥t":8109,"ĠUniverse":8110,"Ġsedan":8111,"ĠtÃ©":8112,"ons":8113,"ĠJustin":8114,"KhÃ¡m":8115,"Ġphen":8116,"Äĳáº·c":8117,"Ġmáº©n":8118,"Ġres":8119,"Ġkhinh":8120,"ĠkWh":8121,"ĠMiáº¿u":8122,"ĠngÃ³ng":8123,"Ġme":8124,"Há»£p":8125,"ĠBil":8126,"giÃ¡":8127,"ĠTÃŃch":8128,"ĠBiá»ĥu":8129,"ĠPeru":8130,"ĠOPEC":8131,"dio":8132,"ison":8133,"Biáº¿t":8134,"Ġxuá»ĵng":8135,"Ġtráº·c":8136,"ĠNDT":8137,"gen":8138,"ĠCatal":8139,"ĠJim":8140,"ĠSP":8141,"lav":8142,"Thá»«a":8143,"âĢ¦âĢĿ":8144,"ĠBÃŃnh":8145,"Ġtua":8146,"oly":8147,"ĠFace":8148,"Ġcá»ĵng":8149,"ĠVinamilk":8150,"ĠphiÃªu":8151,"ĠGDÄĲT":8152,"eman":8153,"Car":8154,"ĠLuc":8155,"EVN":8156,"ĠTá»«ng":8157,"ĠDom":8158,"ĠÄĳá»±c":8159,"Ġ1977":8160,"ĠVá»ĳn":8161,"ĠBinh":8162,"Ãģo":8163,"ĠSáº¯c":8164,"Re":8165,"ĠUP":8166,"ĠMiG":8167,"ĠFort":8168,"áº¬":8169,"viet":8170,"ode":8171,"SS":8172,"san":8173,"cÃ¡i":8174,"Ġ112":8175,"urt":8176,"ger":8177,"ĠquÃ½t":8178,"terte":8179,"ĠMua":8180,"ĠJam":8181,"ĠSerbia":8182,"Ġ''":8183,"ÄĲáº©y":8184,"ĠLuáºŃn":8185,"ĠMetro":8186,"Tiáº¿ng":8187,"Ġtáº£o":8188,"ĠMek":8189,"ĠThy":8190,"ĠXa":8191,"ĠDem":8192,"''":8193,"Ġkhuáº¥y":8194,"ĠBom":8195,"tiá»ģn":8196,"ĠGaza":8197,"ĠMobiFone":8198,"ĠNep":8199,"Giadinh":8200,"Ġ116":8201,"--------":8202,"Ġnáº¡t":8203,"cháº¡y":8204,"âĢĿ...":8205,"ĠScotland":8206,"Ġngháº¹t":8207,"ĠGiá»ĳng":8208,"Ã¼":8209,"Apple":8210,"ru":8211,"Ġ%":8212,"ashion":8213,"ĠWi":8214,"ĠnhÃło":8215,"Ġxá»īu":8216,"ĠPac":8217,"Ġkhiáº¿t":8218,"erto":8219,"bÃł":8220,"ĠnáºŃp":8221,"ĠEv":8222,"AIDS":8223,"ĠNho":8224,"ĠtrÃ³i":8225,"ĠKang":8226,"ĠFTA":8227,"Háº¡":8228,"ĠRÃµ":8229,"ray":8230,"Ŀm":8231,"Ġder":8232,"uma":8233,"Ġ1945":8234,"Ġ104":8235,"ĠVNÄĲ":8236,"ĠShar":8237,"ĠLen":8238,"ÄĤ":8239,"evin":8240,"ĠTak":8241,"ĠSá»ĳng":8242,"ĠDelta":8243,"fizer":8244,"ĠGuardian":8245,"ÄĲS":8246,"dá»±":8247,"ĠDuterte":8248,"encia":8249,"ĠCPI":8250,"ĠcháºŃp":8251,"Ġxua":8252,"gá»įi":8253,"»Ĳ":8254,"á»Ĳ":8255,"Ġhá»§":8256,"Ġmáº¹o":8257,"ĠKane":8258,"pot":8259,"pha":8260,"din":8261,"Ġ750":8262,"Ġchuá»Ļc":8263,"ĠForbes":8264,"uan":8265,"play":8266,"lex":8267,"ĠStreet":8268,"Chinhphu":8269,"NgÆ°á»£c":8270,"elf":8271,"ĠthÃªu":8272,"Ġlá»ģu":8273,"Biá»ĥu":8274,"ĠYe":8275,"Ġáº¿ch":8276,"ĠHome":8277,"há»Ļ":8278,"Ġnung":8279,"Ġuáº¥t":8280,"Ġmix":8281,"sá»ĳng":8282,"Cam":8283,"ÄĲá»©ng":8284,"ĠMÃ£i":8285,"ĠBrunei":8286,"Ġ175":8287,"SM":8288,"ĠÆ¡":8289,"ĠAk":8290,"RÃµ":8291,"ĠQuáº§n":8292,"mg":8293,"ĠCBCS":8294,"Giá»ĳng":8295,"ĠSÆ°Æ¡ng":8296,"lam":8297,"Há»Ĺ":8298,"ĠHee":8299,"kV":8300,"bekistan":8301,"hy":8302,"ĠMet":8303,"vÃ´":8304,"NÆ¡i":8305,"ĠKid":8306,"ĠLÆ°":8307,"ĠIdlib":8308,"New":8309,"Ġcháº±ng":8310,"ĠWeb":8311,"ĠAndr":8312,"ĠImages":8313,"Ġfanpage":8314,"ĠCÃº":8315,"bert":8316,"ÄĲa":8317,"ydney":8318,"ĠSuk":8319,"ĠCang":8320,"Ġ107":8321,"Tuyáº¿n":8322,"ĠchÃŃch":8323,"ĠDÄ©nh":8324,"Ah":8325,"ĠTCTD":8326,"Ġphá»ĵng":8327,"CLB":8328,"ĠÃºp":8329,"ĠkÃ©t":8330,"Ġ650":8331,"Hz":8332,"ÄĲÆ°a":8333,"Ġnáº¿m":8334,"!\".":8335,"Ġmáº£i":8336,"Ġve":8337,">>>":8338,"ĠCÃ¡nh":8339,"ĠYong":8340,"ĠÄĲáº©y":8341,"ĠGAS":8342,"ĠSports":8343,"ĠApp":8344,"Ġbung":8345,"ĠcÃµi":8346,"Nháº¡c":8347,"Ġshop":8348,"ĠLex":8349,"thá»Ŀi":8350,"ĠCÃłng":8351,"ĠchÆ°á»Ľng":8352,"ĠgÄĥng":8353,"Äĳáº¡t":8354,"BÃ¡nh":8355,"ĠID":8356,"Arsenal":8357,"ĠtÆ°ng":8358,"ushi":8359,"ĠkhoÃ¡t":8360,"Ġvisa":8361,"ĠSteph":8362,"?âĢĿ,":8363,"ĠHaz":8364,"ĠngÃ¹i":8365,"imb":8366,"ĠSlov":8367,"ĠXVII":8368,"áº¦":8369,"org":8370,"ĠKel":8371,"ĠnhÃ³c":8372,"orsche":8373,"ĠDmit":8374,"ĠVHTTDL":8375,"ĠUruguay":8376,"ĠHarv":8377,"ĠBenz":8378,"ĠTs":8379,"https":8380,"Ġngao":8381,"ĠÄĳáºŃy":8382,"ĠMÃłu":8383,"TiÃªu":8384,"ĠVCB":8385,"ĠNhiá»ĩm":8386,"PTPP":8387,"ĠJean":8388,"ĠDay":8389,"dro":8390,"SP":8391,"ealth":8392,"Ġbin":8393,"Ġngáº¥m":8394,"RC":8395,"ior":8396,"ĠZidane":8397,"ĠSmart":8398,"ĠCÃ¹":8399,"ERS":8400,"ĠNÃł":8401,"www":8402,"NÃ´ng":8403,"ĠBund":8404,"ĠÄĲV":8405,"ĠVGP":8406,"ĠRen":8407,"hÃłnh":8408,"ĠCorp":8409,"ĠAntonio":8410,"ĠSanchez":8411,"ather":8412,"»ĩnh":8413,"á»ĩnh":8414,"Bá»ĳn":8415,"ĠJennifer":8416,"AV":8417,"olo":8418,"rystal":8419,"ope":8420,"ĠBá»ĳn":8421,"Ká»·":8422,"ĠVIII":8423,"rolimex":8424,"ĠTháº¡c":8425,"ĠAmerica":8426,"Ġphá»¥ng":8427,"...âĢĿ.":8428,"ze":8429,"ĠVar":8430,"DÆ°Æ¡ng":8431,"Ġgang":8432,"ĠgiÆ¡":8433,"há»ģ":8434,"ĠmÃ©p":8435,"ķng":8436,"ĠRu":8437,"Ġ114":8438,"ĠsÆ°a":8439,"Ġ106":8440,"ĠTang":8441,"ement":8442,"ĠTÃło":8443,"ĠTrao":8444,"Mal":8445,"ĠNadal":8446,"Ukrai":8447,"BÃ¢y":8448,"ĠManila":8449,"TÆ°":8450,"ÃĮ":8451,"ĠFre":8452,"Ġthung":8453,"iy":8454,"ĠmÃ©o":8455,"akia":8456,"ĠMitsubishi":8457,"vin":8458,"Máº¥y":8459,"ĠAD":8460,"Ġgiá»ı":8461,"ĠLáº¥y":8462,"dy":8463,"tÃŃnh":8464,"Ġtáº©m":8465,"ĠValent":8466,"Ġmark":8467,"Ġchá»ĳc":8468,"Ġray":8469,"eca":8470,"Ġmá»īm":8471,"abeth":8472,"ĠCav":8473,"iff":8474,"una":8475,"off":8476,"ĠVá»įng":8477,"ĠSydney":8478,"owski":8479,"Vn":8480,"ĠHillary":8481,"ĠPalace":8482,"VÃ¹ng":8483,"ĠDuáº©n":8484,"aeda":8485,"Ġáº¿":8486,"ĠSur":8487,"Ġsum":8488,"báº¥t":8489,"ĠUzbekistan":8490,"ĠMobile":8491,"ĠSant":8492,"ĠPfizer":8493,"TI":8494,"ĠBQL":8495,"olog":8496,"ĠBeckham":8497,"Ġtrá»ĵ":8498,"Uá»ĳng":8499,"Ġsá»¡":8500,"olas":8501,"Ġle":8502,"Ġmáº«n":8503,"Ġ190":8504,"ĠDJ":8505,"vest":8506,"ashford":8507,"ĠtrÄ©":8508,"zer":8509,"ĠXu":8510,"ision":8511,"Ġbody":8512,"Táº¡o":8513,"ĠPN":8514,"Hot":8515,"Ġthiá»ģn":8516,"ĠChris":8517,"ĠRy":8518,"ct":8519,"nhap":8520,"ÃĤN":8521,"Ġxá»ĳp":8522,"ĠJolie":8523,"ĠxÆ°á»Ľc":8524,"chá»ĭ":8525,"Vá»ĳn":8526,"ĠNASA":8527,"Ġváº«y":8528,"Ġ123":8529,"ÄĲáº¯k":8530,"esse":8531,"QuáºŃn":8532,"ii":8533,"Is":8534,"ĠAston":8535,"ĠNissan":8536,"Äĳá»ĭa":8537,"ĠLá»ĩnh":8538,"Pháº£n":8539,"ily":8540,"ĠAj":8541,"icon":8542,"2005":8543,"KTS":8544,"ĠBÃ¡nh":8545,"ĠThÃºc":8546,"ĠKan":8547,"´m":8548,"ĠbÆ°á»Ľu":8549,"orning":8550,"ĠPhá»ĳi":8551,"HT":8552,"Ġvuá»ĳt":8553,"Ġbe":8554,"trá»«":8555,"Ġbáº©y":8556,"gor":8557,"Ġ550":8558,"ĠChá»ĳng":8559,"ĠDelhi":8560,"Ġmá»©t":8561,"ĠVietlott":8562,"ĠRio":8563,"ĠMÃ³n":8564,"ĠXp":8565,"Ġnhang":8566,"ĠWang":8567,"tainment":8568,"akhstan":8569,"ĠÄĲang":8570,"ÄĲáº¥t":8571,"ĠphÃ´ng":8572,"ĠAirways":8573,"ĠrÃªu":8574,"ĠSudan":8575,"Tiáº¿t":8576,"Ġ320":8577,"chu":8578,"ĠGiáº£m":8579,"ĠPomp":8580,"?\"":8581,"Ġ109":8582,"ÄĲÃłn":8583,"Ġlaser":8584,"370":8585,"ĠDá":8586,"ĠDá»":8587,"ĠphÃ´i":8588,"¹n":8589,"ĠSmith":8590,"ghini":8591,"Ġcháº¡p":8592,"Ġniá»ĩu":8593,"ĠSri":8594,"Ġ155":8595,"Ġ117":8596,"ĠRoll":8597,"ĠCá»©u":8598,"ĠNÄĲT":8599,"CG":8600,"ĠTiáº¿t":8601,"ĠBTV":8602,"Ġnháº±n":8603,"Giáº¿t":8604,"...)":8605,"ladesh":8606,"KiÃªn":8607,"ĠSteve":8608,"ater":8609,"ÄĲÃ¡p":8610,"ĠEb":8611,"lipp":8612,"Media":8613,"ĠFar":8614,"ChÃłng":8615,"ĠThoáº¡i":8616,"ĠFormosa":8617,"Ġkiáº¿p":8618,"ĠHel":8619,"ĠRaf":8620,"ĠCCC":8621,"otti":8622,"Ġ111":8623,"Di":8624,"ĠOli":8625,"Ġsáº£o":8626,"akarta":8627,"ĠCel":8628,"ĠFir":8629,"ÄĳÃ³ng":8630,"Tranh":8631,"Hiá»ĩu":8632,"ĠXÃºc":8633,"Messi":8634,"ĠTB":8635,"TrÆ°Æ¡ng":8636,"rad":8637,"ĠQÄĲ":8638,"Quá»·":8639,"omes":8640,"ĠTrans":8641,"ĠTrÃ¡ch":8642,"trÆ°á»Ľc":8643,"Ġkáº½m":8644,"má»Ĺi":8645,"ĠÄĳÃłng":8646,"Ġur":8647,"Ġ1971":8648,"ĠÄĳiá»ģm":8649,"ĠCarol":8650,"ensis":8651,"day":8652,"HNM":8653,"ĠIX":8654,"ĠÄĲoan":8655,"Ġvon":8656,"ĠHO":8657,"ĠnhÃłn":8658,"ĠBá»Ńu":8659,"ĠLexus":8660,"ĠClub":8661,"ĠNgÃł":8662,"máº¹":8663,"ĠRad":8664,"Ġteen":8665,"Ukraine":8666,"ĠÂ":8667,"ĠShe":8668,"RA":8669,"ĠNepal":8670,"»©ng":8671,"á»©ng":8672,"ADS":8673,"ĠMekong":8674,"Ġbiáº¿u":8675,"ĠvÆ¡":8676,"anon":8677,"ĠFerrari":8678,"tech":8679,"1945":8680,"ĠCAQ":8681,"ĠLife":8682,"ĠBlues":8683,"Ġstartup":8684,"ĠEntertainment":8685,"Bao":8686,"Báº¿n":8687,"zi":8688,"Ġbáº§m":8689,"ĠGTGT":8690,"ĠShop":8691,"ĠNobel":8692,"ĠIbrahim":8693,"TD":8694,"Ġxiáº¿c":8695,"ĠNag":8696,"ĠDar":8697,"ĠWoo":8698,"Ġcheck":8699,"Ġnghiá»ģn":8700,"light":8701,"ĠThoa":8702,"TVQH":8703,"Ġnhai":8704,"igan":8705,"ĠType":8706,"jo":8707,"Sá»ĳng":8708,"rin":8709,"Ġgram":8710,"ĠAdam":8711,"TÆ¯":8712,"oko":8713,"Ġmodel":8714,"ĠTáº¿":8715,"Linh":8716,"ĠJeff":8717,"Ġhoay":8718,"laza":8719,"hen":8720,"ky":8721,"Ġchá»ĩ":8722,"ĠSD":8723,"2030":8724,"Ġcá»§i":8725,"ĠTráº£ng":8726,"Pet":8727,"chia":8728,"tÃ¬nh":8729,"Fed":8730,"Ġvá»ın":8731,"las":8732,"amine":8733,"ĠgÃ¡y":8734,"Ġtá»¥i":8735,"esli":8736,"ĠMul":8737,"Tai":8738,"ĠChÃŃn":8739,"ĠnhÃłm":8740,"Ġáº£m":8741,"gÃ¢y":8742,"ĠSina":8743,"ĠHP":8744,"ĠPPP":8745,"ĠSÃ¢m":8746,"ĠCá»Ń":8747,"Thá»§y":8748,"ĠÄĲá»īnh":8749,"MÃłu":8750,"Ġjeans":8751,"ĠGard":8752,"ĠRog":8753,"ĠHCB":8754,"Ġrá»Ĺng":8755,"ĠLÄĲBÄĲ":8756,"ĠGiÃ¢y":8757,"ĠHK":8758,"ĠDy":8759,"Táº¡m":8760,"ait":8761,"raph":8762,"Cháº¯c":8763,"ĠCCCD":8764,"ĠchÃ³i":8765,"VÃłi":8766,"ĠGang":8767,"ÄĲá»įc":8768,"Ġview":8769,"bu":8770,"phÃ¡t":8771,"ical":8772,"To":8773,"ms":8774,"âĢĿ:":8775,"ATGT":8776,"dragon":8777,"ĠnÃŃu":8778,"ĠDisney":8779,"ĠBuff":8780,"ĠKháº£o":8781,"Ġngá»Ŀi":8782,"ĠchÃł":8783,"ĠBruno":8784,"ĠThiá»ģu":8785,"ĠÄĳiáº¿u":8786,"ĠSwift":8787,"cÃ¡ch":8788,"Rá»ĵi":8789,"ĠWatch":8790,"TE":8791,"ĠGates":8792,"Ġcatw":8793,"Ġbus":8794,"ĠSuá»ĳt":8795,"eop":8796,"ĠKerry":8797,"ĠMÆ¡":8798,"Ġwww":8799,"ĠRub":8800,"Ġcatwalk":8801,"ĠnCoV":8802,"bÃªn":8803,"2000":8804,"ĠUp":8805,"ĠKÃªnh":8806,"ĠAbdul":8807,"ĠÆ¯u":8808,"kinh":8809,"ĠChoi":8810,"rian":8811,"lizabeth":8812,"LED":8813,"Ġsal":8814,"ĠLove":8815,"ĠBat":8816,"SH":8817,"GAP":8818,"eron":8819,"ChÃ¡u":8820,"ĠTráº£i":8821,"GC":8822,"iro":8823,"ĠMarc":8824,"inet":8825,"opter":8826,"ĠDáº¡":8827,"PM":8828,"ĠThÆ¡m":8829,"ĠQuyáº¿n":8830,"Ġfutsal":8831,"Ġnhá»ķ":8832,"ĠLaz":8833,"Cá»Ļng":8834,"thony":8835,"thá»©":8836,"Ġhormone":8837,"ĠBangladesh":8838,"Ġrapper":8839,"Gáº·p":8840,"Ġ210":8841,"Nguy":8842,"ĠLÃ£":8843,"ret":8844,"ĠPers":8845,"Ġyoga":8846,"Ġtáº»":8847,"ĠÄĳáº½":8848,"Chuáº©n":8849,"urnal":8850,"ĠÃģp":8851,"esliga":8852,"ĠFan":8853,"Ġ141":8854,"ĠShinzo":8855,"ange":8856,"ĠIndex":8857,"lÃªn":8858,"Ġgiáº¥m":8859,"ĠTechcombank":8860,"ĠConte":8861,"ChÃºc":8862,"avel":8863,"Ġngá»«":8864,"ĠCD":8865,"avi":8866,"Ġlike":8867,"ĠBlue":8868,"irl":8869,"ĠLÄĲTB":8870,"ĠStore":8871,"ĠZelen":8872,"Ġmicro":8873,"Ġ126":8874,"ĠBusiness":8875,"Ã½p":8876,"ĠNas":8877,"ĠBon":8878,"Ġcafe":8879,"cent":8880,"ĠMáº¯t":8881,"ĠxÃŃu":8882,"GTVT":8883,"ĠHCÄĲ":8884,"âĢĻ.":8885,"ĠSul":8886,"MTTQ":8887,"ĠPlaza":8888,"ĠBruss":8889,"Zen":8890,"eller":8891,"inn":8892,"ĠÄĳá»į":8893,"etooth":8894,"Ġsh":8895,"ĠKazakhstan":8896,"Ġgiá»Ĺ":8897,"cept":8898,"ĠSalah":8899,"Ġváº¡":8900,"ĠFederer":8901,"Ass":8902,"ĠmÃ´tÃ´":8903,"Iá»Ĩ":8904,"Cá»Ń":8905,"ĠJac":8906,"ĠScott":8907,"ĠNgáº¡n":8908,"Ġtá»§i":8909,"Ġ1969":8910,"ĠkhÃ©t":8911,"Jo":8912,"ux":8913,"hire":8914,"bach":8915,"ĠÃ²a":8916,"ĠLeb":8917,"Sang":8918,"ĠHA":8919,"ĠHá»ķ":8920,"Ġ270":8921,"ingroup":8922,"ĠRashford":8923,"Ġ1967":8924,"ĠElec":8925,"ĠDV":8926,"nhÃ¢n":8927,"ĠHazard":8928,"ĠTNCS":8929,"BGD":8930,"athon":8931,"ÄĳÆ¡n":8932,"Ġcáº¡o":8933,"ĠSnapdragon":8934,"ever":8935,"BÃ³ng":8936,"ĠPompeo":8937,"ibo":8938,"Ġ260":8939,"ĠTO":8940,"ĠDia":8941,"ĠKevin":8942,"Má»ĳi":8943,"HD":8944,"hat":8945,"BNV":8946,"row":8947,"ĠKl":8948,"120":8949,"Thá»ĥ":8950,"ĠTÆ°á»£ng":8951,"ĠAy":8952,"ĠMT":8953,"ĠEVFTA":8954,"ĠDmitry":8955,"ĠKir":8956,"ĠCá»±":8957,"ĠZalo":8958,"ĠJakarta":8959,"wang":8960,"2004":8961,"ĠCTCK":8962,"MV":8963,"zone":8964,"ĠVNM":8965,"ĠBia":8966,"ĠVai":8967,"ĠAgu":8968,"vá»£":8969,"Iran":8970,"ĠDTTS":8971,"ĠVÄĲ":8972,"ĠPorsche":8973,"Ġgym":8974,"ĠCCB":8975,"Can":8976,"ĠTy":8977,"ĠFBI":8978,"ĠXÃŃ":8979,"igu":8980,"Ã¬n":8981,"Ġpen":8982,"ĠXÃ¡c":8983,"Niá»ģm":8984,"ĠGiáº£ng":8985,"báº£o":8986,"Ġpro":8987,"ĠngÃ¡ch":8988,"ima":8989,"Ġxá»Ļn":8990,"Ġcuá»ĳng":8991,"ĠKpop":8992,"ĠNick":8993,"Tam":8994,"reak":8995,"ĠWTO":8996,"Ġchá»īn":8997,"ÄĲá»ķi":8998,"oshenko":8999,"Â°":9000,"ĠResort":9001,"ĠPen":9002,"vá»ģ":9003,"IL":9004,"Ġquáº©n":9005,"hu":9006,"ĠSy":9007,"ĠBridge":9008,"Ġ1950":9009,"%...":9010,"Nháº¯c":9011,"ved":9012,"via":9013,"ĠMorning":9014,"gov":9015,"ĠBenzema":9016,"ju":9017,"ĠCNVCLÄĲ":9018,"Cap":9019,"Ná»Ĺi":9020,"Ġvo":9021,"CoM":9022,"can":9023,"ĠRyan":9024,"FO":9025,"\"-":9026,"ĠSergio":9027,"dr":9028,"ĠKhe":9029,"ĠRamos":9030,"Bl":9031,"ĠchÃ²i":9032,"ĠXS":9033,"Ġren":9034,"ĠNar":9035,"ĠCannes":9036,"JI":9037,"Chá»£":9038,"2024":9039,"Ġacid":9040,"chiáº¿c":9041,"ĠchÃłi":9042,"ĠAbu":9043,"had":9044,"af":9045,"ĠDáº«u":9046,"ĦN":9047,"Ġvung":9048,"Khá»ĳi":9049,"ĠBrussels":9050,"máº¥t":9051,"ĠPin":9052,"izen":9053,"ĠMusic":9054,"ĠVIC":9055,"Ġcá»«u":9056,"Ġna":9057,"ĠOt":9058,"ĠBulg":9059,"ĠSho":9060,"ĠCIA":9061,"ĠElizabeth":9062,"ĠYonhap":9063,"Thá»ķ":9064,"ĠGÆ°Æ¡m":9065,"ĠBA":9066,"ĠSIM":9067,"ĠNgÆ°u":9068,"Fi":9069,"TrÃł":9070,"ĠBundesliga":9071,"aghd":9072,"sin":9073,"ĠchiÃªng":9074,"ĠVÃłi":9075,"ĠLanka":9076,"ĠBir":9077,"ĠNapoli":9078,"Ġup":9079,"ĠtrÆ¡":9080,"ĠRay":9081,"gu":9082,"Ġláº©u":9083,"NDÄĲT":9084,"rain":9085,"ĠGor":9086,"menia":9087,"obile":9088,"ĠÄĳá»ĳm":9089,"ef":9090,"Samsung":9091,"Ġthiá»ģu":9092,"ulin":9093,"ĠTá»©c":9094,"phÃª":9095,"iter":9096,"Ġrá»ĳn":9097,"ĠMÃłn":9098,"ĠGÆ°Æ¡ng":9099,"ĠXiaomi":9100,"âĢĿ?":9101,"QuÃ¡n":9102,"ĠMA":9103,"ĠngÃł":9104,"VÆ°á»£t":9105,"Ġ280":9106,"comm":9107,"Ġsáº£nh":9108,"Ġbai":9109,"thá»±c":9110,"ĠBash":9111,"ĠCV":9112,"ĠValencia":9113,"ĠXNK":9114,"ĠFED":9115,"Ġ119":9116,"ĠCorona":9117,"ĠLukaku":9118,"tiáº¿ng":9119,"VÃłng":9120,"ĠCháº¡p":9121,"ĠOle":9122,"Káº»":9123,"ĠnhÃ©t":9124,"ĠWay":9125,"Suá»ĳt":9126,"ĠVAM":9127,"ÄĲTCK":9128,"Ġben":9129,"Sing":9130,"ĠNgÃłi":9131,"ĠOd":9132,"Ġmarketing":9133,"ĠAirbus":9134,"Indonesia":9135,"ĠÄĲÆ°Æ¡ng":9136,"ĠhiÃªn":9137,"Trá»įng":9138,"ĠLÃªn":9139,"Ġchá»ĩch":9140,"ĠLambor":9141,"thÃ´n":9142,"ĠVirgin":9143,"thuc":9144,"Ãģp":9145,"ĠMary":9146,"ĠtÃ²i":9147,"Ġcáº¥n":9148,"ĠkhÄĥng":9149,"ĠthÃł":9150,"abi":9151,"ingham":9152,"ĠLuyá»ĩn":9153,"ĠGÃ³i":9154,"wer":9155,"ĠGran":9156,"Honda":9157,"OM":9158,"ĠOx":9159,"ĠrÃ¡t":9160,"Bay":9161,"ĠSouthampton":9162,"ĠKn":9163,"lanh":9164,"ĠvÃŃa":9165,"ĠLamborghini":9166,"tho":9167,"ráº¥t":9168,"ĠHTC":9169,"RI":9170,"ĠPVC":9171,"ĠKai":9172,"ira":9173,"Váº»":9174,"har":9175,"ĠGáº¡o":9176,"ĠKá»ĭch":9177,"Ġmiáº¿u":9178,"PS":9179,"ĠTen":9180,"Ġ()":9181,"TF":9182,"erbai":9183,"ĠCMND":9184,"SGGP":9185,"atra":9186,"Ġ118":9187,"Ġloay":9188,"báº£n":9189,"Ġkali":9190,"Ġkhoáº¯n":9191,"ĠWB":9192,"ĠLÃ¡":9193,"ĠKate":9194,"ĠHit":9195,"1975":9196,"ĠÄĲáº£m":9197,"WS":9198,"Trá»±c":9199,"ĠmÃºi":9200,"ogen":9201,"ĠVingroup":9202,"ĠLas":9203,"elfie":9204,"Ġnhung":9205,"ĠPhÃ¡i":9206,"ĠAth":9207,"ĠKam":9208,"ĠStan":9209,"athan":9210,"lat":9211,"Quáº£n":9212,"under":9213,"ĠnÄĥn":9214,"ĠEbola":9215,"FI":9216,"erbaijan":9217,"ĠrÆ°ng":9218,"Quá»¹":9219,"ĠJackson":9220,"ĠJournal":9221,"ĠNgÃ´n":9222,"ĠMá»ĭch":9223,"Ġmet":9224,"Roy":9225,"La":9226,"ĠBent":9227,"ĠFerg":9228,"Ġit":9229,"Ġ2045":9230,"Ġom":9231,"ĠSÆ¡":9232,"160":9233,"Ġhá»ĳc":9234,"ĠRÄĥng":9235,"uador":9236,"cháº¥t":9237,"Æ°Æ¡u":9238,"ĠAlg":9239,"ĠLes":9240,"LÆ°Æ¡ng":9241,"Mang":9242,"ĠJuan":9243,"ennis":9244,"ĠAstra":9245,"ĠVÃĢ":9246,"ĠkhÃ³m":9247,"Ġthun":9248,"XP":9249,"ĠChuyáº¿n":9250,"ĠAK":9251,"urs":9252,"ngh":9253,"ffe":9254,"bá»Ļ":9255,"chain":9256,"ĠBy":9257,"iá»ĥng":9258,"quy":9259,"Liverpool":9260,"sáº½":9261,"giai":9262,"áº³m":9263,"ĠAnthony":9264,"Tay":9265,"uson":9266,"ĠÄĲo":9267,"ĠCrystal":9268,"ĠChiÃªu":9269,"Ġxiáº¿t":9270,"ĠHá»Ļ":9271,"khÃ³":9272,"Book":9273,"ĠngÃ³":9274,"ĠVinac":9275,"ĠtrÆ°á»Ľng":9276,"Ġnet":9277,"ĠDream":9278,"ĠCC":9279,"ology":9280,"ĠPetrolimex":9281,"Ġthá»«ng":9282,"gy":9283,"tar":9284,"ĠTÃ²ng":9285,"ÆłNG":9286,"ds":9287,"dan":9288,"bá»ĭ":9289,"ĠLisa":9290,"ĠtuÃ´ng":9291,"ÄĲÃ¡m":9292,"ĠHenry":9293,"ĠWilliams":9294,"ĠArmenia":9295,"Ġháº¥t":9296,"ĠHoÃłnh":9297,"Ãĵ":9298,"Tuáº¥n":9299,"ĠTHá":9300,"ĠTHá»":9301,"ĠKiatis":9302,"BÃ£o":9303,"ĠtrÃ³t":9304,"Ġpho":9305,"Cháº¿":9306,"YÃªn":9307,"Äĳá»Ļc":9308,"Ġ#":9309,"ator":9310,"ras":9311,"Ġquyá»ĩn":9312,"Philipp":9313,"ĠÄĲoáº¡n":9314,"ĠLop":9315,"Ġtáº¯n":9316,"Ġ1965":9317,"ĠADN":9318,"Ã¶":9319,"Assad":9320,"Thá»ĭt":9321,"ĠPacific":9322,"ĠFal":9323,"Triá»ĩu":9324,"ĠFu":9325,"fan":9326,"Ġform":9327,"??":9328,"ĠlÃ¡n":9329,"OA":9330,"Ġmá»ĵm":9331,"ĠUBKT":9332,"ĠCX":9333,"ĠLatinh":9334,"Nhiá»ĩm":9335,"ista":9336,"irates":9337,"cÃ¢y":9338,"Ġmar":9339,"ĠGhi":9340,"BNN":9341,"ĠPetro":9342,"Quá»³nh":9343,"ĠTun":9344,"Ġcent":9345,"á»¥y":9346,"ĠIMF":9347,"LÆ°á»£ng":9348,"ĠNorth":9349,"ĠbÃ¨o":9350,"Qaeda":9351,"ĠBashar":9352,"ĠBamb":9353,"cá»±u":9354,"Æ¯ÆłNG":9355,"Ġá»Ĳ":9356,"ĠxÃ³i":9357,"ĠInn":9358,"Ġnáº·c":9359,"ild":9360,"UYá»ĦN":9361,"onex":9362,"ĠChÃłng":9363,"ĠBrit":9364,"ĠLÅ©ng":9365,"Ġdáº±n":9366,"ĠcÃ¹":9367,"cÆ¡n":9368,"ĠTHADS":9369,"CTN":9370,"ım":9371,"tá»ķ":9372,"ĠAndrew":9373,"ĠKos":9374,"Ġ121":9375,"Ġ122":9376,"Ġhen":9377,"Ġcau":9378,"Ġcá»ĳp":9379,"ĠHoldings":9380,"iago":9381,"ĠThá»ĭt":9382,"ĠSevilla":9383,"ĠTá»ĳc":9384,"Ġresort":9385,"chá»ĳng":9386,"ĠCPTPP":9387,"ĠStam":9388,"ĠPes":9389,"Äĳáº¥t":9390,"Ġráº±m":9391,"ĠJoong":9392,"VnMedia":9393,"Ġ145":9394,"iPhone":9395,"ĠCá»ı":9396,"ĠsÃºp":9397,"Ġtá»³":9398,"ĠHinh":9399,"iller":9400,"ĠJang":9401,"ÄĲá»£t":9402,"ĠVAT":9403,"130":9404,"ĠSanta":9405,"ká»ĥ":9406,"Ġyáº¿m":9407,"quan":9408,"NATO":9409,"á»ĭm":9410,"KTSG":9411,"Ġ132":9412,"ĠSabeco":9413,"lÆ°á»£t":9414,"ĠÄĲá»©ng":9415,"ĠVietinbank":9416,"ington":9417,"%-":9418,"OO":9419,"Ãµng":9420,"ĠXH":9421,"ures":9422,"oma":9423,"aris":9424,"ĠValentine":9425,"ĠBá»ĵng":9426,"ĠBulgaria":9427,"²m":9428,"ĠCz":9429,"MI":9430,"Ġ1966":9431,"ĠChen":9432,"Dá»±a":9433,"Ġhydro":9434,"ĠWhite":9435,"ĠMÆ°a":9436,"âĢĻ,":9437,"Ġlon":9438,"Äĳang":9439,"ĠQual":9440,"ĠVCCI":9441,"Ġngáº«m":9442,"ĠMen":9443,"well":9444,"Ġekip":9445,"LÃłng":9446,"ĠThuá»ĳc":9447,"aster":9448,"Ġreo":9449,"ĠCenter":9450,"ĠngÃ³i":9451,"NgÃ´":9452,"ĠElon":9453,"ĠHouse":9454,"Ġphai":9455,"ÄĲá»Ļc":9456,"ĠtuÃ½p":9457,"ĠchÆ°":9458,"DÃłn":9459,"ĠBÃłu":9460,"KL":9461,"ĠDen":9462,"sp":9463,"Ġ1962":9464,"ĠÃ¡t":9465,"Zeneca":9466,"Chá»įn":9467,"Ġapp":9468,"ĠThÃ¬":9469,"ĠLebanon":9470,"ĠÄĲHQG":9471,"Ġtá»§y":9472,"eu":9473,"alem":9474,"ĠTeleg":9475,"ĠYu":9476,"Bu":9477,"EV":9478,"ĠCru":9479,"ĠBluetooth":9480,"Ġgiun":9481,"ĠYoo":9482,"ĠDep":9483,"irus":9484,"ĠNghá»ģ":9485,"ĠTriáº¿t":9486,"ĠDOJI":9487,"ĠZelensky":9488,"ĠRomania":9489,"ĠIvan":9490,"áº¥ng":9491,"Ġnude":9492,"ĠFrancisco":9493,"BT":9494,"Kháº£":9495,"Ġwon":9496,"Ġdáº«u":9497,"PLX":9498,"Äĳá»ģ":9499,"Ġbá»¥c":9500,"ĠTrÃ¹ng":9501,"ĠXÄĥng":9502,"Ġplay":9503,"ĠNÃłng":9504,"ĠBah":9505,"ĠTL":9506,"ĠKab":9507,"!\"":9508,"Ġnháº£":9509,"Ġlive":9510,"Ġselfie":9511,"Ġ127":9512,"ĠWan":9513,"alty":9514,"Ġcháº¯t":9515,"Ġ@":9516,"ĠGeneva":9517,"ĠFerguson":9518,"ÃĮNH":9519,"ĠvÆ¡i":9520,"ĠkÃ¬nh":9521,"rot":9522,"ahoo":9523,"duc":9524,"Nhu":9525,"ĠYan":9526,"Ráº¡ng":9527,"ĠhÃ©c":9528,"Ġphá»Ľt":9529,"Sp":9530,"bá»ı":9531,"Ġis":9532,"eber":9533,"Ġbáº¹p":9534,"ĠLar":9535,"Ġgá»įt":9536,"Ġáº¢NH":9537,"Ġ1964":9538,"LVT":9539,"ĠVÄĲQG":9540,"Ġ1954":9541,"ĠGot":9542,"ĠBLHS":9543,"ĠCook":9544,"Ġcá»Ļm":9545,"táº¡m":9546,"ĠMinzy":9547,"fer":9548,"ĠMarvel":9549,"ĠEcuador":9550,"ĠTÄĲ":9551,"ĠtÆ¡i":9552,"Liá»ĩu":9553,"ĠWood":9554,"ĠPenn":9555,"ĠGiáº¿t":9556,"Ġxy":9557,"inc":9558,"iki":9559,"ĠGáº·p":9560,"Äĳiá»ģu":9561,"vÃłng":9562,"ĠThÃ´n":9563,"Reuters":9564,"ĠVF":9565,"ĠCáº¥m":9566,"Bo":9567,"ĠSeung":9568,"aph":9569,"ĠBoy":9570,"ĠMonaco":9571,"Ġmá»ĭt":9572,"Ġnhá»Ŀn":9573,"ĠNHTM":9574,"\":":9575,"Ġdá»Ļt":9576,"ĠTer":9577,"Dáº¥u":9578,"Lá»Ļ":9579,"ĠVui":9580,"ienthuc":9581,"xx":9582,"yes":9583,"Ġque":9584,"wagen":9585,"ĠHarris":9586,"cu":9587,"ĠOlympia":9588,"Ġtrá»Ĺi":9589,"ĠMatt":9590,"ĠCNLÄĲ":9591,"ĠCá»«":9592,"ĠCháº£i":9593,"áº®":9594,"ĠAzerbaijan":9595,"Bá»ı":9596,"ĠYoon":9597,"no":9598,"ĠtrÃ¡":9599,"board":9600,"ĠmáºŃn":9601,"ĠSVÄĲ":9602,"oke":9603,"ĠnhoÃ¡ng":9604,"há»ĩ":9605,"ĠVá":9606,"IG":9607,"ĠVá»":9608,"ĠÄĲá»įc":9609,"Ġsáº£":9610,"ĠChev":9611,"ador":9612,"thay":9613,"ese":9614,"ĠNhiÃªn":9615,"ĠhÃ²ng":9616,"Ġsáº·c":9617,"Sai":9618,"aker":9619,"real":9620,"ĠVPBank":9621,"Lan":9622,"yc":9623,"ĠRem":9624,"KVÄĲ":9625,"ĠAbb":9626,"Biáº¿n":9627,"ĠSá»¯a":9628,"Toy":9629,"ĠBÃ¹":9630,"ĠsÃ´":9631,"ĠÃĲáº£ng":9632,"ĠthÃ¡n":9633,"ĠSeries":9634,"Ġblock":9635,"ĠHPG":9636,"El":9637,"Ġháº¯t":9638,"Hano":9639,"Sáº¯p":9640,"Ġ124":9641,"ĠdÄĥm":9642,"ĠMcC":9643,"cháº¿t":9644,"ĠGR":9645,"Ġshi":9646,"VÃµ":9647,"xcÆ¡":9648,"ĠFer":9649,"Ġnu":9650,"cert":9651,"Ġspa":9652,"2003":9653,"ĠLáºŃy":9654,"ĠKhÃ³a":9655,"ĠStamford":9656,"ĠEmirates":9657,"ĠHil":9658,"Ġ330":9659,"ovich":9660,"esa":9661,"ĠnhÃŃch":9662,"ĠFul":9663,"Khoáº£nh":9664,"ĠRau":9665,"ĠRet":9666,"ĠKhÃ¡n":9667,"Vinh":9668,"gas":9669,"ylv":9670,"ĠEco":9671,"Thá»¥y":9672,"ict":9673,"Ġsáº£ng":9674,"ĠAstraZeneca":9675,"kswagen":9676,"Mong":9677,"Äĳáº¿n":9678,"ĠrÆ°á»£t":9679,"ĠKhÃ¡c":9680,"ĠJet":9681,"Ġnguyá»ģn":9682,"ĠRáº¡ng":9683,"ĠTáº§m":9684,"ĠPoroshenko":9685,"Cá»Ńa":9686,"750":9687,"conom":9688,"GiadinhNet":9689,"aii":9690,"Sc":9691,"Ġbáº§y":9692,"ĠTáº¥m":9693,"ĠHáº¡ng":9694,"ĠNhá»Ľ":9695,"ĠThÃ©p":9696,"ĠliÃªm":9697,"ĠmÃªnh":9698,"aut":9699,"Ġfl":9700,"Äĳá»Ļi":9701,"ĠKhuáº¥t":9702,"Ġtháº³m":9703,"ÄĲá»ĵ":9704,"ĠHQ":9705,"Huyá»ģn":9706,"ĠInc":9707,"ĠMartial":9708,"ĠTráº£":9709,"Báº§u":9710,"UD":9711,"qui":9712,"ĠCÄĲCS":9713,"celand":9714,"2001":9715,"ĠmÃ¨":9716,"BCK":9717,"wich":9718,"Ġnháº¹n":9719,"ĠCzech":9720,"ĠFred":9721,"Ġlá»£p":9722,"ĠGiÃłu":9723,"form":9724,"iti":9725,"idi":9726,"ĠDC":9727,"abeu":9728,"ĠMá»ĳi":9729,"ifi":9730,"Ġxá»īn":9731,"cheon":9732,"Ġváº·n":9733,"anth":9734,"Ġnem":9735,"Ġsolo":9736,"£m":9737,"Nhá»Ľ":9738,"ĠChic":9739,"ĠHor":9740,"ĠTro":9741,"Hanoinet":9742,"ĠPed":9743,"káº»":9744,"TVS":9745,"Ġsá»įc":9746,"Singapore":9747,"Ġ138":9748,"ĠXoÃłi":9749,"dong":9750,"ĠKHCN":9751,"Ġáº£":9752,"umb":9753,"ĠQLDA":9754,"...\".":9755,"ĠRolls":9756,"Ġngá»§i":9757,"ĠLog":9758,"ĠDal":9759,"ĠBernabeu":9760,"ahu":9761,"Ġroi":9762,"ĠTÆ¡":9763,"Ġhuyá»ĩt":9764,"Ġ1963":9765,"ĠAguero":9766,"Ġcover":9767,"loud":9768,"ĠNháº±m":9769,"ká»³":9770,"ĠTáº£":9771,"ĠDev":9772,"Æ°á»£m":9773,"ĠSÃ³ng":9774,"chuyá»ĩn":9775,"ĠTrá»£":9776,"esus":9777,"ots":9778,"ĠPay":9779,"room":9780,"ĠAV":9781,"ĠRodriguez":9782,"âĢ¦âĢĿ,":9783,"ĠgÃło":9784,"vÃ¬":9785,"Ġvest":9786,"ĠShang":9787,"Ġsá»¥c":9788,"Ġcuá»ĳc":9789,"Ġláº¡ng":9790,"Ġriáº¿t":9791,"Ġpop":9792,"CÆ¡n":9793,"ĠAlgeria":9794,"ais":9795,"Vua":9796,"ĠCur":9797,"Toyota":9798,"ĠÄĲá»£t":9799,"ĠnÃ¡ch":9800,"ĠHiÃªn":9801,"Ã²m":9802,"ĠmÃºc":9803,"ĠrÃ´":9804,"ĠHolland":9805,"ror":9806,"Philippines":9807,"ĠSÃª":9808,"ĠDá»ĩt":9809,"uat":9810,"ĠxoÄĥn":9811,"Ġá»ķi":9812,"ÄĲÃ³ng":9813,"ĠTMÄĲT":9814,"Ġmá»ĵng":9815,"itar":9816,"Xu":9817,"ĠhÃºc":9818,"ĠrÃ¬nh":9819,"ĠBush":9820,"ĠÄĲÃ¡p":9821,"ĠAB":9822,"ĠUá»ĳng":9823,"thÃ´ng":9824,"ĠDig":9825,"earch":9826,"ĠNá»ķi":9827,"ĠHÄĲT":9828,"Malaysia":9829,"ĠPhn":9830,"Am":9831,"cia":9832,"ĠHot":9833,"Ãį":9834,"ĠÄĲKVÄĲ":9835,"earl":9836,"ĠHaaland":9837,"ĠPhilip":9838,"báº±ng":9839,"Ġrap":9840,"ĠGarden":9841,"ĠQualcomm":9842,"ĠchÆ°á»Ľc":9843,"vedev":9844,"ĠChÃłm":9845,"Kienthuc":9846,"ĠBP":9847,"Ġngá»ķn":9848,"ĠFe":9849,"Ġ165":9850,"ĠKhoÃ¡ng":9851,"ĠEric":9852,"Ġmetro":9853,"ĠGirl":9854,"thá»§":9855,"ĠphÆ°á»£ng":9856,"ĠHH":9857,"ĠGil":9858,"ĠráºŃm":9859,"ĠLigue":9860,"ĠoÃ¡n":9861,"QP":9862,"ĠVIP":9863,"Cad":9864,"girl":9865,"ĠFel":9866,"ĠKhÃ¡ng":9867,"ThÃº":9868,"CATP":9869,"ĠCentral":9870,"ĠChÃ¡y":9871,"Ġdáº¥n":9872,"nar":9873,"Camp":9874,"ĠPCR":9875,"ĠMasan":9876,"KhÃ":9877,"VÆ°Æ¡ng":9878,"nÆ°á»Ľc":9879,"ĠMÃ¨o":9880,"Ġthá»ĩ":9881,"Ġtrailer":9882,"ĠÃģng":9883,"Ġkhay":9884,"ĠÄĲTVN":9885,"Ġgá»ĵng":9886,"Ġrá»ĵ":9887,"SDÄĲ":9888,"VH":9889,"Ġcáº±m":9890,"ĠPanama":9891,"ĠMis":9892,"DR":9893,"ĠSter":9894,"ĠMÃ¡t":9895,"ÄĲSPL":9896,"sil":9897,"BÃ¡n":9898,"Ġquai":9899,"Ġnick":9900,"Ġchat":9901,"ther":9902,"ICA":9903,"ĠDow":9904,"Ġváº§y":9905,"biáº¿n":9906,"ĠUV":9907,"Royce":9908,"DS":9909,"ĠHarvard":9910,"omb":9911,"Ġbá»ĭa":9912,"OR":9913,"cÃ²":9914,"ĠSáº¯p":9915,"ĠKhÃºc":9916,"ĠÄĲáº«y":9917,"Ġhanh":9918,"Ġtriá»ģn":9919,"ĠÃĬ":9920,"ĠLump":9921,"ĠKCB":9922,"une":9923,"diá»ħn":9924,"áºłI":9925,"ĠUnivers":9926,"fo":9927,"Ġ134":9928,"ĠVietGAP":9929,"ĠDol":9930,"má»Ł":9931,"ĠlÃºt":9932,"ĠMass":9933,"Ġbl":9934,"Ġyen":9935,"obs":9936,"ĠMáºŃt":9937,"axi":9938,"ĠEun":9939,"ucker":9940,"Ġná»ī":9941,"WB":9942,"Lá»«a":9943,"ĠkhoÃ©t":9944,"Ġoff":9945,"UA":9946,"Ġex":9947,"ĠFood":9948,"ĠFil":9949,"ĠOl":9950,"iez":9951,"utter":9952,"Ġ365":9953,"ÃŃa":9954,"Ġcháº¯p":9955,"Ġstyle":9956,"Biá»ĥn":9957,"ĠHoSE":9958,"ĠNhá»±t":9959,"dÃ¢n":9960,"ĠGom":9961,"opy":9962,"Ġhacker":9963,"Huy":9964,"ĠAnn":9965,"ĠTháºŃp":9966,"ĠPap":9967,"Ġkn":9968,"ĠNgá»¥y":9969,"ĠCáº¡nh":9970,"850":9971,"ceae":9972,"Tinh":9973,"TBKTSG":9974,"ĠGPLX":9975,"ĠWol":9976,"Ġ389":9977,"ĠcÃ¡u":9978,"ĠGener":9979,"ĠÄĲá»ķng":9980,"ĠChristian":9981,"ĠHÆ°á»Łng":9982,"Ġnhuáº§n":9983,"ĠIC":9984,"ĠHanoi":9985,"ĠBoris":9986,"ĠMand":9987,"ĠTower":9988,"ĠhÃ£nh":9989,"ĠDiá»ĩc":9990,"Ġtuá»Ļt":9991,"Lee":9992,"omo":9993,"Ang":9994,"ĠGÃł":9995,"aren":9996,"ville":9997,"ÄĲá»ĭnh":9998,"ĠTimor":9999,"©n":10000,"Ġbá»Ļn":10001,"box":10002,"ĠPR":10003,"ĠchÃ¡t":10004,"ĠsÃ¡n":10005,"ĠNá»ģn":10006,"ĠAuto":10007,"ĠrÃ¹ng":10008,"Duy":10009,"ĠChicago":10010,"ĠCAH":10011,"ĠBamboo":10012,"ĠxÃª":10013,"ĠsÃ¡o":10014,"celotti":10015,"ĠNational":10016,"ĠThÃ¡m":10017,"ĠLamp":10018,"sy":10019,"each":10020,"!!!":10021,"Ġ999":10022,"rolet":10023,"Ġmáº¥u":10024,"Ma":10025,"Ġthá»Ľt":10026,"MD":10027,"gger":10028,"lÃ´":10029,"ST":10030,"ĠPop":10031,"loáº¡i":10032,"It":10033,"Tháº§n":10034,"mark":10035,"ĠLáº¡ch":10036,"Thuá»ĳc":10037,"ĠInvest":10038,"ThÆ°":10039,"Ġlink":10040,"Ġdr":10041,"ĠZika":10042,"ĠÄĳÃ£ng":10043,"ĠLumpur":10044,"ĠGÃ¢y":10045,"PR":10046,"ĠBÃª":10047,"ĠZen":10048,"sterdam":10049,"Zing":10050,"ĠGI":10051,"'),":10052,"ĠMedvedev":10053,"ilo":10054,"IÃĬN":10055,"rat":10056,"Ġláº»o":10057,"ĠTar":10058,"?\",":10059,"usalem":10060,"zh":10061,"ÄĲiá»ĥn":10062,"?!":10063,"tino":10064,"andowski":10065,"ĠEdward":10066,"ĠRoss":10067,"ault":10068,"Rau":10069,"Ġnáº¡c":10070,"ridae":10071,"ĠKuala":10072,"ĠRaj":10073,"ighton":10074,"ĠHamas":10075,"ĠGon":10076,"ĠIceland":10077,"cáº§u":10078,"ĠXá»©":10079,"ĠPot":10080,"Ġyá»ĥ":10081,"Ġdáº³ng":10082,"ĠTIáº¾":10083,"ĠHawaii":10084,"appy":10085,"ĠTá»Ļi":10086,"ĠNev":10087,"ĠBob":10088,"quÃª":10089,"ĠBHTN":10090,"Tháº£o":10091,"Ġxoang":10092,"ĠLight":10093,"ĠVik":10094,"ĠdÃŃ":10095,"ĠFashion":10096,"thiÃªn":10097,"BHXH":10098,"ĠBrown":10099,"ĠhÃ¹m":10100,"ĠDragon":10101,"ĠCK":10102,"ĠGame":10103,"ĠUPCoM":10104,"ĠIbrahimovic":10105,"asil":10106,"ĠTime":10107,"ĠAnt":10108,"Cáº£i":10109,"Giá»¯":10110,"ĠOh":10111,"Times":10112,"Ná»ķi":10113,"ĠThá»Ń":10114,"TTT":10115,"VFF":10116,"ĠthuyÃªn":10117,"Truy":10118,"450":10119,"ĠGabri":10120,"anyahu":10121,"inez":10122,"Ġdong":10123,"ĠMap":10124,"Äĳá»©ng":10125,"ental":10126,"Ġdel":10127,"Facebook":10128,"Ġ129":10129,"Ãªng":10130,"Ġas":10131,"As":10132,"Ġbá»ĭch":10133,"ĠBaltic":10134,"vÆ°á»£t":10135,"Ġnhá»ĳi":10136,"ĠrÆ¡":10137,"Ġsáº§m":10138,"Ġ225":10139,"ĠGam":10140,"Ġcháº§n":10141,"Ġcl":10142,"báº¡n":10143,"Ġfile":10144,"ult":10145,"lix":10146,"Na":10147,"view":10148,"ĠhÃ¢n":10149,"ĠMega":10150,"azz":10151,"Ġtá»Ľ":10152,"ĠWeek":10153,"ĠMXH":10154,"tom":10155,"lá»Ľp":10156,"ĠRover":10157,"ĠLá»Ľp":10158,"ball":10159,"ĠThuáºŃt":10160,"oda":10161,"CTCP":10162,"Ġ??":10163,"ÄĲá»Ĺ":10164,"ÄĲÃło":10165,"lyn":10166,"zz":10167,"Ġhat":10168,"emy":10169,"ĠHous":10170,"ĠÄĲáº¥y":10171,"giá»¯a":10172,"list":10173,"ĠLink":10174,"Ġváº¿":10175,"320":10176,"ĠOff":10177,"ĠIU":10178,"ĠVios":10179,"ĠLum":10180,"enna":10181,"Ġyou":10182,"ĠPhÃŃ":10183,"Ġ144":10184,"Ġtháº·ng":10185,"ĠPNJ":10186,"Binh":10187,"ĠChe":10188,"chÃŃnh":10189,"Æ°á»Ľn":10190,"Ġchao":10191,"bá»ĩnh":10192,"ĠphÃ¡ch":10193,"Ġmg":10194,"manuel":10195,"ĠThuáº§n":10196,"trick":10197,"mon":10198,"ĠLab":10199,"ĠLive":10200,"ĠJerusalem":10201,"Ġtru":10202,"egas":10203,"ĠExc":10204,"Ká»¹":10205,"UNG":10206,"ĠLeg":10207,"ĠLind":10208,"uckerberg":10209,"Ġgames":10210,"Tang":10211,"ĠFuk":10212,"Ġgo":10213,"ĠsÃł":10214,"Æ¯á»ľ":10215,"Ġmuá»ĳng":10216,"ĠCá»ĵn":10217,"cáº£":10218,"cp":10219,"ĠNetanyahu":10220,"teur":10221,"usta":10222,"ĠCarlos":10223,"Ġday":10224,"ĠHáº¡n":10225,"log":10226,"ĠTechn":10227,"eri":10228,"ĠPersie":10229,"quá»ĳc":10230,"back":10231,"ĠEti":10232,"ĠRoyal":10233,"ĠMaster":10234,"TrÃ¬nh":10235,"ĠBVÄĲK":10236,"ĠGad":10237,"ĠVel":10238,"html":10239,"ĠmÆ°á»Ľt":10240,"?.":10241,"Ġrá»£n":10242,"ĠnhÃºng":10243,"Máº¥t":10244,"ĠMSN":10245,"ĠPhone":10246,"rÃºt":10247,"ĠVietnamnet":10248,"Ġtanh":10249,"ĠAjax":10250,"ĠInsider":10251,"GV":10252,"ĠsÃ¡":10253,"ĠChá»įn":10254,"ĠthÃ³c":10255,"ĠgiÄĥng":10256,"bass":10257,"ĠxÃ¹":10258,"ĠTGÄĲ":10259,"ĠKenn":10260,"ASEAN":10261,"KhÃ¡n":10262,"ĠKit":10263,"Ġmui":10264,"DÆ°":10265,"ĠCAP":10266,"Ġnháº¥p":10267,"ĠBC":10268,"Ġsá»Ļ":10269,"BYT":10270,"NSND":10271,"ĠSpace":10272,"able":10273,"ido":10274,"esta":10275,"Ġchá»ķi":10276,"plus":10277,"ĠHav":10278,"ĠNCT":10279,"ÄĳÃ¡":10280,"bul":10281,"ĠngÃºt":10282,"ĠTÃºc":10283,"thÆ°á»Ŀng":10284,"ĠBh":10285,"Ġcáº·n":10286,"Vai":10287,"Trá»Ŀi":10288,"ĠbÃ¨n":10289,"ĠChá»©c":10290,"Express":10291,"for":10292,"PH":10293,"NSÆ¯T":10294,"ĠtÃ¬":10295,"ĠThÃ´i":10296,"Ġtáº¥c":10297,"áº¦N":10298,"ĠxÃ²e":10299,"ĠnhÄ©":10300,"bang":10301,"alines":10302,"IB":10303,"ĠEC":10304,"ĠFernandes":10305,"rique":10306,"ĠTony":10307,"Cadn":10308,"Dáº«n":10309,"ĠOsaka":10310,"Ġgl":10311,"PhÃ¡o":10312,"ĠdÃ¬u":10313,"ĠMohamed":10314,"Bá»¯a":10315,"ĠExpress":10316,"Ġáº":10317,"ĠCard":10318,"HNMO":10319,"TAND":10320,"ĠGolden":10321,"gl":10322,"ĠBVTV":10323,"ĠEar":10324,"cÅ©ng":10325,"Ġnoi":10326,"eira":10327,"wi":10328,"nÆ¡i":10329,"ĠRonald":10330,"ĠLLVT":10331,"chÃ¢n":10332,"Ġ136":10333,"ĠtÃŃt":10334,"GDP":10335,"ĠtrÃ³c":10336,"asa":10337,"ĠBST":10338,"ĠBai":10339,"gt":10340,"DÄĲ":10341,"ĠHuyáº¿t":10342,"EE":10343,"ĠMario":10344,"Ġ>":10345,"Ġphá»ĵn":10346,"ĠNgá»±":10347,"iezmann":10348,"ĠNoo":10349,"Phá»ĳ":10350,"Ġnáº¥c":10351,"ĠThiá»ģn":10352,"ĠMá»ı":10353,"Ġnga":10354,"ĠYing":10355,"Diá»ĩn":10356,"ĠBÆ°á»Łi":10357,"ChÃ¡y":10358,"giao":10359,"ĠMá":10360,"ĠCit":10361,"ĠMá»":10362,"ĠHDBank":10363,"ĠvÅ©ng":10364,"ĠÄĳong":10365,"ĠÄĲak":10366,"ĠÄĲÃ¡n":10367,"IVE":10368,"ool":10369,"ĠFri":10370,").-":10371,"áº«ng":10372,"house":10373,"Chá»ĳt":10374,"Ġpenalty":10375,"ĠHÃ¡t":10376,"GM":10377,"TIN":10378,"bar":10379,"Ġxui":10380,"PLO":10381,"ĠHir":10382,"urne":10383,"ĠlÃ©p":10384,"ĠZuckerberg":10385,"tiáº¿p":10386,"TR":10387,"Chá»ĳng":10388,"Ġel":10389,"tá»·":10390,"yeong":10391,"Cung":10392,"ĠJay":10393,"ĠChanel":10394,"iri":10395,"ĠCSHS":10396,"ĠAmsterdam":10397,"ĠAncelotti":10398,"chip":10399,"tai":10400,"ĠChiÃªm":10401,"pháº§n":10402,"ware":10403,"ĠvÃ£i":10404,"âĢ¦).":10405,"lt":10406,"ĠBell":10407,"HÄĲND":10408,"ĠBaghd":10409,"ashin":10410,"ÄĲáº·t":10411,"trung":10412,"Ġ133":10413,"ĠSab":10414,"Ġcomp":10415,"ĠTuyá»ĩt":10416,"ĠPeskov":10417,"ĠGolf":10418,"ĠEmmanuel":10419,"ĠlÆ°Æ¡n":10420,"ĠKas":10421,"Äĳa":10422,"Ġ;":10423,"Táº¥m":10424,"ĠFBNV":10425,"Ġ146":10426,"Ġderby":10427,"ĠIPO":10428,"ráºŃp":10429,"ĠATVS":10430,"ĠHigh":10431,"ĠCTV":10432,"ĠBá»Ļi":10433,"bom":10434,"ĠkÃ¨n":10435,"ĠBeau":10436,"len":10437,"ĠPasteur":10438,"kei":10439,"ĠTáº¡ng":10440,"ĠbÃ¡i":10441,"VÆ°á»Ŀn":10442,"ĠhÃ²m":10443,"LÃ¡":10444,"nÃ³i":10445,"ĠhÅ©":10446,"Ġbá»īm":10447,"ĠSecret":10448,"ĠGiá»¯":10449,"ĠModern":10450,"ĠWill":10451,"ĠJoon":10452,"ĠAngelina":10453,"ĠGala":10454,"ĠSteven":10455,"Ġhan":10456,"ĠMartinez":10457,"há»ģnh":10458,"bay":10459,"ĠVolkswagen":10460,"Ġsá»ī":10461,"Ġpiano":10462,"ĠLÃ´i":10463,"Láº¡i":10464,"ĠSea":10465,"ĠLaw":10466,"uire":10467,"ĠNguyen":10468,"ĠNicolas":10469,"vÃło":10470,"ĠHuynh":10471,"ĠWeibo":10472,"ense":10473,"ĠSlovakia":10474,"ĠÄĲÃª":10475,"Ġteam":10476,"edy":10477,"ĠLáº¡nh":10478,"xcÆ¡va":10479,"Ser":10480,"Mart":10481,"ĠKN":10482,"ÄĲá»Ŀi":10483,"ĠPier":10484,"ĠVAMC":10485,"LG":10486,"ken":10487,"ĠgÄĥm":10488,"ĠMol":10489,"ĠKelly":10490,"Ġmo":10491,"ĠNiá»ģm":10492,"ĠCameron":10493,"ĠMiami":10494,"ĠquÄĥng":10495,"ĠbÃ¹i":10496,"isia":10497,"Ġbáº¥p":10498,"CÃłng":10499,"ĠHTV":10500,"ĠGareth":10501,"Dáº§u":10502,"amex":10503,"inson":10504,"onet":10505,"ĠNGUYá»ĦN":10506,"hani":10507,"ÄĲÃ³n":10508,"LáºŃp":10509,"agan":10510,"nat":10511,"amond":10512,"uli":10513,"Ġháº±n":10514,"ĠTrÃ¡nh":10515,"Ġmake":10516,"CMP":10517,"flix":10518,"Ġnit":10519,"ĠVitamin":10520,"Ġváº£y":10521,"Dáº«u":10522,"ĠPitt":10523,"ĠTorres":10524,"work":10525,"ject":10526,"Ġfol":10527,"ĠMichel":10528,"Ġ139":10529,"thÆ°Æ¡ng":10530,"eld":10531,"PCR":10532,"ĠVAR":10533,"Loáº¡t":10534,"Ġkit":10535,"ĠGeorgia":10536,"ĠsÃ³i":10537,"cÄĥn":10538,"Ġnhá»Ľt":10539,"ĠRS":10540,"ĠLotte":10541,"Ġoanh":10542,"ĠBÃ©o":10543,"Ġngá»£p":10544,"idol":10545,"Ġbiáº¿ng":10546,"ĠNA":10547,"World":10548,"ĠMak":10549,"alle":10550,"ĠChat":10551,"ĠÄĲáº·t":10552,"ĠBahrain":10553,"ChÃło":10554,"ĠcÆ°á»¡i":10555,"rome":10556,"Ġ152":10557,"ĠIsland":10558,"ylvania":10559,"ĠBieber":10560,"ĠÄĲÃ¨o":10561,"Ġláº«m":10562,"Ġ131":10563,"Ġ1961":10564,"ĠDÆ°á»Ŀng":10565,"âĢ¦;":10566,"ĠLÅ©y":10567,"Bra":10568,"hoa":10569,"ĠVinhomes":10570,"tháº¿":10571,"ĠOman":10572,"ĠHealth":10573,"ĠBB":10574,"HoÃłi":10575,"¬a":10576,"ĠrÃ´n":10577,"Ġ1958":10578,"ĠJoseph":10579,"ĠTown":10580,"háº¡":10581,"war":10582,"dau":10583,"Ġsáº¡p":10584,"Ġháº¥n":10585,"atin":10586,"mun":10587,"Ġgáº¯p":10588,"ĠRafael":10589,"ĠBurn":10590,"ĠHim":10591,"ĠGH":10592,"bol":10593,"ĠkÃ©n":10594,"ĠVirginia":10595,"Phá»ĳi":10596,"Ġnetizen":10597,"ĠGomez":10598,"pol":10599,"ĠTe":10600,"Ġsá»§a":10601,"cÃ¡":10602,"des":10603,"ĠHum":10604,"SÆ°":10605,"ĠETF":10606,"Australia":10607,"ĠGeomet":10608,"ĠBec":10609,"CáºŃp":10610,"optera":10611,"Ġ850":10612,"ĠZhang":10613,"Ġgiá»Ł":10614,"ĠKhan":10615,"ĠOut":10616,"Cuá»ĳn":10617,"Ġcoll":10618,"ĠYeon":10619,"ĠABC":10620,"ĠVNA":10621,"cal":10622,"NÃłng":10623,"ĠPhnom":10624,"ĠStephen":10625,"HA":10626,"Tháº¯ng":10627,"ªu":10628,"ĠFutsal":10629,"ĠNghÄ©":10630,"Ġtáº±m":10631,"ĠsÃ²":10632,"ĠRoberto":10633,"asaki":10634,"lic":10635,"ĠchÃ²m":10636,"ĠEdition":10637,"Ġmag":10638,"inch":10639,"ĠKenya":10640,"ĠUBMTTQ":10641,"Ġcáº³ng":10642,"ria":10643,"Ġphot":10644,"aine":10645,"iva":10646,"Ġgá»ī":10647,"ĠAnna":10648,"thanh":10649,"Ná»ģn":10650,"ĮC":10651,"ĠPenh":10652,"ute":10653,"ĠTráº§m":10654,"Ġ1959":10655,"ĠSap":10656,"tay":10657,"ĠCle":10658,"cer":10659,"ĠTab":10660,"Ġ137":10661,"tinh":10662,"ĠCastro":10663,"ĠLÆ°á»Ľi":10664,"nger":10665,"ĠFut":10666,"ĠLiu":10667,"ĠGeometridae":10668,"ĠdÃ£i":10669,"Ġchá»Ľ":10670,"quÃ¡":10671,"ussia":10672,"Sáº¯c":10673,"ĠTrá»ĵng":10674,"ĠKore":10675,"ĠCamry":10676,"ĠTÃły":10677,"upe":10678,"allad":10679,"tÃ´ng":10680,"Ġsil":10681,"tÃŃn":10682,"apan":10683,"Ġkiá»ĥng":10684,"ĠMurray":10685,"Thá»ıa":10686,"ĠnÃ¡m":10687,"ĠBrook":10688,"ÃĢNG":10689,"Cáº¥p":10690,"Ġtráº»o":10691,"Ġby":10692,"ĠLewandowski":10693,"ĠrÃ¢m":10694,"Ngáº¯m":10695,"ĠMao":10696,"ĠIv":10697,"CTnews":10698,"Ġtráº§u":10699,"ĠHáº¯n":10700,"estr":10701,"Ad":10702,"Giá»įng":10703,"ĠtrÃłm":10704,"Pod":10705,"Ġcháº¥u":10706,"Ġconcept":10707,"ĠkhÃ¢m":10708,"Ġ156":10709,"Ġ185":10710,"Quyá»ģn":10711,"IMF":10712,"phÃ²ng":10713,"My":10714,"Ġ167":10715,"ĠSanh":10716,"ĠCons":10717,"650":10718,"ĠKey":10719,"ĠSlam":10720,"ĠIncheon":10721,"ABank":10722,"ĠTi":10723,"ÄĲáº£m":10724,"ĠRanger":10725,"ĠTed":10726,"Ġphá»ĳt":10727,"Ġ370":10728,"ĠIT":10729,"quáº£":10730,"ĠCharlie":10731,"Ġtruáº¥t":10732,"ĠNháº¡":10733,"ĠTTATGT":10734,"ThÆ°a":10735,"Berry":10736,"xem":10737,"ĠChiá»ģng":10738,"inea":10739,"ĠCáº¥n":10740,"cá»©":10741,"ĠÄĳÃ´la":10742,"Tráº¡m":10743,"ÄĲau":10744,"Dav":10745,"ĠJess":10746,"há»£p":10747,"trÆ°á»Ŀng":10748,"ĠÆ°":10749,"ĠLÃłnh":10750,"vua":10751,"rit":10752,"ThÃ¢n":10753,"ĠAlexand":10754,"Ġsáº£i":10755,"ĠTG":10756,"uiz":10757,"ĠBrand":10758,"ews":10759,"ĠMeghan":10760,"Cáº©m":10761,"ĠRain":10762,"ĠSXH":10763,"Pr":10764,"ĠNVCC":10765,"ĠGian":10766,"Ġgene":10767,"ĠCout":10768,"ĠSimon":10769,"Ġpháº¥t":10770,"Ġdáº«m":10771,"ĠDT":10772,"ĠcÄĥm":10773,"ĠKard":10774,"rent":10775,"Google":10776,"hÃ³i":10777,"Un":10778,"Ġkhuynh":10779,"TTM":10780,"ĠDáº£i":10781,"Ġhybrid":10782,"ĠKaw":10783,"káº¿t":10784,"Ġnhá»īnh":10785,"iko":10786,"Pha":10787,"fÃ©":10788,"chet":10789,"Ġ1900":10790,"ĠQueen":10791,"BD":10792,"ĠVEC":10793,"ĠnhÃ²a":10794,"ĠLuÃ´ng":10795,"ĠRome":10796,"Ġknock":10797,"TTH":10798,"Ġtá»Ļt":10799,"ĠnÃ´i":10800,"reen":10801,"ĠFull":10802,"Gal":10803,"Thá»Ń":10804,"ĠÄĲTDÄĲ":10805,"Ġxuyáº¿n":10806,"Sport":10807,"orth":10808,"ĠLÃ¡t":10809,"ĠSher":10810,"Ġdá»ım":10811,"ĠCarolina":10812,"ĠNovos":10813,"ĠJackpot":10814,"ĠStand":10815,"ĠKiá»ĥu":10816,"ough":10817,"ĠÄĳá»Ĺi":10818,"stem":10819,"Ġten":10820,"ĠLampard":10821,"ĠPhar":10822,"ĠgÆ°á»£ng":10823,"ĠSnow":10824,"HAGL":10825,"ĠMÃ¡c":10826,"SL":10827,"obe":10828,"umi":10829,"ĠKhal":10830,"ĠGood":10831,"ĠGriezmann":10832,"Lá»Ľp":10833,"ĠLock":10834,"LÃªn":10835,"ĠColor":10836,"ĠGiáº½":10837,"ĠPA":10838,"Plus":10839,"ĠTá»ī":10840,"LIVE":10841,"NC":10842,"CÄĥng":10843,"fia":10844,"ĠThÆ°a":10845,"Ġduá»ĩ":10846,"Ġ142":10847,"nhÃ³m":10848,"ĠBiáº¿n":10849,"ĠliÃªu":10850,"sylvania":10851,"ĠKabul":10852,"ĠRun":10853,"Ġvá»¥ng":10854,"uchel":10855,"140":10856,"ĠLopez":10857,"LT":10858,"Ġká»ģnh":10859,"jamin":10860,"ĠMirror":10861,"ĠHT":10862,"cÆ°á»Ŀi":10863,"ĠBrom":10864,"ĠUltra":10865,"ĠxÃ³c":10866,"Ġsp":10867,"sáº£n":10868,"ĠÄĲÃ¡m":10869,"ĠNord":10870,"inger":10871,"ĠSenkaku":10872,"quang":10873,"Ġblog":10874,"Ġáº¯p":10875,"Ġgameshow":10876,"ĠTKV":10877,"ĠABS":10878,"ĠCong":10879,"usse":10880,"ĠNNPTNT":10881,"ĠBCÄĲ":10882,"CÃ¡nh":10883,"GÃ¢y":10884,"ĠMá»Ļng":10885,"ĠYam":10886,"ĠAlb":10887,"Ġcas":10888,"ĠngoÃ£n":10889,"ÃĻ":10890,"ĠTao":10891,"ÄĲÃ¬nh":10892,"ĠHáº¿t":10893,"owell":10894,"ĠEtihad":10895,"nia":10896,"Ġtá»£n":10897,"Ġváº§n":10898,"On":10899,"BM":10900,"ills":10901,"als":10902,"»Ķ":10903,"ĠBoston":10904,"Ġhom":10905,"ĠTá»įa":10906,"ĠQÄĲND":10907,"stanbul":10908,"ĠKitco":10909,"ĠSterling":10910,"ĠBali":10911,"ĠLis":10912,"endy":10913,"cidae":10914,"MÃ£":10915,"tim":10916,"idel":10917,"ĠWolf":10918,"á»Ķ":10919,"ĠLNG":10920,"CEO":10921,"Háº¡t":10922,"ĠPri":10923,"ĠJohan":10924,"TrÃ²":10925,"ĠnhÃ´":10926,"ĠScar":10927,"ĠCiv":10928,"chim":10929,"ĠRon":10930,"thoid":10931,"ĠKhiáº¿t":10932,"Ä±":10933,"ĠCCH":10934,"rak":10935,"uta":10936,"Ġcáº±n":10937,"Ġnhuá»ĩ":10938,"Gá»Ńi":10939,"ĠGiÃ¡c":10940,"VKS":10941,"uatin":10942,"cord":10943,"ting":10944,"Ġcollagen":10945,"ĠSad":10946,"ĠCross":10947,"eno":10948,"Har":10949,"110":10950,"ĠSor":10951,"oiduatin":10952,"ĠClip":10953,"MÃ¡i":10954,"125":10955,"anka":10956,"...\"":10957,"Ġ720":10958,"phiÃªn":10959,"Class":10960,"Ġngáº©n":10961,"Ġtráº§y":10962,"ĠnhÅ©":10963,"ulia":10964,"thoidai":10965,"sao":10966,"Ngá»ĵi":10967,"ĠÐ":10968,"ĠTNXP":10969,"book":10970,"ĠTrip":10971,"ĠVes":10972,"CSGT":10973,"ĠLÃ£i":10974,"stock":10975,"GÆ°Æ¡ng":10976,"hanol":10977,"ĠBaby":10978,"Ġhá»Ŀ":10979,"ĠThung":10980,"Ġad":10981,"Ġváº¡t":10982,"ĠTher":10983,"Ġvá»¥t":10984,"ĠCNCH":10985,"ichi":10986,"Ġá»ī":10987,"ĠXVI":10988,"ÄĳoÃłn":10989,"Ġ143":10990,"chÆ¡i":10991,"ĠchÃ´m":10992,"ĠArena":10993,"ĠmÆ°á»Ľp":10994,"ĠChevrolet":10995,"ĠSÃ¹ng":10996,"ĠPennsylvania":10997,"ĠAnfield":10998,"Ġáº¤t":10999,"bridge":11000,"ĠMosul":11001,"ĠLá»©c":11002,"ĠISO":11003,"of":11004,"bit":11005,"kins":11006,"ĠGiáº£":11007,"ĠDef":11008,"ĠDonbass":11009,"ĠDK":11010,"Ġblue":11011,"ĠShaw":11012,"sÃ¡ng":11013,"ĠGCN":11014,"âĢ¦âĢ¦":11015,"Ġboy":11016,"rich":11017,"ĠBruy":11018,"Ġ981":11019,"Ġcá»Ńu":11020,"ĠPL":11021,"ĠMohammed":11022,"ĠDoji":11023,"ĠRÃło":11024,"ĠthÃ©t":11025,"Xung":11026,"ĠRol":11027,"lazer":11028,"ats":11029,"ĠNu":11030,"Ġpoly":11031,"ĠngÃ¹ng":11032,"ĠAbram":11033,"ĠÄĲáº¡m":11034,"BO":11035,"âĢĺ":11036,"ĠLady":11037,"aus":11038,"hr":11039,"Ġmá»Ľ":11040,"ersburg":11041,"Ġvá»ĩt":11042,"Ġnáº¯n":11043,"ĠVÃłm":11044,"KÃ½":11045,"uthi":11046,"ĠcÃ²ng":11047,"ĠXperia":11048,"Ġ256":11049,"HÄĲXX":11050,"Ġ737":11051,"Su":11052,"thoidaiplus":11053,"Ãģnh":11054,"ĠTCN":11055,"2002":11056,"ĠKhá»ķng":11057,"ĠCarib":11058,"ello":11059,"ĠNoc":11060,"ĠSCIC":11061,"ÄĲÃłm":11062,"ĠHollande":11063,"Ġ168":11064,"ĠDá»±a":11065,"ĠJoo":11066,"ĠSaf":11067,"ĠlÃ¹n":11068,"cam":11069,"ĠMoyes":11070,"ĠHass":11071,"hana":11072,"Fan":11073,"Ġlogic":11074,"IF":11075,"ĠphÃ¨n":11076,"ĠVinalines":11077,"ĠFranco":11078,"Ġvali":11079,"ĠKP":11080,"ĠNetflix":11081,"ĠmÄ©":11082,"ĠPel":11083,"Israel":11084,"ender":11085,"loween":11086,"ikh":11087,"ĠThuyáº¿t":11088,"ĠDeir":11089,"ĠMaguire":11090,"ĠbÃ³i":11091,"ĠGio":11092,"ĠHotel":11093,"ĠIstanbul":11094,"ĠRC":11095,"ĠResearch":11096,"ĠCNBC":11097,"Ġsáº£y":11098,"ĠTrá»Ł":11099,"luck":11100,"izLIVE":11101,"ĠMaduro":11102,"Ġcáº¡p":11103,"SO":11104,"ĠHugo":11105,"Ju":11106,"Post":11107,"ĠKids":11108,"tham":11109,"ĠPerez":11110,"TÆ°á»Ľng":11111,"ĠhÆ°Æ¡u":11112,"ĠÄĲK":11113,"ĠÃ³i":11114,"ĠTáº§ng":11115,"»ī":11116,"Ġmá»įng":11117,"Ġtrá»£n":11118,"ĠVIB":11119,"ĠhÃº":11120,"ĠThÃ¢m":11121,"ĠBrighton":11122,"chuyÃªn":11123,"ĠBruyne":11124,"ĠBook":11125,"ĠÄĲáº¡":11126,"uoiduatin":11127,"ĠmÃło":11128,"ĠMata":11129,"ĠPCTN":11130,"Ġsi":11131,"á»ī":11132,"ĠNight":11133,"ĠÃĶn":11134,"tri":11135,"ĠÄĲáº¹p":11136,"ĠXIX":11137,"ĠRIA":11138,"Ġkáº»o":11139,"Khoa":11140,"ĠÄĳá»Ļn":11141,"Ġvá»¯a":11142,"ĠWars":11143,"Ġ340":11144,"Ġte":11145,"Ġ380":11146,"ĠXung":11147,"ĠBá»ķ":11148,"ĠrÃª":11149,"ĠFr":11150,"ĠmAh":11151,"LD":11152,"khai":11153,"ĠSwan":11154,"ĠTravel":11155,"ĠÃ¬":11156,"ĠlÃ¬a":11157,"ĊĠ":11158,"ĠcÃłn":11159,"Ġidol":11160,"ĠquÃŃ":11161,"Ġdáº»":11162,"ĠGabriel":11163,"ĠBaghdad":11164,"name":11165,"ĠCavani":11166,"ĠGeun":11167,"ĠKer":11168,"HÃ³a":11169,"tÃłi":11170,"Ag":11171,"ĠkV":11172,"ĠPCTT":11173,"ĠMarketing":11174,"ĠNikkei":11175,"eds":11176,"ĠXL":11177,"Sa":11178,"ĠShark":11179,"ĠArteta":11180,"try":11181,"LÃ¢u":11182,"Ġhá»¥i":11183,"osite":11184,"Ná»Ĺ":11185,"Ġstatus":11186,"tÃ¢m":11187,"estay":11188,"ĠVincom":11189,"ading":11190,"Ġlim":11191,"ĠVinaconex":11192,"ĠMorgan":11193,"ĠYas":11194,"EUT":11195,"roud":11196,"Ġ1930":11197,"ĠCáº©n":11198,"ĠBenjamin":11199,"240":11200,"ĠNá»Ĺi":11201,"ANG":11202,"ĠGas":11203,"Ġphiá»ĩn":11204,"Ġluyáº¿n":11205,"ylon":11206,"ĠIR":11207,"jin":11208,"ĠPi":11209,"ĠPTNT":11210,"±a":11211,"XS":11212,"Bá»ķ":11213,"ĠtÃ©p":11214,"uner":11215,"ĠHuyÃªn":11216,"Nháº¥n":11217,"ĠFrance":11218,"Quáº§n":11219,"HP":11220,"ĠChá»©":11221,"cap":11222,"ĠnguÃ´i":11223,"arab":11224,"etta":11225,"ĠXá»ķ":11226,"ĠCarter":11227,"ĠRica":11228,"Ġtab":11229,"ĠCamera":11230,"ector":11231,"SÃ¡ch":11232,"ĠTelegraph":11233,"Ġhá»ķi":11234,"ĠBá»īnh":11235,"ĠBlock":11236,"qa":11237,"ĠNáº±m":11238,"Háº¿t":11239,"chá»ĵng":11240,"DT":11241,"CSXH":11242,"ĠEX":11243,"wait":11244,"Huá»³nh":11245,"Ġ147":11246,"ĠSay":11247,"rotimes":11248,"ĠTrÃ¡c":11249,"ĠUBTÆ¯":11250,"........":11251,"cl":11252,"ĠEPA":11253,"Nhan":11254,"ĠMach":11255,"ĠKum":11256,"ĠRodrigo":11257,"long":11258,"Ġ162":11259,"nhiá»ĩm":11260,"EUTERS":11261,"vis":11262,"Ġ148":11263,"ĠphÃ¬nh":11264,"ngÃ´i":11265,"Ġteo":11266,"yong":11267,"Land":11268,"ĠGram":11269,"Há»ıi":11270,"ĠModi":11271,"ĠrÃ¬a":11272,"ĠKhÃ¡i":11273,"Ġsá»¯ng":11274,"ĠMá»Ļ":11275,"ias":11276,"ĠNgoan":11277,"Ġgá»Ŀm":11278,"ĠCuÃ´ng":11279,"ĠKháº©u":11280,"ĠPhilippe":11281,"Iá»Ĥ":11282,"...).":11283,"atti":11284,"ĠMali":11285,"Ġins":11286,"ĠTem":11287,"Campuchia":11288,"PK":11289,"xa":11290,"ĠTÃ¡i":11291,"ĠKhÃ¡":11292,"ĠSak":11293,"ĠAmerican":11294,"Ġsho":11295,"ĠDiamond":11296,"ĠMÃ¹":11297,"ĠRá»«ng":11298,"ĠMinsk":11299,"ĠBá»Ļt":11300,"ĠArsen":11301,"atri":11302,"Ġ1956":11303,"ĠLing":11304,"xanh":11305,"ĠAndy":11306,"HÆ°ng":11307,"Ġmáº©u":11308,"ĠWayne":11309,"Ġitem":11310,"áº¾T":11311,"Ġ153":11312,"ĠLil":11313,"ience":11314,"ĠManuel":11315,"ĠlÃµm":11316,"tour":11317,"Ġngá»ĳc":11318,"ĠbáºŃy":11319,"vietnam":11320,"Ġ174":11321,"Nghá»ģ":11322,"TÃ³c":11323,"ngoÃłi":11324,"ĠTASS":11325,"ĠBad":11326,"ĠVegas":11327,"Tháº¥t":11328,"Ġbá»ģnh":11329,"Ġtrá»įc":11330,"ĠMá»ħ":11331,"prom":11332,"BL":11333,"ĠlÃŃu":11334,"ĠInfonet":11335,"ĠHÄĲTV":11336,"ĠPre":11337,"olla":11338,"550":11339,"ĠVÆ°á»£t":11340,"ĠLyon":11341,"adona":11342,"Ġbáº§n":11343,"than":11344,"ĠMarcel":11345,"urgen":11346,"VND":11347,"Ġchuá»ĵn":11348,"ĴNG":11349,"rÃ´":11350,"ĠThuyá»ģn":11351,"ĠNÃ´":11352,"opia":11353,"sÃ¢n":11354,"Ġout":11355,"ĠTitan":11356,"danh":11357,"ĠÄĲÃ©c":11358,"ĠYingluck":11359,"Ġ158":11360,"nel":11361,"Rob":11362,"Mos":11363,"ĠYahoo":11364,"ĠTuchel":11365,"ĠLáº¯c":11366,"doanh":11367,"Ġ290":11368,"ĠmÃ¡ch":11369,"ĠCeram":11370,"ĠNoctu":11371,"Háº¡nh":11372,"ĠGuinea":11373,"ĠYoshi":11374,"NghÄ©a":11375,"ĠTHX":11376,"Ġbá»£":11377,"ĠBecamex":11378,"ĠNoctuidae":11379,"ĠCoun":11380,"phong":11381,"180":11382,"ĠÄĲau":11383,"ĠchoÃłng":11384,"ÄĲÄĥng":11385,"ĠTáº¯c":11386,"ĠOLED":11387,"aux":11388,"ĠBun":11389,"Ġrocket":11390,"ĠKardashi":11391,"trang":11392,"ĠSib":11393,"THPT":11394,"Ġguitar":11395,"ĠvÃ©n":11396,"Huáº¥n":11397,"Ġbá»Ŀi":11398,"GÃ³p":11399,"ĠAlbum":11400,"ĠLÄĲLÄĲVN":11401,"BÃ£i":11402,"ĠnhÃ¡c":11403,"TÆ°á»Łng":11404,"ĠLá»Ĺ":11405,"ĠUBCK":11406,"rio":11407,"ĠWave":11408,"uth":11409,"Ġstream":11410,"ĠTáº¡m":11411,"ĠChristoph":11412,"yad":11413,"ĠThá»īnh":11414,"sson":11415,"jk":11416,"zen":11417,"Ġnháº½":11418,"Miss":11419,"ĠHad":11420,"Ġcard":11421,"David":11422,"ĠBuk":11423,"Ġ163":11424,"Ġnham":11425,"Sá»¯a":11426,"Ġnhá»į":11427,"Lao":11428,"HNX":11429,"Ġhá»ħ":11430,"Ġxá»ĭn":11431,"nd":11432,"ĠBud":11433,"1000":11434,"John":11435,"ĠSTB":11436,"bourne":11437,"mÃ¡y":11438,"ĠPhá»ķi":11439,"ĠKBNN":11440,"ĠNhá»±a":11441,"omet":11442,"Ġenz":11443,"thong":11444,"LÄĲLÄĲ":11445,"Ġwith":11446,"Ġcast":11447,"boy":11448,"Ġháº«ng":11449,"Ġtal":11450,"MÃ´i":11451,"Khoáº£n":11452,"ĠFire":11453,"ĠHá»ıi":11454,"TiÃªm":11455,"ĠHalloween":11456,"ļI":11457,"rys":11458,"Ġshipper":11459,"ĠWTI":11460,"ĠSantos":11461,"Ġngá»Ńi":11462,"Ġthá»ım":11463,"alan":11464,"ĠbÃ¹a":11465,"ĠCCHC":11466,"VCCI":11467,"ping":11468,"Ġ157":11469,"khÃ¡ch":11470,"ĠThÃ¡o":11471,"ĠcÃµng":11472,"ĠsÃ¹i":11473,"ĠsuÃ´ng":11474,"ĠDáº¥u":11475,"Ġat":11476,"haw":11477,"ĠZo":11478,"furt":11479,"ĠPaulo":11480,"ĠquáºŃy":11481,"tÆ¡":11482,"ĠNgá»Ļ":11483,"ĠLumia":11484,"Ġcá»©a":11485,"ĠnhÃ¡y":11486,"Ġmaz":11487,"ĠGPS":11488,"Ġor":11489,"mas":11490,"ĠHart":11491,"dg":11492,"Ġ420":11493,"Ġngáº¡o":11494,"LÃ£i":11495,"ĠGRDP":11496,"gmail":11497,"Ġváº¯cxin":11498,"Dr":11499,"ĠBest":11500,"VÃ¢n":11501,"ĠExp":11502,"ĠLuk":11503,"aud":11504,"Ġmá»īa":11505,"ĠÄĳÃ¹m":11506,"ĠBG":11507,"ĠRah":11508,"Pro":11509,"ĠBet":11510,"ĠManh":11511,"tiá»ĥu":11512,"Ġ1957":11513,"ĠnÃł":11514,"eol":11515,"ieu":11516,"Ġbuá»ĵm":11517,"ĠÄĲá»ĭch":11518,"ĠCab":11519,"Ġchá»Ļi":11520,"ĠchÃ´ng":11521,"ĠHSBC":11522,"QÄĲND":11523,"iat":11524,"ĠTunisia":11525,"Kháº£o":11526,"ĠDá»¯":11527,"Há»įa":11528,"Ġhá»Łi":11529,"Mic":11530,"ThÃŃch":11531,"ious":11532,"ĠrÃ´ng":11533,"Miá»ģn":11534,"sang":11535,"ĠWom":11536,"ĠLP":11537,"Tom":11538,"________":11539,"Donald":11540,"ĠBez":11541,"Ġnáº»o":11542,"eet":11543,"Ġmeg":11544,"050":11545,"ĠGHPG":11546,"ĠDae":11547,"ĠDá»«a":11548,"ĠmÆ°á»Ľn":11549,"ĠNovosti":11550,"ĠVinaPhone":11551,"ĠNak":11552,"ĠBlackBerry":11553,"ĠCL":11554,"Ġoi":11555,"ĠPedro":11556,"ĠKCNA":11557,"Háº±ng":11558,"ĠLtd":11559,"ĠCTG":11560,"ELTS":11561,"Ġgr":11562,"Cháº¡y":11563,"Äĳáº¡o":11564,"bÃ£o":11565,"Ġvá»«ng":11566,"ize":11567,"ĠtÃºm":11568,"ĠVnExpress":11569,"ĠViktor":11570,"Ġhá»Ŀn":11571,"ĠImp":11572,"ħu":11573,"tá»ĳ":11574,"De":11575,"Ġ1946":11576,"ĠTruyá»ĩn":11577,"Táº¡p":11578,"eim":11579,"láº¥y":11580,"ĠÄĲÃ³ng":11581,"CÆ°á»Ľp":11582,"...;":11583,"ĠTerry":11584,"ĠManag":11585,"Ġ911":11586,"ĠLCD":11587,"Ġngá»Ľt":11588,"uka":11589,"ĠPhillip":11590,"ĠLyn":11591,"TÃ¹y":11592,"'?":11593,"ĠhÃ£n":11594,"Ġbitcoin":11595,"ĠhÃ©o":11596,"Ġchan":11597,"ĠJesus":11598,"ĠHá»·":11599,"ĠFur":11600,"Ġáº£i":11601,"ĠModerna":11602,"uber":11603,"ĠSÃłn":11604,"anium":11605,"Ġtuá»ĵng":11606,"Ġthá»ıi":11607,"giáº¿t":11608,"trol":11609,"CAO":11610,"aron":11611,"ous":11612,"otelli":11613,"ĠÆł":11614,"ĠModric":11615,"«m":11616,"Ġgá»Ľm":11617,"FDI":11618,"ĠHend":11619,"Ġgiáº§y":11620,"Ġhá»Ŀi":11621,"emb":11622,"ná»ķi":11623,"Ġxá»ĩ":11624,"Ġbuá»ĳt":11625,"occo":11626,"ĠCáº¡p":11627,"dafi":11628,"Iá»Ģ":11629,"Ġml":11630,"cáºŃu":11631,"lai":11632,"xÃ¢y":11633,"Ġop":11634,"Ġ480":11635,"Ġâ":11636,"ĠCopa":11637,"ĠMÃ¢u":11638,"ĠTele":11639,"Ġtá»µ":11640,"ĠLucas":11641,"ears":11642,"ĠKardashian":11643,"»Ĩ":11644,"ĠCoca":11645,"BÃ¹i":11646,"nguá»ĵn":11647,"Soi":11648,"á»Ĩ":11649,"Barca":11650,"opol":11651,"ars":11652,"quÃ¡i":11653,"vir":11654,"ĠKTS":11655,"Ġbá»¡":11656,"ÄĲBQH":11657,"mes":11658,"CX":11659,"ĠLeo":11660,"ĠMÃ¡i":11661,"Ġkiá»ĩu":11662,"dÆ°á»Ľi":11663,"ĠTrÃ¡ng":11664,"ĠInnova":11665,"Ġconcert":11666,"ĠVid":11667,"Ġnáº·n":11668,"ĠKiatisak":11669,"ĠRoad":11670,"nguy":11671,"ĠPVF":11672,"lock":11673,"ĠHon":11674,"SÃ´ng":11675,"Ġáº¤y":11676,"bá»ĳ":11677,"pháº£n":11678,"ancial":11679,"ĠJr":11680,"Viettel":11681,"hir":11682,"ĠPixel":11683,"Ã³e":11684,"ĠvÃ£ng":11685,"CLOS":11686,"essa":11687,"Ġroom":11688,"ĠCoo":11689,"ĠNHM":11690,"Háº¡n":11691,"ĺI":11692,"engers":11693,"iesta":11694,"tylist":11695,"Â»":11696,"CÆ°":11697,"ĠMarie":11698,"ĠKor":11699,"hoi":11700,"ĠFortuner":11701,"iaceae":11702,"egal":11703,"ĠKro":11704,"ĠRose":11705,"ĠMacBook":11706,"daq":11707,"ĠVoi":11708,"ĠStream":11709,"ardy":11710,"weet":11711,"Ġá»Ĳc":11712,"ĠRou":11713,"ĠEthi":11714,"ĠPul":11715,"ross":11716,"ĠhÄĥm":11717,"Trá»¥":11718,"VÃ´":11719,"ĠtáºŃu":11720,"Web":11721,"ĠEnrique":11722,"BGDÄĲT":11723,"nhÆ°ng":11724,"cáº¥p":11725,"hio":11726,"otball":11727,"hol":11728,"ĠHC":11729,"ĠChanh":11730,"ĠCast":11731,"awi":11732,"ĠJobs":11733,"Ġchá»«":11734,"ben":11735,"Ġrub":11736,"sÄĥn":11737,"dd":11738,"ĠGol":11739,"Mer":11740,"Brazil":11741,"Ġnao":11742,"ĠTayy":11743,"ĠKuwait":11744,"ĠSuy":11745,"ĠCour":11746,"Äĳá»ģu":11747,"ChÄĥm":11748,"eiro":11749,"ussier":11750,"ĠHÃ£n":11751,"viá»ĩc":11752,"\"),":11753,"ĠhÃ¨n":11754,"ĠNgÃłn":11755,"Ġ171":11756,"ĠSus":11757,"Ġ154":11758,"ĠIELTS":11759,"NTM":11760,"ĠThuáº¥n":11761,"ĠhÃª":11762,"Ġváº±n":11763,"Ġ950":11764,"ĠLor":11765,"rÃ´ng":11766,"Tá»ĳt":11767,"ĠTVB":11768,"ĠKyr":11769,"ĠDomin":11770,"ĠCeramby":11771,"nÃ©m":11772,"ĠKop":11773,"ĠCambridge":11774,"ĠCerambycidae":11775,"»£i":11776,"á»£i":11777,"ĠChÆ¡n":11778,"Ġ149":11779,"ĠStock":11780,"ĠCatalan":11781,"Ġ151":11782,"vet":11783,"táºŃp":11784,"ĠAlexis":11785,"ogue":11786,"ĠKun":11787,"xÃª":11788,"ĠNhan":11789,"ĠCad":11790,"tÃ¡c":11791,"ĠrÆ°á»Ŀm":11792,"aska":11793,"REA":11794,"ĠPatrick":11795,"ĠDer":11796,"áºµm":11797,"ĠPháº«u":11798,"hoÃłn":11799,"COM":11800,"ĠTroussier":11801,"cÆ°á»Ľp":11802,"ĠlÃªnh":11803,"zig":11804,"ĠtÃ£":11805,"ĠÄĲHÄĲ":11806,"ĠSK":11807,"MG":11808,"utt":11809,"Ġláº±n":11810,"Ġbá»§a":11811,"Äĳá»£t":11812,"ĠBolero":11813,"own":11814,"tháº£":11815,"ĠNhiáº¿p":11816,"Æ¡ng":11817,"Ġtiáº¿u":11818,"ĠPetersburg":11819,"UAE":11820,"ĠnÃ¡u":11821,"ĠPho":11822,"ĠÄĲá»ĵi":11823,"Ġmiáº¿n":11824,"ĠrÃłnh":11825,"ĠphÆ°á»£t":11826,"ĠJuve":11827,"ĠOxford":11828,"Trá»Ļm":11829,"ĠLÃ²ng":11830,"ree":11831,"Ġbon":11832,"ĠSancho":11833,"Ġtrend":11834,"ĠHab":11835,"mir":11836,"ĠSat":11837,"Ġnom":11838,"ivia":11839,"ĠkhÃŃt":11840,"ĠGÃ¡i":11841,"LuÃ´n":11842,"lá»Ļt":11843,"eed":11844,"ĠDá»¥c":11845,"ĠMont":11846,"chÃ¡y":11847,"ĠHat":11848,"âĢĿ./.":11849,"ĠAlpha":11850,"lÄĥng":11851,"ĠBá»¯a":11852,"Ġáº¯c":11853,"ĠWhit":11854,"cker":11855,"ĠCÆ¡n":11856,"ely":11857,"utterstock":11858,"Ġnano":11859,"Ġlá»µ":11860,"ĠrÃºng":11861,"ĠTayyip":11862,"IDEO":11863,"Ġfans":11864,"ĠGiroud":11865,"irect":11866,"Tech":11867,"Ġ1955":11868,"ĠQuÃª":11869,"Láº¡m":11870,"food":11871,"ugh":11872,"ĠSergey":11873,"Ġsá»ĩt":11874,"chung":11875,"Ļng":11876,"actor":11877,"ĠPra":11878,"Ġamin":11879,"ĠRud":11880,"ĠMichigan":11881,"Ġhun":11882,"ĠKem":11883,"ICE":11884,"ĠHassan":11885,"ĠÄĲHCÄĲ":11886,"ICTnews":11887,"ĠRan":11888,"ĠHae":11889,"ÄĳÃłn":11890,"ĠKhoÃ¡i":11891,"ĠPorto":11892,"ĠExciter":11893,"Giáº£":11894,"nháº¥t":11895,"ĠAki":11896,"ÃĢN":11897,"ĠREUTERS":11898,"Kiá»ĥu":11899,"ĠBO":11900,"ĠUBTVQH":11901,"RT":11902,"ĠHouthi":11903,"ĠArm":11904,"ĠSah":11905,"ĠLuÃ´n":11906,"izza":11907,"bourg":11908,"ĠColum":11909,"Báº¡ch":11910,"Ġcá»ĳm":11911,"ĠAqu":11912,"ĠChim":11913,"ezbol":11914,"RP":11915,"ĠDun":11916,"ĠngÃ³t":11917,"LHQ":11918,"Ġ176":11919,"mond":11920,"ĠHáº¡c":11921,"Máº¡ng":11922,"lia":11923,"ĠGaddafi":11924,"vá»ĳn":11925,"ivo":11926,"loyd":11927,"ĠBá»į":11928,"Ġsáº«m":11929,"Ġthiáº¿p":11930,"ĠHanh":11931,"Ġcasino":11932,"Asia":11933,"ĠSecur":11934,"ĠXD":11935,"Air":11936,"ĠToshi":11937,"ĠPowell":11938,"ĠHÃ´n":11939,"Jet":11940,"ĠStandard":11941,"CI":11942,"ĠADB":11943,"uya":11944,"ĠHouston":11945,"230":11946,"INK":11947,"ĠÄĲÃŃnh":11948,"...âĢĿ":11949,"ĠGall":11950,"Black":11951,"ĠTáº£o":11952,"ĠCairo":11953,"ĠTrÃ²":11954,"kav":11955,"ady":11956,"vÅ©":11957,"1999":11958,"GA":11959,"Dá»¯":11960,"ĠÄĳÃ¹ng":11961,"onder":11962,"ations":11963,"cep":11964,"ezbollah":11965,"ĠChiáº¿t":11966,"ĠNasdaq":11967,"ĠCarr":11968,"Galaxy":11969,"ĠChÃł":11970,"GÃ³i":11971,"ĠsÃłm":11972,"set":11973,"Ste":11974,"]]":11975,"ĠDá»ĭp":11976,"illi":11977,"ĠÄĲVTN":11978,"val":11979,"vá»«a":11980,"Ġ*":11981,"lá»£i":11982,"ithi":11983,"ĠMáº¥t":11984,"Ġgá»Łi":11985,"Ġká»ģn":11986,"ĠGai":11987,"ĠFrankfurt":11988,"TÃ¡o":11989,"ÄĤN":11990,"á»¥i":11991,"onso":11992,"Ġchá»ĵn":11993,"\").":11994,"ĠnhÃµm":11995,"ĠJohnny":11996,"tonia":11997,"ĠVL":11998,"ĠSáº£ng":11999,"ĠTouch":12000,"ĠtÃŃa":12001,"ĠÃ´xy":12002,"cá»ĳ":12003,"ĠRM":12004,"ĠsÃłi":12005,"ĠKDC":12006,"say":12007,"cá»Ńa":12008,"Åį":12009,"ngoáº¡i":12010,"ĠBá»ı":12011,"ÄĲáº£o":12012,"ĠThaco":12013,"ĠJurgen":12014,"inam":12015,"phia":12016,"ĠmÃŃch":12017,"ĠMaradona":12018,"ĠGaga":12019,"ĠCore":12020,"360":12021,"ĠHitler":12022,"ants":12023,"dep":12024,"ĠNAM":12025,"ĠBá»ĵn":12026,"hyd":12027,"ĠCivic":12028,"Táº·ng":12029,"SÃ³c":12030,"ĠJava":12031,"ĠxuÃ½t":12032,"xuáº¥t":12033,"ĠKhung":12034,"DV":12035,"ĠnhÃ¡":12036,"thiáº¿u":12037,"Be":12038,"Com":12039,"SÃłi":12040,"ĠSchool":12041,"ser":12042,"ĠSá»©":12043,"ophi":12044,"ĠVision":12045,"aru":12046,"GBT":12047,"aver":12048,"cá»©u":12049,"Ġngáº§u":12050,"1998":12051,"ĠRO":12052,"Ġposter":12053,"oT":12054,"ĠsoÃ¡i":12055,"Ġsá»Ńng":12056,"220":12057,"ĠTANDTC":12058,"ÃĤm":12059,"ĠRoger":12060,"ĠVÃĢO":12061,"ĠBarb":12062,"evel":12063,"ĠBak":12064,"iane":12065,"wondo":12066,"Ġomega":12067,"DÄ©":12068,"gate":12069,"ĠJessica":12070,"vÄĥn":12071,"rise":12072,"ĠJapan":12073,"Canada":12074,"Ġpl":12075,"Ġ310":12076,"RS":12077,"Ġmazut":12078,"Ġhuá»³nh":12079,"ĠEconom":12080,"Ġ161":12081,"ĠEverest":12082,"TáºŃn":12083,"Ġau":12084,"ĠTiger":12085,"Ġáº¯t":12086,"ĠPháº£n":12087,"ĠMiÃªn":12088,"ÄĲÃ´":12089,"ĠOhio":12090,"GiÃºp":12091,"Ġváº¯n":12092,"ĠSpr":12093,"Ġ1953":12094,"Ġhe":12095,"ÄĲá»ģn":12096,"1995":12097,"ĠFidel":12098,"aman":12099,"TrÃ¡nh":12100,"Ġná»ĩ":12101,"ĠKennedy":12102,"háº¡ng":12103,"uke":12104,"ĠBeach":12105,"umin":12106,"tÃ´i":12107,"ĠMelbourne":12108,"Ġyá»ĥm":12109,"gn":12110,"ICO":12111,"ĠMichelle":12112,"ĠXHCN":12113,"ÃĤY":12114,"attan":12115,"Ġshort":12116,"Ġ159":12117,"apixel":12118,"Ġ178":12119,"online":12120,"tráºŃn":12121,"mat":12122,"ĠLimited":12123,"ĠThÃ¡c":12124,"Äĳá»ķ":12125,"ĠBezos":12126,"ĠMotors":12127,"ĠhÃŃch":12128,"Ġdá»¥m":12129,"TÃŃn":12130,"ĠNan":12131,"ĠrÃ¬":12132,"ĠBiá»ĩt":12133,"má»¥c":12134,"ĠKKT":12135,"ĠDiana":12136,"ĠHá»įa":12137,"leo":12138,"ĠElectron":12139,"chÃºng":12140,"Ġlá»ĳ":12141,"Ġsáº©":12142,"ĠWu":12143,"Fran":12144,"náº±m":12145,"Cá»©u":12146,"ĠSCMP":12147,"Ġhotgirl":12148,"Gu":12149,"BB":12150,"KÃªnh":12151,"ancy":12152,"ĠUSA":12153,"ĠÆ¯":12154,"ĠbÃłnh":12155,"ĠCruz":12156,"Ġmá»Ńa":12157,"cáº¯t":12158,"ĠvÃºt":12159,"ĠVillar":12160,"Ta":12161,"enia":12162,"ĠLenovo":12163,"ĠLag":12164,"rip":12165,"underland":12166,"LL":12167,"ĠbÃŃch":12168,"ĠNáº¯ng":12169,"ĠGHPGVN":12170,"fl":12171,"AA":12172,"ĠSoft":12173,"ĠhÃłu":12174,"ĠRuss":12175,"ĠphÃŃch":12176,"imble":12177,"her":12178,"idd":12179,"ĠÄĳá»Ŀm":12180,"Ġsá»¥n":12181,"sÃ¡t":12182,"ĠRá":12183,"ĠRá»":12184,"CNV":12185,"nhiá»ģu":12186,"ĠnghÄ©nh":12187,"ienco":12188,"cÃº":12189,"treo":12190,"ĠDÃ£":12191,"Æ¯ng":12192,"edit":12193,"ĠPremium":12194,"dung":12195,"ĠDavis":12196,"Ġrich":12197,"At":12198,"ĠbÆ°ng":12199,"ĠsÃ¹ng":12200,"ghi":12201,"ĠnÃºp":12202,"Ġbá»Ł":12203,"ONG":12204,"ĠDim":12205,"sov":12206,"ipzig":12207,"ĠCuá»ĳn":12208,"Láº¡ng":12209,"ravel":12210,"ĠGary":12211,"ĠTill":12212,"ĠNova":12213,"340":12214,"Barcelona":12215,"ĠKol":12216,"Ġluá»ĳng":12217,"ĠCá»§a":12218,"cháº·t":12219,"ĠHezbollah":12220,"ĠMarcus":12221,"115":12222,"Ġflash":12223,"Ġinsulin":12224,"ecta":12225,"VietNamNet":12226,"Äĳá»Ļng":12227,"ĠPÃ´n":12228,"áº¢I":12229,"ĠTruy":12230,"ĠXinh":12231,"Ġmá»ĭ":12232,"sá»©c":12233,"BizLIVE":12234,"char":12235,"sá»ĳt":12236,"ĠYG":12237,"Ġlá»ıi":12238,"ĠÄĳÃ³a":12239,"Ġ205":12240,"ĠDior":12241,"ario":12242,"Mourinho":12243,"VTV":12244,"NVV":12245,"ente":12246,"Ġcháº§u":12247,"ĠHSG":12248,"ĠlÄĥm":12249,"135":12250,"Ġtá»ĭnh":12251,"tok":12252,"Ġ215":12253,"Ġcá»¯u":12254,"ĠDNNVV":12255,"bá»ĳc":12256,"III":12257,"Ġgá»ıi":12258,"ĠCruise":12259,"ĠMini":12260,"ĠMarco":12261,"Ġ1940":12262,"ĠLGBT":12263,"QSDÄĲ":12264,"Ġnháº¥c":12265,"Email":12266,"nghi":12267,"ĠPia":12268,"nick":12269,"Ġmáº§u":12270,"San":12271,"And":12272,"Ð¾":12273,"ĠnhÃ¡o":12274,"alis":12275,"ĠbÃŃt":12276,"Ġsuyá»ħn":12277,"ĠMoz":12278,"imbledon":12279,"ĠTháº»":12280,"ĠCoutinho":12281,"cci":12282,"viáº¿t":12283,"ÄĳÃło":12284,"ĠTalent":12285,"ĠVinas":12286,"1997":12287,"Ġráº§u":12288,"Ġgao":12289,"ĠdÆ¡i":12290,"ĠMem":12291,"ĠArn":12292,"chenko":12293,"ĠWell":12294,"eople":12295,"ĠGá»Ĺ":12296,"ĠATP":12297,"ated":12298,"ĠnhÃºn":12299,"ĠKrist":12300,"ĠDS":12301,"ĠÄĲS":12302,"ĠThang":12303,"ĠCSCÄĲ":12304,"Ġphá»Ļng":12305,"BID":12306,"Ġnuá»Ļt":12307,"sá»ĳc":12308,"ĠCPH":12309,"fit":12310,"ĠBÃ£o":12311,"regas":12312,"ĠAlf":12313,"ĠOceanBank":12314,"Kiá»ģu":12315,"Ġxá»Ľi":12316,"ĠchÃły":12317,"ĠNy":12318,"ĠNHCSXH":12319,"Ġet":12320,"1954":12321,"ĠdiÃªm":12322,"ĠXavi":12323,"ChÃ¹a":12324,"ces":12325,"ĠMS":12326,"Ġlá»ĵi":12327,"ĠBentley":12328,"má»©c":12329,"Ġlá»ĳt":12330,"tráº£":12331,"ĠCorolla":12332,"trá»¥":12333,"phÃ¡":12334,"ĠJenner":12335,"ĠVa":12336,"ĠAndrea":12337,"Ġná»įc":12338,"ĠMall":12339,"ĠSoc":12340,"ĠVáº»":12341,"ĠPS":12342,"ĠHAG":12343,"Ġmon":12344,"ĠMaya":12345,"ĠGrammy":12346,"Ġliu":12347,"aks":12348,"ĠNháºŃp":12349,"ĠWel":12350,"Giáº¥y":12351,"nie":12352,"ĠphÃło":12353,"Ġcrop":12354,"NÄĥng":12355,"hail":12356,"ĠSara":12357,"LÅ©y":12358,"Ġá»ĳi":12359,"ĠOzil":12360,"qqa":12361,"vÃ©":12362,"ĠÄĳáº¥ng":12363,"osi":12364,"ĠNuÃ´i":12365,"ĠÃį":12366,"ĠJunior":12367,"ĠDNA":12368,"ĠrÃ¨m":12369,"ĠLá»ĳi":12370,"agu":12371,"Ġvá»±a":12372,"Ġbeta":12373,"ĠGonz":12374,"Ġ570":12375,"ĠKhÃ¢m":12376,"ĠToday":12377,"ĠPence":12378,"Ġhon":12379,"Nha":12380,"280":12381,"Inter":12382,"ĠBung":12383,"Ġ189":12384,"ĠdÆ°á»£ng":12385,"Camera":12386,"gÃł":12387,"ĠcÃ¢m":12388,"ĠChá»īnh":12389,"ĠgÃ¡n":12390,"Ná»¥":12391,"ChÃ¹m":12392,"ĠVR":12393,"ThÃ¹y":12394,"ThÃºy":12395,"ĠcÆ¡i":12396,"¨C":12397,"hou":12398,"ĠAriz":12399,"KÃŃnh":12400,"bÃłi":12401,"Å¨":12402,"Ġnáº¥p":12403,"Ġtrá»ĩt":12404,"colate":12405,"Ġkháº½":12406,"ĠVIá»Ĩ":12407,"get":12408,"ĠLeipzig":12409,"CMO":12410,"Ġ172":12411,"ĠCNC":12412,"vá»¥":12413,"Æ¯á»ľNG":12414,"ĠHV":12415,"mu":12416,"seille":12417,"MN":12418,"ĠGhana":12419,"Cá»ķng":12420,"ĠLB":12421,"Ġphui":12422,"ĠRiyad":12423,"ĠJosh":12424,"950":12425,"ĠMaps":12426,"Ġnhá»¡":12427,"ĠThÆ°á»Ľc":12428,"ĠReg":12429,"Ġbol":12430,"Ġbiáº¿m":12431,"bÃ³ng":12432,"ĠNguyá»ĩn":12433,"ĠchÃŃp":12434,"mang":12435,"ĠFinancial":12436,"Laren":12437,"ĠEthiopia":12438,"ĠMI":12439,"170":12440,"Ġkha":12441,"ĠSomalia":12442,"CTCK":12443,"aton":12444,"ĠGM":12445,"ĠSnowden":12446,"ĠTas":12447,"ĠÄĳÃły":12448,"ĠngÃ¡y":12449,"ĠChÃło":12450,"101":12451,"ĠtrÄ©u":12452,"khÃ":12453,"Ġ212":12454,"ĠHas":12455,"ĠANH":12456,"141":12457,"ĠKyung":12458,"Ġ164":12459,"Ġkil":12460,"ĠDeb":12461,"tinental":12462,"fica":12463,"ĠAG":12464,"Kon":12465,"kan":12466,"ĠBalotelli":12467,"ĠMatth":12468,"rez":12469,"Ġgiáº«m":12470,"ĠPress":12471,"ĠBurnley":12472,"ĠWalker":12473,"ĠAlaska":12474,"ĠDL":12475,"ĠWimbledon":12476,"Ġuyá»ĥn":12477,"pping":12478,"ĠÄ©":12479,"Ġláº»n":12480,"ĠRh":12481,"oud":12482,"Ġráº¡":12483,"ĠTÄĲC":12484,"ChÃ¡nh":12485,"ĠBrasil":12486,"260":12487,"bÃ¡o":12488,"heim":12489,"lon":12490,"ĠTru":12491,"UBTVQH":12492,"ToÃ¡n":12493,"BuÃ´n":12494,"ÃĢI":12495,"kWh":12496,"ness":12497,"ĠBasel":12498,"etts":12499,"ĠTPBank":12500,"ĠmÃºt":12501,"ĠÃ³ng":12502,"ĠSO":12503,"ĠBlink":12504,"ĠQUAN":12505,"ĠtÃ¡p":12506,"ĠHáº¡o":12507,"ĠFanpage":12508,"Ġláº¡y":12509,"Ġkháº¥n":12510,"achus":12511,"Ġpixel":12512,"Ġdes":12513,"ĠMINH":12514,"ĠquÃ¡ng":12515,"ĠHeung":12516,"ĠTTXH":12517,"ities":12518,"GPT":12519,"ĠShim":12520,"TÃ¡i":12521,"ĠTháºŃn":12522,"ĠSystem":12523,"ĠArizona":12524,"COV":12525,"vÃŃ":12526,"ĠGod":12527,"ĠSuga":12528,"Ġhá»Ńng":12529,"âĢĿ!":12530,"ĠmÃ³":12531,"ĠBá»ĵi":12532,"iser":12533,"Lá»±a":12534,"ĠCháº¡y":12535,"ĠAIDS":12536,"ĠPCI":12537,"ĠchÃ³c":12538,"ĠWarren":12539,"bl":12540,"etamine":12541,"Ġshowroom":12542,"Ġnylon":12543,"cos":12544,"Ġhomestay":12545,"ĠServ":12546,"Ġgel":12547,"etz":12548,"tá»ĳi":12549,"Quay":12550,"ĠAMG":12551,"ĠKorea":12552,"ffee":12553,"Bayern":12554,"SÆ¡":12555,"ĠSpider":12556,"AMA":12557,"Ġháº»o":12558,"ĠGazprom":12559,"ĠFernando":12560,"ĠCÃ¡p":12561,"ĠSarah":12562,"ĠIN":12563,"ĠIsa":12564,"ĠBlanc":12565,"ĠSach":12566,"amey":12567,"chettino":12568,"Ro":12569,"ĠAVG":12570,"tha":12571,"ĠMÄĥng":12572,"ĠTeam":12573,"Ġbáº·m":12574,"estrogen":12575,"ĠTelecom":12576,"ĠRÆ°á»£u":12577,"ĠGucci":12578,"Khuyáº¿n":12579,"Ġ390":12580,"ĠnÆ¡":12581,"ĠPharma":12582,"ĠOf":12583,"lÃ¡":12584,"ĠVinashin":12585,"ÄĳiÃªn":12586,"Hoáº·c":12587,"bÃŃ":12588,"ÄĲá»Ļ":12589,"ĠGeneral":12590,"ĠGuam":12591,"riot":12592,"Ġ169":12593,"hye":12594,"Ġblogger":12595,"UP":12596,"Ġcasting":12597,"ĠOppo":12598,"WD":12599,"cá»±c":12600,"Bi":12601,"ĠLeeds":12602,"Ġblockchain":12603,"GÃ³c":12604,"Náº¯m":12605,"chuyá»ĥn":12606,"tric":12607,"ĠÄĥ":12608,"ĠPotter":12609,"attle":12610,"Ġbáº¿t":12611,"ĠVA":12612,"ĠTillerson":12613,"ĠWilson":12614,"sburg":12615,"inda":12616,"Ġ192":12617,"Ġcode":12618,"ĠLá»įc":12619,"Ġ1947":12620,"je":12621,"ĠNgá»ĵi":12622,"ĠEarth":12623,"TÃ´n":12624,"ĠBit":12625,"ĠVNCB":12626,"ĠvÃªnh":12627,"NgÆ°":12628,"ĠSalv":12629,"Tráº¥n":12630,"pur":12631,"chai":12632,"pi":12633,"ĠIndustr":12634,"Ġ188":12635,"Hyundai":12636,"ĠACV":12637,"ĠSelena":12638,"vÃ²ng":12639,"ĠMWG":12640,"CPI":12641,"ĠBeauty":12642,"oro":12643,"ĠNá»¥":12644,"ĠBolivia":12645,"ĠChá»Ŀ":12646,"aomi":12647,"ÄĲáº¥u":12648,"HHGÄĲ":12649,"ĠTiÃªm":12650,"ĠJennie":12651,"ĠTNMT":12652,"Link":12653,"rence":12654,"ĠKom":12655,"Go":12656,"ThÃºc":12657,"ĠOmar":12658,"Covid":12659,"ĠSchol":12660,"ĠPháº¡t":12661,"mÃ¹a":12662,"ĠAub":12663,"à¸":12664,"rate":12665,"dautu":12666,"ĠBillboard":12667,"ĠJason":12668,"phan":12669,"yu":12670,"Tháº©m":12671,"hanna":12672,"ĠProject":12673,"Náº¯ng":12674,"ĠUniversity":12675,"ĠÄĳáº£n":12676,"andy":12677,"Mich":12678,"ĠHáº¯c":12679,"Ġcá»ıi":12680,"amps":12681,"emon":12682,"ĠJos":12683,"ides":12684,"Ð°":12685,"ĠNest":12686,"Ġhecta":12687,"ĠBlade":12688,"ĠphÃ¹n":12689,"vai":12690,"Khung":12691,"ĠMig":12692,"BIDV":12693,"ĠMarket":12694,"Ká»ĭch":12695,"Ġ173":12696,"ĠFrancois":12697,"ento":12698,"ĠÃįch":12699,"ĠHur":12700,"ĠCI":12701,"uzia":12702,"tiÃªu":12703,"riz":12704,"ĠEden":12705,"ili":12706,"ĠNá»Ĺ":12707,"Ġ430":12708,"Hung":12709,"ship":12710,"ĠTK":12711,"ĠMorocco":12712,"DÆ°á»Ŀng":12713,"ĠPad":12714,"ĠDh":12715,"ĠSingh":12716,"made":12717,"cz":12718,"ĠLá»Ĺi":12719,"Ġ177":12720,"Ġtrá»Ľ":12721,"ĠÃ©o":12722,"ĠLuke":12723,"ĠEstonia":12724,"Táº§m":12725,"ĠMane":12726,"Vit":12727,"ĠLHTN":12728,"ĠÄĲHÄĲCÄĲ":12729,"Ġvá»ĵng":12730,"pearl":12731,"ĠAshley":12732,"ĠLazada":12733,"ĠThiago":12734,"ĠMBB":12735,"ĠWik":12736,"ĠJetstar":12737,"TÃ³m":12738,"ĠYa":12739,"Ġngáº©m":12740,"380":12741,"Ġtweet":12742,"ĠVarane":12743,"âĢĿ)":12744,"ĠColorado":12745,"ĠSá»ķ":12746,"ĠGul":12747,"ermain":12748,"Mac":12749,"ushima":12750,"ales":12751,"imbab":12752,"Mu":12753,"mino":12754,"GÃł":12755,"uras":12756,"ĠÃī":12757,"\"?":12758,"trá»ĭ":12759,"Ġcaffe":12760,"ĠNhai":12761,"andro":12762,"ĠLA":12763,"ĠKV":12764,"ergy":12765,"hiá»ĩp":12766,"ÄĲan":12767,"ĠAntony":12768,"ĠKarl":12769,"Ġboong":12770,"khoe":12771,"ÄĳÃªm":12772,"ĠRaqqa":12773,"áº¤T":12774,"ĠSGGP":12775,"HÆ°á»Łng":12776,"Ġngai":12777,"dinand":12778,"ĠHaiti":12779,"terres":12780,"ĠÄĳiáº¿c":12781,"Ġráº§y":12782,"uezone":12783,"máº·t":12784,"Ġ3000":12785,"ĠCheng":12786,"Ġ166":12787,"pl":12788,"alin":12789,"áº¤N":12790,"ĠThS":12791,"ĠGiÃºp":12792,"atic":12793,"iah":12794,"ĠFO":12795,"ĠAlbert":12796,"ĠbÃºi":12797,"ĠYoga":12798,"Ġtuá»Ļc":12799,"ĠLuiz":12800,"ĠMá»«ng":12801,"Vui":12802,"Ãµa":12803,"Ġsalad":12804,"ĠHU":12805,"the":12806,"pin":12807,"Pháº¡t":12808,"ICEF":12809,"ĠKÄĲT":12810,"Ġ245":12811,"imbabwe":12812,"ĠFulham":12813,"ĠBSR":12814,"ĠthÃºng":12815,"ĠDigital":12816,"Ġvá»Ľ":12817,"ĠnghÃ©n":12818,"Pink":12819,"Ġthá»ī":12820,"ĠYoko":12821,"ĠLev":12822,"CNCH":12823,"1993":12824,"ĠPhÃª":12825,"gra":12826,"ÄĲáº·ng":12827,"ĠMorris":12828,"ĠHSSV":12829,"ĠtÃ³t":12830,"á»¥t":12831,"ÄĳÃ´":12832,"orp":12833,"ĠFootball":12834,"Äĳá»Ļ":12835,"ĠMBH":12836,"Ġsáº¥m":12837,"ĠQP":12838,"Cá»¥m":12839,"kus":12840,"190":12841,"Ġ460":12842,"!âĢĿ,":12843,"Ġrating":12844,"Bá»ī":12845,"ĠPass":12846,"ĠChristopher":12847,"TTO":12848,"Ġsanh":12849,"ĠAlan":12850,"ĠMassachus":12851,"ĠPierre":12852,"Ġnatri":12853,"Ġdáº·t":12854,"ĠECMO":12855,"ĠVillarreal":12856,"Ġ183":12857,"TQ":12858,"astic":12859,"')":12860,"ĠmÃºn":12861,"Cham":12862,"+,":12863,"ĠStone":12864,"Tho":12865,"ĠGrande":12866,"âĢ¦),":12867,"ĠMidu":12868,"Syria":12869,"ĠGarcia":12870,"ĠhoÃ¡":12871,"ĠGuterres":12872,"ĠDor":12873,"ĠTÃºy":12874,"ĠTaj":12875,"ameyang":12876,"Ġrá»ĭch":12877,"aze":12878,"phic":12879,"dÃ¹":12880,"990":12881,"Ġchuá»ĳt":12882,"ThuáºŃn":12883,"Sá":12884,"Sá»":12885,"elin":12886,"ĠCredit":12887,"Ġnháº§y":12888,"Kháº³ng":12889,"ĠDá»ĭ":12890,"quÃ¢n":12891,"ront":12892,"ĠZar":12893,"atherine":12894,"ĠLaden":12895,"ĠShoigu":12896,"cáº§m":12897,"ĠNÆ°Æ¡ng":12898,"ĠParag":12899,"ĠChap":12900,"Tottenham":12901,"ÄĲáºŃu":12902,"gyz":12903,"Lá»ĳi":12904,"Ġri":12905,"ĠLeonardo":12906,"ĠBox":12907,"round":12908,"Park":12909,"Biá»ĩt":12910,"Ford":12911,"MK":12912,"ĠNBC":12913,"Ġthoi":12914,"borough":12915,"ĠPir":12916,"ĠAviv":12917,"ĠSwansea":12918,"Ġxá»Ł":12919,"Æ°á»Ľu":12920,"ĠVáº£i":12921,"onto":12922,"ĠCÃ¡m":12923,"á»ĲC":12924,"ĠVe":12925,"ngu":12926,"ĠBey":12927,"coln":12928,"tháº§y":12929,"Ġsam":12930,"Jenn":12931,"ĠBio":12932,"ukov":12933,"ĠLatin":12934,"ĠTrai":12935,"ĠEdge":12936,"chen":12937,"1996":12938,"ĠJuli":12939,"Ná»Ńa":12940,"ĠTráº¡ng":12941,"ĠCarlo":12942,"xá»Ń":12943,"die":12944,"Äĳáº·t":12945,"ĠInfin":12946,"Ġradio":12947,"cÃ¢u":12948,"ĠClass":12949,"chiá»ģu":12950,"ĠRoman":12951,"AFP":12952,"ĠSunderland":12953,"ĠSMS":12954,"Ġdá»Ĺi":12955,"270":12956,"ĠMiller":12957,"ĠMiu":12958,"ittle":12959,"SIP":12960,"Ġ182":12961,"cáº§n":12962,"ĠKath":12963,"Tuyá»ĩt":12964,"ential":12965,"ĠPique":12966,"ĠHills":12967,"ĠPrinc":12968,"ĠDáº«n":12969,"ĠDoug":12970,"tÃ¹y":12971,"ECD":12972,"ĠIA":12973,"liÃªn":12974,"ĠKay":12975,"Máº¡nh":12976,"GI":12977,"ĠBall":12978,"Gian":12979,"ĠMoto":12980,"ĠVienna":12981,"face":12982,"ĠLÄĥk":12983,"ĠPatriot":12984,"thur":12985,"Ġwifi":12986,"LACK":12987,"ĠSapa":12988,"ĠSenegal":12989,"330":12990,"giÃ¡o":12991,"ĠSá»£":12992,"ĠQue":12993,"ĠNut":12994,"acy":12995,"Ġ186":12996,"pu":12997,"Tá»ĳc":12998,"Manchester":12999,"Ġar":13000,"ĠnhÃºt":13001,"Ġ179":13002,"láº¡":13003,"Ġngá»£m":13004,"ĠIgor":13005,"ako":13006,"ĠthÃ³t":13007,"Cáº£ng":13008,"cy":13009,"ĠIsaac":13010,"ĠCot":13011,"ĠFirst":13012,"°C":13013,"Ġ181":13014,"ĠSiu":13015,"ĠLiz":13016,"!?":13017,"inawa":13018,"ĠAlv":13019,"elson":13020,"Tá»ī":13021,"Ġ219":13022,"rah":13023,"ĠMassachusetts":13024,"Ġbaht":13025,"ĠÆ¯ng":13026,"ĠBlinken":13027,"tois":13028,"ĠFabregas":13029,"CBM":13030,"ĠViÃªm":13031,"ĠBolton":13032,"Ġtablet":13033,"thÃ¡nh":13034,"Ġhá»Ļt":13035,"ĠPink":13036,"1994":13037,"ĠFair":13038,"ĠCy":13039,"eot":13040,"Ly":13041,"VIDEO":13042,"ĠNon":13043,"há»Ļp":13044,"asm":13045,"ĠNovak":13046,"ĠPochettino":13047,"BCT":13048,"ĠSavills":13049,"ĠColumbia":13050,"Ġtennis":13051,"Ġ203":13052,"Ġhá»īnh":13053,"ĠPerry":13054,"Ġgiá»ħu":13055,"FT":13056,"Ġloan":13057,"ĠNin":13058,"ĠCorpor":13059,"ĠPhiáº¿u":13060,"ChÃŃ":13061,"Tá»Ļi":13062,"MÃ¢y":13063,"ĠNháºŃm":13064,"Giáº¥c":13065,"ĠKiá»ĩn":13066,"ĠVietravel":13067,"ĠnÃŃn":13068,"ĠVD":13069,"210":13070,"BGTVT":13071,"ĠWis":13072,"ĠMarseille":13073,"ĠNghÃ©":13074,"Xáº¿p":13075,"ĠVolod":13076,"enne":13077,"gyzstan":13078,"ķn":13079,"ĠBRT":13080,"Ġloang":13081,"ĠAhmed":13082,"ĠBond":13083,"ĠxÃ©n":13084,"och":13085,"ĠZimbabwe":13086,"iga":13087,"Ġquáº¹t":13088,"ĠChÃªnh":13089,"ĠAhmad":13090,"ĠWhat":13091,"ĠShutterstock":13092,"ĠGruzia":13093,"ĠNÃło":13094,"dá»ĭch":13095,"tam":13096,"ĠcÃºt":13097,"»ĮC":13098,"á»ĮC":13099,"ĠFB":13100,"==":13101,"eroon":13102,"Ġmegapixel":13103,"ĠDz":13104,"Ġniu":13105,"ĠStoke":13106,"ĠKyodo":13107,"ĠMcG":13108,"ĠNgang":13109,"ĠConne":13110,"----------------":13111,"ĠCongo":13112,"ĠAnne":13113,"Lá»ĩ":13114,"Ġpar":13115,"TPP":13116,"ĠWag":13117,"Ġ217":13118,"ĠAustr":13119,"ĠMari":13120,"ĠLov":13121,"chan":13122,"hÃ³ng":13123,"ĠAvengers":13124,"Ġbreak":13125,"ernandez":13126,"ĠJen":13127,"ĠDÃłn":13128,"cini":13129,"ĠMacau":13130,"ĠJamie":13131,"ĠSpa":13132,"pan":13133,"ĠBab":13134,"ĠCOP":13135,"ĠTBA":13136,"ĠHerm":13137,"ĠAct":13138,"Ġ187":13139,"ĠPlan":13140,"DG":13141,"ViÃªm":13142,"Ġnháº¿ch":13143,"áº¬T":13144,"PhÃºc":13145,"igo":13146,"Ġgáº¡":13147,"ĠNathan":13148,"Nháº¥t":13149,"ĠDÆ°á»¡ng":13150,"ĠFast":13151,"rog":13152,"ĠChalle":13153,"uto":13154,"idas":13155,"hama":13156,"Ġcal":13157,"ĠCÃ²":13158,"Ġteaser":13159,"ĠÄĲá»©a":13160,"ĠBLÄĲ":13161,"ĠUs":13162,"tÃ¡i":13163,"EWS":13164,"ĠDÅ©":13165,"ĠShanghai":13166,"ĠLegend":13167,"ĠdÃ¡t":13168,"bs":13169,"ĠXÃ¡t":13170,"Ġsoda":13171,"Ġ1952":13172,"ĠCáº¯t":13173,"akov":13174,"Ġoáº£i":13175,"hÃ¬nh":13176,"Ġná»±c":13177,"Ġhiu":13178,"ĠThuyÃªn":13179,"ĠBenfica":13180,"ĠDÃłi":13181,"ĠHÄĲBA":13182,"ĠBHL":13183,"ĠÄĲÃ¢u":13184,"ĠlÃ¡c":13185,"ĠLá»±a":13186,"ĠEreb":13187,"uer":13188,"ĠchÄ©a":13189,"ĠPhÃłm":13190,"ĠÃ´i":13191,"ners":13192,"ĠBkav":13193,"ĠChrys":13194,"VI":13195,"ĠKin":13196,"há»Ļi":13197,"Ġá»¥":13198,"Ġá»ĳt":13199,"ĠrÃŃt":13200,"ĠIch":13201,"Ġxáº»o":13202,"ĠkhÃ³e":13203,"Ġsing":13204,"ĠAna":13205,"ĠPO":13206,"Ġsofa":13207,"ĠÄĲiá»ģm":13208,"ÄĲinh":13209,"báºŃt":13210,"apor":13211,"ĠElectronics":13212,"ĠArsene":13213,"emouth":13214,"ĠHenderson":13215,"ĠhÃ³m":13216,"EG":13217,"Ġ2027":13218,"eme":13219,"essenger":13220,"ĠMcCain":13221,"ĠTheresa":13222,"Ġ5000":13223,"ĠLIÃĬN":13224,"á»ĭmá»Ľi":13225,"ych":13226,"ĠBVMT":13227,"chá»£":13228,"ĠOkinawa":13229,"ĠSá»Ńa":13230,"ĠAustin":13231,"ckho":13232,"PhÃ¡":13233,"Ã´á»ĭmá»Ľi":13234,"LÃłn":13235,"abad":13236,"ĠNetwork":13237,"ĠMikhail":13238,"ĠLÅ©":13239,"ĠShopee":13240,"Ġphom":13241,"GÃ£":13242,"ĠBusan":13243,"ĠTrá»ĳng":13244,"ĠOCB":13245,"ĠGel":13246,"ĠKTT":13247,"ĠMcLaren":13248,"ridge":13249,"ĠBCTC":13250,"hin":13251,"ĠRobot":13252,"ĠdÃ¹i":13253,"Ġruá»ĳc":13254,"ishino":13255,"ĠMorata":13256,"eren":13257,"ĠRice":13258,"PhÆ°á»Ŀng":13259,"truyá»ģn":13260,"ĠZe":13261,"ĠCBCNV":13262,"VPCP":13263,"ĠRaz":13264,"Ġráº§n":13265,"ĠWatford":13266,"ĠChá»Ń":13267,"ĠBrian":13268,"ĠcÃ³p":13269,"Mi":13270,"ĠChampionship":13271,"»¦":13272,"á»¦":13273,"ĠCre":13274,"key":13275,"giÃ¢y":13276,"ĠFound":13277,"ĠDVD":13278,"ĠVÄĤN":13279,"ule":13280,"á»ģnh":13281,"PINK":13282,"ĠRiver":13283,"quyá»ģn":13284,"ĠTá»ģ":13285,"ĠCyr":13286,"aire":13287,"Ġnheo":13288,"ĠngáºŃy":13289,"Ġum":13290,"Äĳen":13291,"ĠHem":13292,"ĠViÃªng":13293,"Ġsáº¡m":13294,"yme":13295,"tÆ°":13296,"ĠPK":13297,"fri":13298,"ĠLÃłn":13299,"ĠHÃłnÃ´á»ĭmá»Ľi":13300,"»©t":13301,"á»©t":13302,"Ġlá»ĭm":13303,"Ġdiva":13304,"LACKPINK":13305,"heed":13306,"ĠLot":13307,"ĠPao":13308,"ĠuyÃªn":13309,"ĠBella":13310,"ande":13311,"Ġ560":13312,"...âĢĿ,":13313,"ĠBeng":13314,"ĠJonathan":13315,"ĠDÆ¡i":13316,"ĠArch":13317,"Col":13318,"phá»¥":13319,"ieg":13320,"ĠOliv":13321,"ĠMá»Ĺ":13322,"ĠVinpearl":13323,"Ġ235":13324,"oton":13325,"ĠCÆ°á»Ľp":13326,"ĠManagement":13327,"ader":13328,"ĠBuffett":13329,"illas":13330,"PSG":13331,"urnemouth":13332,"ĠDoha":13333,"ĠÄĳáº±m":13334,"ĠJar":13335,"ĠNano":13336,"ÄĳÃ¡ng":13337,"Van":13338,"ĠDown":13339,"ĠTTC":13340,"chiÃªu":13341,"Ġ194":13342,"Äĳá»ķi":13343,"ĠSulli":13344,"ĠCBCC":13345,"ĠFerdinand":13346,"ĠÃ¹a":13347,"Báº¡c":13348,"ĠbÃ¡ng":13349,"Ġkhuáº¿ch":13350,"mÃ³n":13351,"ĠxÃºi":13352,"Ġ1949":13353,"ĠErebidae":13354,"Ġ184":13355,"ĠBis":13356,"ĠRep":13357,"Ġgiá»Ŀi":13358,"Ġ520":13359,"iar":13360,"phim":13361,"Ġ!":13362,"*)":13363,"giá»¯":13364,"ĠTáºłI":13365,"Ġdance":13366,"hawk":13367,"ĠKÃŃch":13368,"ná»Ļi":13369,"hang":13370,"Ġ$":13371,"ĠRal":13372,"ĠKov":13373,"ĠHak":13374,"Tháº¡ch":13375,"ĠEst":13376,"ÃĢNH":13377,"ĠngÆ°á»£ng":13378,"Cty":13379,"ĠLay":13380,"Vietcombank":13381,"ĠIron":13382,"Ġnháº£m":13383,"Sal":13384,"ĠDur":13385,"ĠTTCP":13386,"XT":13387,"ĠHama":13388,"ĠMans":13389,"ports":13390,"ĠVÆ°Æ¡n":13391,"hyun":13392,"Ġchocolate":13393,"ÃģC":13394,"ĠcafÃ©":13395,"DM":13396,"endra":13397,"Nguoiduatin":13398,"sc":13399,"chui":13400,"ĠEurozone":13401,"ĠDynam":13402,"háºŃu":13403,"Ġ193":13404,"bat":13405,"ĠNovaland":13406,"TrÃ¡ch":13407,"ĠQG":13408,"ĠRobin":13409,"onduras":13410,"ĠVogue":13411,"thuá»ĳc":13412,"ĠOffice":13413,"Ġngá»Ľ":13414,"ĠCÃ¢n":13415,"asy":13416,"Ġá»·":13417,"lao":13418,"Ġbá»ĳt":13419,"ĠÄĲá»ķ":13420,"ĠMald":13421,"ĠPG":13422,"Ġmil":13423,"táº¥t":13424,"Ġsáº§n":13425,"ĠBiá»ĩn":13426,"angnam":13427,"ĠBug":13428,"Ġphiá»ĩt":13429,"ĠArc":13430,"ĠCienco":13431,"»Ľ":13432,"ĠÄĲiá»ĥu":13433,"ĠBÄĲKH":13434,"ĠNike":13435,"ĠchÃ¢y":13436,"Dragon":13437,"inness":13438,"á»Ľ":13439,"ĠJor":13440,"Tá»įa":13441,"ĠSmall":13442,"arin":13443,"ushu":13444,"ĠKhÃ¡t":13445,"Ung":13446,"Ġbolero":13447,"mÃ´n":13448,"ĠShah":13449,"ĠRex":13450,"ĠLuyáº¿n":13451,"ĠCá»¦":13452,"neum":13453,"ĠMáº¿n":13454,"ĠvÃŃt":13455,"ĠKishi":13456,"NE":13457,"ĠMount":13458,"quoc":13459,"Ġbox":13460,"ĠNhuá»ĩ":13461,"Ġnáº»":13462,"lÃºc":13463,"sá»ķ":13464,"Ġváº©y":13465,"ĠIQ":13466,"Ġlip":13467,"HOSE":13468,"ĠNhanh":13469,"ĠGraham":13470,"song":13471,"ilia":13472,"ECO":13473,"cáº·p":13474,"Ã§":13475,"TKCN":13476,"Ġ1944":13477,"Ġluá»ĵn":13478,"Ġestrogen":13479,"lish":13480,"ĠSz":13481,"ĠLáº·c":13482,"ĠIz":13483,"ĠHall":13484,"Ngá»įn":13485,"ĠLac":13486,"ĠLincoln":13487,"Ġrup":13488,"ÄĳÃ¢y":13489,"ĠChatGPT":13490,"ĠRá»Ńa":13491,"ĠWong":13492,"Ġáº¯ng":13493,"ĠÄĳÃ¡u":13494,"ĠTRá":13495,"ĠTRá»":13496,"ĠchÃŃt":13497,"Ġcháº¡c":13498,"ĠKhoai":13499,"ĠrÃ´m":13500,"quin":13501,"ĠVHM":13502,"ĠDuyá»ĩt":13503,"NÃ©t":13504,"astian":13505,"uper":13506,"Ġxá»ı":13507,"ĠCes":13508,"ĠKyrgyzstan":13509,"omon":13510,"Ġrá»¥c":13511,"Ġmel":13512,"ava":13513,"Trail":13514,"Euro":13515,"ĠHugh":13516,"side":13517,"MÃ¢u":13518,"ĠGIA":13519,"chÃº":13520,"Ġá»ĳ":13521,"wen":13522,"Ãļc":13523,"Ġoai":13524,"ĠLÄĲTBXH":13525,"ĠTÃłng":13526,"ĠMattis":13527,"ÄĲá»Ļt":13528,"ĠCáº¡n":13529,"ĠXáº¿p":13530,"Ġ218":13531,"ĠCá»¦A":13532,"ĠlÆ°":13533,"Ġ222":13534,"NÃºi":13535,"jar":13536,"Ġchang":13537,"cin":13538,"ĠChrome":13539,"ĠGuill":13540,"ĠPav":13541,"ĠtoÃ¡i":13542,"oka":13543,"ĠTÃŃ":13544,"ĠvÃ¡t":13545,"Ġ1942":13546,"ku":13547,"ĠVenice":13548,"FED":13549,"ĠChuá»ĳi":13550,"ĠThoÃ¡t":13551,"ĠHernandez":13552,"ĠCent":13553,"cÅ©":13554,"Ġngáº£i":13555,"ĠPart":13556,"ĠÄĲuá»ĳng":13557,"ĠCameroon":13558,"Ġtrá»¥i":13559,"ĠngÃ¡t":13560,"ĠSalman":13561,"ĠNáº¯m":13562,"1992":13563,"SK":13564,"ĠHerr":13565,"umer":13566,"ĠEo":13567,"ĠBilbao":13568,"Ðµ":13569,"errard":13570,"itol":13571,"Ġton":13572,"ĠtrÃ¡o":13573,"App":13574,".(":13575,"ĠMikel":13576,"ĠInvestment":13577,"ĠNÄĲ":13578,"ĠAsiad":13579,"bÃłn":13580,"ĠngÆ°á»Łng":13581,"001":13582,"CÄĲV":13583,"Ġ204":13584,"ĠMasters":13585,"321":13586,"Ġcort":13587,"One":13588,"ĠgÃ¹":13589,"ĠSÃ¡t":13590,"Bang":13591,"ĠNÃ©":13592,"ĠDá»¥ng":13593,"Ãī":13594,"ĠTI":13595,"ĠCII":13596,"ĠHiroshi":13597,"ĠJersey":13598,"ĠXÃ³m":13599,"ĠBru":13600,"amen":13601,"evi":13602,"Ġ275":13603,"Ġquáº·c":13604,"ĠKL":13605,"Ġ1948":13606,"Ġtuá»ĵn":13607,"Ġstylist":13608,"ĠCourtois":13609,"Trá»ĭnh":13610,"Ġ1920":13611,"ĠWr":13612,"ĠGat":13613,"ĠLá»«a":13614,"Ġsáº©y":13615,"Website":13616,"ĠRange":13617,"Ġthá»¥t":13618,"TG":13619,"Äĳiá»ĩn":13620,"105":13621,"VáºŃt":13622,"Ġstudio":13623,"ĠEnergy":13624,"ĠngÃ¡o":13625,"Ġ540":13626,"Tháº£m":13627,"ĠBI":13628,"ĠVáº¡c":13629,"ĠShak":13630,"ĠPhantom":13631,"ĠChá»ĳt":13632,"other":13633,"ĠAug":13634,"ĠDell":13635,"ĠPray":13636,"ĠCatalonia":13637,"Ġjean":13638,"ĠKroos":13639,"Play":13640,"tháº£m":13641,"ĠVers":13642,"1930":13643,"oisong":13644,"ĠTCC":13645,"ĠHoms":13646,"ĠlÃ³ng":13647,"1972":13648,"ChÆ¡i":13649,"ĠStudio":13650,"Mark":13651,"ĠSXKD":13652,"usra":13653,"NÃ³ng":13654,"1988":13655,"dá»ħ":13656,"ĠBright":13657,"080":13658,"edoisong":13659,"ĠTÆ°Æ¡i":13660,"ĠPetr":13661,"ggs":13662,"Ġmac":13663,"ĠRum":13664,"ĠdÃ¬m":13665,"Ġváº¹o":13666,"ĠTrÆ°a":13667,"ĠLingard":13668,"ĠEzz":13669,"ASEP":13670,"ĠIndia":13671,"ĠBanking":13672,"Ġ777":13673,"lins":13674,"ĠNO":13675,"ĠZin":13676,"ĠÄĳÃºt":13677,"ĠBre":13678,"ĠCay":13679,"1990":13680,"NuÃ´i":13681,"NDN":13682,"ĠGirls":13683,"ops":13684,"Ġnickname":13685,"ĠSS":13686,"Ġbáº£":13687,"ĠHOÃĢNG":13688,"ĠNhiÃªu":13689,"aini":13690,"ĠNhÃŃ":13691,"ĠRow":13692,"veen":13693,"ĠRetail":13694,"ĠTray":13695,"1991":13696,"Ġtháº£y":13697,"ĠchÃ¹i":13698,"ĠLawrence":13699,"ĠÄĲÃ¨n":13700,"BÄĥng":13701,"CÃ¡t":13702,"Da":13703,"asia":13704,"ĠTHAAD":13705,"Ġcháº¡nh":13706,"ĠKhen":13707,"nháºŃn":13708,"Ġdiáº¿t":13709,"Ġá»¦":13710,"ĠEast":13711,"ĠTrá»«":13712,"ĠJP":13713,"Ġchá»Ļ":13714,"emi":13715,"TiÃªn":13716,"ĠDiÃªm":13717,"Hiá»ĥu":13718,"ĠAubameyang":13719,"chat":13720,"onidae":13721,"chuáº©n":13722,"Ġnháº£nh":13723,"ienViet":13724,"ĠDáº¡y":13725,"chy":13726,"kusen":13727,"Ġ1941":13728,"ĠSiberia":13729,"ĠToronto":13730,"ĠÄĲÃ¡c":13731,"ĠDec":13732,"ĠFi":13733,"NTQ":13734,"ĠLuxury":13735,"Ġ325":13736,"ĠCVT":13737,"isto":13738,"acera":13739,"TNMT":13740,"ĠLever":13741,"jib":13742,"ĠGiÃł":13743,"LÄ©nh":13744,"umber":13745,"ĠbÃ´":13746,"Ġbiáº¿c":13747,"ĠHá»ĳ":13748,"ĠNgá»įn":13749,"ĠCooper":13750,"ism":13751,"tháº»":13752,"ĠMason":13753,"ĠCorporation":13754,"crai":13755,"ĠNishino":13756,"ĠNá»ĳt":13757,"CSC":13758,"ĠEvans":13759,"ĠMÃ©p":13760,"ĠChin":13761,"Ġ208":13762,"ĠTechnology":13763,"ĠGuinness":13764,"Ġ470":13765,"ĠPeople":13766,"ĠAlves":13767,"ĠHonduras":13768,"oucher":13769,"ĠCua":13770,"ugeot":13771,"1989":13772,"tv":13773,"ithium":13774,"ĠSAB":13775,"DF":13776,"ĠPM":13777,"ĠMÃºa":13778,"Vietin":13779,"ĠRáº±m":13780,"eline":13781,"áº¢O":13782,"ĠHwang":13783,"ĠPVS":13784,"ĠChannel":13785,"Ġná»¡":13786,"Æ¯á»¢":13787,"ĠMohammad":13788,"GiÃ³":13789,"Ġtrá»¥y":13790,"emiro":13791,"ĠWolves":13792,"ARS":13793,"ĠSund":13794,"Ġ216":13795,"ckhoedoisong":13796,"lant":13797,"Äĳau":13798,"edad":13799,"ĠSCB":13800,"Ġná»ĩm":13801,"bell":13802,"ĠGáº¡c":13803,"Ġen":13804,"ible":13805,"Men":13806,"ĠKTNN":13807,"ĠAx":13808,"ĠBÃ²":13809,"phÃ¹":13810,"ĠComposite":13811,"Ġ440":13812,"ĠGE":13813,"pet":13814,"ĠRic":13815,"ĠManhattan":13816,"Me":13817,"cott":13818,"gram":13819,"ĠÄĳiá»ĥu":13820,"oshop":13821,"ĠMarathon":13822,"ĠKHÃĶNG":13823,"ná»ķ":13824,"ĠCher":13825,"ĠAnderson":13826,"ĠVespa":13827,"ĠSeb":13828,"ĠTÃ´m":13829,"Big":13830,"ĠKiá»ĩm":13831,"ĠnÃ¡i":13832,"ĠquÃłng":13833,"Juventus":13834,"ĠPelle":13835,"ĠIDC":13836,"ĠLow":13837,"ĠColle":13838,"ĠHap":13839,"Ġnai":13840,"ĠBá»įn":13841,"ĠFukushima":13842,"Máº¹o":13843,"ĠCá»Ļt":13844,"Kháº¯c":13845,"eway":13846,"ĠmáºŃu":13847,"BGDPL":13848,"ĠXpander":13849,"ĠLewis":13850,"ĠKháº©n":13851,"ĠHappy":13852,"ĠCole":13853,"ĠHau":13854,"ĠLit":13855,"ĠAaron":13856,"Trá»©ng":13857,"ipan":13858,"ĠSamuel":13859,"ĠSerena":13860,"ĠRaul":13861,"ĠDÆ°a":13862,"umbai":13863,"ĠMarcelo":13864,"Ġháº¯c":13865,"ĠhuÃ¢n":13866,"alt":13867,"ĠBSC":13868,"gansk":13869,"ĠvÃ¡nh":13870,"ingrad":13871,"ĠMá»Ŀi":13872,"ĠrÃºp":13873,"Ġ2035":13874,"ĠbÃ©t":13875,"Ġ211":13876,"ĠGiá»ĵng":13877,"cung":13878,"ĠDuc":13879,"ĠCanon":13880,"Trump":13881,"ĠÃĲáº¡i":13882,"ĠIoT":13883,"Ġ209":13884,"load":13885,"nhan":13886,"Sch":13887,"may":13888,"ĠLiber":13889,"itez":13890,"ĠAsus":13891,"pad":13892,"ĠXVIII":13893,"sai":13894,"emo":13895,"Ġ1943":13896,"Ġol":13897,"ĠLugansk":13898,"Microsoft":13899,"Äĳá»ĳt":13900,"edu":13901,"ĠCÃłn":13902,"Äĳáº¥u":13903,"nghá»":13904,"ĠPic":13905,"edonia":13906,"ĠEUR":13907,"ĠStol":13908,"SÃ¡u":13909,"ĠBac":13910,"ĠSunny":13911,"ution":13912,"ĠCloud":13913,"ĠMessenger":13914,"999":13915,"BÄĲBP":13916,"Ġáº¨n":13917,"Ð¸":13918,"ĠÄĲÃ¡y":13919,"icky":13920,"uyen":13921,"ĠNhá»ı":13922,"imi":13923,"card":13924,"ĠTÃ¡":13925,"bÃ¡nh":13926,"Mon":13927,"ĠWater":13928,"dow":13929,"nataka":13930,"ĠtrÃ²ng":13931,"usa":13932,"ĠSilicon":13933,"XEM":13934,"ĠNÃ´m":13935,"Petro":13936,"ĠIniesta":13937,"NghÄ©":13938,"adon":13939,"inae":13940,"Ġrichter":13941,"ĠlÃµng":13942,"ĠYokohama":13943,"Mil":13944,"Se":13945,"mÃłu":13946,"má»ĳi":13947,"ThÃ¡ch":13948,"yeon":13949,"ĠHind":13950,"issa":13951,"chel":13952,"ĠTáºŃn":13953,"Ġláº³ng":13954,"ĠTaxi":13955,"ĠTrust":13956,"ĠThiá»ĩp":13957,"ĠLaurent":13958,"Ġ214":13959,"ĠÄĳay":13960,"HÃ©":13961,"amily":13962,"SÃ³ng":13963,"ĠVolodym":13964,"Ġdoping":13965,"apl":13966,"imeone":13967,"ĠMidd":13968,"Ġnghiáº¿n":13969,"Ġvir":13970,"cht":13971,"ices":13972,"cons":13973,"Ġgluc":13974,"iso":13975,"ĠGem":13976,"ĠChun":13977,"ĠpÃ´":13978,"ĠGHz":13979,"ĠMcK":13980,"ĠEsp":13981,"ĠKarnataka":13982,"ĠEXO":13983,"ĠQuÃŃ":13984,"andra":13985,"ĠMate":13986,"háº¿t":13987,"Ġkháº¿":13988,"Par":13989,"ĠRÃł":13990,"Cal":13991,"ĠÄĳuá»ĳc":13992,"nÃłng":13993,"ĠTá»ĵn":13994,"ĠBá»ĥ":13995,"tá»Ń":13996,"ĠYi":13997,"worth":13998,"Ġnháº¥m":13999,"ĠLáº¡m":14000,"ĠAung":14001,"nex":14002,"Ġox":14003,"Yo":14004,"ĠHans":14005,"ĠLockheed":14006,"AX":14007,"ĠVT":14008,"cÃ¡n":14009,"LÃ¡i":14010,"ĠVbiz":14011,"Viáº¿t":14012,"Or":14013,"ĠSpaceX":14014,"ĠPod":14015,"Ab":14016,"ĠFlash":14017,"Giang":14018,"WTO":14019,"ĠGunnar":14020,"Ná»£":14021,"ĠBournemouth":14022,"Bá»ĵ":14023,"instein":14024,"ĠXuyáº¿n":14025,"Cáº¡nh":14026,"ĠLazio":14027,"Ġ206":14028,"phen":14029,"ĠSpec":14030,"tÃłu":14031,"...\",":14032,"ĠWo":14033,"Star":14034,"tah":14035,"ĠFalcao":14036,"acker":14037,"ĠNorwich":14038,"Ġmin":14039,"»ĥn":14040,"á»ĥn":14041,"tenberg":14042,"ĠEmma":14043,"ĠNÃ©n":14044,"Neymar":14045,"ÄĲÆ°Æ¡ng":14046,"lá»Ŀi":14047,"ĠLine":14048,"Son":14049,"ĨNH":14050,"erenveen":14051,"ĠPepe":14052,"Pal":14053,"Ġganh":14054,"orks":14055,"ĠNot":14056,"ĠTurbo":14057,"ienVietPost":14058,"ĠMumbai":14059,"ĠPlat":14060,"Ġ090":14061,"OL":14062,"NgÄĥn":14063,"ĠCov":14064,"ĠThiá»ĩt":14065,"raw":14066,"ĠRCEP":14067,"MÃ´n":14068,"há»Ĺ":14069,"ĠNhÆ°á»£c":14070,"ĠVIá»ĨT":14071,"ĠFoundation":14072,"Ġ630":14073,"ĠngÃ¡c":14074,"otel":14075,"ĠNáº¡i":14076,"ĠVJ":14077,"conn":14078,"ĊĠĊĠ":14079,"Ġcarbo":14080,"ĠRecep":14081,"Ġláº½o":14082,"ĠgiÃ£i":14083,"ĠQueens":14084,"VL":14085,"ĠJane":14086,"ĠtÃ©t":14087,"Dáº¡y":14088,"vá»ĭ":14089,"phÃŃa":14090,"Ben":14091,")âĢĿ.":14092,"Ġtá»ģ":14093,"Chá»Ŀ":14094,"MáºŃt":14095,"gie":14096,"chem":14097,"ĠDX":14098,"CR":14099,"Ġngá»¥t":14100,"olin":14101,"hing":14102,"ĠLatvia":14103,"oay":14104,"ĠSoci":14105,"ĠDoan":14106,"Ġ207":14107,"ĠXÃŃch":14108,"480":14109,"ĠGiá»Ĺ":14110,"Ġcháº»":14111,"beck":14112,"ĠSÃºp":14113,"ĠQNg":14114,"ĠYun":14115,"hog":14116,"225":14117,"113":14118,"ĠSqu":14119,"ĠCoffee":14120,"ĠBut":14121,"ĠAtt":14122,"ĠQuá»Ľi":14123,"ĠLem":14124,"UR":14125,"ipe":14126,"ĠCech":14127,"ĠJa":14128,"ĠCBS":14129,"ĠParaguay":14130,"ĠNá»Ńa":14131,"ĠxiÃªm":14132,"hÆ°á»Ľng":14133,"ĠAnder":14134,"ĠRico":14135,"ĠngÃ¹n":14136,"pÃ´":14137,"ĠDaw":14138,"Æ°Æ¡c":14139,"ĠTCty":14140,"ellen":14141,"ĠDanny":14142,"ĠRouhani":14143,"ĠMáºŃp":14144,"arn":14145,"Ġfeet":14146,"ĠBluezone":14147,"ĠdÃ´i":14148,"ĠcÃ¹i":14149,"ĠGreat":14150,"ĠVolodymyr":14151,"agawa":14152,"inaw":14153,"váºŃt":14154,"Ġhá»±c":14155,"ĠVent":14156,"athip":14157,"erner":14158,"ipedia":14159,"ababy":14160,"báº§u":14161,"raft":14162,"Ġná»©a":14163,"bot":14164,"440":14165,"NháºŃp":14166,"Ġsáº¡":14167,"ĠAthens":14168,"ĠnhÆ°á»¡ng":14169,"ĠCMC":14170,"ĠMoney":14171,"HR":14172,"cáº£m":14173,"nan":14174,"ĠNow":14175,"cÃ¡nh":14176,"áº¢N":14177,"yll":14178,"ĠPVD":14179,"Lá»ĩnh":14180,"Ġtáº¥y":14181,"ĠAbdullah":14182,"ĠPelosi":14183,"ThÄĥm":14184,"ĠAbbott":14185,"ĠkhiÃªng":14186,"suáº¥t":14187,"Äĳá»ĵ":14188,"mÃł":14189,"ĠsÃº":14190,"ĠRat":14191,"upol":14192,"ĠCharl":14193,"ĠTreo":14194,"iHay":14195,"Kia":14196,"ĠHR":14197,"ĠLlor":14198,"ĠKoh":14199,"suckhoedoisong":14200,"ÃĴ":14201,"ĠUFO":14202,"itton":14203,"Ġnhen":14204,"Ġtitan":14205,"ĠTHANH":14206,"ÄĲN":14207,"ĠSpurs":14208,"ĠPrad":14209,"ĠMuang":14210,"zan":14211,"otor":14212,"ĠSochi":14213,"ĠMancini":14214,"Ġlem":14215,"490":14216,"¡n":14217,"En":14218,"ĠSanders":14219,"ĠRiyadh":14220,"ĠKarim":14221,"ĠMina":14222,"ĠECB":14223,"IR":14224,"ĠBorussia":14225,"ĠIphone":14226,"ĠGá»įi":14227,"ĠLá»Ńa":14228,"ĠcáºŃt":14229,"ĠRin":14230,"VÄĲV":14231,"ĠâĢĶ":14232,"ble":14233,"ĠMend":14234,"Ġláº¥m":14235,"mAh":14236,"PPO":14237,"ĠMov":14238,"Ãĥ":14239,"ViÃªn":14240,"itsu":14241,"ĠLeverkusen":14242,"ĠNá»£":14243,"ĠGoal":14244,"bury":14245,"ĠAlonso":14246,"ĠTran":14247,"ĠDang":14248,"Ġ9999":14249,"Gen":14250,"Äĳáº¹p":14251,"Ġ265":14252,"cul":14253,"enzo":14254,"uchi":14255,"ambique":14256,"ĠBow":14257,"ĠPok":14258,"ouk":14259,"heimer":14260,"ĠThiáº¿n":14261,"Ġrem":14262,"ĠMes":14263,"ĠCPU":14264,"Ġláº£":14265,"Don":14266,"1946":14267,"Trá»ĵng":14268,"ĠHybrid":14269,"ĬCH":14270,"ĠCCN":14271,"Ġ191":14272,"lade":14273,"máº¯t":14274,"Mercedes":14275,"ĠDá»¥":14276,"uf":14277,"udeau":14278,"FPT":14279,"ĠRichter":14280,"ĠCSB":14281,"holm":14282,"ĠAráºŃp":14283,"ĠPres":14284,"LÃŃnh":14285,"ĠNich":14286,"ĠKent":14287,"Ġ580":14288,"THA":14289,"ienVietPostBank":14290,"Ġmarathon":14291,"ĠBá»īm":14292,"ĠWarner":14293,"HTX":14294,"ĠMiÃªu":14295,"hid":14296,"ĠRÃ´ng":14297,"fish":14298,"ĠGan":14299,"ister":14300,"ebe":14301,"Ġden":14302,"Ġhas":14303,"ĠIBM":14304,"ĠMÃ¡txcÆ¡va":14305,"ĠGerrard":14306,"ĠTiáº¿c":14307,"ĠNikol":14308,"mÃ¹ng":14309,"ĠAllen":14310,"ĠAL":14311,"Ġsoc":14312,"Ġxáº¯t":14313,"nu":14314,"ĠnÃ¨":14315,"ĠVinasun":14316,"ĠBeat":14317,"ĠAvent":14318,"cá»¥":14319,"ĠHeerenveen":14320,"ĠKylian":14321,"ĠLoa":14322,"Ġbáº£nh":14323,"ĠNancy":14324,"ulo":14325,"ĠrÃ¨":14326,"City":14327,"ĠFree":14328,"ĠTTVN":14329,"ĠView":14330,"ĠxiÃªu":14331,"Cáº¯t":14332,"ĠSimeone":14333,"Ġsáº¥p":14334,"giadinh":14335,"epend":14336,"ĠChá»¥p":14337,"NASA":14338,"ĠTU":14339,"Láº¡c":14340,"Olymp":14341,"For":14342,"ĠNhá»ķn":14343,"ĠSachs":14344,"Ġ1951":14345,"ches":14346,"OPEC":14347,"ĠATVSLÄĲ":14348,"ĠFund":14349,"iguain":14350,"Ġdeb":14351,"nha":14352,"Ġgien":14353,"ublic":14354,"ĠÄĳÃ¹n":14355,"UYÃĬN":14356,"ĠSociedad":14357,"time":14358,"Ġgara":14359,"tráº»":14360,"Ġcombo":14361,"TÃº":14362,"ĠJoa":14363,"Ġballad":14364,"ĠPom":14365,"ĠNM":14366,"Ġformula":14367,"Ġsingle":14368,"ĠlÃ¨o":14369,"Kháº©n":14370,"OI":14371,"berl":14372,"KA":14373,"amol":14374,"leg":14375,"Ġ255":14376,"apova":14377,"ĠRivers":14378,"chuyáº¿n":14379,"Pay":14380,"Cola":14381,"ĠBGK":14382,"ĠLuxem":14383,"was":14384,"ĠThor":14385,"ĠÄĳoÃ¡i":14386,"ĠVas":14387,"ĠGoldman":14388,"560":14389,"Ġcáº¡y":14390,"ĠBenitez":14391,"290":14392,"ĠTrudeau":14393,"ĠHymen":14394,"ĠBag":14395,"cáº¥m":14396,"Ġliá»ģm":14397,"ĠRoland":14398,"Ġ213":14399,"rie":14400,"xáº¿p":14401,"opmart":14402,"ÆłXH":14403,"ansas":14404,"ĠGiggs":14405,"ĠTCM":14406,"ngá»ĵi":14407,"ĠLeste":14408,"Ġrá»¥t":14409,"Ġmy":14410,"apper":14411,"á»·u":14412,"ding":14413,"Alex":14414,"ĠIng":14415,"ĠTCB":14416,"moon":14417,"Ġ[[":14418,"ĠcÃ¡ng":14419,"elo":14420,"máº·c":14421,"isi":14422,"ĠHand":14423,",..":14424,"abin":14425,"ĠPhá»Ľc":14426,"ĠthÃ¹y":14427,"\"âĢ¦":14428,"ĠKhuÃ´n":14429,"alanta":14430,"ĠBÃ´i":14431,"ĠCau":14432,"ĠLTE":14433,"Ġá»Ķ":14434,"Ġkhá»īnh":14435,"1947":14436,"Ġ530":14437,"ĠWonder":14438,"ĠKishida":14439,"Han":14440,"Ġráº£":14441,"=\"":14442,"ifone":14443,"NTech":14444,"ĠNÃ¹ng":14445,"ĠTIáº¾T":14446,"Ġenzyme":14447,"atex":14448,"ono":14449,"ĠOceanbank":14450,"phÃ¢n":14451,"ĠRihanna":14452,"ĠQN":14453,"Ġ224":14454,"Ġion":14455,"ĠRÃ´":14456,"ĠDemb":14457,"tang":14458,"ĠEPC":14459,"ĠÄĳá»Ŀn":14460,"ĠData":14461,"ĠBá»ĨNH":14462,"ĠPur":14463,"gÃ£":14464,"atchback":14465,"Ġchá»ĭt":14466,"ocus":14467,"ĠNTD":14468,"ĠNham":14469,"ĠÄĲáº©u":14470,"ents":14471,"ĠKante":14472,"osterone":14473,"ĠMueller":14474,"Ġquáº§ng":14475,"ĠMiá»ħn":14476,"ction":14477,"CVN":14478,"112":14479,"West":14480,"more":14481,"ĠÄĳá»ģm":14482,"ĠAbramovich":14483,"ĠBran":14484,"unce":14485,"road":14486,"ĠAngola":14487,"ĠMarina":14488,"gháº¿":14489,"ÄĲiáº¿u":14490,"ThÃ´i":14491,"Ġrá»£":14492,"ĠStoltenberg":14493,"ĠChiáº¿u":14494,"ĠUg":14495,"má»Ľi":14496,"Thua":14497,"Ġhá»Ľt":14498,"Ġ1800":14499,"ĠMarsh":14500,"ĠQUá»ĲC":14501,"Ġráº¡c":14502,"ĠMelania":14503,"ĠngÆ°Æ¡i":14504,"ĠMozambique":14505,"arov":14506,"Ġsá»Ľi":14507,"osp":14508,"Gr":14509,"ĠShinaw":14510,"ĠHÃ´":14511,"MM":14512,"TÃ¹ng":14513,"ĠSDF":14514,"ISA":14515,"Ġpol":14516,"ĠTrá»©":14517,"Ġháº¡c":14518,"ellaini":14519,"ĠSBS":14520,"avan":14521,"Ġpizza":14522,"Ġkhuá»·u":14523,"ĠÃĲá»ĵng":14524,"ĠHerrera":14525,"ĠDijk":14526,"ĠÄĳanh":14527,"ĠÄĲá»Ļt":14528,"1973":14529,"rea":14530,"SEA":14531,"ĠDark":14532,"ĠLÆ°á»Ŀng":14533,"ĠBVH":14534,"ĠVuitton":14535,"ĠICT":14536,"ĠGiáº¥c":14537,"ĠJulian":14538,"GHz":14539,"ĠnÃºm":14540,"570":14541,"ĠPP":14542,"Ġmargin":14543,"ĠSáº¯t":14544,"buck":14545,"Gáº¡o":14546,"nÃ¢ng":14547,"nge":14548,"ĠPhÃ¡":14549,"ĠCasillas":14550,"ĠBá»ĳi":14551,"ctor":14552,"Ġuranium":14553,"ĠGá»Ńi":14554,"ĠmÃłnh":14555,"ĠShinawatra":14556,"ĠAur":14557,"ĠSNSD":14558,"ĠnáºŃu":14559,"ĠWh":14560,"ĠIchneum":14561,"ĠIchneumonidae":14562,"ĠFans":14563,"dao":14564,"ĠThong":14565,"áºłNH":14566,"CÃ¡o":14567,"ĠIndepend":14568,"Av":14569,"Ġrá»įi":14570,"Capital":14571,"Ġnhá»«":14572,"Ġcháº±m":14573,"ĠSok":14574,"ĠHÄĲLÄĲ":14575,"Ġran":14576,"LVN":14577,"iveshow":14578,"SBD":14579,"Ġnhá»£t":14580,"ĠBritney":14581,"ĠKD":14582,"Tháº¡c":14583,"Ġ315":14584,"sáº¡ch":14585,"Ġthong":14586,"raf":14587,"ĠAlli":14588,"ĠOng":14589,"ĠLisbon":14590,"Ġ512":14591,"Diá»ħm":14592,"ĠPhot":14593,"lov":14594,"Ġghá»ģnh":14595,"ĠUm":14596,"bro":14597,"ĠScience":14598,"illo":14599,"ĠVPB":14600,"ĠSapp":14601,"Ġduá»Ĺi":14602,"fin":14603,"ĠMug":14604,"ĠMeta":14605,"117":14606,"ĠBphone":14607,"PVN":14608,"ĠCham":14609,"ĠMaldives":14610,"rik":14611,"ĠAqua":14612,"iram":14613,"ĠKash":14614,"ĠxÃ¨o":14615,"allet":14616,"quÃ½":14617,"ĠUBCKNN":14618,"ĠAventador":14619,"ĠVat":14620,"ĠTNCN":14621,"IU":14622,"Suy":14623,"ĠGho":14624,"ART":14625,"ĠRÃªu":14626,"ĠGÃ£":14627,"Ġpháº£":14628,"iston":14629,"Ġdá»ģn":14630,"TrÃ¢n":14631,"rossover":14632,"ĠRak":14633,"\"./.":14634,"Cá»§":14635,"ĠNGá»ĮC":14636,"FBI":14637,"ĠtÃ¹m":14638,"ĠÄĳÃªnh":14639,"Ġphá»ī":14640,"He":14641,"ĠMing":14642,"ĠReb":14643,"Ġsá»§ng":14644,"TÆ°á»£ng":14645,"ĠJust":14646,"ĠLeng":14647,"ahn":14648,"].":14649,"Ġgáº·m":14650,"ĠMÃ£n":14651,"LÅ©":14652,"ĠDembele":14653,"ĠcÃłphÃª":14654,"Ġcá»¯":14655,"Ġtiá»ĩt":14656,"ĠGoo":14657,"ĠChÃ¢m":14658,"Ġgháº»":14659,"ĠBÃºt":14660,"ĠTTTM":14661,"ilic":14662,"ĠRemix":14663,"GR":14664,"510":14665,"berry":14666,"ĠSamson":14667,"Ġmáº¡t":14668,"asonic":14669,"grini":14670,"ĠMERS":14671,"ĠxiÃªn":14672,")./.":14673,"ĠAIPA":14674,"ÅĤ":14675,"ska":14676,"Ġnhá»įt":14677,"WA":14678,"ĠGDNN":14679,"HÃ¹ng":14680,"há»ĵi":14681,"ĠJICA":14682,"ĠSag":14683,"ĠDH":14684,"GÃ²":14685,"ĠBuck":14686,"zheimer":14687,"uru":14688,"ĠFirmino":14689,"FS":14690,"Ġthau":14691,"Ġgáº£":14692,"ĠRup":14693,"ĠhÃºng":14694,"ĠToma":14695,"ĠSas":14696,"ĠMatthew":14697,"ĠCasemiro":14698,"ĠSark":14699,"ĠÄĲÃĤY":14700,"ENCO":14701,"Ġ640":14702,"Ġáºµm":14703,"ĠngÃ³c":14704,"táº¡o":14705,"unes":14706,"uchin":14707,"ĠShay":14708,"ĠpH":14709,"ÄĲá»ĳng":14710,"ĠAkira":14711,"Chuá»Ĺi":14712,"ĠHÃ²e":14713,"ikistan":14714,"ĠKhas":14715,"ĠLogistics":14716,"ĠMuham":14717,"izon":14718,"Ġruá»ķi":14719,"ĠMold":14720,"Gáº¯n":14721,"mel":14722,"ĠgÃłi":14723,"ĠOS":14724,"Ġ239":14725,"ĠDid":14726,"MÃ£i":14727,"ual":14728,"...),":14729,"Ġmáº£":14730,"Ġbá»ķn":14731,"ĠYuri":14732,"Ġ279":14733,"tháº¥t":14734,"nghá»ĩ":14735,"lá»«a":14736,"Ġ620":14737,"Ã¨ng":14738,"ĠCÄĥng":14739,"Ġ660":14740,"Chá»¯a":14741,"ĠGDTX":14742,"Ġtrá»ı":14743,"Ġtur":14744,"Chat":14745,"Group":14746,"Ġ226":14747,"ĠHop":14748,"ChiÃªm":14749,"ggio":14750,"ĠBernard":14751,"TÃŃch":14752,"andi":14753,"sch":14754,"Ġráº©y":14755,"lÃ©":14756,"Ġ410":14757,"Ġgiáº¿m":14758,"ilton":14759,"máº¡nh":14760,"Ná»ķ":14761,"ĠVS":14762,"allas":14763,"omel":14764,"bala":14765,"echen":14766,"ĠkhÃ¡u":14767,"ĠDenis":14768,"ĠJerome":14769,"ĠQuay":14770,"Ġ),":14771,"ĠlÃ¬nh":14772,"ince":14773,"idan":14774,"Ġhip":14775,"Ġstreamer":14776,"ĠVigl":14777,"esco":14778,"chips":14779,"ĠJorge":14780,"ĠDepp":14781,"102":14782,"ĠSpears":14783,"Ġtháº¹n":14784,"fu":14785,"ĠTáº»":14786,"ĠÄĳáºŃn":14787,"ĠFold":14788,"HoSE":14789,"Val":14790,"ĠChol":14791,"Jack":14792,"ident":14793,"ĠLÃ£m":14794,"Xi":14795,"Lai":14796,"tiáº¿n":14797,"áº©ng":14798,"oglu":14799,"ĠHÃłi":14800,"nháºŃp":14801,"raig":14802,"ietnam":14803,"ĠNang":14804,"1979":14805,"Ġcá»įp":14806,"103":14807,"ĠBritish":14808,"ĠBlackPink":14809,"ĠViglacera":14810,"biá»ĩt":14811,"oody":14812,"ĠAnto":14813,"ĠPeugeot":14814,"ĠthÆ¡i":14815,"rush":14816,"ksand":14817,"ĠMR":14818,"ĠKiÃªu":14819,"Mas":14820,"ĠMiley":14821,"ĠClau":14822,"ĠGle":14823,"ĠPBGDPL":14824,"ĠthÃŃa":14825,"ĠÂ½":14826,"uatem":14827,"ility":14828,"quez":14829,"111":14830,"ĠExplor":14831,"ĠFat":14832,"chá»ĳt":14833,"ĠPuerto":14834,"ĠGL":14835,"Ġnong":14836,"ĠMarcos":14837,"ĠHKTT":14838,"ĠLead":14839,"gers":14840,"ĠCaribe":14841,"ĠMatic":14842,"212":14843,"BMW":14844,"ĠrÄĥm":14845,"aun":14846,"ĠKCX":14847,"bal":14848,"Sá»Ńa":14849,"ĠDailymail":14850,"mut":14851,"BXD":14852,"Ġtáº¯p":14853,"ĠKQ":14854,"ĠDesign":14855,"raham":14856,"ÃĻNG":14857,"ĠSamp":14858,"uman":14859,"kai":14860,"ĠphÆ°á»Ľc":14861,"ĠCollege":14862,"há»į":14863,"ĠnghÃªu":14864,"ĠMuller":14865,"linois":14866,"ricio":14867,"Ġlove":14868,"Ġun":14869,"isco":14870,"iya":14871,"ĠMcDonald":14872,"ĠKyi":14873,"ĠLuxembourg":14874,"táº§m":14875,"ĠNPK":14876,"gies":14877,"ifa":14878,"Ġ375":14879,"720":14880,"chool":14881,"ĠKiatisuk":14882,"Ġtá»ĩp":14883,"Yáº¿u":14884,"ĠVisa":14885,"ĠAeg":14886,"ĠCyrus":14887,"ĠAmb":14888,"zania":14889,"109":14890,"Rá»Ŀi":14891,"wo":14892,"Ġfrom":14893,"trai":14894,"tourist":14895,"ĠXSKT":14896,"ĠLake":14897,"Ġná»Ľt":14898,"ÃĤM":14899,"Ġsá»©a":14900,"Ġ285":14901,"bÃ¡c":14902,"NDP":14903,"LÃ´":14904,"ĠFall":14905,"endall":14906,"Ġpháº¿t":14907,"myra":14908,"Hotline":14909,"ĠTKCN":14910,"Ġfull":14911,"eko":14912,"mai":14913,"ĠLey":14914,"áº¬N":14915,"ĠlÃ²a":14916,"ĠBand":14917,"ĠDoll":14918,"Je":14919,"enix":14920,"ĠTáº·ng":14921,"ĠÄĥng":14922,"ĠCapitol":14923,"148":14924,"ĠPradesh":14925,"ĠLip":14926,"Ġgiá»¡n":14927,"ĠNghÃ¨":14928,"CPOA":14929,"ĠResiden":14930,"itor":14931,"ĠMoss":14932,"ĠTTGT":14933,"ĠWei":14934,"Ĺı":14935,"ĠAustral":14936,"ĠBog":14937,"ĠTrÃ¢u":14938,"uda":14939,"ĠMom":14940,"Ġcoc":14941,"ĠAlba":14942,"tory":14943,"xuá»ĳng":14944,"ĠCoupe":14945,"Ġko":14946,"MÆ°á»Ŀi":14947,"Per":14948,"gam":14949,"ovan":14950,"letic":14951,"Ġblazer":14952,"Ġcup":14953,"ĠGhá»ģnh":14954,"Khá»§ng":14955,"ngay":14956,"Ġláº£ng":14957,"Ġ730":14958,"ĠKaty":14959,"Ġ229":14960,"ĠSohu":14961,"ADB":14962,"ĠBou":14963,"str":14964,"ĠDouglas":14965,"?...":14966,"nháº£y":14967,"oop":14968,"Ġ221":14969,"ĠKhÄĥm":14970,"zoom":14971,"ĠViv":14972,"Ġ227":14973,"ĠDak":14974,"uatemala":14975,"Ġ1500":14976,"Ã¤":14977,"lb":14978,"ĠxÃ¢u":14979,"ĠKhoan":14980,"ĠTaek":14981,"oit":14982,"encent":14983,"ĠChav":14984,"310":14985,"Ġquá»ĩ":14986,"ĠBull":14987,"ĠLiv":14988,"Ġtuyá»ģn":14989,"580":14990,"ĠErn":14991,"ĠMn":14992,"ĠÄĲakrÃ´ng":14993,"ĠPVI":14994,"ĠBong":14995,"ept":14996,"ĠThÃ¡ch":14997,"Km":14998,"ĠGlass":14999,"»¥ng":15000,"á»¥ng":15001,"dÃŃnh":15002,"ĠNhuáº¿":15003,"aguar":15004,"thiáº¿t":15005,"VKSND":15006,"ĠJoy":15007,"Lá»¥c":15008,"ĠDiaz":15009,"123":15010,"Ġcarbohyd":15011,"ĠKw":15012,"ĠHero":15013,"ozy":15014,"Washington":15015,"lando":15016,"Máº¯t":15017,"ĠMerc":15018,"ĠElly":15019,"ĠTong":15020,"ĠYáº¿u":15021,"ĠCHI":15022,"utan":15023,"ĠXay":15024,"BÄĲS":15025,"ĠNeuer":15026,"láº¥p":15027,"Ġthoáº¯t":15028,"ĠEriksen":15029,"ĠSÃŃp":15030,"ĠSig":15031,"ĠATVSTP":15032,"ME":15033,"LÃ²ng":15034,"Ġhá»Ļc":15035,"FIFA":15036,"ĠAbbas":15037,"ĠTripoli":15038,"ĠnÃ²i":15039,"Ġvol":15040,"ĠDiá»ĩm":15041,"ĠlÃ³":15042,"ĠnhÃ¢m":15043,"Ġ247":15044,"aily":15045,"ĠArk":15046,"Ġcá»Ĺi":15047,"Ġbanh":15048,"ThÃ¡p":15049,"1968":15050,"Ġtrá»ĵi":15051,"ĠHiguain":15052,"ĠPhÃ¬n":15053,"arch":15054,"hoon":15055,"ĠChiÃªn":15056,"ĠRiverside":15057,"ĠRangnick":15058,"ĠNgo":15059,"akhar":15060,"thÃŃch":15061,"ĠFDA":15062,"430":15063,"ĠDá»ħ":15064,"Vá»ĩ":15065,"ĠHymenoptera":15066,"©m":15067,"Ġcr":15068,"ĠMaroc":15069,"ĠSTEM":15070,"Ġ231":15071,"ĠNexus":15072,"ĠFior":15073,"Ġchá»±c":15074,"ĠIUU":15075,"ĠVietJet":15076,"ĠAlzheimer":15077,"!\",":15078,"pir":15079,"phÆ°Æ¡ng":15080,"ij":15081,"watch":15082,"Ġ249":15083,"Æ°Æ¡Ã¬":15084,"ĠlÆ°á»£m":15085,"ĠIllinois":15086,"ĠUt":15087,"Hua":15088,"ĠHarper":15089,"ĠBrooklyn":15090,"Ġsmart":15091,"ĠDepay":15092,"Nusra":15093,"ĠSet":15094,"+.":15095,"ĠNeo":15096,"ĠTrá»©ng":15097,"nexpress":15098,"Ġteh":15099,"YP":15100,"Ġváº¹t":15101,"ĠSÃło":15102,"ĠKawasaki":15103,"ĠRB":15104,"ĠAcad":15105,"ĠMG":15106,"Ġ242":15107,"tá»ĳt":15108,"aso":15109,"ĠJeon":15110,"Pháº¥n":15111,"Ð½":15112,"ĠÃ¡ng":15113,"yang":15114,"ĠNajib":15115,"ĠCompany":15116,"VNPT":15117,"ĠComex":15118,"ĠRib":15119,"player":15120,"Ġnháº¡o":15121,"ĠTomahawk":15122,"Ġdáº¥m":15123,"ĠthÃły":15124,"link":15125,"ĠTNDN":15126,"aug":15127,"ĠXy":15128,"ĠchÃ£i":15129,"ĠWook":15130,"ural":15131,"acet":15132,"ĠXÃł":15133,"ĠRaptor":15134,"ĠToure":15135,"gÃ¡i":15136,"bucks":15137,"ĠNÆłXH":15138,"Thá»©c":15139,"pen":15140,"ĠStockholm":15141,"ĠchÃłm":15142,"ĠBugatti":15143,"Chim":15144,"zon":15145,"alke":15146,"SGGPO":15147,"Rá»«ng":15148,"MÃł":15149,"ĠMoore":15150,"Ġdebut":15151,"ĠKhÃ¢u":15152,"ĠmÃ¡ng":15153,"onsai":15154,"ĠAccent":15155,"LáºŃt":15156,"Ġsá»©t":15157,"Ġ1939":15158,"ĠVillas":15159,"ÄĲÃ¡":15160,"cáº£nh":15161,"ĠBá»ģn":15162,"Dáº¡":15163,"Italy":15164,"ĠGreenwood":15165,"ĠAbdel":15166,"ĠgÃ³a":15167,"ussein":15168,"ĠScarborough":15169,"CÆ°á»Ŀng":15170,"ĠSuu":15171,"thá»ķi":15172,"isse":15173,"ĠPellegrini":15174,"ĠVHNT":15175,"giáº¥y":15176,"ĠPalmyra":15177,"ĠBros":15178,"ĠPLO":15179,"ĠLáº½":15180,"ĠSukhoi":15181,"thá»ĥ":15182,"facebook":15183,"Sm":15184,"Argentina":15185,"ĠNelson":15186,"non":15187,"isson":15188,"Ġdrama":15189,"ĠMobifone":15190,"ĠMáº¡i":15191,"tháº¯ng":15192,"ĠSalvador":15193,"104":15194,"ĠCÃĶNG":15195,"Ġtehsil":15196,"ĠGiuá»Ļc":15197,"Sham":15198,"ĠAlc":15199,"ibr":15200,"ĠAH":15201,"ĠMacedonia":15202,
[...]
