#version: 0.2
á º
n g
Ġ t
Ġ c
Ġ Ä
ĠÄ ĳ
n h
Ã ł
Æ °
Ġ v
h á
há »
Ã ¡
i á
iá »
Ġ l
Ġt r
Ġ k
Ġ b
Æ° á
Æ°á »
h Ã
Ġ s
Ġ m
áº ¿
Ġ nh
áº ¡
Ġ n
Ġt h
ĠÄĳ á
ĠÄĳá »
áº £
Ġ h
Ġ g
Ã ª
Ġ d
Ġ ng
iá» ĩ
Ġ p
Ġc h
Ġ T
Ġc Ã
áº ¥
´ ng
Ġv á
Ġvá »
Ã¡ c
Ãª n
Ġt á
Ġtá »
Ġc á
Ġcá »
Ã ¢
Ġv Ãł
» Ļ
á »Ļ
Æ ¡
u y
Ġk h
Ġ q
áº Ń
Ġt há»
Ġg i
áº §
Ġp h
ĠÄĳ Ã
Æ°á» Ŀ
Ġ N
Ġ x
» ĳ
á »ĳ
i áº¿
Ġ há»
Ľ i
Ä ĥ
Ġq u
Ġcá» §
Ġcá»§ a
Æ°á» £
áº¡ i
Ġl Ãł
Ġ C
Ġ r
Ġc há»
a n
o ng
Ġc Ã¡c
áº¥ t
Ã ¬
Ġ H
ĠcÃ ³
iá» ģ
» ±
á »±
hÃ ´ng
Ã¢ n
iá»ĩ n
Ġ B
Ãł y
Æ°á»£ c
áº ¯
» ĭ
á »ĭ
c h
i Ãªn
» Ł
á »Ł
Ġtr ong
Æ°á» Ľ
ĠÄĳ Æ°á»£c
Ġ V
Ġch o
Ã ´
i nh
â Ģ
iá» ĥ
ĠÄ Ĳ
Ġvá» Ľi
Ãł nh
Ġ 1
Æ°á»Ŀ i
Ġ 2
uy á
uyá »
ĠÄĳÃ £
iá»ģ u
Æ° Æ¡
hÃ Ń
Æ°á»Ŀ ng
á»Ļ t
Æ°Æ¡ ng
Ã¬ nh
a nh
áº§ n
» ¯
á »¯
Ġng Æ°á»Ŀi
Ã ³
ĠÄĳá» Ļ
a o
a y
a i
áº£ i
© c
a m
áº§ u
Ġk hÃ´ng
Ã ´ng
a ng
Æ°á»Ľ c
Ġ M
© ng
Ġm á»Ļt
Ãł n
áº ·
áºŃ n
Ġ L
Ġm á
Ġmá »
Ġn Äĥ
áº¿ n
ĵ ng
áº£ n
u ng
Ã Ń
Ġl á
Ġlá »
ĠT r
Ġ hÃ
áº¿ t
ĠcÃ ´ng
Ġ P
Ġ S
Ã¡ t
u á»ĳ
Ã¢ y
Ġ (
Ã¡ n
Ãł ng
iáº¿ n
Ãł i
ĠÄĳá» ĥ
ĠT h
ĠÄĳá» ĭ
Ġnh Æ°
á»¯ ng
Ġnh á»¯ng
Ã £
ĠN g
Ġt hÃ
iá»ĩ t
Ġh o
Ġng h
Ŀ i
Ġtá» «
o n
Ġs á»ĳ
ĠÄĳÃ ³
Ġt áº¡i
Æ¡ n
Ã ½
» ķ
á »ķ
Ġn Ãły
± c
Ã¡ o
Ġvá» ģ
¹ ng
i n
Ã º
Ġp há»
ĠÄĳ áº¿n
ĠnÄĥ m
¥ c
a u
e o
Ġkh i
Ġ á»Ł
Ġhá» į
Ġp hÃ
Ġg iá»
áºŃ t
Ġs áº
Ġ Q
Ġ K
iáº¿ t
Ġr a
Å ©ng
iá»ĩ c
áº¡ n
áºŃ p
Ġth u
Ġh iá»ĩn
áº ©
ĠÄĳá» ĵng
Ġtr Ãªn
ĠvÃł o
0 0
Ġ A
Ġthá» ĥ
Ã¡ ng
ĠÄĳá»Ļ ng
Ġd á
Ġdá »
Ã´ i
áº ±
ĠÄĳ áº§u
Ġv iá»ĩc
Ġc hÃŃ
Ġb á»ĭ
Ġnh iá»ģu
Äĥ ng
ĳ i
Ġc áº£
iá»ĩ u
Ġ D
Äĥ n
Ġc Å©ng
Ġ âĢ
i Ãª
Ã¡ i
Ġb á
Ġbá »
Ġng Ãły
Ġsáº ½
áº¡ t
Ġ G
Æ°á»£ ng
iá»ĥ m
Ã ²
áº «
Ġtr á
Ġtrá »
Ġqu an
Ġd o
Ġs á
Ġsá »
ĠÄĳá»ĭ nh
ĠlÃł m
Ġn Æ°á»Ľc
Ġs á»±
Ä Ĳ
Ġc hÃ
Ġth Ãłnh
Ġnh Ãł
Ġhá» Ļ
âĢ Ŀ
» ĵ
á »ĵ
áº¥ p
Ã¡c h
áº£ ng
áº¡ o
ĠN am
Ġnh Ã¢n
Ġ2 0
áº£ o
Ġd á»±
ħ n
Ġ 3
Ġchá» ī
Æ° a
Ä ©
o Ãłn
Ġgi a
á»Ļ c
¬ nh
ģ n
uy Ãªn
iá»ĥ n
áº¥ n
Ġl áº¡i
Ġ -
á»Ļ i
Ġgi Ã¡
Ġc Æ¡
áº¯ c
Ġh Ãłng
ĠV iá»ĩt
ĠchÃŃ nh
ĠâĢ ľ
áº¥ y
Ġtr Æ°á»Ŀng
Ġt iáº¿
áº± ng
Ġd Ã¢n
á»± c
Ġq uy
Æ°á» Ł
Ġph áº£i
á»ĭ ch
Ã¡ p
ĳ ng
Æ°á»Ł ng
Ã ©
Ġngh iá»ĩ
Ġhá»į c
Ġthá» ±c
áº« n
uyá» ĩ
Ġthá» Ŀi
Ã¢ m
£ p
Ãł o
Ġt ÃŃ
Ġ Ã´ng
Ġph Ã¡t
e r
Ġvá» ¥
u áº¥t
Ġt hÃ´ng
Ġh Æ¡n
ĥ n
Ã¡ nh
Ġkh o
Ġhá» £p
uá»ĳ c
ĠÄĳá» ģ
Ġh Ãłnh
Ġnh áº¥t
Ġng há»
ĠÄĳ iá»ģu
Ġx e
Ġhá»Ļ i
Ġk á
Ġká »
ī nh
Ġ y
Ġt áº¿
¢ n
i a
Ġv iÃªn
Ġchá» ©c
Ã ¹ng
Ġtá» ķ
ĠÄĳ ang
uyá» ģn
áº¡ nh
ĠN h
uyá»ĩ n
e n
áº· t
² n
áº· c
iá»ģ n
Ġs áº£n
Ġs inh
Ġth eo
Ġb iáº¿t
Ġmá» Ľi
¥ ng
áº¯ t
á»ķ i
ĠcÃ ²n
Ġc ao
Ġ á
ĠT há»
Ġá »
Ġs au
Ġnh áºŃn
ĠÄĳá» ĳi
Ġqu a
Ġm Ãł
ĩ nh
ĠP h
Ã ¹
hÃ ³
Ġ U
2 0
Ġl Ã½
áº£ m
Ġnghiá»ĩ p
ĠÄĳ i
Ġn Ã³
a r
áº¥ u
Ġc on
ĠhÃ ¬nh
Ġtiáº¿ p
Ġb á»Ļ
Ġtr Ã¬nh
Ġx uáº¥t
Ġk há»
Ġt Äĥng
Ġdá» ¥ng
á»ĳ c
Ġt Ã¡c
Ġtá» īnh
ĠcÃ ¹ng
áº ¹
ĠQ uá»ĳc
ĠnhÆ° ng
u á»Ļc
áº¡ m
Ġl Æ°á»£ng
iÃª u
Ġl u
į ng
áº¡ ng
Ġl o
Ġc áº¥p
áº »
ĠthÃ ¬
ĠÄĳ iá»ĥm
Ġ 4
Ġt in
Ġ 5
Ġtá» ĳ
Ġt Ã´i
º ng
Ġtr iá»ĥn
² ng
Ġt u
Ġk áº¿t
Ġt Æ°
Ġtr Æ°á»Ľc
Æ¡ i
Ġth áº¿
iá»ĥ u
Ġx Ã£
Ġ an
Ġ "
. .
Ġlá» Ľ
T r
Ġ Ã¡n
a l
ĠTr ung
Ġl á»±c
» Ń
á »Ń
Ġr áº¥t
h i
» ¹
á »¹
Ġthá» ĭ
ĠC Ã´ng
Ã´ n
ĠQ u
Ġchá» §
Ġl Ãªn
Ġk inh
T h
ĠÄĳ Æ°á»Ŀng
ĠnÄĥ ng
Ġc áº§u
Ġb Ã¡o
áº£ nh
Ġn Ãªn
Ġt Ã¬nh
iá» ħn
Æ°á»Ľ ng
Ġgi áº£i
ĠcÃ¡c h
» į
á »į
Ġt oÃłn
áº© m
Ġ20 1
Ġd á»ĭch
Ġdo anh
Ġth Ã¡ng
Ġkh u
Ġm Ã¬nh
ĠÄĳá»ĭ a
Ġn ay
Ã¡ y
uyá» ĥn
ĠH Ãł
Ġb áº£o
áº¿ u
Ãª u
áº¡ ch
Ġgiá» ¯
e m
i m
« a
iá»ĩ m
Ġbá» ĩnh
Ġthá» §
Ġtá» Ľi
Ġqu á»ĳc
Ġsá» Ń
Ġv áº«n
Ġc uá»Ļc
o Ãłi
Ġph Æ°Æ¡ng
ĠphÃ ²ng
³ ng
Å ©
Ġt Ã¢m
ĠÄĳ Ã¢y
ĠÄĲ á
ĠÄĲá »
ĠG i
Ġqu áº£
ĠB á»Ļ
Ġv Ã¬
Ġkh Ã¡c
u a
Ġgi ao
áº¯ ng
Ġ anh
Ġvá» ĭ
Ġthá» ĳng
uyá» ħn
Ġt iá»ģn
N g
Ġlá»Ľ n
Ġt áº¡o
e s
Ãº c
Ġgiá» Ľi
Ġgi an
ĠC h
Ġ R
ĠnÃ³ i
Ġ 6
Ġquy áº¿t
ĠÄĳ áº¡o
Ġph Ã¡p
Ġtá» ±
ĠNg uyá»ħn
Ġh ai
ĠM á»¹
á»ĳ i
Ġcá» ©
Ġk hÃ³
Ġth i
ĠT P
Ġb áº¡n
Ġt Ãłi
Ġtá» ¥c
Ġtr a
Ġt áºŃp
Ġ X
Ġho áº¡t
Ġt iÃªu
ĠÄĳ áº¡i
Ġph áº§n
Ġn á»¯
£ i
Ã² ng
Äĥ m
Ġb áº£n
Ġ I
o r
Ġc áº§n
ĠhÃ ³
ĠÄĳá» ķ
Ġr áº±ng
Ġl iÃªn
Ġd iá»ħn
Ġ áº£nh
Ġm áº·t
Ġvá» ±c
Ġnh iÃªn
Ġtr iá»ĩu
Ġtr á»ĭ
ĠhÃ³ a
Ġn á
Ġná »
Ġs o
Ġkh ai
Ġ Ã½
Ġtá» ·
Ġh iá»ĩu
Ġtrá» įng
Ġdá»± ng
Ġp hÃŃ
Ġl áº§n
Ġth Æ°Æ¡ng
iáº¿ u
áº¯ n
Ġ Ã
Ġhá» ĩ
ĠÄĳá»Ļ i
ĠN á»Ļi
Ġch Æ°a
Ġth am
Ġth áº¥y
Ġv i
¢ u
Ġm áº¡nh
áº¡ c
Ġgi áº£m
Ġs á»Ł
ĠC há»
Ã¢ u
Ġthá» ©c
Ġb áº±ng
Ġkh Ã¡ch
ĠtÃŃ nh
Ġt y
áº© n
Ĺ i
Ã µ
e l
Ġtr Æ°á»Łng
Ġth Æ°á»Ŀng
Ġch áº¥t
Ġtu á»ķi
Ã¡ m
Æ° u
Ġtr á»Ł
Ġph áº©m
Ġnh iá»ĩm
Ġx Ã¢y
Ġ 7
Ġy Ãªu
ĠÄĳ áº¥t
Ġb Ã¡n
Ġch iáº¿n
ĠÄĳ iá»ĩn
) ,
º c
Ġtr ung
Ġnh á
Ġnhá »
ĠÄĳ Æ°a
« ng
Ġphá» ĳ
Ġm Ã¡y
Ġh uyá»ĩn
áºŃ y
á»ĵ n
Th eo
ı i
ĠC hÃŃ
N D
ĠtÃŃ ch
ĠcÃ ´
00 0
áº§ m
áºŃ u
ĠÄĳ Æ¡n
Ġsá»ĳ ng
ĠÄĳá»ķ i
ĠV Äĥn
ĠH o
Ġl Ã£
Ġs Ã¡t
Ġg áº§n
uy áº¿n
ĠchÃ ºng
Ã© t
Ġng á
Ġngá »
e t
Ġchá» ĭ
Ġq uyá»ģn
Ġch áº¿
á»ĵ i
Ġch uyá»ĥn
Ġs Ä©
Ġ1 0
Ġqu Ã¡
Ġ em
Ġ F
Ġh ay
Ġ Y
iÃª m
Ġn Ãło
Ãº p
ĠK h
Ġb á»ĳ
ĠÄĳ áº¥u
Ġkho áº£ng
Ġ 8
Ã³ ng
Ġthá» ©
Ġk iá»ĥm
Ġhá» ĵ
Ġb Ãłn
o áº¡i
Ġvá» «a
Ġcá» Ń
Ġtá»ĳ t
Ġb iá»ĩt
ĠÄĳ o
Ġk iáº¿n
áº± m
1 9
u á»ĵn
Ġ1 9
ĠT á»ķ
Ġká» ³
Ġmá» ©c
ĠÄĳÃ ¬nh
ĠA nh
Ġb áº¥t
Æ° ng
Ġkh iáº¿n
Ġs Ã¡ch
ĠP hÃ
Ġch iáº¿
Ġnghá» ĭ
áº ³ng
Ġb áº¯t
ĠÄ ĥn
) .
Ġcáº£ nh
Ġtrá» £
Ġho Ãłn
Ġt Æ°á»£ng
Ġqu Ã¢n
Ġc Ã¡o
ĠÄĳ Ã¡nh
Ġ 9
Ġv Äĥn
Ġtr áº»
Ġá» ©ng
Ġth iáº¿t
uá»ĳ ng
ĠÄĳ oÃłn
Ġcá»© u
Ġgi Ãºp
Ġg Ã¢y
Ġlo áº¡i
Ġtr ang
Ġb Ãł
Ġph áº¡m
Ġd iá»ĩn
áº£ y
i d
Ġv áº¥n
Ġs Ã¡ng
ª m
Ġb an
ĠB Ã¬nh
âĢ ¦
uá»ĳ n
Ġgiá» Ŀ
Ġl áºŃp
Ġng oÃłi
Ġch u
ĠÄĳá»ģ u
Ġtá» ĭ
Ġcáº£ m
uá»ĳ i
Ġd áº«n
Ġphá» ¥c
Ġc a
Ãł u
ĠÄĳ áº¡t
Ġm ua
Ä© nh
Ġtr uyá»ģn
Ġnghá» ĩ
.. .
Ġsá» ©c
âĢĿ .
Ġ E
ĠthÃ ªm
Ġtá»ĭ ch
áº· ng
Ġx á»Ń
áº· p
Ġtr ÃŃ
¯ ng
Æ°á» Ľi
º t
Ġb iá»ĥu
Ġg Ã³
Ġvá» ĩ
Ġh Æ°á»Ľng
ĠÄĳÃ ´
Ġng Ãłnh
ĠÄĳ áº·c
Ġk áº¿
Ġv áºŃy
Ã¬ m
Ġt iÃªn
Ġl á»ĭch
Ġnh áºŃp
áº ¢
Ġm ang
á»Ļ ng
Ġthu á»Ļc
Ġgi Ã¡o
Ġt a
Ġb iáº¿n
Ġgiá»¯ a
Ġlá» £i
ĠhÃ ´
§ y
ĠTh anh
Ġqu áº£n
Ġt hÃŃ
Ġb Ã¬nh
Ġphá» §
i t
Ġt iáº¿n
Ġcá» ķ
Ġho áº·c
Ġc Ã¡
Ġtá»« ng
Ġd Ã¹ng
Ã² a
ĠA n
a t
Ġho áº¡ch
Ġt Ã¬m
Ġv iá»ĩn
Ġb Ãªn
i s
Ġ J
a s
Ġtr áºŃn
Ġt ay
áº¢ nh
Ġlu áºŃt
Ġr á
Ġrá »
20 1
i c
Ġnh au
Ġchá» ĳng
Ġn Æ¡i
Ġk hÃŃ
į n
ĠChÃŃ nh
ĠthÃ ¢n
Ġngh Ä©
Ġtá» Ń
Ġk iá»ĩn
áº¹ p
Ġch uyÃªn
ĠÄĳ áº£m
Ġtá»ķ ng
Ġchá» ©ng
Tr ong
áº¥ m
ĠM inh
© p
áº§ y
ĠChá» §
Ġ ÃŃ
ĠTá»ķ ng
Ġphá» ¥
Ġv áºŃt
Ġhá» Ĺ
Ġg Ã¬
o m
Ġ W
Ġt Ãªn
Ġm áº¡ng
Ķ ng
i l
u s
Ġm uá»ĳn
Ġb ay
Ġv Ã¹ng
Æ°á»£ t
Ġng uyÃªn
Ġch i
Ġx Ã¡c
ĳ n
áº© u
o l
Ġbá» ı
B ND
Ġch ung
Ġng uá»ĵn
Ġh áº¡n
Ã³ m
ĠTr ong
Ġtá» Ļ
Ġch ia
Ġlá» Ŀi
Ġtr á»±c
ĠâĢ ĵ
Ġtiáº¿ ng
Ġv áºŃn
Ġl iá»ĩu
Ġh áº¿t
Ġm áº¹
áº¯ p
S D
C M
Ġt o
áº¡ y
Ġn á»Ļi
Ġb ao
Ġth anh
áº¯ m
Ġtr anh
ĠThá» ĭ
Ġchiáº¿ c
Ġd Ãłi
áº ½
ĠH áº£i
Ġth ay
Ġh uy
Ġb Ã³ng
Ġvá» ĳn
Ġr Ãµ
Ġh Æ°á»Łng
Ġmá» į
a c
ĠU BND
Ġcá» ĳ
ĠNg a
á»Ł i
Ġb iá»ĥn
Ġm inh
Ġnghiá»ĩ m
Ġd u
Ġmá» ¥c
Ã¡ u
Ġ20 2
âĢĿ ,
Ġn áº¡n
ĠphÃ ¢n
ĠÄĳá» ĳ
Ġg áº·p
o v
Ġthu áºŃt
ĠÄĲ áº¡i
Ġx Ã©t
Ġkh áº©u
ĠB an
ĠÄĳ áº¹p
Ġn áº¿u
ĠT uy
ĠB áº¯c
ĠlÃ£ nh
Ġk Ã½
Ã¢ ng
Ġch Æ°Æ¡ng
Ġt Æ°á»Ľng
» ĵng
á »ĵng
Ġ1 2
Ġl Ãºc
Ġmá»į i
iÃª ng
á»į c
ĠÄĳá» §
» Ľi
á »Ľi
ĠÄĳo áº¡n
Ġkh Äĥn
Ã³ c
ĠU SD
Ġ O
N h
áº« u
Ġb u
ĠH á»Ļi
Ġr á»ĵi
Ġc uá»ĳi
Ġchu áº©n
u r
Ġt iáº¿t
Ġm á»Ł
Ġx áº£y
ĠÄĲá» ©c
Ġcá» Ļ
ĠTh Ãłnh
Ġmá» Ĺi
Ġgi áº£
Ġd anh
Ġchá» įn
ĠS Æ¡n
Ġl ao
C h
ĠÄĲ Ã´ng
Ġs Ã¢n
u Ã¢n
á»ĵ m
ĠphÃŃ a
Ġkh áº£
a d
Ġc áº¡nh
Ġ1 5
á»ĭ p
áºŃ m
ĠNh Ãł
ĠgÃ³ p
iá»ĩ p
Ġt Ãłu
Ġnh Ã³m
Ġth Æ°
Ġsáº »
Ġs ao
Ġm Ã¹
Ġnhá» ı
Ġxe m
» ³
á »³
u n
Ġng ay
Ġtr áº¡ng
Ġg á»į
Ġch uyá»ĩn
Ġm áº¥t
ĠP hÃ³
Ġlu Ã´n
ĠÄĳ áº·t
Ġc ung
Ġg á»ĵm
Ġnh anh
Ġk Ã©
áº© y
há» ¯ng
Ġn Ã´ng
Ġnh áº±m
Æ°á» ¡
Ġ Ã¡p
ĠThá» §
Ġcá» ±c
Ġtr áº£
Ġ '
Ġy áº¿u
Ġcá»Ń a
Ġt Æ°Æ¡ng
Ġng Ã¢n
ĠthÃ ´
Ġphá» ĳi
Ġg hi
Ġ1 1
Ġlu áºŃn
Ġká» ĥ
ĠC hÃ
ĠvÃł ng
Ġn Ã¢ng
Ġd Ã¹
Ġchá» ĵng
Ġb á»Łi
Ġdá» ¥c
" .
o s
ĠÄĳá»ĳ c
Ġkho a
ĠT á
ĠTá »
ĠÄĳá» ĵ
Ġs áº¯c
Ġ áº¢nh
Ġk ÃŃ
ĠÄĳá» Ŀi
Ġx uá»ĳng
Ġtr Ã²
Ġ3 0
ĠÄĲ áº£ng
Ġvá» £
ĠHo Ãłng
ĠÄĳÃ³ ng
Ġt uyá»ĥn
Ġk hÃ
Ã ¨
Ġt uyáº¿n
H CM
l e
ĠÄĳÃ ºng
Ġc Ã¡n
Ġm áº¯t
Ġh áºŃu
Ġv Ã´
Ġs ang
© a
Ġg Ã¡i
Æ°á»¡ ng
t r
ĠTh Ã¡i
ĠÄĳ Ã¡
ĠphÃ ©p
t er
Ġm Ã´
Ġtr Ã¡ch
ı a
Ġph im
¢ y
ĠÃŃ t
Ġ 0
1 0
Ġr á»Ļng
ĠcÃ ¢y
Ġb Ã©
Ġt áº¥n
Ġlá» ĩ
Ġt inh
ĠD Æ°Æ¡ng
Ġn á»ķi
ĠthÃŃ ch
Ġl Æ°u
Ġph ong
Ġt áº£i
Ġl áº¥y
Ġhá»ĵ i
Ġ Ã´
ĠL Ãª
Ġtá» ĳi
ĠTr áº§n
Ġtu áº§n
Ġc Ã¡i
Ġcá»Ļ ng
ĠÄĳ Äĥng
Ġch iá»ģu
Ġgá»į i
Ġá» §y
Ġtr Ã¡i
Ġch Æ¡i
a g
Ġth áº¯ng
Ġná»¯ a
Ġv Ã²ng
Ġb Ãłi
ĠÄĲá» ĵng
ĠÄĳ Ã¡ng
ĠH á»ĵ
iáº¿ m
Ġqu áºŃn
ĠÄĳ áº©y
Ġd ung
o t
¯ u
Ãª m
Ãº t
» ¥
u m
á »¥
i ng
Ġng hÃ
T há»
Ġc Ãłng
Ġd Æ°á»Ľi
Ġso Ã¡t
ĠT Ã¢y
ĠQu áº£ng
Ġnh u
ĠhÃ´ m
Ġcá» ¥
Ġph iÃªn
ĠNg há»
Ġt áº¥t
Ġká» ¹
Ġt uyÃªn
Ġhá» ¯u
Ġs Æ¡
âĢ ľ
Ä ĳ
ĠgiÃ¡ m
Ġd i
Ġho a
C Ã¡c
ĠL ong
§ ng
Ġhá» ıi
P h
Ġth áº§n
ĠhÃ ²
iá» ħ
r a
Ġm áº«u
ĠS á»Ł
Ġng uy
u áº¥n
ĠmÃ¹ a
Ġ2 00
Ł i
t h
Ã£ i
ĠnghÄ© a
Ã Ķng
Ġl á»Ļ
ĠC Ã¡c
ĠchÃ ¢n
Ġtá»Ļ i
ĠÄĳ áº£o
ĠNh áºŃt
į c
ĠcÃ ¢u
ĠL an
áº¡ p
Ġkh Ã¡
ĠÃ ģ
Ġr iÃªng
Ġm Ã´i
Ġvá» įng
T T
» ¥c
á »¥c
Ġl Ä©nh
Ġ ai
Ġlá» ħ
ĠÄĳ áº§y
ĠS au
Ġ áº¥y
Ġthu áºŃn
Ġth uá»ĳc
ĠchÃ º
Ġph áº£n
Ġs uáº¥t
Ġc Æ°á»Ŀng
ı e
ĠNg á»įc
Ġm áº¡i
S au
ĠH Ã²a
Ġth iáº¿u
Ġ1 8
Ġb á»ķ
Ġl Ã²ng
Ġchá» ¯
Ġkhá» ıe
Ġtr Ãº
Ġng oáº¡i
ĠÄĳ a
ĠTr Æ°á»Ŀng
u Ã´i
ĠmÃł u
Ġnh Ã¬
ĠchÃ ¢u
" ,
ĠÄĳÃ ´ng
ĠÄĳá»Ļ c
20 2
ĠX uÃ¢n
Ġká» ·
e d
Ġc Æ°
Ã² n
Ġth iá»ĩn
Ġv ai
Ġb a
ĠTh eo
áº¿ p
ĠGi ang
Ġngh iÃªm
ĠTh u
Ġngh iÃªn
u i
ĠhÃ £
Ġkhá» ıi
Ġná» ģn
Ãł m
1 2
Ġc Äĥn
Ġph iáº¿u
Ġth áº¥p
Ġh áº¡i
Ġth o
ĠhÃ² a
Ġkho áº£n
ĠÄĳ Ãłn
á»Ń i
Ġt Ãº
Ġb Æ°á»Ľc
Ġn iÃªn
Ng Ãły
Ġdá» ħ
Ġm Æ°a
Ġph Ã¡
á»± a
iá»ħ m
o o
Ġ1 4
Ġd áº§u
uy áº¿t
Ġlá»Ľ p
Ġch áº¡y
1 1
Ġ1 6
Ġh iá»ĥu
ĠÄĳ Ãªm
Ġg á
Ġgá »
Ġx Ãºc
Ġh iá»ĥm
ĠnhÃ¬ n
ĠÄĳá» ©ng
Ġ1 3
Ġ á»ķ
Ġbu á»ķi
uyá»ĩ t
Ġv Æ°á»£t
Ġt Æ°á»Łng
Ġch áº¥p
Ġg á»Ńi
Ġtr ao
Ġph áº¡t
Ġch áº¿t
ĠL iÃªn
Ġkhá» Łi
Ń a
iá»ģ m
ĠL u
Ġm Ã´n
Ġt ai
ĠthÃ ºc
Ġnh áº¡c
Ġm áº¯c
Ġt iá»ĩn
Ġn áº±m
Ġthu áº¿
¦ y
Ġth áºŃt
Tr Æ°á»Ľc
Ġtr ai
Ġb iÃªn
Ġkh áº³ng
Ľ m
Ġ Æ°Æ¡ng
Ġn áº·ng
M á»Ļt
Ġto Ã¡n
ĠPhÃ º
Ġc áº£i
Ġph Æ°á»Ŀng
Ġchá»ĭ u
Ġngá» Ŀ
Ġhá»į p
r o
h o
Ġth oáº¡i
Ġn am
Ġd Ãłnh
ĠB áº£n
ĠI n
ĠphÃ ¹
l i
Ġt Ã´
Ġnh iá»ħm
ĠthÃ´ n
ĠN inh
an d
Ġth áº£o
Ġsá» Ľm
Ġá» ¦y
ov id
Ġtr Ã¬
Ġnghá» ģ
Ġd uy
Ġgi ai
ĠB á
ĠBá »
ĠkÃ© o
Ġh áº¡
a p
Ġlá» Ńa
ĠÄĳÃ´ i
ĠC ovid
Ġn uÃ´i
Ġv Å©
Ġx uyÃªn
á»Ń a
ĠphÃ ºt
áº§ ng
Ġx a
Ġx in
ĠhÃ ºt
Ġs Ã¢u
Ã³ n
ĠGi Ã¡m
ĠtÃŃ n
Ġ2 5
Ġ1 7
n e
in e
ĠHo a
Ġ1 00
ĠH u
» ĩ
á »ĩ
ĠH Ãłn
ĠPhÃ ²ng
T áº¡i
Ġqu Ã½
ĠÄĲ Ã¢y
i r
© t
ĠÄĳ Ãło
Ġt áº§ng
ĠQu ang
hÃ ¢n
a k
Ġ Ã¢m
ĠÄĲ Ãł
Ġb Ã¡c
Ġá»ķ n
ĠT Ã¢n
ĵ n
Ġn inh
Ġv ui
o i
Ġm iá»ģn
u p
I D
Ġtá»ĳ c
ĠvÃł i
Ã£ o
Ã³ a
ĠD o
áº µ
L V
C há»
Ġchá»ī nh
ĠÄĲ iá»ģu
Ġk Ãª
Ġ Ã¡o
Ġnghá» ī
Ã£ n
Ġchiáº¿ m
ĠphÃ ³ng
áº· n
ĠK á»³
» ģ
Ġb iá»ĩn
á »ģ
ĠPh áº¡m
Ġm ong
Ġl Ã¢u
Ġng Ã´i
N há»¯ng
áºµ ng
Ġt áº¡m
ÄĲ T
Ġl y
ĠNg uyÃªn
á»ĭ nh
O V
Ġb áº§u
Ġth áº©m
ĠÃ Ĥ
Ġth Äĥm
ĠN áºµng
on e
Ġná» £
ĠB ÃŃ
T uy
Ġthá»§ y
Ġ2 4
ĠPh Ã¡p
Ġx anh
ĠNh Æ°ng
ĠÄĳ Ã¡p
ĠÃ Ķng
Ġch Ã¡y
e b
Ġk iáº¿m
¨ o
ĠChÃ ¢u
Ġs Ã´ng
Ġgi áº¥y
3 0
Ġch Äĥm
Ġ20 20
Ġd Æ°á»¡ng
Ġv ong
ĠH á»ĵng
ĠK im
ĠV i
Ġgiá» ĳng
ĠT áº¿t
Ġtr Ã¡nh
Ġchá»¯ a
Ġk á»ĭp
ĠT iÃªn
ĠphÃ ª
u t
Ġh áº¡ng
Ġ5 0
Ġb uá»Ļc
Ġd a
» Ĺi
á »Ĺi
Ġth Æ°á»Łng
Ġs ai
Ġth áº¥t
Ġd áº¥u
Ġ Æ°u
ĠK hi
G i
Ġqu Ã¡n
Ġvá» ¯ng
ĠV Å©
Ġkh áº¯c
Ġngh i
P T
p p
Ġ uá»ĳng
Ġth Ã¡i
e w
ĠLu áºŃt
Ġd Ã²ng
ĠT H
Ġkh Ã¡m
ĠM á»Ļt
Ġm á»ĳi
Ġtá» ©c
Ġv iáº¿t
¬ n
ĠNghá» ĭ
p h
ĠC á»¥c
Ġch Ã¡u
Ġtá»Ļ c
ĠPh Æ°Æ¡ng
Ġngh e
ĠT Ã´i
Ġtá» ī
Ġn á»ĳi
u e
Ġt Ã¹
Ġc am
Ġv ay
ĠÄĳÃ³ n
Ġs Æ°
á»ĳ ng
Ġ2 2
T á
Tá »
Ġt áº·ng
Ġh Ã¡t
ĠL e
Ġt Ã¡i
ı ng
ĠnÃ³ ng
» ĥ
á »ĥ
Ġbá» ©c
ĠN áº¿u
Ġch uyáº¿n
Ġt Ã²a
ĠkÃŃ ch
Ġ2 1
ĠBá» ĩnh
á»¯ a
Ġtrá» ĵng
Ġkh Ã¡n
Ġm a
Ġnh iá»ĩt
ĠH LV
ĠÄĳ au
Ġch áº¯c
Ġphá» ķ
Ġx áº¿p
ĠT uáº¥n
ĠÄĳá» ı
ĠN há»¯ng
T V
Ġtá» ı
ÃŃ nh
Ġchá» Ĺ
uá»ĳ t
Ġth Ã¡c
ĠNg Æ°á»Ŀi
Ġb Ãły
Ġqu ay
ĠC OV
Ġl Æ°á»£t
Ġl á»±a
ĠT Ãłi
Ġb áº£ng
Ġl uyá»ĩn
ĠÃĤ u
ĠCOV ID
i v
ĠM ai
Ġm Ã¡u
Ġcá» ¥c
Ġ2 3
Ġgi Ãłnh
Ġm áº·c
ĠB áº£o
Ãº ng
Ġx á
Ġxá »
Ġlo áº¡t
Ġs ung
i g
ĠChá» ī
Ġl Æ°Æ¡ng
en t
ĠL inh
Ġtrá» Ŀi
Ġnhá» Ŀ
ĠnghÃ ¨o
Ã¹ i
¢ m
Ġsáº µ
Ġth iá»ĩt
Ġnh áº¥n
Ġsáºµ n
Ġc áºŃn
ĠY Ãªn
ĠTá» «
Ġg áº¯n
V N
V á»Ľi
Ġqu anh
H iá»ĩn
Ġkhá» ĳi
Ġhá»į a
Ġthá» Ń
Ġ201 8
Ãº i
ĵ i
Ġl Ã¡i
Ġthu Ãª
ĠlÃł ng
ĠK hÃ´ng
ĠC hi
o a
Ġ202 1
Ġnh áº¹
e x
ĠchÃ ³ng
Ġb inh
Ġc áºŃp
Ġn iá»ĩm
Ng Æ°á»Ŀi
ĠD N
Ġt áº§m
ĠcÃ ¢n
5 0
ĠV Ã¬
Ġnhá» Ľ
Ġná» Ĺ
Ġs iÃªu
Ġc Ã¡nh
ĠÄĳá»Ļ t
ĠhÃ£ ng
Ġqu Ãª
Ġrá» «ng
ĠH Ã³a
Ġt iÃªm
Ġm Ãłn
ĠÃŃ ch
ĠhÃ´ n
Ġtr áº£i
Ġsá»Ń a
Ġv áº»
ĠÄĲ oÃłn
T Ã´i
ĠlÃ£ i
B á»Ļ
Ġth áº³ng
t on
Ġh áº¡t
Ġm ay
Ġl Æ°á»£c
i on
Ng oÃłi
Ġ áº¥n
ĠTh áº¿
Ġch áº·t
a v
Ġchá» Ŀ
u l
ĠL Ã¢m
o p
Ġlá» ĩnh
iáº¿ p
£ t
ĠT hÃ
a b
ĠNg oÃłi
ĠL á
ĠLá »
Ãµ i
ĠtÃº y
Ġ Z
Ġdá» «ng
Ġth ao
Ġ201 6
y r
Ġs ong
Ġng Äĥn
ĠC Ã³
Ġtr Æ°Æ¡ng
Ġd áº¡y
Ġ Æ°á»Ľc
Ġs Ãłng
K hÃ´ng
Ġ201 9
ĠkhÃ³ a
Ġlo Ãłi
Ġs uy
Ġd áº¡ng
Q u
ĠKh Ã¡nh
Ġ202 2
ĠÄĳ Ã¢u
Ġ2 7
r an
Ġl áº¡c
K hi
Ġd á»ĭp
Ġ19 9
Ġm Ã³n
i k
Ġl iá»ĩt
Ġ Ã¡nh
am p
Ġr Ãºt
ĠÄĳ áº£ng
Ġkh áº£o
ĠÄĳÃ Ń
ĠTh Æ°Æ¡ng
Ġqu en
Ġ2 6
t e
Ġthá» ¥
Ġc áº§m
Ġ2 8
ĠÄĲ Ã¬nh
Ġc áº¯t
ĠNg Ã¢n
ĠR e
ĠK inh
Ġn Ãªu
Ġ f
ĠphÃ ºc
Ġc an
% .
ĠTr iá»ģu
S N
ĠT N
Ġtr uy
Ġkhá» §ng
ĠTh Æ°á»Ŀng
Ġ4 0
ĠH Ã¹ng
Ġtrá» ¥
á»³ nh
Ġtá» ĵn
r ai
áº ¤
Ġm á»Ļ
Ġc Å©
Ġc áº¥u
¥ p
ĠH Æ°ng
Ġs áº¯p
ĠD Å©ng
Ġt áº¯c
ĠVi et
ĠT iáº¿n
T C
ĠH ÄĲ
Ġqu áº§n
Ġs áº¡ch
Ġt áº¡p
Ġthá» ıa
Ġt iá»ĥu
Ġth áºŃm
ĠNg h
ĠH iá»ĩn
C Ã´ng
Ġ201 7
ĠNg Ãły
ĠM ar
2 3
ĠN hÃ¢n
Ġ201 5
Ġs uá»ĳt
ĠH iá»ĩp
Ġs Ã³c
Ġá» §ng
Ġh áº£i
i e
u á»ķi
ĠA r
ĠTr Æ°á»Łng
Ġtr áº¯ng
Ġng áº¡i
ĠQu Ã¢n
Ġx ung
Ġng á»ĵi
Ġm Ã£
ĠV á»Ľi
Ġl ai
Ġb Ã¡nh
ar d
Ġthá» «a
Ġc oi
Ġth iÃªn
Ġl an
o b
Ġt áºŃn
Ġch a
Ġs Ã³ng
áº¹ n
Ġchá» £
T P
Ġn á»ķ
Ġch áº³ng
Ġgi Ã¡c
Ġkhá» ķ
Ġ2 9
ĠnghÃ ¬n
Ġtá» Ŀ
um p
Ġngá» §
is t
Ġth áº£i
Ġm áºŃt
ĠH Æ°Æ¡ng
I I
Ġth áº§y
ĠV N
Ġthá»ĭ t
ĠD á»±
Ġl Ã¡
ĠG D
ĠB a
ĠÄĳ ua
Ġgi Ã³
o an
ĠG ia
ĠC Æ¡
Ġd Æ°
Ġd Ã¢y
Ġn Ãºi
r e
Ġchá» ©a
ĠthÃ º
Ġng uyá»ĩn
Ġg á»ĳc
E A
ĠÄĳÃŃ ch
ĠPhÃ ºc
ĠT hÃ´ng
yr ia
c o
ĠV Ä©nh
ĠÄĳ Æ°Æ¡ng
Ġl Å©
Ġh áº¥p
Ġd á»¯
Ġng áº¯n
Ġd Ãµi
á»ķ ng
ĠÄĲ á»Ļ
Ġd Æ°Æ¡ng
ĠN ew
Ġchá» ©
Ġd áº§n
ĠS yria
s e
Ġth Æ¡
k rai
Ġb áºŃt
Ġtho Ã¡t
ÄĲ á»ĥ
ĠC áº£nh
ĠkÃ© m
Ġch áº¯n
² i
l y
ĠB iÃªn
ĠÄĳá» £t
á»Ļ n
Ġn áº¯m
ĠÄĳá»ĭ ch
Ġr Æ¡i
Ġ in
Tá» «
Ġtr áº¥n
ĠP há»
Ġkh uyáº¿n
ĠM an
Ãº a
d o
ĠTr ump
ĠN Äĥm
ĠT áºŃp
Ġchá» Ł
ĠkhÃ ´
Ġb áº¡c
C hÃ
ĠB Ã¡o
ĠNghá» ĩ
Ġb Ã£o
an k
Ġx Äĥng
ag ue
ĠkhÃ ºc
áº¤ n
Ġb á»ĳi
u b
ĠP ar
ĠB Ãł
Ġcá» ±
Ġtr Äĥm
ĠNg oáº¡i
Ġl áº½
į a
Ġth áº§u
V á»ģ
Ġx áº¥u
ĠU krai
ĠH á
ĠHá »
ĠPh ong
Ġqu Ãł
Ġn iá»ģm
Ġph áºŃn
ĠL Ã½
Ġc áº¥m
Ġnh áº¯c
Ġlá» Ĺi
Ġmá» «ng
Ġ3 1
ĳ t
K h
Ġgi áº£n
á»Ļ p
Ġh Ãłi
ĠphÃ ³
X H
es t
l o
Ġv Ã©
ĠThá» §y
Ġchá» ¥p
Å© i
ĠPh an
C Ã³
oo k
Ġh Æ°Æ¡ng
Ġnh áºŃt
ĠPh Ã¡t
ĠT o
ĠcÃ º
Ġb áº¡i
Ġt uyá»ĩt
G T
Ġl áº¡nh
in a
ĠV iá»ĩn
Ġx u
Ġm áº½
ĠKh u
Ġth iá»ĩu
Ġch áº·n
ĠTá» īnh
Ġsá» £
c e
Ġh áº¡nh
ĠÄĳ en
á»ĳ n
Ġh y
Ġph i
l d
C C
ĠThu áºŃn
ĠC up
Ä© a
d on
ĠÄĲ á»ĭnh
ĠUkrai ne
Ġtá» ıa
B Ãªn
ĠNh a
Ġbá» ģn
ĠC S
ĠA l
Ġt im
ĠÄĳá» įc
Ľ t
Ġg áº¯ng
ĠL a
¥ t
20 20
Ġ áº¤n
Ġb Ãło
Ġph Ã¡n
ĠTr á
ĠTrá »
Ã© p
Ġt Ã´n
Ġ i
Æ°Æ¡ i
į t
% ,
m ar
ĠV inh
Ġk Ãªu
Æ°á»Ŀ n
Ġlá» ¥c
Ġchá» ¥c
Ġs Ãºng
r i
202 1
Ġk Ã¨
Ġm iá»ħn
Ġch áºŃm
ÄĲ Ã¢y
Ġ201 4
ĠTr ang
Ġkh áº©n
Ġk im
Ġmá» Ŀi
Ġn áº¯ng
Ġkho Ã¡n
k g
ĠGi Ã¡o
o d
ĠÄĳá» ¡
ĠÄĳ Ãłm
c k
ĠTh iÃªn
Ġng Å©
ĠV iá»ĩc
Ġ6 0
Ġc Ãł
ĠV Ã¢n
ĠÄĳ Ã¡m
Ġh Æ¡i
Ġb ÃŃ
N Äĥm
h a
ĠÄĲ Ãło
Ġ19 8
Ġng á»į
Ġl áº¡
Ġk áº»
ĠTr Æ°á»Ľc
in es
ĠNh iá»ģu
Ġb ang
Ġh uáº¥n
Ġl Æ°á»Ľi
Ġsá» ¹
2 00
ĠT áº¡i
Ġtr Ãło
Ġho Ãłng
Ġr u
Ġh áº§u
Æ°á»Ľ p
) ;
ĠV Ãł
Ġt uy
» ©c
á »©c
ĠÄĳo Ã¡n
Ġr Ã¡c
L B
Ġtá» ĩ
Ġk á»ĭch
Ġqu áº£ng
ĠH uy
ĠChÃ ºng
ĠÄĲ áº¿n
Nh iá»ģu
Ġthu a
Ġphá» ©c
Ġb áº¯n
N áº¿u
ĠTP HCM
Ġl áº¯ng
Ġtr i
Ġth Ã¡ch
Ġs áº¯t
Ġg Æ°Æ¡ng
iáº¿ ng
ĠhÃ ¨
Ġr au
o u
Ġr Ãłng
Ġm Ã¡i
ĠB r
Ġgi Ãłu
Ġg h
Ġrá» Ŀi
Ġd uyá»ĩt
ģ m
Ġl iá»ģn
áº¯ k
Ġbá» Ŀ
Ġn á»Ļp
ĠD u
Ã³ t
ĠÄĲ H
Ġh iá»ĩp
Ġl inh
Ġt áº£
Ġng o
or e
Ġnhu áºŃn
Ġbá» ĵi
Ġgá» ¡
ĠC Ã´
ĠTH PT
ĠgÃ³ i
ĠH ai
á»Ļ m
ĠT Æ°
l a
Ġk iá»ĥu
ĠL Ãło
Ġngá» «ng
es s
on al
Ã£ y
Ġb Ã¨
Ġng Æ°á»£c
ĠhÃ£ y
/ .
Ġb Äĥng
Ġsá» ©
ĠC ao
ĠÄĳá» ©a
H Ãł
a e
Ġph a
Ġl á»ĳi
ĠÄĲ iá»ĩn
Ġc áº·p
Ġdá» ©t
Ġt áº¥m
ĠPh Æ°á»Ľc
Ġch iáº¿u
ĠthÃ´ i
Ã³ i
ĠD Ã¢n
Ġkh iá»ĥn
Ġn á»Ńa
ĠÄĳÃ ²i
Ġ o
t y
T á»ķng
ĩ t
ĠÄĳ em
Ġs Ãłn
¨ n
Ġth ai
ĠH CM
n et
ĠB Ãªn
q u
Ġhuy áº¿t
Ġb Ã£i
Ġt Ã¡
ĠkÃŃ nh
V iá»ĩc
Ġcá»± u
ĠÄĲ Ã³
ĠN Ã´ng
Ġqu á»¹
it y
Ġd Ãłng
Ġc Æ°á»Ľi
âĢ Ļ
ĠB H
ĠT Ä©nh
ĠKh oa
ĠHu áº¿
Ġtr áºŃt
ĠCh Æ°Æ¡ng
Ġthá» ķ
C Å©ng
1 5
ĠQu áº£n
ĠC LB
Ġhá» §y
H H
§ i
Ġm Ãª
á»¯ u
Ġs á»¯a
ĠNh Æ°
Ġm áº¥y
Ġx ong
¹ a
Æ°á»£ u
L ÄĲ
ĠTh áº¯ng
Ġkh áº¯p
ĠH á»į
Ġt Ã³c
ĠC áº§n
ĠL á»Ļc
2 2
i ch
Æ ¯
li p
Ġkh Ã¡ng
ĠH á»¯u
Ġl áº«n
Ġt iá»ģm
Ġt Æ°Æ¡i
ÄĲ áº¡i
Ġth iá»ĥu
Ġ w
Ġ5 00
ĠPh i
ChÃ ºng
ĠM al
Ġ201 3
ĠkÃª nh
ĠÄĲ áº·c
Ġdá»± a
Ġng Ã´n
Ġk m
ĠA S
ĠC Æ°á»Ŀng
i o
ĠS a
Ġc Æ°á»Ŀi
Ġc uá»ĳn
Ph Ã¡t
Ġm Æ°u
ĠQ uyáº¿t
s ia
ĠV Ãµ
s t
n am
ĠV Æ°Æ¡ng
Ġd á»ĭ
Ġmá» ¹
Ġ7 0
i an
Ġng ang
Ġchá» ĳt
k m
Ġg áº¥p
a x
Ġc Äĥng
or d
Ġd Ã¡ng
ĠS Ãłi
ĠD uy
C N
Ġkh en
Ġtr Æ°ng
ĠS t
ĠB ar
¥ y
Ã´ m
Ġdá» įa
ÃŃ t
ĠÄĲá» ĥ
Ġr Æ°á»£u
ÄĲ á»ĵng
a z
Ġx áº¿
or t
or ld
Ġch áº¡m
ĠÄĳo áº¡t
ĠB Ã¹i
Ġc Æ¡n
. /.
Ġch áº¥n
Ġd ao
ĠJ o
ĠkhÃŃ ch
ĠT T
S Ã¡ng
Ġtr á»¯
ĠÄĲ áº§u
ĠTN HH
ĠÄĳá» īnh
ĠG Ã²n
ĠTh e
T S
Ġth áºŃp
c om
Ġl áº»
ĠTh Æ¡
ĠTr Æ°Æ¡ng
Ġy Ãªn
ÄĲ áº¿n
A nh
Ġch áº½
Ġc áºŃu
Ġth uyá»ģn
ĠÄĳá» £i
Ġ201 2
ĠTrá» įng
D o
Ġng á»¯
ĠÄĲ á»Ļi
Ġv áº¿t
Ġ áº¥m
Ġr Ãł
Ġch Ãło
Ġth uyáº¿t
v n
ĠhÃ ¢m
Ġh Ãło
Ġm Å©i
ĠchÃ ºt
ÄĲ á»ĳi
ĠkÃ¨ m
Ġl Ã¢y
ac k
Ġchá»§ ng
e v
Ġ ung
Ġmá» ģm
Ġk iá»ĩm
o k
Ġr o
Ġng áºŃp
r y
eb ook
s on
ĠH y
Ġm áº¡ch
ai n
Ġph áº¥n
Ġch áº¥m
i f
Ġc Æ°á»Ľp
C P
£ n
ĠÄĳ e
Ġm áº¡c
Tr ung
ĠC Ã²n
ĠL Æ°Æ¡ng
Ġcáº£ ng
Ġm áº¯n
Ġxá» ©
ÄĲ Æ°á»£c
Ġg Ãł
Ġ Æ¡n
C S
ĠGi ao
Ġg áº¡o
ĠThá» ©
Ġ202 3
ac ebook
Ġh áº¹n
201 8
Ġth áº»
er a
Ġb uá»ĵn
á»ĳ t
ĠtÃº i
Ġtr áº¡m
ac c
Ġbu Ã´n
Ġgi áºŃt
ĠÄĲ Ãłi
ĠÄĳÃ ¨n
ĠTh Æ°á»£ng
Ġ3 5
20 19
d eo
Ġt ung
ĠLe ague
áºŃ c
ĠW orld
Ġtr á»Ļm
n Äĥm
Ġgi áº¿t
Ġng Ãłn
Ġth áºŃn
Ġvi deo
202 2
Ġtrá» «
ĠC on
Ġl Ã¢m
Ġh uá»ĳng
Ġch Ãłng
Ġs áº¡n
» ŀ
á »ŀ
N N
ĠX Ã¢y
ĠtrÃº ng
ĠC á»Ļng
ĠP V
ho w
d a
Ġ19 7
C á»¥
Ġ8 0
ĠÄĳ áº³ng
Ġb áºŃc
ĠS h
Ġkhu Ã´n
e z
Ġsá»ĳ t
Chá» §
6 0
ĠI ran
ĠtrÃŃ ch
Ġkh áº¥u
Ã£ ng
ĠPh il
ĠN ai
ĠÄĳ áº¡n
Ġl Ãºa
ĠÄĳ uá»ķi
ĠM y
Ġho áº£ng
Ġvá» ¡
Ġgá» Ĺ
1 8
5 00
á»ĭ a
Ġm Æ¡
Ġn Ã©t
Ġtr Ã¹ng
i b
i z
Ġtr Ãºc
Ġth Ã¡o
Ġg hÃ
B Ãł
ĠÄĳ ai
Ġhá» ģ
201 6
Ġ3 00
ĠHÄĲ ND
Ġv Æ°á»Ŀn
ĠL ai
4 0
u ch
Ġr Ãło
201 7
Ġgi áº£ng
ĠlÃł n
Ġl áº¯m
Ġkh ung
g i
ĠH Ãłng
ĠNg Ã´
4 5
al ia
acc ine
Ġn Ãłng
ĠÄĲá» Ĺ
ĠIn ter
ĠThá» Ŀi
ĠgÃ³ c
Ġng Ã£
es ia
Ġ áº©n
Ph one
EA N
201 5
ĠCh iáº¿n
Ġt Ã¡n
Ġ Ã©p
TV T
Ġtá» ¥
Ġ9 0
ĠthÃ ¹
Ġl áº¯p
ĠL ao
s en
N T
Ġx Ã¢m
D á»±
ĠNgh Ä©a
don esia
il l
1 7
ĠG iá»
Ġx o
r us
Ġb áº¡o
2 5
ĠP r
Ġt áº£ng
ĠlÃł nh
Ġgi am
Ġchu á»Ĺi
t a
Ġv accine
Ġhá» ©ng
s k
ĠT Ã¢m
f f
ĠÄĲ á»ĳi
Ġtr á»ĳn
ĠB iá»ĥn
iáº¿ c
Ġm ai
ĠÄĳ Ã¡o
ĠC ity
Ng ay
C Ã¹ng
h an
N G
e c
ĠÄĲ a
ĠThá» į
Ġgi Ãł
ĠH áºŃu
ĠC A
Ġh iáº¿n
Ġm u
Ch iá»ģu
Ġngá»į t
Ġná» Ĺi
ĠT iá»ģn
T hÃ´ng
ay sia
Ġr á»ĳi
Ġt ang
u d
i pp
Ġt Ãºc
Ġv iÃªm
ĠK iá»ĥm
ĠPar k
ĠAS EAN
ĠC á»¥
1 6
Ġá» ŀ
Ġthá» Ł
Ġch áº£y
am a
Ġgh áº¿
Tr Ãªn
o g
Ġrá» §i
ĠhÃ ¹ng
ĠÄĳ Ãłi
Thá» Ŀi
ĠH áº¡
Ġb om
Ġlo áº¡n
ĠI s
ĠÄĳá» ©c
ĠGi áº£i
Ġlá» «a
Ġ201 1
ĠQ uy
Ġb Ã²
ĠÄĳ Ã¢m
ĠM áº¡nh
Ġlá» £n
Nh Ãł
Gi Ã¡
ĠThá» ķ
Ġb Ã¹
Ġb Ã³
Ġx Ã³m
Ġtá»ķ n
Ġng on
Ġd áºŃy
ĠS ing
ĠchÃ ºc
ĠG TVT
ĠIn donesia
ĠcÆ¡ m
ĠE U
Ġt áºŃt
Ġngo Ã¡i
ĠK áº¿t
ĠC P
ĠchÃ ³
Ġb á»¯a
Ġk iÃªn
P hÃ³
ĠNh Ä©
Ġn on
áº ³
Ġtr Ã´ng
ĠM o
Ġc áº£n
ĠD Ã¹
K S
ĠS p
Ġngá» «a
Ġph Ã¡o
ĠÄĳá»ĳ t
2 4
Ġqu Ãªn
Ġdá» ¥
Ġh iáº¿m
ĠE m
Ġhuy nh
Ġ3 6
Ġtr áº¡i
ĠL oan
Ġ á»ĳng
ap ore
ĠÄĲ áº·ng
ĠT oÃłn
ĠMal aysia
ĠQu á»³nh
Ġx inh
ĠgiÃ¡ p
ĠÄĳ áºŃp
Ġhá» ĵng
Ġng Æ°
Ġlá» Ĺ
1 4
3 5
as hi
Ġd Ãły
Ng uá»ĵn
S á»±
er s
Ġth Æ°á»£ng
l Æ°á»£ng
Ġvi rus
Ġi Phone
Ġk ia
ĠphÃ º
Ġng áº§m
ĠC áº§u
r id
a h
A R
ĠT Ã¹ng
e y
Ġgiá» ıi
b ank
ĠÄĳ áºŃu
Ġv inh
Ġch Äĥn
Ã£ nh
Ġc lip
Thá» §
am es
Ġm Ã£i
ĠPhil ipp
Ġngá» ¥
ĠS á»±
ĠC amp
b er
u k
ĠHu á»³nh
ĠÄĳÃ£ i
Ġb áº¡ch
ÄĲ iá»ģu
ĠN hÃ
Ġhá» ıa
ĠtÃ¹ y
Ġ4 5
ĠB á»Łi
Ġb Ã¹ng
Ġng Æ°á»¡ng
Ġcá» ©ng
Ġbá» ¥ng
2 1
Ġh a
D Ã¹
Ġ uy
ĠU n
ĠV á»¥
ĠlÃ£ m
i er
Ġv Æ°á»Ľng
ĠA F
ĠNh áº¥t
iá»ĩ ng
Ġth áº£m
201 4
Ġho ang
áº³ n
i p
ĠC an
Ľ p
ĠTr Ãł
ĠÄĲ inh
m an
Ġcá»Ļ t
Ġph áº«u
un d
Ġnh Å©ng
ĠSing apore
ĠK áº¿
Ġn Ã©
ĠM áº·t
Ġt Ã´ng
ĠLá» ħ
ĠkÃŃ n
pp le
se a
ĠthÃ ©p
ĠÄĲ T
ĠchÃ ¬
ĠÄĳ iá»ĥn
Ġr á»Ńa
ĠTh áº£o
er n
ĠC á»ķ
áº« y
Ġm iá»ĩng
» ·
á »·
X VN
ĠF acebook
Ġhá» ıng
Ġ e
ĠÄĳá»ĵ n
Ġs áº¯m
Ġtr Ãłn
Ġb áº¿n
A T
el l
Ġhá»Ļ p
Ġmá» ĩnh
Ġs á»ķ
Ġb Ãª
Ġn iÃªm
C o
ĠA ir
Ġh áº³n
V Ã¬
ic o
Nh Æ°
Ġlá» įc
on a
Ġgiá» įng
Ġth ang
H ai
Ġn áº¥u
us tr
ĠPhilipp ines
Ġ &
Ġtr iá»ĩt
ĠkhÃ³ c
ĠT uyÃªn
Ġs Ãºt
ĠKh o
ĠT Ãłu
ĠQu Ã½
Ġh Æ°
Ġnh Æ°á»£ng
ĠHá» £p
1 3
Ġ áº©m
M á»¹
ĠTr á»ĭ
C B
ĠÄĲ Æ°á»Ŀng
Ġtiáº¿ c
el sea
ĠH á»ĵi
ĠT áº¥n
K áº¿t
ter s
ĠA s
Ġt Ãłng
e p
ĠH oÃłn
uch ia
Ġnh áº£y
Ġl Ã´
Ġth Äĥng
Ġru á»Ļt
ĠÄĲ áº¯k
Ġthá» Ŀ
áº¥ c
ur o
l ine
e g
ĠÄĳá» ģn
Ġm Ã¡t
Ġv áº¯c
ĠB áº±ng
Ġnh áº¯n
ĠM ad
Ġn Ã£o
Ġg a
Ġchá» ĳi
Ġv ÃŃ
al l
Ġkhu áº©n
Ġ3 2
ĠcÃ £i
hÃŃ nh
Ġcá» Ŀ
ĠL Æ°u
ĠCS GT
Ġt Ã¢y
ĠS am
Ġtrá» ¥c
Ġd inh
Ġkho e
V á»¥
ĠH oÃłi
Ġl áº¡m
ĠC ÄĲ
ĠV in
ĠRe al
201 3
Ġtrá» ©ng
Ġb áº¯c
ĠN há»
ĠN H
ĠB l
ĠT A
o w
8 0
ĠC N
Ġnh i
Ġx Æ°a
ĠH áº±ng
ĠThá» ±c
Ġs u
Ġ201 0
Ġ al
ist an
Ġhá» ©a
ĠC ar
c a
ĠC á
ĠCá »
Ġd Ã¡m
e i
ĠB V
7 0
Ġgi Ã£n
Ġb Ã¢y
Ġc anh
ĠB Ã¡c
ĠA pple
Ġx uÃ¢n
S C
ĠNg ay
L iÃªn
ĠB áº¡n
Ġm á»±c
ĠchÃ ¹a
ĠchÃ ©
Ġr áº»
Ġw eb
as s
Ġnh Ã¡nh
ĠH á»įc
ĠPh Æ°á»£ng
t á
tá »
Ġx Æ°Æ¡ng
M áº·c
Ġvá» ı
ĠQu a
I n
ĠT S
L á
Lá »
V Ãło
ĠCamp uchia
ĠThá» ¥y
ĠK iÃªn
Ġf an
ĠS á»ĳ
ĠÄĳ áºŃm
Ġthu áº«n
ĠThÃ º
h n
Thá» ±c
Ġc Ã¡t
ad a
Ġt Æ°á»Ŀng
ĠmÃ¹ i
Thá» ©
ĠS ong
Ġtr áº§m
ĠT Ãº
9 0
p o
is s
Ġl iá»ģu
Ġnh iÃªu
ĠT iá»ĥu
ĠÄĳ iá»ĩu
ĠD i
Ġc Æ°Æ¡ng
ĠS u
Ġch e
Ġs Ã´i
Ġnh Ã£n
Ġgá» £i
or k
Ã½ t
Ġd Ã¢u
iv er
C Ã²n
Ġl á»Ł
á»į i
ĠthÃ ³
ho áº£ng
ĠtÃ´ m
ĠCh Ã¡nh
u ters
G iá»
ĠlÃ£ ng
Ġm á»ĳc
ĠT am
Ġd Ã´ng
Ġcam era
ĠI S
Æ°Æ¡ n
t Ã´
Ġcá»ĳ t
am in
ra el
ustr alia
ĠÄĳá» «ng
Ġb Ã¡m
C hÃŃnh
ĠNg Ã£i
Ġtr eo
C T
Ġbá»ĳ n
Ġd iá»ĩt
Ġd Ã¢m
ĠTr uyá»ģn
Ġ .
N H
Ġgá»į n
Ġb á»Ļt
Ġb áº¿p
ĠM á»Ĺi
Ġ3 3
ĠTr Ãªn
h t
Ġtu Ã¢n
ĠT áº¥t
ÃŃ ch
Ġv en
ĠCh elsea
Ġxá» ©ng
ĠCh u
Ġv Ã¡y
ĠBH XH
m p
Ġ ,
ic k
Ġs how
Ġx Ã³a
202 3
ĠC Ã¹ng
c há»
ĠCh ung
as t
ĠÃ´ m
Ġy áº¿t
Ã¹ a
C Ã´
Ġd Æ°á»£c
ĠNh i
Chá» ī
l in
ĠK hÃ
onal d
ĠÄĳ Ãł
ĠI I
Ġtr Æ°a
ĠT Ã²a
ĠÄĳ iá»ĩp
Nh Æ°ng
Ġl áºŃu
x i
Ġgi áº¥u
L e
¥ i
Ġb á»ĳc
Q ua
Ġl Æ°ng
Ġtr áº§n
Ġt Ã¢n
M á»Ľi
Ġmá» ĩt
ĠS an
Ġqu ang
am e
ĠH ar
2 7
ĠH iáº¿u
Ġt iá»ħn
mar t
ĠA m
Ġphá» ıng
ĠAn d
i et
ng Ãły
Ġcá»ķ ng
ĠB ÄĲ
ĠC ai
ĠTA ND
G S
Co V
ÄĲ áº·c
Ġl a
ĠIs rael
Ġth an
ĠA ustralia
ĠchÃ ª
es ter
ĠL Ãºc
ĠV á»ģ
ĠViet nam
Ġ3 8
z il
Ġl áº§m
Ġ3 7
ng Æ°á»Ŀi
Ġm Ã¢y
Ġmá» ıi
ĠÄĳ eo
ĠÄĲá» ģ
Ġb ia
sen al
áº¹ t
Ġvá» Ŀi
Ġt áº¯m
Ġtá»ĳ n
ng ton
Ġ3 4
ai l
Ã¹ m
Ġs a
ĠQu á»¹
Ġd Ãłn
2 6
ashi ngton
Ġv a
ĠGi Ã¡
ĠRe uters
Ġmá» ı
ion s
k hÃ´ng
ĠB áº¿n
Ġ4 00
ĠN Ã³
ĠS o
Ġtrá» «ng
ĠThá» «a
ĠThá» ĳng
» £
ĠTr á»ĭnh
ĠB ra
Ġv áº¯ng
Ã¨ o
á »£
e k
ĠT Ã¬nh
ĠL oÃłi
ĠX Ã£
Ġc áº¥t
Ġx áº£
9 9
hÃ³ m
a w
Ġm áº£nh
Ġc áº¯p
ĠÄĳ áº¡p
onal do
in i
Ġ15 0
ĠThá» ĥ
Ġh áº§m
Ġnh á»±a
2 8
Ġt an
ĠM os
C uá»Ļc
Ġm Ã¬
Ġt áº¯t
C on
it e
ut in
ĠThÃº y
t o
Ġhá» ĳi
Ġd Æ°á»Ŀng
ĠW ashington
ĠC r
ĠPh áºŃt
Ġlá»ĩ ch
ĠM áº·c
Ġ19 6
B Ã¡o
ĠS AR
Ġth áº£
Ġdá» įc
ĠÄĳ áº¯t
P hÃ
t in
h am
c on
ĠC áº£
Ġd uyÃªn
ĠtrÃ² n
ĠH iá»ģn
Ġhá»ĵ n
ĠC o
ĠTh Äĥng
ĠLá» £i
T M
C Æ¡
ĠG u
en n
ĠÄĲ B
Ġh áº£o
Ġl ang
Ġb Ã¡
E C
ĠÄĳá» Ĺ
ĠÄĳ áº¥y
ĠTr inh
ĠC am
oo d
ĠthÃ³ i
Ġtho áº£i
Ġt áº¿t
Ĺ ng
ĠM au
Ġtr Ãł
Ġbá» Ľt
H á»Ļi
t el
ĠTh Æ°
ĠMad rid
B C
Ġg an
Ġh áº±ng
Ġm uá»ĳi
ĠA b
2 9
ĠC áº©m
Ġch uyá»ģn
Ġtr Ã´i
ĠS er
á»± u
ĠInter net
ĠthÃ ¹ng
201 2
Ġs Ã³t
Ġnh á»ĭp
Ġh ung
Ġcá»§ ng
ĠÄĲ Äĥng
ĠK há»
Ġm Ã¢u
ĠB áº¡ch
ĠGi áº¥y
Ġv ua
Ġgi Ã¢y
ĠP utin
Ġm áº§m
ĠG r
Ġh Ãłm
Q ÄĲ
ĠL ÄĲ
Ġs áº¡t
Ġth Æ°á»Ľc
t há»
Ġkh uyáº¿t
C Ã¡ch
Ġt Ã¡o
ĠÃ ļ
Ġph Ã¡i
Ġná» ģ
en d
7 5
Ġth iá»ĩp
ĠD onald
c el
ĠA i
¹ y
ĠT im
ĠbÃ© o
d ex
at e
A G
ĠH uyá»ģn
ĠÄĳ áº¿
ly mp
Ġkh iáº¿u
ĠNh iá»ĩt
Ġv Æ°Æ¡n
ĠThá»ĭ nh
ra b
ĠI t
ĠTh áº¡ch
ĠC Ãł
Ġh Æ°u
g e
o y
N am
ĠD ung
ĠC uá»Ļc
ĠC Å©ng
ĠM Ã´i
Ġng á»±c
Ġmá» ķ
Ã¨ n
Ġcá» ĳng
ĠkhÃ ¢u
Th anh
Æ°á»£ n
ĠSAR S
Ġl áº·ng
Ġh eo
Ġl ÃŃnh
ĠV Å©ng
ĠY ork
U BND
Ġlá» ĵ
ĠchÃŃ n
ĠthÆ¡ m
ĠAr senal
Ġm áº¡o
po ol
ĠC Ã¡t
x Ã£
Ġkhá» ĳng
ĠM i
ar a
Ġd áº¯t
ÃŃ n
ĠM a
Æ¡ m
Ġk g
) :
Ġgi Æ°á»Ŀng
h uyá»ĩn
ĠS inh
á»Ń u
T N
TT Q
s ung
T X
Ġhá» ķ
Y T
Ġlá» įt
l and
Ġ áº¥p
Ġm iáº¿ng
Ng há»
ph one
at ion
ĠChá» ĭ
ĠC Ã¡ch
H o
Ġs Äĥn
ĠBra zil
iver pool
ĠG ames
Ġng áº¡ch
Ġv iá»ħn
ĠT u
Ġ5 5
Ġng á»Ļ
ĠCh amp
Ã¹ n
ĠO lymp
ĠQ L
B á
Bá »
ĠC H
Ġv Ä©
O S
Ġr áº¯n
Ġkhá»ķ ng
ĠÄĳ am
Ġtrá» į
Chá» ĭ
Ġgi Ãły
' .
ĠC ty
ac e
Ġtr á»ĳng
Ġkh Ã¡t
Ġv Æ°Æ¡ng
Ġkh uyÃªn
Ġ áº£o
v er
ĠK iá»ģu
ĠÄĲ Ã´
Ġcá» ı
ĠThÃ ¹y
ess i
ĠNew s
Q T
ĠN á»¯
ĠQu an
g iá»
Ġm Ã³c
A S
ĠDo anh
Ġbá» ģ
ĠJo hn
Ġcá»¥ m
ĠghÃ ©p
Ġd Ã£
ĠL á»±c
y o
Ġv áº½
ĠO b
Ġchá» «ng
Ġm Ã©t
an i
Ã© o
ĠL á»ĩ
ĠÄĲ Æ°á»£c
ĠY o
Ġr Äĥng
Ġh áº¹p
ĠD e
ĠchÃ¬ m
B ank
iá»ħ u
Ġb Æ¡i
B áº¡n
ÄĲ á
ÄĲá »
ĠX II
t ain
it ed
er o
ĠÃ´ tÃ´
3 6
I C
ĠH áº¡nh
ĠCh o
ĠB Ãłi
ĠD iá»ħn
Ġl eo
Ġho an
ĠC Ã¡i
oo g
Ļ i
1 00
Ġd áº¡
ĠR onaldo
» «a
á »«a
Ġgi áº¥c
ĠK H
ar t
Ġcá» ¡
Le ague
or n
Ġd áºŃp
Ġkho Ã¡ng
Ġm Ã£n
Ġnh Ã©
Ġt Ã¡ch
Ġv Ãµ
oog le
ĠTh áº¡nh
I V
Ġv áº£
Ġtu á»ĩ
ĠTr ÃŃ
Ġt Ä©nh
Ġ4 8
th Ã¡ng
Ľ n
H Ã´m
Ġtho Ã¡i
as h
M T
ĠNg uá»ĵn
Ġs Ã¡nh
ĠS eo
ĠV áºŃy
ra q
ĠG al
ĠTh áºŃm
Ġt Ãłn
ĠChamp ions
n a
% ;
ĠA le
Ġc o
Ġt iá»ĩc
ĠH Æ¡n
y a
m a
ĠH Ãłnh
Ġtrá» įn
Ġngh iá»ĩn
3 7
ĠX uyÃªn
± ng
T iáº¿p
Ġ Ã¡i
ĠS EA
N ÄĲ
D C
ĠTh Ã¡p
ĠgÃ¬ n
Ġl Ã¹i
ĠL iÃªm
Ġná» ĵng
Ġch ua
k h
Tr ao
V iá»ĩt
ĠB o
ĠHu á»ĩ
e ch
ag e
Ġkh Æ¡i
t i
Ġl áº¥n
e a
Ġbu Ã½t
Ġr áº¡ng
Ã ģ
ĠL am
Ġv áº¹n
ĠÄĲ áº¥t
Ġg ame
e ng
Ġ Ã¡c
ĠY áº¿n
Ġp in
ĠV Ãłng
Ġo f
ĠM U
Ġsá»ĳ c
ĠP l
ĠTh i
ĠTH CS
ĠnÃ© m
In dex
. "
3 4
Ġkhá» Ľp
Ġn á»Ł
ĠTh iá»ĩn
Q H
ĠCan ada
hÃŃ a
ĠI raq
ĠL iverpool
ĠT á»Ń
ī a
ĠS Ã¡ng
Ġlá» ıng
ot a
Ġd ÃŃnh
3 00
Ġ3 9
ĠkhÃ´ i
Ġto p
Tr Æ°á»Ŀng
ĠU y
r am
Ġ7 5
ĠE l
> >
id ae
k e
Ġc áº©n
Ġv áº¥t
Ġn Ãºt
ĠÃ Ŀ
' ,
ĠTr iá»ĩu
ĠOlymp ic
u g
Ġthu áº§n
Ġnh Ãłng
ĠM TTQ
A M
Ġbá»ı ng
Ġg Ã¡nh
Ġnh an
ĠL H
Ġs ay
Ġ200 8
Ġ0 1
Ġphá»ķ i
Ġv áº£i
ĠPhá» ¥
ĠÄĳá» Ľi
3 8
B Ã¬nh
V iet
Ġvi t
ĠT iáº¿p
e al
id eo
S á»Ł
Ġd Ã¢ng
ĠÄĳá» ±ng
Ġ6 5
t or
ĠOb ama
Ġtá» ©
ĠN S
ĠH ang
Qu áº£ng
Ġ200 9
Ġr Ã©t
Ġk Ã¬
Ġvit amin
ĠÄĳ Ã¡n
ĠSam sung
Nh áºŃn
Ġr Ã£i
B an
N hÃ¢n
TT XVN
Ġl Ã²
b a
Ġl Ã´ng
ĠA P
d i
ĠUn ited
ĠD áº§u
Ġngá»į n
ĠL áº¯k
Ġng Ãµ
H Ã¬nh
L Ãł
m m
F F
ĠR iÃªng
Ġ u
N á»¯
ĠN N
Ġgi áºŃn
ÄĲ Ã³
le y
ĠM C
ro up
v a
ĠC ol
5 5
ĠH S
T Ã¬nh
l or
ĠM essi
Ġs Æ¡n
ĠM il
C H
Ġso áº¡n
áº± n
ĠJ u
ĠÃģ nh
Ġmu á»Ļn
Ġl áº¥p
o c
ĠG oogle
inh o
T ÃŃnh
á»ĳ m
ĠV áºŃn
4 6
G D
4 7
´ n
ĠÄĳ áº»
on da
4 00
% /
ĠÄĲ áº¡t
qu áºŃn
mart phone
ĠNg hi
Ġdá» įn
en s
F A
ĠNh Æ¡n
9 5
ĠH uyá»ĩn
g o
ĠL y
ĠA ng
ĠT Äĥng
Ġch iÃªu
ĠV Ãło
f t
E m
Ġxo ay
Ġvá» Ļi
Ġtr á»Ļn
Ġhá»Ĺ n
AT O
ĠÄĳÃ³ i
b o
an s
Ġch im
Ġqu Ã©t
Ġthá» ±
ĠS Ã³c
Ġta xi
S á»ĳ
ĠHÄĲ QT
ĠT ÃŃnh
ĠPh áº§n
Ġ Ã¹n
Ġbá» ¥i
Ġmá» ¡
Ġb Ã³n
ĠT Ã´
Ġ Ã¢n
Ġtá» §
id en
Ġr Ã¨n
Ġk iÃªm
Ġ6 00
G ia
Ng uyÃªn
Ġngá» £i
K T
© o
ĠÄĳ áº¯p
ic e
Kh u
e e
Ã² i
ĠâĢ ĺ
Ġ1 20
Ġc Æ°á»¡ng
Ġrá» ¡
Ġnh áº¡y
Ġv Ã¢y
AG L
Ġm áº·n
ĠD á»ĭch
201 1
CC C
Ġv ang
B Æ°á»Ľc
ÄĲ á»Ļi
Th Ã¡ng
ĠH á»ĩ
ĠTh iáº¿u
ĠS Ã´ng
H Ãłng
Ġx Æ°á»Łng
Ġho Ã£n
Ġsá» ¥t
ĠB á»ĵ
ÄĲ V
Ġb Ã¬
ĠÄĲ á»Ļng
ĠR o
I A
Ġ4 3
Ġng áº¡c
Æ°á»Ľ t
r on
ĠPr em
ĠB Ã¡
s inh
ĠTh Ã¡ng
al y
ĠCS ÄĲT
el a
Ġb áºŃn
ĠkhÃ³ i
Ġdá» ¡
an mar
Ġm Æ°á»£n
Ġxá» ī
T A
ĠÃļ c
Ġbá»ķ ng
i x
Ġdá» Ŀi
Gi áº£i
ĠB u
os t
Ġmá» ĵ
x in
ĠE r
ĠTr áº¯ng
- -
Ġth e
ĠM er
X em
ĠD av
ĠH iá»ĩu
Ġlá» ĵng
c Ã³
ĠH Ã¬nh
ĠhÃ´ i
Th áº¿
ĠP ro
ĠPar is
Ġtr uyá»ĩn
Ġ4 6
Ġm áº£ng
Ġ Ã¡m
ĠN a
PT NT
ĠH Ã£y
L á»±c
. âĢĿ
Ġkho áº£nh
3 3
Ġhá» ¥t
Ġc u
T in
ĠTr Äĥng
ĠA d
ent ina
Ġru á»Ļng
ĠBH YT
Ġ on
ic a
0 1
l ad
Ġs martphone
Ġtá» įa
ĠB áº¡c
ĠB KS
ot e
H Æ¡n
8 8
ĠP al
ĠP C
Th Ãłnh
in k
ĠLe e
ĠP et
Ġgi Ã¡n
Ġr Å©
ĠX Ã´
ĠK r
ĠAF P
ax y
Ġn áº¡i
ĠÄĲ iá»ĥn
ar y
ĠM Ã£
C V
Ġbá» įc
Ġá» ©c
u c
er t
D I
Ġr Ã²ng
ol a
x y
T hÃ
Ġ4 2
ĠM V
Bá» ĩnh
ĠB e
ĠL iÃªu
áº« m
ĠR ob
Ġth áº¯t
ĠlÃ£ o
Ġ202 5
S G
á»ĳ p
Ġkhá» ©
Ġb Ã¡t
Ãº n
ĠMy anmar
Ġ4 7
Ġch ai
ĠÄĲ á»ĭa
C áº£nh
Ġd á»Ļi
Ġr áº£i
K hoáº£ng
Ġch áº©n
ĠD anh
ĠL Ã£nh
4 8
3 1
ĠÄĲ á»ĵn
3 9
ĠC áº£ng
ĠH TX
Ġd á»ĳc
ĠS c
Ġnh á»Ł
P L
Ġb áº¿
B S
4 9
ĠP CCC
Ġg om
Ãº y
Ġm iÃªu
giá» Ŀ
Ġkho Ã¡c
V Ãł
ĠL on
Ġlu á»ĵng
Ġthá» £
Ġ :
Ġdá» ĵn
co w
ĠthÃ ¢m
Ġlá» ģ
M á»Ĺi
r os
Ġe uro
Ġb Ã´ng
Ġtá»± u
ĠBÃŃ ch
ar k
h e
tr e
Ġtr inh
ĠQu áºŃn
Ġ20 30
6 5
H LV
Â ł
H oa
an a
ĠK iáº¿n
J C
T B
ĠH AGL
ĠT á»±
Ġng áº¯m
Ġm áº¡n
ĠM in
tain er
ĠT ÃŃn
Ġquy áº¿n
ĠCh áº¥p
Ġk áº¹t
ĠJ ong
ĠTh iáº¿t
á»ĭ n
ĠL áº¡t
ĠR á»ĭa
Ch iáº¿c
Ġvá» īa
Ch ia
Ġtr iá»ģu
ĠM ay
Ġnh áº«n
ĠÄĳ Ä©a
ĠM at
ĠkhÃ ©o
Ġs áºŃp
Ġ á»ĳc
ĠPrem ier
Æ°á»¡ i
ĠchÃª nh
t p
ĳ c
ĠNhá» Ŀ
g entina
E O
á»į n
Ġng Ãło
Ġbá» įn
Ġnh áº§m
Ġm Ãºa
B á»ĭ
Æ°á»Ł i
ĠNgh iÃªn
ĠLon don
Ġlá» ¥t
Ġd Ã²
tá» «
Ġm áº¿n
Ġm Å©
ĠI II
ĠB iden
ĠA f
Ġn áº£y
Ġl áºŃt
Ġlá» ©a
l et
L Ãºc
ĠcÃ ºng
E D
X e
ĠGD P
Ġn Ã¡t
an t
ĠS Æ°
Ġt iá»ĩm
ĠN ATO
ĠchÃ© m
t hÃ
Ġr á»±c
ĠL áº¡c
Ġg áº¯t
Ġ5 1
ĠBar ca
ĠMos cow
ĠL áº¡ng
ĠT Æ°á»Ŀng
ĠF ran
Ġs Ã¡u
I S
ÄĲ oÃłn
an e
¯ a
in o
ĠÄĲ áº¡o
Ġg Ã£y
Ġ Ãºy
ĠPhÃ ¹ng
TC P
ĠT op
Ġ4 9
N Ã³i
ĠK on
ĠC áºŃp
Ġ19 5
ĠGal axy
ĠÄĳá»ĵ i
/ /
m á»Ļt
b um
0 5
Ġmá» ıng
3 2
Ġvá»£ t
ĠH ong
s ite
ĠÃ Ĳ
Ġcon tainer
ĠH onda
ĠKhÃ ª
ĠS te
Ġch inh
ĠÄĳá» ĩ
ĠR om
Ġn áº¿p
Ġ5 6
Ġl ÃŃ
ĠÄĳ áº§m
Ġ25 0
X X
Ġl ong
cel ona
ĠB ay
, âĢ¦
ĠA T
ot te
Ġl ÃŃt
ĠChá» ©ng
Ġ Æ°a
ĠV KS
ĠT Ã´n
Thá» ĭ
ĠV H
Ġ4 1
ĠS ao
ĠÄĲ iá»ģn
% ),
ĠG S
ap p
ĠÄĲ an
C O
ĠA t
os e
ĠA g
ĠTr Ã¡i
ĠB al
ĠM on
Ġph un
ĠE d
Ġl á»ĳc
Ġ4 4
ĠThu áº¿
T á»ĳi
ol d
ĠAr gentina
ĠH iáº¿n
Ġx Ã¡ch
: //
ÄĲ Ãł
ĠT w
at h
Ġs Æ°u
ĠM áº¹
ĠC al
Ġb Æ¡m
ĠE x
% )
Ġsá» £i
ĠM iss
ĠM á»Ľi
ĠÄĳ áº¯c
ĠB en
Ġ ong
N A
U SD
C áº§n
ĠS en
Ġs an
ĠchÃ ¢m
Ġn áº¥m
ĠS ang
Ġl Æ°á»Ŀng
Ġtr á»Ļi
Ch o
Ġchu á»Ļt
ex ico
ĠAle x
Ġk em
Ġx áº¡
Q G
i es
b iz
Ġvá» Ł
C ÄĲ
ur g
, ...
ĠM ich
ĠV I
Ch Æ°Æ¡ng
ber g
V ideo
ĠNh ung
O T
ĠGi Ã³
tr ong
ub e
Ġ8 00
P C
ĠÄĳá» ©t
ĠV ÄĲV
Ġ9 5
ĠtÃŃ m
Ġng Æ¡i
Ġs Ã©t
áº¹ o
ĠTT XVN
Ġon line
ĠB Ã¡i
ĠV iÃªn
ĠN Æ°á»Ľc
Ġh iáº¿p
ĠS ch
Ġho t
ĠChá» £
Ġv Ã³c
ĠÄĳ uÃ´i
Ġc áºŃy
ĠO s
ĠO n
Ġn Æ°á»Ľng
L Ã£nh
ĠD uyÃªn
ĠV TV
hi m
ĠÄĲ Ãłm
Ġc áº¯m
iá»ģ ng
N hÃ
Ġg ay
B P
Ġdá»ĭ u
ĠB ang
ĠK ong
ĠV FF
8 5
an o
Ġtr Ã¢n
Ġtr Ã¹m
Ġtho Ã¡ng
6 00
y l
Ġng á»±
Ġlá»Ļ n
Ng uyá»ħn
ĠchÃº a
ĠS al
ĠkhÃ ©p
4 4
ĠM c
Ġtá» ¥ng
Ġc ai
ĠlÅ© y
Ġl áºŃn
ĠTo y
Ġl Ã´i
Ġtr Æ°á»£t
ĠS JC
Ġkho an
ĠS on
C uá»ĳi
7 7
ĠQ uyá»ģn
o un
ĠP GS
i en
ĠC a
ÄĲ áº§u
Ã Ģ
l ÃŃt
l ines
Ġ200 7
Ġch áº·ng
ic s
ĠU S
ĠS un
Ng a
ĠTh am
or m
Ġv u
ot t
Nghá» ĩ
» Ŀi
á »Ŀi
ĠS áº£n
ĠGiá» Ŀ
g han
ĠA rab
Ġ7 00
ĠW in
Ġx ao
b ia
ĠF C
ĠL áºŃp
ĠB N
ĠS á»¹
Ġh uyá»ģn
Ġl Ã¢n
A n
P há»
6 8
ĠE n
Ġ2 000
ĠM exico
ĠBar celona
ĠÄĳ Ãª
ĠC l
ĠTo k
ĠW il
Ġtr Ã¢u
Ġc Æ°á»Ľc
ĠB S
Ġbá» Ĺng
ĠS e
Ġd Æ°a
k a
Ġm ÃŃ
ĠÄĲ iá»ĥm
Ġg áº¡ch
Ġth a
Ġ5 4
ch ester
Ġmá» Ŀ
Ġm áº»
Ġin ch
8 00
H áº£i
w s
ur inho
C áº£
´ i
it ter
Ġb Ãºt
f ord
er ia
Ġná» ¥
Ġtr Ã¡ng
G áº§n
ĠToy ota
ghan istan
Ġl Æ°á»¡ng
Ġm Äĥng
D A
ĠTr áº¡m
ĠM ac
au l
ig ht
ÄĲ iá»ĥm
L Ãłm
ĠL á»ĭch
ĠC Ã¢u
P V
Ġho áº¡i
ĠS H
Ġlá» ¡
» ©
á »©
ĠS Ä©
ĠC á»Ńa
ĠAir lines
ĠÄĳ Ã¡y
C K
Ġ im
k o
Ġm Ãłng
Ġv s
Ġh áº¯n
6 7
ol f
ĠTo Ã¡n
o áº¡n
Ġ8 5
ĠK iáº¿m
ĠN hÃ³m
g an
ĠT iáº¿ng
N há»
Th Ã¡i
v e
âĢ ĵ
Ġth Ã¡p
Ġth áº¥u
Ġng á»±a
Ġ á»ĵn
Ġthá» į
Ġnh áº¯m
Th am
Ġs Æ°Æ¡ng
H á
Há »
at a
ĠViet tel
ĠÄĲ Ã¡ng
ĠBá» ī
Ġ0 2
ĠAf ghanistan
Ġhá» Ł
Ġtr áº¯c
ĠT in
ĠP er
ĠDav id
ĠPhá» §
Ġr á»Ļn
ĠG roup
iv e
om p
Ġs uá»ĳi
ne y
ĠTr e
ĠL Ãł
ĠR a
ik e
Ġ5 7
. ,
Ġweb site
ÄĲ Ã¡ng
D L
Ġch Ã¡n
ub a
Ġs áº¡c
Ġ áº¢
v ent
il e
0 2
ĠÄĲ Æ¡n
ĠO anh
e h
Ġb i
Ġ +
9 8
l er
Ġc áº¡n
Ġdá» ĩt
e ar
ĠM á»įi
Ġ6 7
B Ãłi
ĠHo l
ĠTuy áº¿t
ĠH N
Ġph u
ĠX V
Ġnh ÃŃ
ĠNH NN
com bank
Ġph anh
ĠV al
ĠK á»¹
r is
m e
Ġph iáº¿n
) -
T áº¥t
Ġd Ä©
Ġ5 2
Ġb áº©n
Ġc ay
Ġ6 3
ĠC B
¹ m
ĠM Æ°á»Ŀng
Ġh Ã¡i
ÄĲ á»ģ
t u
ter net
iv es
k hoáº£ng
Ġv oi
ĠXII I
§ a
Ġh iáº¿u
T á»ķ
Ġg á»ĳi
0 8
Ġl Äĥng
Ġph áº¿
Ġm Ã³ng
L u
c m
Ġph e
Ġcá» ĵn
NhÃ ¬n
T oÃłn
Ġs Ã¡p
Ġc Ãłi
Ġx Ã´
ĠT M
ĠNh Æ°á»¡ng
E U
Ġmá»į c
Ġal bum
¥ n
6 6
T iá»ģn
ĠKh áº¯c
Ġchi p
ĠÄĳÃ ¹a
Ġ5 8
Ġ6 4
N hÃ³m
k há»
Ġm en
Ġ Ã´n
Th e
ĠTr Ã¬
Ġm Ãły
ĠT um
ĠLÄĲ LÄĲ
Nh áºŃt
p hÃ
ĠTw itter
ĠTr Æ°ng
ar i
Ġch anh
Ġm m
Ġ Æ¡i
ĠM Ã´n
Ch iáº¿n
hÃŃ ch
Ġng á»Ļt
T áºŃp
ĠB er
Ġd e
nh am
Ġt áº©y
ĠC á»Ńu
ĠT V
ĠM od
Ġb áº£y
Ġ6 8
ĠÄĳá» įng
ĠTok yo
al o
% ).
oun ce
Ġb Æ°á»Ľ
Ġnh áº¡t
Ġh i
ĠH am
ĠC uá»ĳi
Ġb áº¯p
ĠK CN
Ġl Äĥn
Ġx Æ¡
o x
ĠV en
ĠC or
7 00
ĠHÄĲ XX
z a
ĠG eo
tá» īnh
ĠcÃ³ c
ĠC Æ°Æ¡ng
Ġn á»ĵi
Ġm áº¯m
Ġl Ãµi
Ġo xy
ĠK ar
Ġnh áºŃu
Ġg Å©i
ĠM or
Ġqu Ã£ng
Ġdá» «a
Æ¯ á
Æ¯á »
Ċ Ċ
ĠMo urinho
Ġ200 6
Ġkh Ã¡nh
Ġthá»ķ i
ro id
201 0
N Q
ĠKho áº£ng
ĠL áº¡p
e on
ĠÄĳ uá»ĳi
Ġc Ã¡p
t d
ĠcÃº m
Ġ9 8
ĠV y
4 3
Ġbá» ĥ
A N
ĠC TCP
ĠchÃ ¨
ĠSau di
Ġch uá»ĳi
ĠMan chester
ĠB áº¥t
ĠAF F
ĠL Ãłm
ĠQu áº¿
ĠCh Æ°a
ĠD el
Th u
Ġd á»Ł
Ġm anh
Ġtá»± a
4 2
K há»
Ġin ternet
ou th
ĠR áº¥t
otte nham
Ġv áº¡n
0 7
Ġká» ģ
ĠIt aly
Ġd Ã¡n
ĠÃ Ķ
Ġng Ã³n
H Ãłnh
H O
Ġh áº¡m
P P
Ġx Ã´ng
H á»įc
Ġh ang
Ġth áº¯n
Ġn Ã£
ĠÄĲ Ã£
ĠH e
ĠÄĳ Ãłnh
ĠU A
c ar
ĠTr áº¡ch
Ã© n
B a
ov ic
Ġp r
et h
Ġb Ã¡ch
Ġt áº§n
Ġrá» §
ĠGi Ã¡p
ĠKhá» ĳi
Ġd Å©ng
ĠM as
ĠD ai
Ġth áº§m
ĠÄĳá» Ľn
b ao
ÄĲ Ã£
B ÃŃ
ĠBÄĲ S
Ġx Æ°ng
a el
m er
ĠNh u
ĠhÃ £i
ĠH iá»ĥn
ĠV P
ĠF ed
en a
in d
Ġná» Ľi
ĠB OT
ĠMar k
B áº£n
ĠC uba
V Äĥn
ĠÄĳÃ ²n
Ġn áº¡p
Ġkho ai
C A
ia l
ĠT á»ĳi
ĠÄĲ á»ĳng
H á»į
Ġchu á»Ļng
ĠV an
ĠÄĳÃ ºc
Ġcá»ĳ c
Ġ7 2
Lá» ħ
ĠH Ã¡n
9 7
0 6
ĠCÄĲ V
ĠY ou
Ġkh e
ĠTh ay
Ġshow biz
Ġ5 3
T Äĥng
Ġk iá»ĩt
Ġr áº¡p
4 1
Ġá» Ľt
Ġkhá» Ń
Ġk iá»ģu
Ġd áº£i
áº» o
ĠM us
ĠH IV
ĠW al
ĠvÃł nh
ĠU B
T W
ĠV ÃŃ
Ġng Ã´
Ġho Ãłnh
ĠH CV
ĠcÃº p
D N
Ġ6 6
Ġng Ã¢m
ĠB Ã¡ch
ĠAT GT
I M
ĠP ak
on d
C Ã¢u
ĠKh ang
ur a
Ġx i
Tr áº£
id e
¨ ng
Ġrá» ĥ
ĠchÃ ©p
ov a
ĠN iÃªn
Ġc ar
ĠAnd roid
ĠF DI
ĠPh áº£i
Ġ oan
it co
ĠT hÃ¢n
Nh iá»ĩt
L Ã½
H S
ĠTim es
Ġ á»ĳm
Ġ9 9
i el
Ġg á»¥c
ĠE uro
Ġh Æ°á»Ľc
al a
» µ
TT g
á »µ
ĠH Ã´m
O N
ĠK Ã´ng
Ġchá» Ń
B áº¯t
ĠN Ã³i
ĠNhÃ £
ĠX anh
Ġr anh
D iá»ħn
Ġx Ã´n
Ġ Ãło
Th ay
B Ã¡c
0 9
ĠX e
Ġch Äĥng
ĠC áº¥p
Ġ199 0
ĠTr iá»ĥn
at ar
t Æ°Æ¡ng
is h
o ft
Ġan d
Ġh iá»ĥn
» «ng
á »«ng
B N
ĠV áº¡n
ph Æ°á»Ŀng
Ho Ãłng
Ġl á»Ļi
Ġg Ã¡c
ĠBÄĲ BP
Gi Ã¡m
Ġm Ã²
ĠkÃ© p
Ġph iá»ģn
ĠA N
ĠD Æ°á»£c
ĠSp ort
it h
Ġso i
ĠTh áº§n
ao ke
b y
Ġdá» ĵi
Ġt Æ°á»Ľc
0 3
Ġto ur
Ġ5 9
ĠS Ã¡u
.. ..
ĠL ig
Ġ0 5
ĠV lad
ĠH D
Ġ ao
Ġd á»ĳi
Ġb á»Ļi
C a
Ġb á»Ļc
Ġ200 5
n er
ª nh
Ġx Ãł
Ġlu Ã¢n
Ġth Ã¡nh
Ġngh iÃªng
ĠÄĳá» ¥ng
e en
Ġth áº¥m
ĠG l
ĠS ol
H á»ĵ
ĠI V
ho p
Ġx Ã¡
ĠchÃ ´n
D Æ°á»Ľi
ĠL ib
Ch Æ°a
ĠK á»·
Ġná» ©t
á»ĭ t
Ġk iá»ģm
r l
p r
ĠV á»ĭnh
ĠCh iáº¿c
T uá»ķi
ĠL á»¥c
Ġho Ãłi
C á»¥c
ĠMil an
m en
Ġtá» ĵi
a ch
Ġmá» ¥n
Ġr áº½
ĠN LÄĲ
Ġg Ã£
ĠÄĳ áº¯n
ĠB Äĥng
Ġgi Ãłn
Ã Ķ
t tp
B áº£o
Ġlo a
Ġng Æ°ng
ĠN TM
Ġ6 2
ĠH Æ°á»Ľng
ĠV iáº¿t
s h
Ġk ar
ĠTá» ·
Ġn Ã´n
ĠBay ern
ĠCh áº³ng
V OV
ĠcÃ´ n
ĠM ic
er r
ur e
Ġh ttp
D Ã¢n
T Ãłu
ĠM á»¥c
Ġc ua
ĠJ ack
ĠT ottenham
G B
C hi
Ġs Ãºc
Ġth áº¯c
j a
K á»ĥ
ĠG re
ĠKh ai
Ġ eo
ĠN Äĥng
Ġl á»Ļc
ĠCh iá»ģu
an ia
Ġt uyáº¿t
Ġc ong
Ġtrá» ħ
Ġm á»Ļng
202 5
ation al
A P
ĠPhá» ķ
âĢĿ ;
q ue
ĠChÃ º
ĠGr and
w ood
th eo
ĠL áº§n
ĠD iá»ĩu
» ı
á »ı
Ġb Ãłng
ĠT uá»ķi
ĠÄĳo an
Ġs t
en z
ĠP SG
n y
ĠD on
Ġt Ãª
Ġl áº·n
ol l
Ġ11 0
ĠF I
T Æ°Æ¡ng
b on
Ġho áº¡n
g a
ĠN Ãªn
ĠÄĲB QH
ÄĲ Æ°á»Ŀng
ĠH uÃ¢n
ĠM TV
H N
Ġd áº¹p
Ng h
Ġm Ã¨o
ĠKh áº£i
ĠV ic
vent us
ĠE VN
ĠC ung
Ġx ÃŃch
Ġb áº¥m
6 3
ak e
im ir
l es
Ġ0 3
ĠM á»©c
ĠF PT
Ġrá» ī
ĠX uáº¥t
Ġtho áº£ng
T Ãłi
ĠCá» ©
ĠC EO
H á»ĩ
ĠL o
ĠAng el
G P
ĠB el
Ġchá»Ń i
ĠG Ã²
Ġgh en
ĠCh ar
Ĥ n
Ġh Ãł
Ġbu Ã´ng
ie v
5 7
ĠT iÃªu
ĠNhÃ ¬n
Ġd áº¡o
g h
ch o
Ġhá» ĳ
H Ã£y
Ġl áº¯c
Ġng oan
ĠVKS ND
t Äĥng
ĠPak istan
Ġph Æ¡i
r ist
ĠH an
ĠV ND
Ġl Æ¡
Ġh iá»ģn
Ġr ung
L C
ĠTr áº¥n
Ġ6 1
Ph Æ°Æ¡ng
u z
ros oft
ĠTr áº»
ĠV á»ĭ
Ġthá»ĭ nh
ĠS k
5 2
ĠUy Ãªn
6 9
áº· m
R iÃªng
Ġkho Äĥn
Ġvá»ĭ t
Ġ0 9
V á»«a
ĠI d
Æ¯ T
ĠT R
Ġth Æ°a
Ġch áºŃt
y d
us s
ĠBl ack
Ġkar aoke
Ġkh Ã¡i
ĠT Æ°Æ¡ng
ĠB áº£y
Ġl Ã¹ng
ĠCh uyÃªn
w w
ed ia
ĠVlad imir
Qu Ã¡
B áº¥t
ur n
ĠtÃº ng
M W
Ġl Ã©o
ian o
ĠhÃ ²n
ĠB á»ĭ
' s
Ġsá» ¥p
ĠB á»ĳ
ak h
Ġl áº·p
ĠP a
K H
Qu an
Do anh
il la
ĠT al
Ġm Ã²n
ĠS iÃªu
Ġhá»į ng
ĠG áº§n
ĠK iá»ĩt
ĠTu áº§n
H u
C Äĥn
c ed
ĠC T
Ãª nh
ĠK y
Ġ a
Ġnh áº·t
Ġtr Äĥng
ad e
ĠGi Ã¡ng
Ġ7 8
I N
et a
Ph áº§n
Ã ©c
ĠLH Q
ĠD iá»ħm
Ġm Ã¡
Ġcá» įc
Ġr Ã¡p
Ġl ives
Ġthá»§ ng
Ġcá» Łi
ĠU td
Ġr áº¯c
ĠM Ã´ng
Ġd Ã£y
s u
ĠBan k
Ġnh o
ĠB TC
Ġl Ã¡t
Tr áºŃn
» Ĺ
á »Ĺ
H C
et ro
ĠV Ã¹ng
Ġb Äĥn
M áº·t
Ġth iÃªng
P hÃŃa
Ġqu Ã¡i
ĠM á»Ļc
Ġs en
ĠkhÃ´ n
H Ã£ng
ĠV iá»ħn
ĠS N
ĠS up
SC L
Ġh áºŃn
ĠJ e
Ġvá» įt
ĠO r
Ġvá» Ľt
M C
K ho
ĠT X
p er
Ġb ar
Ġ ax
ĠTh áº¥y
Ġm á»Ļc
ĠC ap
Ġnh á»įn
ĠT p
if orn
ĠQ uyÃªn
Lu áºŃt
ĠH áº§u
ak a
ĠG en
w n
9 2
ĠU N
w ard
Ġth áº¡ch
Ġthá» ģm
ĠS á»©c
PhÃ ²ng
Ġ200 4
ĠB ID
tr a
Tr ang
Ġd áº¡i
S ong
us e
ĠM un
iforn ia
ĠKh Æ°Æ¡ng
ĠQu Ã¡n
L á»ĭch
0 4
Ġgiá» įt
Ġtá» ĳng
ĠHN X
ĠQu Ã¡
at ch
ÄĲ Ã¡nh
ar e
thÃ ¹ng
r en
Ġ j
i u
T H
l u
Ġt Æ°á»Ľi
7 8
ĠSeo ul
¹ i
Ġkh uy
Ġc áº¯n
er ry
ĠÄĳÃ´ n
ĠÄĳ áº±ng
ĠW est
Ġtá» ıi
Ġl Ã¡ng
A r
ĠJ ames
ĠH Ã£ng
w ei
Ġbá» į
Ġ9 2
Ġs iáº¿t
Ġm i
ĠS Ã¢n
Ġt Ã¡ng
Ġng áº·t
or s
ĠHÃł m
ot h
ĠQ H
M Ã¡y
Ġch ay
Ġbá» ĵn
itco in
ov er
ĠÃģ o
th uá»Ļc
ĠB Ã³ng
Ġthá» Ńa
ĠM ob
Ġl Æ°á»¡i
NT ÄĲ
Ġng u
ĠDai ly
ĠOn line
m ua
ĠArab ia
M á»įi
Ġk Ä©
D anh
ĠPhÃ ¹
ĠH ua
Ġv Ã£
Ġm an
ĠW e
Ġnh Æ°á»Ŀng
d ar
ĠTr Ãºc
Ġ8 8
ĠA I
ĠCal ifornia
ĠKh anh
ĠNg uyá»ĩt
6 2
C áº§u
ĠH ay
ĠJu ventus
Ġvá»ĭ nh
M áº¹
Ã Ĥ
Ġx Ã³t
m ent
ĠIt alia
L áº§n
p ort
m i
Ġ200 3
eal and
ĠN o
ĠÄĲ Ãłn
y p
Ġt áº¡ng
ĠbÆ°á»Ľ m
ĠÄĳ áº¯ng
ĠGiá» Ľi
Q uy
Ġs on
ĠS ai
P A
t s
Ġn Æ°Æ¡ng
Ġt Ã²
ĠghÃ ©
ĠÄĲ áº£o
ĠBu Ã´n
ĠCh inh
_ _
N et
os s
5 8
ĠF ord
b urg
ĠN G
Ġr á»Ļ
und ai
E R
Ġ6 9
ĠA li
ĠB lo
ĠC Ãºp
ĠÄĳ iÃªn
Giá» Ľi
ĠIn st
Ġcu á»ĵng
Ġlu i
ote in
Ġvu Ã´ng
Ġkho ang
âĢĿ -
Ġrá» ĩt
ĠGu ard
ĠJo e
ĠS w
ĠD áº§n
ĠKh Ã¡ch
ĠÄĳ áº¡m
Ġxe n
ĠZ ealand
ĠL Äĥng
Ġgi áº¿
ĠFI FA
Ġ13 0
Ġmá» ĵi
ing s
ĠP hÃŃa
Ġ7 7
Ġt est
ĠR am
ĠÄĳ áº¡c
Ġkhá» ĳc
ĠM Ã¹a
sk y
u ela
Ġx Ã´i
Ġngá» ¡
ĠCA ND
tre am
ot o
y m
ag ram
i um
V á»£
Ch uyá»ĩn
S I
Ġn Ã¢u
Ġngh iá»ĩt
ĠMic rosoft
s eo
Ġk áº½
200 9
ĠP an
TC K
ĠThÃ ªm
Ġd áº¡n
ĠT áº¡
l ay
Ġn eo
Ġtr e
Ġm Ã¹ng
Ġth iÃªu
ĠÃĤ m
Ġk áº¹o
and er
R áº¥t
V C
ĠG P
j i
ĠchÃ© o
A D
r ag
Ġ199 2
Ġ18 0
ĠH Ã¢n
Ġm Ã¢m
M B
ĠK iev
áº ¾
f e
it al
H á»ĵi
ez uela
khá» §ng
Æ°Æ¡ m
Ġt Ã¹ng
Ġnh Ã¡t
7 2
Ġb áº¥y
ĠE ver
ĠS l
ĠTh Ã¡nh
ĠB Ãłn
ch e
ĠC áºŃn
ĠGeo r
ced es
ĠB us
ĠF or
Ġnh iáº¿p
Ľ c
ĠG a
Ġs ex
ĠL Ä©nh
N S
Ġx ÃŃ
ĠQ atar
ĠS il
ĠT uyáº¿n
Ġch áº£
Ġ0 4
ĠC Äĥn
ĠG T
l Ãłm
Ġr ao
Ġv áº¡ch
one y
9 00
d e
ac o
Ng Ã¢n
N Æ°á»Ľc
ĠA c
Ġg áº§m
ĠnÃ© n
an y
5 4
N á»Ļi
Ġv Æ°á»£ng
Ġ3 50
ĠmÃŃ a
t á»©c
Th iáº¿u
6 4
do ws
ĠX in
Ġn o
' :
ĠT om
ĠS outh
T Ã¢n
T iáº¿n
Q uÃ¢n
ĠX I
s a
ĠTrá» Ŀi
Ch uyÃªn
Tá» ·
Ġb Æ°á»Łi
Ġrá» ĵng
Ġlo g
Ġvá» ©t
y an
Ġqu Ã¡t
M Ã¹a
c á»ķ
ĠbÃ¹ n
ĠÄĲB SCL
Å© a
ĠT ay
V áºŃy
w ay
ĠÄĳÃŃ nh
Ġch áºŃu
al i
ĠCN TT
Ġl au
ĠthÃ¬ a
Ġv Ãº
Ġt áº·c
ĠT Ã¡m
Viet nam
ĠB i
ĠÄĳÃ ¨
Ġg as
Nhá» Ŀ
Ġm á»ĭn
ĠSer g
Ġq uyÃªn
Ġax it
ĠTá» ©
Ġx Ã¡t
Ġf acebook
and al
Ġv iáº¿ng
ĠD iá»ĩp
ĠM u
Ġ7 6
ĠM áº¡ch
Ġth áº¯p
Ġh Ãłn
ĠR á»ĵi
Ġqu á»µ
C á»±u
Ġg iá»ģng
Ġbu á»ĵng
Ġ199 9
Ġm Æ°á»Ŀi
ĠG o
ĠÄĳá»ĩ m
ĠÄĳáº¿ m
m y
Ġc Ãłnh
a ff
ĠChÃ ¢n
5 9
at es
g on
A NTÄĲ
Ġc m
Ġng á»įc
ĠT Ã´ng
ĠK á»ĥ
ĠB ol
Ġtr Äĥn
U V
ÄĲ i
Ġn Ã²ng
at t
ĠVen ezuela
Ġ199 5
ab e
ĠK ur
ĠÄĳá» ĳng
ĠS V
Äĳ á
Äĳá »
áº» m
M inh
ĠYou T
ĠKho áº£n
S o
Ġpr otein
ĠTh áºŃt
Ġr Ã¡o
Ġng áº¥t
o z
Ġs Æ°á»Ŀn
hÃ³ a
Ġh áº¡ch
ob ot
s á»Ńa
¨ m
Ġ Ãª
Ġg en
Ġem ail
ĠK m
-- --
Ġv an
ĠN T
an ce
ĠW ar
Ġd áº·n
ĠÄĳ iá»ģn
ĠK hÃŃ
et ty
ey mar
K á»³
el e
ÄĲ á»©c
U Y
M an
ig h
Ph iÃªn
ÄĲ Ãªm
ĠA v
ĠS hi
Ġth Ã¡m
ĠC lin
in s
c Ã´ng
V á»ĭ
ĠTN GT
ĠQu áº£
ĠLH P
Ġtr Ã¡n
ĠVic tor
ĠM Ã¬nh
ĠViet combank
ĠWin dows
ĠNh áºŃn
R O
Ġkh uáº¥t
ĠInst agram
ĠÃĤ n
ĠHua wei
Ġkhi Ãªu
Ġ9 00
ĠPhá» ĳ
t áº¥n
o ur
ĠÄĲá» ı
S inh
Ġ0 6
Ġkh ao
Ġ200 2
áº½ n
ĠM Ã¡y
Ġ7 1
ĠS á»Ń
Ġdá» Ĺ
Ġv áº·t
ĠH a
t op
7 9
Qu ang
ĠPh iÃªn
y n
» ¦y
á »¦y
l us
ay a
ĠG ar
ĠSt ar
Ġx á»ķ
Ġxo áº¯n
ĠkÃŃ p
Ġng áº§n
w e
Ġnghá»ĭ ch
ĠS L
Ġ8 1
B A
Æ ł
en c
B áº¯c
Ġd Ãło
Ġgiáº¿ ng
Äĥ k
ĠCh áº¥t
Ġmá» ī
Ġ7 3
Ġs c
Ġch iÃªn
ĠBID V
ĠE s
Ġkh iáº¿p
ĠWil li
ĠO ld
ĠT ech
Ġká» ī
Ġ8 6
Ġh am
Ġ199 3
Ġgi eo
ĠHol ly
ĠL uÃ¢n
ĠK ia
ĠI r
ĠCh an
Ã Ĭ
C lip
ĠCA TP
ĠM Ãª
st an
X uáº¥t
on y
Ġt Ã³m
ĠJ ose
am b
ĠC as
ĠAs s
Q uá»ĳc
n áº¿u
ĠZ ing
Ġ7 9
Ġn áº¡
Ġc áº¥y
Ġgi rl
Ġr Ã²
P ad
ĠÄĳ áº·n
ĠS G
ĠR od
X Ã¢y
Gi Ã¡o
c hÃ
V TC
ĠLig a
ĠV áº¥n
Q uyáº¿t
Ġ /
Ġgi áº·t
ĠTr Ã¢m
ĠYo ung
Ġg olf
ThÃ ªm
? âĢĿ.
ĠP aul
T u
Ġb Æ°u
» įng
á »įng
ĠTh an
ĠKhu Ãª
Th Æ°Æ¡ng
Ġ200 1
ĠN Ãºi
Ġ7 4
Ġ199 7
t á»±
P G
Ġx Ã¡m
ĠNg Ãłnh
ĠÄĳ iÃªu
5 3
ĠhÃ ©
ĠMich ael
est ine
Ġt Ã¡m
Q L
ĠÄĲ i
SC O
ĠcÃ ²i
ĠB Æ°á»Ľc
ĠSh in
Ġh ao
Ġn áº¯p
Ġ0 8
ĠB ig
Ġth áº±ng
ĠK T
K im
ĠM Æ°á»Ŀi
Ġ8 2
Ng Ã´i
Ġra dar
H Ãłn
ĠV á»ĩ
Ġs Æ°á»Ľng
áº¿ ch
B ÄĲ
o ck
ĠD Æ°á»Ľi
ĠL Æ°á»£ng
Ġb áº«y
ĠPl us
ĠC NN
Ġn á»ĳt
ĠHy undai
Nh áº±m
ch i
ĠN V
an c
ĠJ on
T Ã¢y
Ġc Æ°ng
ĠA z
s á»ĳ
ĠR es
Ġx Äĥm
ĠCh rist
let ico
Ġb Ã³c
ĠMer cedes
Ġl Ã³t
ul l
id a
Ph áº£i
er g
sk i
Ġchu Ã´ng
Ġt ia
ĠL Ã²
áº ł
Ġl Ãª
N LÄĲ
al e
Ġtr Ãłng
ĠYouT ube
Äĳ Ã£
ĠUA E
Ġ199 4
ĠO p
ĠV áºŃt
Ġl uá»Ļc
I á
Iá »
ĠNS ND
ĠO ne
ĠÄĳÃ ¨o
S A
Tá» Ŀ
Ġx áº»
en ko
ĠG rab
ĠÄĲá» «ng
Hu áº¿
Tr iá»ĥn
Ġv Äĥng
Ġchu á»ĵng
u el
Ġ ?
ĠC Æ°
ĠV TC
ĠC om
A i
ĠNS Æ¯T
Ġt áº¡
ĠT hÃŃch
Ġn an
ĠT Ã½
Ġ199 1
Ġx Ãło
Ġn uá»ĳi
Ġh áº»m
ĠM ax
Ġd Ã©p
ĠNg á»į
200 8
ĠkhÃŃ a
ĠX i
ĠO m
ĠC á»ķng
ĠPal estine
Ġch iÃªm
ĠP at
Ġ áº¡
Ġl á»ĳp
Ġbá» ©t
ĠM iá»ģn
6 1
E M
8 9
Ġtá» ħ
it s
ĠClin ton
ĠBr un
H ÄĲ
M á»¥c
S ao
Ġb Æ¡
Ġ8 7
Ġ199 6
r es
K inh
ĠMun ich
Ġkhi Ãªm
Ġg ai
ĠchÃ¬ a
Ġ8 3
Ġqu áº§y
ĠThá» ©c
Ġgi ang
ĠÄĳ Å©a
Ġl á»Ļt
im e
aff ord
Ġngh áº½n
Ġgá» «ng
ec t
n ik
ĠLan d
Ġnhá» ©c
el s
Ġ9 7
ĠNg á»¯
c Ã¡c
ĠmÃ¬ n
ĠN or
ĠV ua
ĠM B
ĠH ung
ĠC Ã¡n
r ol
v an
ĠL i
ĠC á»ĳ
Ġ8 9
ĠTh áº¥t
Ġq uyá»ĥn
ĠL ou
Ġc or
ri bank
ĠT áº¡p
Ġr obot
l an
Ġn Ãłn
E P
Ġ9 1
ĠJ enn
H áºŃu
ĠV á»«a
n ational
ĠM el
ĠnghÃ ªnh
m l
Ġ198 0
us t
S áº£n
ĠF lor
ĠPh im
Ġkh an
ĠC ro
ut s
Ġg am
Ġá» §
ĠM áº«u
ĠL at
Ġtá» ¥t
Ġ199 8
uk i
Ġv Ã¢n
ĠN ov
ĠKhá» Łi
Ġv Ä©nh
z o
is hi
ĠHolly wood
¥ a
Ġnh a
Ġl á»¯
ĠS á»Ńu
ĠTh áº§y
ĠTr afford
il le
ĠC Ã¡
ĠT ik
ĠKh uyáº¿n
ch Æ°a
Ġx oa
ch iáº¿m
Ġ9 6
ĠNg Ã´i
Ġ16 0
Ġ8 4
ĠRob ert
ĠMar t
Æ¯á» Ľc
c us
k ok
TN O
Ġb áº¡
iv al
į i
Ġv Ã¡n
ĠHar ry
ĠphÃ ¬
om e
Ġt am
ĠL á»¯
Ġ Æ°á»Ľt
in t
Ġtr Æ¡n
Th áºŃt
ist ics
Kh Ã¡ch
ĠR i
Ġá» ¨ng
ĠN D
ĠL áº¡i
Ġ Ãºt
ĠTr i
er son
ĠÄĳ un
ĠHá» Ĺ
Ġr ong
ĠM Ã£o
ĠÄĳ áº¯m
ĠN eymar
ĠghÃ ©t
ĠW on
Ġ áºŃp
ĠHo áº¡t
Ġqu áº¡t
Ġkhuy a
Ġl Ã¡nh
» ģn
á »ģn
ĠB Ã©
Ġ14 0
ĠbÃ³ p
ĠN et
Ġ am
Th áº¥y
k s
Ġho i
ĠM ot
Ng oáº¡i
er m
az on
ĠÄĲ Ãªm
ĠK u
Ġph áº³ng
Ġr Äĥn
ĠÄĳÃ ¹i
ĠE a
e ing
ĠJ i
M S
b in
th Ãłnh
ĠWilli am
TT P
áº¿ m
ĠP H
ĠM e
Ġm Ãłi
ĠL á»Ļ
ÃŃ p
ĠNg Å©
Ġbá» ĵ
ĠP ep
ĠT inh
Phá» ¥
ĠB itcoin
ĠR ich
Ġg áº·t
ĠchÃ ¨o
ĠÄĲ en
ĠC Ãºc
Th Æ°á»£ng
ĠP ost
Ġkho anh
Ġm ini
t is
ĠG old
ĠL ang
ĠViet in
Ġ198 2
Ã¹ y
ĠK o
ĠphÃ ´
Nghá» ĭ
Ġv áº¥p
L Ãª
âĢ¦ ,
Ġnh á»Ļn
ĠÄĲ áº¯c
ĠLib ya
ĠG etty
ĠM Ã¹i
el la
ĠC á»±u
Ġch iáº¿t
ĠThu á»Ļt
Ng á»įc
ak u
Ġx uÃ´i
Ġn áº¥y
S iÃªu
ĠhÃ ©t
Giá» Ŀ
ĠHá» £i
Ġr á»ĳt
os hi
ĠJ ord
ĠH ill
Äĳ Æ°á»Ŀng
Ġs Æ°ng
ĠT á»ĭnh
ĠR áºŃp
ĠQu á»·
ĠAt letico
ĠCh a
ĠB or
ab a
5 1
ĠÄĳ an
Ġx Ã¬
it t
Ġkhá» ī
ĠH Ãło
5 6
v i
Ġl Æ°á»Ľt
F TA
ĠIn d
ĠS UV
ĠSup er
ĠÄĲ Ã´i
Ġchá» įc
rag on
ol i
ĠCh iá»ĥu
Ġ( +
os a
Ġ197 5
ĠV á»£
ern and
Ġchu i
ĠR ang
Ġlá» ¥y
ĠMar tin
ÄĲ Æ¡n
Ġv iá»ĩt
ĠC O
K V
Ġg áºŃy
ĠInter national
ĠPhÃ ¢n
ar ia
us tin
ĠS Ã¡ch
Ġb lo
Ġxo Ã¡y
ĠK S
Ġb Ã´i
Ġg u
ĠV ol
Ġx Æ°á»Ľng
Ġs et
D u
ĠCr im
ĠV Æ°á»Ŀn
C Ã¡i
ĠS tr
ĠM Ãł
T Ãªn
Ġm Æ°Æ¡i
Ġ12 5
ĠS n
Ġsá» ıi
ĠS i
y e
Ġcá» Ĺ
ĠCh uyá»ĩn
ĠO ai
g ia
ĠP u
OS E
ĠB MW
ĠB Æ°u
ĠJ un
Ġl áº«y
ĠT Ã¡o
Ġb Ã¡u
Ġl á»Ļng
ĠPhá» ¥ng
el and
ÄĲ á»ĭa
ĠX K
tr Ã¡i
Ġ9 3
Ġch Ã¡o
ĠSH B
7 6
Ġcá» į
ĠCá» §
Ġth on
ĠAn ton
ĠâĢ ¦
ĠC áº£m
ĠBang kok
ÄĲ Ãºng
Ġbá» ī
Ġm Ã¡c
Ġs áº§u
ĠSL NA
Ġthá» ĳi
A l
, âĢĿ
Ġc áº©u
Ġ Ã¢u
ĠTM CP
ĠBar ack
ĠC Ã¢y
Ġ198 9
Ġt áº©u
lo w
Ph Ã¡p
Ġ11 5
ĠCrim ea
es h
ĠE ur
ĠV ina
o ut
Ġv Ã²
Ġl am
l á
lá »
ĠTr áºŃn
ĠT á»Ľi
Ġ Ãºng
ĠCol om
Ġi Pad
Ġx ay
C Ã¢y
Ġngá» ı
Tá» īnh
Ġchá» ĳn
ĠTh áº©m
g g
Ġqu áºŃt
ĠthÃ ¨m
ĠU r
Ġ198 8
Ġ0 7
es el
eg a
Ġgi Ã²
s o
ĠT D
Tr áº§n
ĩ n
F C
Ġ Ãªm
Ġl Ã¡ch
Tr Æ°á»Łng
ĠV ang
ĠNhu áºŃn
Ġn á»Ļ
Ng Ãłnh
ĠKh áº£
op a
Ġch Æ°ng
T hÃŃ
Äĳ áº¡i
b Ã¡n
ĠÄĳá» ĳn
PhÃ º
Ġd ai
ĠThá» Ľi
ĠBl u
Ġb Ãºn
ĠV II
b i
ĠC Ã´n
V áº¥n
Ġr á»ķ
is a
ĠÄĳ inh
ĠB ill
Ġt áº¥u
ob al
ĠH al
T Ã¡c
ĠL Ãłng
ĠC en
ĠS m
Ġt Ã¡t
ĠN at
T uyÃªn
ĠGi ai
Kh Ã¡nh
ĠV áº¥p
c i
ĠP ol
ĠÄĳá» ¥c
T O
it a
Ġthá» īnh
Ġng áº«u
ĠAm azon
! !
ib an
B V
n Ã³ng
Th iáº¿t
ĠH Ã¨
n es
o id
7 3
Ġt i
W h
ĠChá» ¯
n i
Ġm áº¯ng
Ġng Ãłng
pp er
Ġlá» ¥a
Ġs Ãłnh
C Ã¡
hi p
ĠP o
! âĢĿ.
Ń ng
Â ²
iel d
Ġg á»ĳm
ĠchÃ© n
Ġm áºŃp
Ġcor ona
Ġt áº¥p
r ov
H iá»ĩp
ĠchÃ ¹m
ĠOs car
ĠBlo om
ĠT Q
m und
k i
Ġgi Ã´ng
l ing
Ġngo áº¡n
Ġx áº¯n
Ġl ung
ĠN Æ¡i
ĠAg ribank
ak i
ĠÄĲ am
ĠAP EC
Ġd iá»ĩu
P hi
M P
Ġv Ã¡c
B á»©c
ĠM ag
Tu áº§n
Ġrá» ¥i
Ġm áº¡
) âĢ¦
ow er
8 6
9 6
ag en
pr ess
Ġg áº¥u
ĠNgh e
B TC
ÄĲ á»Ļng
Q S
is e
nh Ãł
ĠÄĲ Ãºng
ĠL áº§u
L A
li e
Ġgi Ã²n
P GS
Ġr áº«y
p a
ĠB Ã¢y
Th áº§y
ĠVN PT
ĠÄĲ áº±ng
ĠM áºŃu
ĠT or
Ġnh áºŃm
ĠB áº£ng
em en
ĠÃģ i
Ġt em
os h
ĠR ed
Ġs Ã¢m
t ic
T á»Ń
r ic
ĠK i
ud i
Ġru á»ĵi
as er
Ġch en
Ġd áº»o
Ġ202 4
ĠJord an
ero in
Ġc Ã¡m
ÄĲ B
ĠC áºŃu
ĠthÃ ª
s s
CO P
ĠD am
ĠT Ã¡c
c á
az da
cá »
Ġb áº¡t
ĠL im
ĠD is
ĠI P
ĠW all
ĠR á»ĵng
ac om
Ġs er
ĠBo eing
am il
ĠbÃ© n
ĠL ED
Ġsc andal
ĠcÃ´ i
M á»©c
ĠhÃ£ m
Ġg áº¡t
ĠC R
ĠNgh iÃªm
ĠV Ã²ng
Ġ Ãł
ĠL os
Ġ [
ĠKhÃ ´i
ĠG az
» Ĺng
á »Ĺng
Ho áº¡t
iv i
Ġcho Ã¡ng
SN N
Ġr Æ°á»Ľc
ĠY Ãªu
Ġrá» ¥ng
Ġá» §i
la h
ĠAs ian
Ġmu á»Ĺi
and a
K iá»ĥm
k ov
ĠL Ã¢n
B á»Łi
Ġ Æ°á»Ľp
Ġ( -
ĠC u
E SCO
t ion
G ÄĲ
Ġhá» ĳt
Khá» Łi
Ġd Æ°ng
ÄĲá» «ng
Lá» £i
el le
ĠH áº£o
Ġl Ã©n
Ġqu áº¥y
ĠÄĲ á»ĵ
Ġ198 6
ĠAb e
ĠI m
ĠCh áº¿
7 4
ĠTh o
ĠD a
ĠNg Æ°
il a
og ba
B Ã©
G hi
Ġv Ã¡ch
Ġt áº£n
B áº±ng
Ġká» ĩ
ĠColom bia
ĠÄĲ Ã¡
ĠÄĲ Äĥk
Ġcá» ĳi
ĠD ani
Ġngu á»Ļi
ĠN ote
Ġh eroin
Ġl Ãºn
âĢĿ âĢ¦
M á»Ł
ĠS ar
g r
ĠJ in
Ġcu á»Ļn
ĠF A
ĠA TM
ĠG B
ĠS A
Ġr Ã¡ch
ĠMar ia
Ch u
Ġrá» ħ
nh Æ°
ĠMo ham
ĠK áº¡n
est ival
8 3
ĠX IV
ĠT á»ĳ
ĠTr Ãłng
Ġnh Æ°á»£c
ĠM ed
ĠJ er
Ġnh iá»ħu
ĠW HO
nh á»¯ng
PhÃ ºt
Ġs áº¥u
d er
ĠC os
pp o
ĠT Ãªn
Ġh Äĥng
ĠT ae
ĠJohn son
S E
Tr uyá»ģn
Ġi OS
ĠTr á»±c
X in
ĠÃļ t
7 1
Ġsu Ã½t
Äĳ Æ°á»£c
I T
ort mund
M Ã¬nh
Ġnhá» ¥c
s iÃªu
Ġb ong
Ġ uá»ĳn
ĠÄĳ áº¥m
Ġtr iáº¿t
ĠR os
Ġk eo
chá» §
Ġ4 50
V T
Ġm Ã´ng
M A
ng á»¥
ĠDo Ã£n
ĠVH TT
Ġ198 7
Ġt Æ¡
gi áº£m
ĠNhÃ ¬
ĠH Ã²n
ĠNhÃ ¢m
ir e
ĠGre en
ĠChÃº a
ĠC at
ĠF LC
Ġx áº¥p
Ġl Ã¬
ĠB Ã¡t
ĠL iá»ĩt
Gi ao
Ġbá» ĩ
8 2
Ġhttp s
Ġsá» į
ok ia
Ġr áº¡ch
9 1
ĠTal iban
Ġx oÃłi
L o
Ġh Ã¡o
ĠSai gon
ĠB Ãłng
T ok
ÄĲ iá»ĩn
Ġph áº«n
8 4
ĠÄĲ áºŃu
ĠK ing
ĠAN TT
ĠX Ã¡
Ġn Ã´
r ed
ĠH iá»ĥu
Thá» ĳng
ĠX em
Ph áº¡m
Th áºŃm
ĠLou is
at ia
Lá» Ŀi
ĠN ig
ĠPhÃ³ ng
Ġg áº§y
ĠS im
Ġlog istics
ĠC anh
ĠB R
ĠX Æ°Æ¡ng
Ġná» ©c
w a
ĠM áº¡c
ĠB ern
Ġm ÃŃt
ai r
ĠTh om
ĠP le
Ã³ p
et t
ĠG Ã³c
9 3
V Å©ng
Ġho Ã¡n
M á»Ŀi
, "
T Ã¬m
1 50
ĠT ur
ĠBloom berg
ĠNg Æ°á»£c
Ġk iÃªng
ĠV Æ°á»£ng
Ġb Ã£
ĠHy un
ĠN áº¡n
ĠT uáº¥t
Ġ hÃŃ
Ngh iÃªn
ĠD an
Ġx Ãłi
ĠThÃ ¬n
u ck
E S
ĠL oáº¡i
ar us
Ġm Æ°Æ¡ng
ĠQ U
Ġ9 4
Ġch áº£o
ĠT a
ĠM ur
Ġn uá»ĳt
c Æ¡
tr Ãº
ĠT el
Ġ2 20
M O
âĢ¦ âĢĿ.
H áº§u
ĠphÃŃ m
od y
Ġ17 0
Ã Ŀ
ĠV CK
L ong
im es
ĠH áº¡t
ĠMai l
V Å©
x e
en ce
l Ãł
id er
Ġcá» Ľ
ĊĊ Ċ
ian a
i ola
9 4
Ġb áº©m
ic ester
ut nik
Ġ198 5
Ġ10 8
Ġbá» «ng
Ġná» ĥ
thá» ĭ
ĠD áºŃu
ĠM Ã³ng
Ġtá»ĳ p
âĢ¦ .
ĠQu Ã¡ch
Ġt áº¡t
g á»ĵm
Ġmu Ã´n
v el
b or
Ġd iá»ħu
D P
o C
ĠKur d
ĠCh áº¥n
ĠH er
ĠS ir
ĠV Ä©
ov e
ph áº£i
) ...
ĠJ ung
Ġv Ã¹i
et ing
Ġchá» įi
se y
ĠKr Ã´ng
ĠM W
ĠTá» Ŀ
Ġhá» ©c
Ġb ik
d inh
Ä ĳi
ĠLá» Ľn
Ġx á»ĭt
ÄĲ oáº¡n
Ġtrá» ĩ
ĠB in
ĠCr ist
Ġth áº¡c
ĠL av
H Æ°á»Ľng
ĠP T
Ġhá»ķ ng
» ħ
Ġr Ã£
á »ħ
c ast
Ġlá» į
ĠS E
ĠChÃ ¹a
Ġl iÃªng
C á»©
Ġv Ã©t
z y
Ã© m
O C
Ġph ao
ĠA sia
ic ron
r ig
Ġdi esel
k er
ĠÄĲ iá»ĩp
Ġbá» Ľi
Ġr Ã¢u
ĠAm er
Ġnh Ã´m
Tr Ã¡i
Ġcan xi
Ġ ...
TP O
B áº£ng
ĠUN ESCO
Ġrá» Ľt
ÄĲ H
ĠHo an
ĠV u
ĠB áº§u
ex it
Ġ áº¤
ik u
ĠN av
Ġn áº£n
A I
D á»ĭch
en e
p age
ĠB Ã¡n
B iÃªn
Ng he
Ġv Ã²i
ar m
ĠL iá»ĩu
B uá»ķi
ĠD inh
ĠL au
ĠR áº«y
H Ã²a
Ġmu á»Ĺng
Chá» ©ng
ĠM H
S á»©c
âĢ ¢
ĠP ogba
Ġr áº¡n
ĠZ h
ĠÄĲ Ã´n
Ġt ao
V Ã²ng
v o
ĠB ur
k va
chá» ī
ĠN e
Ġá» ©
Ġ10 5
p há»
Ġd Ã¬
b e
Ä Ĥn
Tr iá»ģu
ĠGl obal
ĠH en
b ra
s ter
Ġ áº¡t
ĠK e
v en
Ġcar bon
S t
ĠM ir
ĠM áº«n
tu áº§n
Ph ong
Ġ Ã³c
Äĳ á»ĳi
Ġ197 0
ĠD ortmund
Ng hi
ĠHy e
Ġn áº¡o
b rid
ĠNg uy
ĠPhÃ ºt
Nam Net
ed a
ĠP e
ue z
Ġsá» «ng
S áº½
ĠMo on
N Ã¢ng
X Ã£
ĠT áº¡o
Ġkh iáº¿m
B I
Ġl áº©n
n ay
ar ez
... ,
Ġqu i
Ġsex y
L Æ°u
phÃ ºt
Ġnh á»įc
Ġy áº¿n
Ġn Ã¡o
ĠT á»ĳng
º p
t Ãªn
am i
F ast
Ġ ac
Ġgi Ã£
C áº·p
ĠÄĲá» ģn
ĠO COP
ĠB Ã£i
ĠÄĲ áº¿
ĠÄĳ áº«m
ĠC M
im ex
Ġphá» Ł
Ġm od
ĠgÃ³ t
ĠA h
ĠR AM
B Ãłn
Ġ198 4
Ġb o
M áº«u
Ġkh ang
Ġ 00
ĠS ev
ĠR T
uts al
8 7
ChÃ º
Ġlives how
u ay
Ġm iá»ĩt
if e
X D
ĠD iÃªn
B á»ĳ
ĠH Æ°á»Ŀng
Æ ¯u
ID S
Ġnh Ã£
ĠT eh
ĠchÃ³ t
ĠB áº¯t
ĠM azda
Ġt áº¡c
PhÃ³ ng
» «
ĠNh áº¡c
Ġtr Ãªu
á »«
200 7
ĠD Æ°
ĠHá» ıa
Ġthá» ¥c
ĠthÃ ²i
ĠB ao
ĠcÃ µ
ĠL G
ĠFran k
T Ã²a
p op
ĠS ha
Ġth en
ĠÄĳ u
ng uyÃªn
Ġh it
ĠD r
em a
ĠMos kva
ĠS Ã©c
ĠQL TT
ĠT an
ĠYo ut
ĠB T
ĠB iáº¿t
ĠN ic
ĠH OSE
Äĳ iá»ĥm
at o
Ġb Ãº
ĠGuard iola
Ġn i
Ġk Ã¬m
ĠA CB
Ġd ang
ĠN ik
T hi
Ġnhá» §
do gan
k ho
H y
ĠM Ã´
Ġn ang
ĠS uá»ĳi
Ġt ivi
ĠOm icron
ĠN SNN
Ġph Ãł
T áº¿t
ĠVictor ia
C Ã¡n
el en
v Ãł
ĠHung ary
ĠÄĳÃ ²
us h
ĠJ ae
ĠN ex
C áº£m
Ġl en
ĠE V
ĠR ON
ĠF in
ĠÄĲ á»Ļc
ĠPh Æ°á»Ŀng
ĠTh iÃªm
ĠAb d
ce an
Ġ |
C L
ĠbÃ¬ a
ĠTH A
ĠT Ã¬m
Ġh Æ°ng
Y Ãªu
ĠLHP N
ĠCh Äĥm
Ġs áº¥y
ĠAF C
Ġvá» Ĺ
Ġd áº¥y
m ail
ĠT hÃŃ
ĠL in
ĠbÃª nh
Ġ á»ĵ
ĠH un
ĠB L
Ġng Ã¢y
Ġng á»Ńa
H ay
ĠUS S
Ġl Å©ng
ĠIr eland
Ġnhu á»Ļm
ĠChÃ ºc
gi áº£i
S V
Ġng áºŃm
og a
Ġgi áº·c
Ġbik ini
ar o
ĠM uá»ĳn
ĠF ernand
Ġd áº·m
ĠBe ck
ĠPl ay
ĠD ong
c Ã´
k in
E F
ĠB BC
i F
ĠMi ura
Ġt Äĥm
ud e
V i
Ġm á»ĳt
k aku
g in
i us
Ġ Ã¡
ĠT uyá»ģn
ĠSk y
ĠV ir
ĠIn f
+ )
Ġngh áº¹n
ĠAnd re
ig n
ĠBel arus
ÄĲ Ã´ng
ĠI l
ĠS C
k el
ap top
X B
Ġnh Ã¡i
ĠN m
ĠW at
P him
ĠF l
c Ã¹ng
ĠSp utnik
ĠB CH
ĠY emen
Ġsá»Ł i
K iáº¿n
ĠGeor ge
ĠTeh ran
Ġng áº¡t
ĠLe icester
ĠC omp
N áº¡n
ur i
ĠK Ã½
t hi
ĠNgh iá»ĩp
ĠU ber
ol e
ĠFran c
Giá» ¯a
ĠD j
Ġx Ã©
ĠV o
Ġb á»±c
ĠTr Ã¢n
ĠAngel es
ĠThom as
ass age
X Ã©t
ix el
al k
" )
Ġph Ã¡c
L Ãło
Ġnh uyá»ħn
ĠD Ã¹ng
ul a
p t
Ġd Ãª
ĠBr exit
ĠT CT
ĠK yo
Ġm iá»ĩn
ĠO DA
Ġr Ã¹a
ĠW hi
ĠAr t
ĠNh Ãłn
ĠTP P
ĠT ex
Ġ Ã¡ch
man n
ĠId ol
Ġ12 8
ĠT uÃ¢n
AS A
ĠSG K
tr Ãªn
ĠI a
ĠBer lin
Th iÃªn
ĠL Ã´
ĠTik Tok
ph u
es la
ĠKr em
Ġnh á»ĭn
K CN
Ġg Ãµ
Ġr áº§m
Ġr un
á»ĩ t
Ġn á»į
Ġngo áº·t
m o
ĠÄĲá» Ŀi
L Ã¢m
ĠÄĳÃ ºp
P EC
Ġlá» Ŀ
S h
Ġth áº£n
Ġ198 3
k ara
ĠthÃŃ nh
Ġv áº¯t
ĠD Ä©
Ch áº³ng
Ġngá» ©a
K áº¿
A C
d or
ace ae
ĠR anh
ĠN okia
d en
ĠCh ina
ik a
Ġnh á»ĵi
Ġth áº¡o
p s
ĠJ an
. )
ĠK a
p hi
ĠB ro
Ġbá» įt
ĠCh áº¯c
Tr á»Ł
Ġh áº£
ĠU Ã´ng
ĠM b
ĠnÃ³ c
Ġnh Äĥn
ĠYout ube
tre et
P hÃ¢n
le c
ĠSon y
h Æ¡n
j et
ĠV Ãłnh
Ġ =
ĠA C
ĠD ie
ĠcÃ ºc
Ŀ n
ĠCro atia
if er
v Ã¹ng
Ġc Æ°á»£c
ĠRo oney
8 1
ĠF estival
ad i
U S
Ġd Ã¨
as e
ag o
q ua
ĠCrist iano
Ġchá» ¯ng
ĠN iÃª
m it
ĠmÃ£ nh
? âĢĿ
V áº«n
h iá»ĩn
n á»¯
T á»±
ĠChi le
Ġbá»ĭ t
ed an
ĠH Ã³c
iss an
Ġ hÃ´ng
ĠB os
T U
K hÃ³
» §
á »§
ĠMod el
ĠN i
Ãµ m
ĠN ay
ĠKS ND
Ġtá» ¥y
X Ã¡c
Ġgiá» ¥c
Ġ197 9
j an
ester ol
CC I
ĠAng ela
ain t
ur y
Tr áº»
Ġlo go
Ġ Æ¯á»Ľc
Ġtrá» įt
ĠX Ãª
ĠhÃŃ t
ĠH aw
er b
ĠPle iku
Ġt Ãł
c ao
ĠTr áº¡i
Ch uyáº¿n
Ġkho Ã¡i
ĠEU RO
ad o
B H
Ġs áº¯n
ĠY ang
R a
D Ã²ng
Tá» «ng
E N
Ġ1 000
ĠÄĳ áº£
ĠKrem lin
d u
Ġnh á»ĭ
ĠLá» Ŀi
os ter
ĠH uáº¥n
Ġc áº©m
ĠTr Ã¬nh
ĠD ub
ĠB Ã¨
it an
S á»Ń
at i
Ġ( "
H Q
ĠX á»Ń
f ield
av e
ĠN ap
Ġv iá»ģn
? ".
ĠC Q
ĠS X
Ġnhá» ĩn
f a
ĠM Å©i
ĠL ion
U B
ĠT Æ¯
er e
Ġg á»Ļp
ĠS el
er y
ĠNT K
ĠN ad
Ġx Ã¡o
ĠM ah
Ġl i
w on
ĠCh Æ°
ĠCar l
ĠO cean
Ġ3 60
Ġb Ãºp
ĠM ong
H uyá»ĩn
ĠÄ Ĥn
il on
f i
ÃĬ N
Ġl Ãºng
ÄĲ ang
Äĳ Ã¡nh
Ġv Ã´i
Ġthá» ĳn
ĠA ward
ĠK az
Ġd áº¡t
ĠEver ton
ĠCá»¥ m
b r
ĠS á
ĠSá »
ĠvÃł n
ĠCh uyá»ĥn
Ġkh áº¯t
Ġng uyá»ĩt
el li
C hÃ¢n
c ol
NH NN
V iá»ĩn
ĠF ox
M ar
ĠAn kara
s á»±
Ġg Ã¢n
ĠnÃ³ n
Kh ai
s au
ÃŃ u
ĠS T
ĠR áº¡ch
ĠK en
aw a
ĠG iÃªng
I P
tr o
app e
Ġg Ã²
ĠF ab
Ġj e
Ġtho a
Ch ung
Ġn Ãªm
ĠMus k
ĠSer ie
T á»Ľi
H Æ°Æ¡ng
ĠSu z
ĠV á»¹
ĠD ao
Ġx áº£o
Ġc alo
eng er
ĠD O
ro p
Ġlives tream
X uÃ¢n
ĠKh mer
K D
h ai
Ġchá» Ľp
C á»ķ
ĠCos ta
Ġh Ã¡n
ĠTh iá»ĩu
Ġtr Ã¹
ĠPhá» ¥c
t en
ĠB TS
acom bank
h Ãłng
M Ã´
ĠT ai
Ġg Ãłng
T ÄĲ
ja er
S Æ¡n
Ġs áº¿p
ĠÄĲT QG
r om
Ġthá» ı
ĠM áº¡ng
ĠGiá» įng
ĠC á»±c
al and
ĠS ec
ĠV Ã´
DC ND
ĠT esla
ĠV ideo
Ġchá» £t
ch iáº¿n
Ġtá»ī a
Ġcho l
W HO
Ġs tr
ama ha
ĠT C
B ar
ĠNo el
ĠM ike
Ġh áº¥u
li b
et sk
ĠG V
ĠTr Ã£i
ĠH ag
ĠPh áº£
ÄĲ Ã´i
ĠKh Ã¡m
ĠHo áº·c
Ġsu Ã´n
ĠRod rig
R onaldo
Ġn áº¿n
Ġl iá»ħu
k ÃŃp
ĠN áºŃm
H á»ĵng
ĠGP MB
GD VN
ĠCh ia
ok ovic
Ġqu áº¿
ĠR ap
Ġro ck
ĠHar i
ĠS and
ĠIn tel
Ġm assage
Ġl aptop
N K
Ġchol esterol
T uyá»ĥn
yp e
ĠFlor ida
Ġl á»±u
Ġqu á»·
ĠÄĳ ao
Ġ )
C ao
Ġs Ãło
sk jaer
ĠM á»Ł
Ġgi áº±ng
Ġ áº©u
it z
ĠT Æ°á»Łng
Ġtu i
ĠTá» µ
Ġ19 60
ĠcÃº i
ĠA TTP
v es
re y
» ¡
Ġtr o
M U
ĠAlex ander
Ġng Ãłi
ĠGa al
d am
á »¡
ĠJon es
NLÄĲ O
l áº§n
Ġb Ãºa
C l
Ãº m
C Ãł
cá» §a
Ġgi Ã¡ng
ĠThá» ıa
ht tp
ĠTex as
h ot
ĠÄĲ Ã¡nh
ĠEr dogan
Ġc Ãło
th u
ĠT uyá»ĥn
Qu áº£
E FA
ĠXi ao
im bank
ĠD Ã²ng
ĠCh Äĥn
Ġká» µ
Ġ10 3
ĠB Ã´ng
ho áº·c
ĠPh u
Ġng áº£
ĠcÃ ²
TP HCM
D á»ĭp
Tr áº£i
Ġmá» ³
ard o
Ġkhá» ĳn
Ġ197 2
Ġb áº»
Ġ20 50
Ġtr Ã¨o
on ia
V ÃŃ
Ġgh e
ines s
Ġf or
H en
M Ãłn
Ġto a
Ġqu á»³
N V
T op
* *
2 50
re am
Ġc Ãły
w an
li g
Ġ198 1
» ¨ng
á »¨ng
ĠV n
Ġqu áº¥n
ĠAl l
V P
Ġr Æ¡m
ĠP ower
Tr Æ°a
ĠNig eria
Ġ10 1
ĠVin Fast
Ġtr á»ķ
ĠL Ã£o
E T
Ġcá» «
X á»Ń
ĠP VN
há» įc
ĠE c
ĠH i
Ã Ĳ
ag es
Ġkhá» ıa
ĠB ul
Ġg á»Ļi
Ġl ay
ĠV illa
Gi ai
ĠEn ter
ĠT áº§n
or a
ĠUkrai na
Ġc Æ°a
ĠR oy
al d
ĠPh Ã¡o
ab y
Ġr ang
ĠG ea
it ch
ĠAS IA
ĠF err
amil k
cast le
ĠV er
ĠM Ã¢y
Ġ11 3
h ay
Æ°á»Ŀ m
ĠX X
Ġr áº£nh
Ġv un
Ġng Ã¡n
Ġh u
ĠPet er
iv ers
Ġto an
ak ar
ĠM áº§m
Ġtr au
or y
ĠA M
b us
Ã¨ m
ĠChu áº©n
ĠEur opa
ÃĶ NG
Äĳ oáº¡n
l l
e am
ĠA p
Ġqu áº¥t
b Ã¬nh
ĠWal es
ĠÄĲá» ĩ
ĠhÃ³ c
" ;
Ġph áºŃt
ĠN ob
ĠD es
ty le
v á»Ľi
ĠS how
Ġth áº¯m
ĠChá» ĵng
Ġph Ãłn
ĠCH QS
M uá»ĳn
y s
ĠNhá» ±
an n
ĠS M
Ġlá» «ng
ĠL iá»ħu
ĠI M
ĠMer kel
ĠRom a
ĠTr anh
B enz
ĠM ang
áºµ n
ÄĲ áº¡o
ĠS áº½
E x
ĠT Æ°á»Ľng
ĠMot or
Ġsáº ¹
ĠkÃ¨ o
ĠVietin Bank
ĠS in
ch a
ĠTT HC
ĠBal e
Ġl Æ°á»£n
Äĳ áº§u
Ã² e
ĠCH DCND
ĠU ng
ĠTo áº£n
Ġsáº¹ o
ĠSuz uki
art up
N áº±m
ĠC DC
Ch a
ag a
V Ä©nh
Ġl Ã¹m
ĠDN NN
Ġr áºŃp
m Ã£
Ġs im
ĠN K
Ġv Ã¡
Ġ áº¥u
KT ÄĲT
b aba
ĠÄĲ á»ķi
ĠVP F
Ġthá» ĳt
ĠDam as
ÄĲ K
Ġ197 6
ĠDon etsk
V in
ĠÄĲ Æ°a
ÄĲ áº£ng
ĠBá» Ŀ
á»į a
__ __
I áº¾
ĠSu arez
ĠAli baba
m ad
ch er
ĠCN VC
Ġ24 0
et te
Ġg áºŃp
st ar
ĠÄĲ á»ĳc
et o
B r
ag h
ĠN XB
ĠU l
Ġk iÃªu
ĠC áº£i
% );
ĠÄĳ Ã¡i
ĠIn s
C áºŃu
ĠK at
Ġm ic
on i
ĠTh Æ°á»Łng
ĠFranc is
ĠK al
et s
Ġr Æ°á»¡i
T iá»ĥu
ĠD A
M ua
S Ã¢n
Th Æ°á»Ŀng
ĠL Ã¡ng
it ion
S am
ub ishi
ĠL ad
Ġch áº£nh
kh u
ĠMb appe
ĠKh iÃªm
Ġ á»ĳp
ĠDani el
Ġmá» §
Ġbá» ĵng
ĠA R
UY á
UYá »
as on
m ed
ĠPh áº¥n
ĠT TCK
ĠM id
ĠGiá» ¯a
ĠBr ent
ac t
ĠTr á»¥
T Ã¢m
ĠNhá» ĭ
ĠW enger
l ott
ĠTay lor
ĠC áº§m
ĠN Ã¢ng
ĠL Ã£ng
ĠI bra
s i
ĠS um
ĠM eg
Ġlo Ã©t
ĠA ut
Ġ13 5
E L
Ġnh á»ĳt
lo pp
Ġx Ã¹m
ĠQu á»³
ĠA udi
Ã ļ
b áº¯t
b an
D Ã¹ng
its ubishi
ĠQ R
c Ã²n
amp ton
C á»ĳ
ĠDamas cus
R eal
ĠG er
ĠDie go
Ġthu á»Ł
ĠTh ao
ĠUA V
ĠS oo
ĠP ort
ĠRich ard
ĠO k
M o
ĠS ud
M ai
ĠS ung
ĠM P
b es
Ġm Æ°á»£t
ĠP as
Ġbá» «a
ĠTh áº¯m
b ek
Ġ10 2
Ch inh
ĠAss ad
ĠG un
ĠSol skjaer
r m
Ġvá»¥ n
ĠNg hÃ
Ġvá» Ŀ
ĠHo áº±ng
it o
ÄĲ Ãłi
Kh Ã¡c
ÄĲT B
Ch uyá»ĥn
M Æ°a
A F
Ġl áº§y
Ġtr Ãºt
ĠCap ital
ĠOp en
ĠG ra
ĠTr Ãłm
ĠHo ld
c c
g áº§n
k hi
t an
Ġh ack
Ġm au
TV N
ĠAle ppo
N inh
Ġs Ã²ng
li an
L áº¥y
ĠFed er
Ġl anh
ĠS om
C áºŃn
ĠN ou
th áº§n
ĠB uá»ķi
Ġc om
if t
ĠF o
Äĳ á»ĵng
ne ws
ĠS acombank
R E
ĠCá» Ŀ
ĠÃ įt
Ġm iÃªn
ĠL S
o ph
Ġrá» Ĺi
ĠSc ot
Ġn ilon
ChÃ ¢u
á»ķ n
Ġs e
ĠF orm
if ic
t w
Ġ197 8
ĠTD TT
Ġl Æ°á»Ŀi
Ġv Ã¡ng
o is
ĠK hÃ³
abe co
t á»ķng
ĠG ÄĲ
iF one
ĠTo ur
Ġ Æ°ng
Ch elsea
H oÃłn
Ch áº¥t
ĠB as
ĠE ng
ĠM ik
Ġ áº§m
ĠT iá»ĩp
Ġhá»ĩ t
k ing
ĠS aint
or i
Ġca bin
ĠvÃµ ng
ĠPh a
iz er
Ġlo Ã£ng
Ġ z
ĠS ub
ĠX Ã©t
ĠC áº·p
ĠHá» ©a
Ġng áº¯t
" ...
ĠGi Ãłng
ĠghÃ ª
ĠC á»ĳng
ĠV OV
Ġb Äĥm
L S
Ġl áº§u
ĠEx imbank
Ġcá»¥ t
li z
Ġ202 6
ĠÄĲ áº¥u
ĠV it
C D
Ġr Ã¡n
Ġ196 8
Ġthá» ģ
ĠTh ai
ĠKh a
k hÃ³a
I NH
ĠLe on
TT S
ĠDub ai
Ġk áº¹p
N Ãªn
ĠViet NamNet
ĠV ill
ĠNex t
ĠASIA D
Ġch áº£i
tr al
E X
ĠR ai
S B
Ġcá»Ļ i
ĠEr ik
Ġdá» ©a
ĠMac ron
M ay
way s
ĠNg Ã£
on t
Ġk i
ĠDj okovic
ĠUS B
ch ez
Ã¬ a
iver se
200 6
âĢ¦ )
Ġr Ã³t
Ġ Æ°Æ¡m
ĠC á»ĳc
Chá» ĵng
ĠLion el
ĠthÃ ¢u
g ar
ĠAs h
á»į t
ĠSerg ei
ĠD iá»ĩn
i que
Ġstr ess
ĠH á»Ľi
Ġs Æ°á»Łi
Ġg áºŃt
te in
L O
202 6
ĠSil va
id ane
ĠLu is
ĠJ av
ĠâĢ Ŀ
U N
3 50
ĠRo ck
Ġ197 4
ĠK ÃŃnh
Ġngá» ¥c
L oáº¡i
ĠJ ol
Ġnhá» ī
Ġn Ãłnh
y Ãªu
Ġsá» Ŀ
k ip
ĠP au
Ġtr Å©ng
Ġl Ã³c
Ġng Ã²i
at us
ĠThá» ¥c
V áºŃn
ĠTu á»ĩ
ĠNew castle
Qu Ã½
ĠG e
Ġlá» Ńng
ĠchÃ ¨n
p e
n ing
ĠS av
Ġngá» ¥y
r ick
ĠM r
ĠK áº»
ĠV áº«n
w in
ĠY amaha
ĠCh Ã¡u
ĠG ab
Ġch Ã¡nh
C Ãº
C DC
ĠCh ang
ĠBá» ©c
ĠT Ã¹y
» Ŀ
ĠSn ap
Ġr Ã£nh
st al
Ġd áº§m
t áº¡i
á »Ŀ
L oÃłi
ĠLu x
! âĢĿ
un t
Ġho rm
ĠG h
ĠViet jet
Ġto Ã¡t
ĠT Ãł
Ġv Ã£n
ĠM edia
m et
Ġd iá»ģu
Gi áº£m
Ġng Æ¡
Ġ197 3
ĠC er
tr on
ĠChar les
ĠBr id
ov o
Å© y
Ġn áº§n
Ġqu áº·ng
ĠS áº§m
ĠCQ ÄĲT
ĠB XH
ĠT á»ĳt
Ġser ies
N Ã³
ĠU z
ĠThá» ¥
ug uay
ic an
ĠL ew
m in
ĠK lopp
ĠM áº¥y
Ġg áº¯m
ĠVo ice
ud io
ĠU EFA
Ġx ÃŃt
ĠL Ã¡i
ĠT W
ĠLav rov
M Ã³n
ķ i
ĠÄĲ áº§m
Ph an
ig er
ĠL Ã¢u
ĠvÃ² m
ĠH áº¡m
ĠP or
Ġá» ıi
c uá»Ļc
Äĳ á»ĥ
ĠS SI
ev a
ĠAward s
Ġ2 30
Ġqu Ã¢y
ĠT Ã³c
ĠBr ad
Ã įt
ĠQ uáº¥t
ĠUn iverse
Ġs edan
Ġt Ã©
on s
ĠJ ustin
Kh Ã¡m
Ġph en
Äĳ áº·c
Ġm áº©n
Ġr es
Ġkh inh
Ġk Wh
ĠM iáº¿u
Ġng Ã³ng
Ġm e
Há» £p
ĠB il
gi Ã¡
ĠT ÃŃch
ĠB iá»ĥu
ĠPer u
ĠO PEC
d io
is on
B iáº¿t
Ġxu á»ĵng
Ġtr áº·c
ĠND T
g en
ĠCat al
ĠJ im
ĠS P
l av
Thá» «a
âĢ¦ âĢĿ
ĠBÃŃ nh
Ġtu a
ol y
ĠF ace
Ġcá» ĵng
ĠVin amilk
Ġph iÃªu
ĠGD ÄĲT
em an
C ar
ĠLu c
E VN
ĠTá» «ng
ĠD om
ĠÄĳá» ±c
Ġ197 7
ĠV á»ĳn
ĠB inh
Ãģ o
ĠS áº¯c
R e
ĠU P
ĠMi G
ĠF ort
áº ¬
v iet
od e
S S
s an
c Ã¡i
Ġ11 2
ur t
g er
ĠquÃ½ t
ter te
ĠM ua
ĠJ am
ĠSer bia
Ġ' '
ÄĲ áº©y
ĠLu áºŃn
ĠM etro
T iáº¿ng
Ġt áº£o
ĠM ek
ĠTh y
ĠX a
ĠD em
' '
Ġkhu áº¥y
ĠB om
t iá»ģn
ĠGaz a
ĠMob iFone
ĠN ep
Gia dinh
Ġ11 6
---- ----
Ġn áº¡t
ch áº¡y
âĢĿ ...
ĠScot land
Ġngh áº¹t
ĠGiá» ĳng
Ã ¼
A pple
r u
Ġ %
ashi on
ĠW i
ĠnhÃł o
Ġxá»ī u
ĠP ac
Ġkh iáº¿t
er to
b Ãł
Ġn áºŃp
ĠE v
A IDS
ĠNh o
Ġtr Ã³i
ĠK ang
ĠF TA
H áº¡
ĠR Ãµ
r ay
Ŀ m
Ġd er
um a
Ġ19 45
Ġ10 4
ĠVN ÄĲ
ĠSh ar
ĠL en
Ä Ĥ
ev in
ĠT ak
ĠS á»ĳng
ĠDel ta
f izer
ĠGuard ian
ÄĲ S
d á»±
ĠDu terte
enc ia
ĠCP I
Ġch áºŃp
Ġx ua
g á»įi
» Ĳ
á »Ĳ
Ġhá» §
Ġmáº¹ o
ĠK ane
p ot
ph a
d in
Ġ7 50
Ġch uá»Ļc
ĠFor bes
u an
p lay
le x
ĠS treet
Chinh phu
Ng Æ°á»£c
el f
ĠthÃª u
Ġlá»ģ u
B iá»ĥu
ĠY e
Ġ áº¿ch
ĠHo me
há» Ļ
Ġn ung
Ġ uáº¥t
Ġm ix
s á»ĳng
C am
ÄĲá» ©ng
ĠM Ã£i
ĠBrun ei
Ġ17 5
S M
Ġ Æ¡
ĠA k
R Ãµ
ĠQu áº§n
m g
ĠCB CS
Giá» ĳng
ĠS Æ°Æ¡ng
l am
Há» Ĺ
ĠH ee
k V
bek istan
h y
ĠM et
v Ã´
N Æ¡i
ĠK id
ĠL Æ°
ĠId lib
N ew
Ġch áº±ng
ĠW eb
ĠAnd r
ĠIm ages
Ġfan page
ĠC Ãº
ber t
ÄĲ a
yd ney
ĠS uk
ĠC ang
Ġ10 7
T uyáº¿n
ĠchÃŃ ch
ĠD Ä©nh
A h
ĠTCT D
Ġphá» ĵng
C LB
Ġ Ãºp
Ġk Ã©t
Ġ6 50
H z
ÄĲ Æ°a
Ġn áº¿m
! ".
Ġm áº£i
Ġv e
>> >
ĠC Ã¡nh
ĠY ong
ĠÄĲ áº©y
ĠG AS
ĠSport s
ĠA pp
Ġb ung
ĠcÃµ i
Nh áº¡c
Ġs hop
ĠLe x
thá» Ŀi
ĠC Ãłng
Ġch Æ°á»Ľng
Ġg Äĥng
Äĳ áº¡t
B Ã¡nh
ĠI D
Ar senal
ĠtÆ° ng
us hi
Ġkho Ã¡t
Ġvi sa
ĠSte ph
? âĢĿ,
ĠH az
Ġng Ã¹i
im b
ĠSl ov
ĠXV II
áº ¦
or g
ĠK el
Ġnh Ã³c
ors che
ĠD mit
ĠVHTT DL
ĠUr uguay
ĠHar v
ĠBen z
ĠT s
http s
Ġng ao
ĠÄĳ áºŃy
ĠM Ãłu
T iÃªu
ĠV CB
ĠNh iá»ĩm
PT PP
ĠJe an
ĠD ay
d ro
S P
eal th
Ġb in
Ġng áº¥m
R C
i or
ĠZ idane
ĠS mart
ĠC Ã¹
ER S
ĠN Ãł
ww w
N Ã´ng
ĠB und
ĠÄĲ V
ĠV GP
ĠR en
h Ãłnh
ĠCor p
ĠAnton io
ĠSan chez
ath er
» ĩnh
á »ĩnh
B á»ĳn
ĠJenn ifer
A V
ol o
ry stal
op e
ĠB á»ĳn
K á»·
ĠVII I
rol imex
ĠTh áº¡c
ĠAmer ica
Ġphá» ¥ng
... âĢĿ.
z e
ĠV ar
D Æ°Æ¡ng
Ġg ang
Ġgi Æ¡
há» ģ
Ġm Ã©p
ķ ng
ĠR u
Ġ11 4
Ġs Æ°a
Ġ10 6
ĠT ang
em ent
ĠT Ãło
ĠTr ao
M al
ĠNad al
U krai
B Ã¢y
ĠMan ila
T Æ°
Ã Į
ĠF re
Ġth ung
i y
Ġm Ã©o
ak ia
ĠM itsubishi
v in
M áº¥y
ĠA D
Ġgiá» ı
ĠL áº¥y
d y
t ÃŃnh
Ġt áº©m
ĠVal ent
Ġm ark
Ġchá» ĳc
Ġr ay
ec a
Ġmá»ī m
ab eth
ĠC av
if f
un a
o ff
ĠV á»įng
ĠS ydney
ow ski
V n
ĠHill ary
ĠPal ace
V Ã¹ng
ĠDu áº©n
a eda
Ġ áº¿
ĠS ur
Ġs um
b áº¥t
ĠUz bekistan
ĠMob ile
ĠSan t
ĠP fizer
T I
ĠB QL
ol og
ĠBeck ham
Ġtrá» ĵ
U á»ĳng
Ġsá» ¡
ol as
Ġl e
Ġm áº«n
Ġ19 0
ĠD J
v est
ash ford
Ġtr Ä©
z er
ĠX u
is ion
Ġb ody
T áº¡o
ĠP N
H ot
Ġth iá»ģn
ĠCh ris
ĠR y
c t
nh ap
ÃĤ N
Ġx á»ĳp
ĠJol ie
Ġx Æ°á»Ľc
chá» ĭ
V á»ĳn
ĠN ASA
Ġv áº«y
Ġ12 3
ÄĲ áº¯k
es se
Qu áºŃn
i i
I s
ĠAs ton
ĠN issan
Äĳ á»ĭa
ĠLá» ĩnh
Ph áº£n
il y
ĠA j
ic on
200 5
K TS
ĠB Ã¡nh
ĠThÃ ºc
ĠK an
´ m
ĠbÆ°á»Ľ u
orn ing
ĠPhá» ĳi
H T
Ġv uá»ĳt
Ġb e
tr á»«
Ġb áº©y
g or
Ġ5 50
ĠChá» ĳng
ĠDel hi
Ġmá» ©t
ĠViet lott
ĠR io
ĠM Ã³n
ĠX p
Ġnh ang
ĠW ang
tain ment
akh stan
ĠÄĲ ang
ÄĲ áº¥t
Ġp hÃ´ng
ĠAir ways
Ġr Ãªu
ĠSud an
T iáº¿t
Ġ3 20
ch u
ĠGi áº£m
ĠP omp
? "
Ġ10 9
ÄĲ Ãłn
Ġl aser
3 70
ĠD á
ĠDá »
ĠphÃ ´i
¹ n
ĠSm ith
gh ini
Ġch áº¡p
Ġn iá»ĩu
ĠS ri
Ġ15 5
Ġ11 7
ĠR oll
ĠCá»© u
ĠN ÄĲT
C G
ĠT iáº¿t
ĠB TV
Ġnh áº±n
G iáº¿t
... )
lad esh
K iÃªn
ĠSte ve
at er
ÄĲ Ã¡p
ĠE b
li pp
M edia
ĠF ar
Ch Ãłng
ĠTh oáº¡i
ĠForm osa
Ġk iáº¿p
ĠH el
ĠRa f
ĠC CC
ot ti
Ġ11 1
D i
ĠO li
Ġs áº£o
akar ta
ĠC el
ĠF ir
Äĳ Ã³ng
Tr anh
H iá»ĩu
ĠX Ãºc
M essi
ĠT B
Tr Æ°Æ¡ng
r ad
ĠQ ÄĲ
Qu á»·
om es
ĠTr ans
ĠTr Ã¡ch
tr Æ°á»Ľc
Ġkáº½ m
m á»Ĺi
ĠÄĳ Ãłng
Ġ ur
Ġ197 1
ĠÄĳ iá»ģm
ĠCar ol
ens is
d ay
HN M
ĠI X
ĠÄĲ oan
Ġv on
ĠH O
Ġnh Ãłn
ĠB á»Ńu
ĠLex us
ĠCl ub
ĠNg Ãł
m áº¹
ĠR ad
Ġt een
Ukrai ne
Ġ Â
ĠSh e
R A
ĠNep al
» ©ng
á »©ng
AD S
ĠMek ong
Ġb iáº¿u
Ġv Æ¡
an on
ĠFerr ari
te ch
19 45
ĠCA Q
ĠL ife
ĠBlu es
Ġst artup
ĠEnter tainment
B ao
B áº¿n
z i
Ġb áº§m
ĠGT GT
ĠS hop
ĠNob el
ĠIbra him
T D
Ġx iáº¿c
ĠN ag
ĠD ar
ĠW oo
Ġche ck
Ġngh iá»ģn
lig ht
ĠTh oa
TV QH
Ġnh ai
ig an
ĠT ype
j o
S á»ĳng
r in
Ġg ram
ĠAd am
T Æ¯
ok o
Ġmod el
ĠT áº¿
L inh
ĠJe ff
Ġho ay
la za
h en
k y
Ġchá» ĩ
ĠS D
20 30
Ġcá»§ i
ĠTr áº£ng
P et
ch ia
t Ã¬nh
F ed
Ġvá»ı n
l as
am ine
Ġg Ã¡y
Ġtá»¥ i
es li
ĠM ul
T ai
ĠChÃŃ n
ĠnhÃł m
Ġ áº£m
g Ã¢y
ĠS ina
ĠH P
ĠP PP
ĠS Ã¢m
ĠC á»Ń
Thá» §y
ĠÄĲá» īnh
M Ãłu
Ġje ans
ĠG ard
ĠR og
ĠH CB
Ġrá» Ĺng
ĠLÄĲ BÄĲ
ĠGi Ã¢y
ĠH K
ĠD y
T áº¡m
ai t
ra ph
Ch áº¯c
ĠCCC D
ĠchÃ³ i
V Ãłi
ĠG ang
ÄĲ á»įc
Ġvi ew
b u
ph Ã¡t
ic al
T o
m s
âĢĿ :
AT GT
d ragon
Ġn ÃŃu
ĠDis ney
ĠBu ff
ĠKh áº£o
Ġngá» Ŀi
Ġch Ãł
ĠBrun o
ĠTh iá»ģu
ĠÄĳ iáº¿u
ĠSw ift
c Ã¡ch
R á»ĵi
ĠW atch
T E
ĠG ates
Ġca tw
Ġb us
ĠS uá»ĳt
eo p
ĠK erry
ĠM Æ¡
Ġw ww
ĠR ub
Ġcatw alk
Ġn CoV
b Ãªn
2 000
ĠU p
ĠK Ãªnh
ĠAbd ul
Ġ Æ¯u
k inh
ĠCh oi
ri an
liz abeth
L ED
Ġs al
ĠL ove
ĠB at
S H
G AP
er on
Ch Ã¡u
ĠTr áº£i
G C
i ro
ĠMar c
in et
op ter
ĠD áº¡
P M
ĠThÆ¡ m
ĠQ uyáº¿n
Ġf utsal
Ġnh á»ķ
ĠLa z
C á»Ļng
th ony
thá» ©
Ġhorm one
ĠBang ladesh
Ġra pper
G áº·p
Ġ2 10
Ng uy
ĠL Ã£
r et
ĠP ers
Ġy oga
Ġt áº»
ĠÄĳ áº½
Chu áº©n
urn al
ĠÃģ p
esli ga
ĠF an
Ġ14 1
ĠShin zo
ang e
ĠIn dex
l Ãªn
Ġgi áº¥m
ĠTech combank
ĠCon te
ChÃ ºc
av el
Ġngá» «
ĠC D
av i
Ġl ike
ĠBl ue
ir l
ĠL ÄĲTB
ĠSt ore
ĠZ elen
Ġmic ro
Ġ12 6
ĠBus iness
Ã½ p
ĠN as
ĠB on
Ġca fe
c ent
ĠM áº¯t
ĠxÃŃ u
G TVT
ĠH CÄĲ
âĢĻ .
ĠS ul
M TTQ
ĠP laza
ĠBr uss
Z en
ell er
in n
ĠÄĳá» į
eto oth
Ġs h
ĠKaz akhstan
Ġgiá» Ĺ
ce pt
ĠSal ah
Ġv áº¡
ĠFeder er
A ss
ĠmÃ´ tÃ´
Iá» Ĩ
C á»Ń
ĠJ ac
ĠSc ott
ĠNg áº¡n
Ġtá» §i
Ġ196 9
ĠkhÃ ©t
J o
u x
hi re
ba ch
Ġ Ã²a
ĠL eb
S ang
ĠH A
ĠH á»ķ
Ġ27 0
ing roup
ĠR ashford
Ġ196 7
ĠE lec
ĠD V
nh Ã¢n
ĠHaz ard
ĠTN CS
B GD
ath on
Äĳ Æ¡n
Ġc áº¡o
ĠSnap dragon
ev er
B Ã³ng
ĠPomp eo
ib o
Ġ26 0
ĠT O
ĠD ia
ĠK evin
M á»ĳi
H D
h at
BN V
ro w
ĠK l
1 20
Thá» ĥ
ĠT Æ°á»£ng
ĠA y
ĠM T
ĠEV FTA
ĠDmit ry
ĠK ir
ĠC á»±
ĠZ alo
ĠJ akarta
w ang
200 4
ĠC TCK
M V
z one
ĠVN M
ĠB ia
ĠV ai
ĠAg u
v á»£
I ran
ĠD TTS
ĠV ÄĲ
ĠP orsche
Ġg ym
ĠC CB
C an
ĠT y
ĠF BI
ĠX ÃŃ
ig u
Ã¬ n
Ġp en
ĠX Ã¡c
N iá»ģm
ĠGi áº£ng
b áº£o
Ġp ro
Ġng Ã¡ch
im a
Ġx á»Ļn
Ġc uá»ĳng
ĠK pop
ĠN ick
T am
re ak
ĠW TO
Ġchá»ī n
ÄĲ á»ķi
osh enko
Â °
ĠRes ort
ĠP en
v á»ģ
I L
Ġqu áº©n
h u
ĠS y
ĠBrid ge
Ġ19 50
% ...
Nh áº¯c
v ed
v ia
ĠM orning
g ov
ĠBenz ema
j u
ĠCNVC LÄĲ
C ap
N á»Ĺi
Ġv o
Co M
c an
ĠR yan
F O
" -
ĠSerg io
d r
ĠKh e
ĠRam os
B l
ĠchÃ ²i
ĠX S
Ġr en
ĠN ar
ĠCan nes
J I
Chá» £
202 4
Ġac id
ch iáº¿c
Ġch Ãłi
ĠAb u
h ad
a f
ĠD áº«u
Ħ N
Ġv ung
Khá» ĳi
ĠBruss els
m áº¥t
ĠP in
iz en
ĠMus ic
ĠV IC
Ġcá»« u
Ġn a
ĠO t
ĠBul g
ĠS ho
ĠC IA
ĠE lizabeth
ĠYo nhap
Thá» ķ
ĠG Æ°Æ¡m
ĠB A
ĠS IM
ĠNg Æ°u
F i
Tr Ãł
ĠBund esliga
agh d
s in
Ġch iÃªng
ĠV Ãłi
ĠLan ka
ĠB ir
ĠNap oli
Ġ up
Ġtr Æ¡
ĠR ay
g u
Ġl áº©u
ND ÄĲT
rai n
ĠG or
men ia
ob ile
ĠÄĳá»ĳ m
e f
Sam sung
Ġth iá»ģu
ul in
ĠTá» ©c
phÃ ª
it er
Ġr á»ĳn
ĠM Ãłn
ĠG Æ°Æ¡ng
ĠXiao mi
âĢĿ ?
Qu Ã¡n
ĠM A
Ġng Ãł
V Æ°á»£t
Ġ28 0
com m
Ġs áº£nh
Ġb ai
thá» ±c
ĠB ash
ĠC V
ĠVal encia
ĠX NK
ĠF ED
Ġ1 19
ĠCor ona
ĠLu kaku
t iáº¿ng
V Ãłng
ĠCh áº¡p
ĠO le
K áº»
Ġnh Ã©t
ĠW ay
S uá»ĳt
ĠV AM
ÄĲT CK
Ġb en
S ing
ĠNg Ãłi
ĠO d
Ġmark eting
ĠAir bus
In donesia
ĠÄĲ Æ°Æ¡ng
Ġh iÃªn
Tr á»įng
ĠL Ãªn
Ġchá»ĩ ch
ĠLam bor
thÃ ´n
ĠVir gin
th uc
Ãģ p
ĠMar y
Ġt Ã²i
Ġc áº¥n
Ġkh Äĥng
Ġth Ãł
ab i
ing ham
ĠL uyá»ĩn
ĠG Ã³i
w er
ĠG ran
H onda
O M
ĠO x
Ġr Ã¡t
B ay
ĠSouth ampton
ĠK n
l anh
ĠvÃŃ a
ĠLambor ghini
th o
r áº¥t
ĠH TC
R I
ĠPV C
ĠK ai
i ra
V áº»
h ar
ĠG áº¡o
ĠK á»ĭch
Ġm iáº¿u
P S
ĠT en
Ġ( )
T F
erb ai
ĠCM ND
SG GP
at ra
Ġ11 8
Ġlo ay
b áº£n
Ġk ali
Ġkho áº¯n
ĠW B
ĠL Ã¡
ĠK ate
ĠH it
19 75
ĠÄĲ áº£m
W S
Tr á»±c
Ġm Ãºi
og en
ĠV ingroup
ĠL as
elf ie
Ġnh ung
ĠPh Ã¡i
ĠA th
ĠK am
ĠSt an
at han
l at
Qu áº£n
und er
ĠnÄĥ n
ĠEb ola
F I
erbai jan
Ġr Æ°ng
Qu á»¹
ĠJack son
ĠJo urnal
ĠNg Ã´n
ĠM á»ĭch
Ġm et
R oy
L a
ĠB ent
ĠF erg
Ġ it
Ġ20 45
Ġ om
ĠS Æ¡
1 60
Ġhá» ĳc
ĠR Äĥng
ua dor
ch áº¥t
Æ°Æ¡ u
ĠAl g
ĠL es
L Æ°Æ¡ng
M ang
ĠJu an
enn is
ĠAs tra
ĠV ÃĢ
ĠkhÃ³ m
Ġthu n
X P
ĠCh uyáº¿n
ĠA K
ur s
ng h
ff e
b á»Ļ
ch ain
ĠB y
iá»ĥ ng
q uy
L iverpool
s áº½
gi ai
áº³ m
ĠAn thony
T ay
us on
ĠÄĲ o
ĠC rystal
ĠCh iÃªu
Ġx iáº¿t
ĠH á»Ļ
k hÃ³
B ook
Ġng Ã³
ĠVin ac
Ġtr Æ°á»Ľng
Ġn et
ĠD ream
ĠC C
olog y
ĠPet rolimex
Ġthá» «ng
g y
t ar
ĠT Ã²ng
Æł NG
d s
d an
b á»ĭ
ĠL isa
Ġtu Ã´ng
ÄĲ Ã¡m
ĠHen ry
ĠWilliam s
ĠAr menia
Ġh áº¥t
ĠHo Ãłnh
Ã ĵ
T uáº¥n
ĠTH á
ĠTHá »
ĠKia tis
B Ã£o
Ġtr Ã³t
Ġph o
Ch áº¿
Y Ãªn
Äĳ á»Ļc
Ġ #
at or
r as
Ġq uyá»ĩn
Phi lipp
ĠÄĲ oáº¡n
ĠL op
Ġt áº¯n
Ġ196 5
ĠA DN
Ã ¶
Ass ad
Thá»ĭ t
ĠPac ific
ĠF al
Tr iá»ĩu
ĠF u
f an
Ġf orm
? ?
Ġl Ã¡n
O A
Ġmá»ĵ m
ĠUB KT
ĠC X
ĠLat inh
Nh iá»ĩm
ist a
ir ates
c Ã¢y
Ġm ar
ĠG hi
B NN
ĠPet ro
Qu á»³nh
ĠT un
Ġc ent
á»¥ y
ĠIM F
L Æ°á»£ng
ĠNor th
ĠbÃ¨ o
Q aeda
ĠBash ar
ĠB amb
c á»±u
Æ¯ ÆłNG
Ġá» Ĳ
Ġx Ã³i
ĠIn n
Ġn áº·c
il d
UYá» ĦN
one x
ĠCh Ãłng
ĠBr it
ĠL Å©ng
Ġd áº±n
ĠcÃ ¹
c Æ¡n
ĠTH ADS
CT N
ı m
t á»ķ
ĠAndr ew
ĠK os
Ġ12 1
Ġ12 2
Ġh en
Ġc au
Ġcá»ĳ p
ĠHold ings
ia go
ĠThá»ĭ t
ĠSev illa
ĠT á»ĳc
Ġres ort
chá» ĳng
ĠC PTPP
ĠSt am
ĠP es
Äĳ áº¥t
Ġr áº±m
ĠJo ong
Vn Media
Ġ14 5
i Phone
ĠCá» ı
Ġs Ãºp
Ġtá» ³
ĠH inh
ill er
ĠJ ang
ÄĲá» £t
ĠV AT
1 30
ĠSan ta
k á»ĥ
Ġy áº¿m
qu an
N ATO
á»ĭ m
KTS G
Ġ13 2
ĠS abeco
l Æ°á»£t
ĠÄĲá» ©ng
ĠVietin bank
ing ton
% -
O O
Ãµ ng
ĠX H
ur es
om a
ar is
ĠValent ine
ĠB á»ĵng
ĠBulg aria
² m
ĠC z
M I
Ġ196 6
ĠCh en
D á»±a
Ġhy dro
ĠWhi te
ĠM Æ°a
âĢĻ ,
Ġl on
Äĳ ang
ĠQu al
ĠV CCI
Ġng áº«m
ĠM en
w ell
Ġe kip
L Ãłng
ĠTh uá»ĳc
as ter
Ġr eo
ĠCen ter
Ġng Ã³i
Ng Ã´
ĠEl on
ĠHo use
Ġph ai
ÄĲ á»Ļc
Ġtu Ã½p
Ġch Æ°
D Ãłn
ĠB Ãłu
K L
ĠD en
s p
Ġ196 2
Ġ Ã¡t
Zen eca
Chá» įn
Ġ app
ĠThÃ ¬
ĠLeb anon
ĠÄĲH QG
Ġtá» §y
e u
al em
ĠTel eg
ĠY u
B u
E V
ĠCr u
ĠBlu etooth
Ġgi un
ĠY oo
ĠD ep
ir us
ĠNghá» ģ
ĠTr iáº¿t
ĠDO JI
ĠZelen sky
ĠRom ania
ĠI van
áº¥ ng
Ġn ude
ĠFrancis co
B T
Kh áº£
Ġw on
Ġd áº«u
PL X
Äĳ á»ģ
Ġbá» ¥c
ĠTr Ã¹ng
ĠX Äĥng
Ġp lay
ĠN Ãłng
ĠBa h
ĠT L
ĠK ab
! "
Ġnh áº£
Ġl ive
Ġs elfie
Ġ12 7
ĠW an
al ty
Ġch áº¯t
Ġ @
ĠGen eva
ĠFerg uson
ÃĮ NH
Ġv Æ¡i
Ġk Ã¬nh
r ot
ah oo
d uc
Nh u
ĠY an
R áº¡ng
ĠhÃ ©c
Ġphá» Ľt
S p
b á»ı
Ġ is
eb er
Ġb áº¹p
ĠL ar
Ġgá»į t
Ġáº¢ NH
Ġ196 4
LV T
ĠVÄĲ QG
Ġ195 4
ĠG ot
ĠBL HS
ĠC ook
Ġcá»Ļ m
t áº¡m
ĠMin zy
f er
ĠMar vel
ĠEc uador
ĠT ÄĲ
Ġt Æ¡i
L iá»ĩu
ĠW ood
ĠP enn
ĠG iáº¿t
Ġx y
in c
ik i
ĠG áº·p
Äĳ iá»ģu
v Ãłng
ĠThÃ ´n
Re uters
ĠV F
ĠC áº¥m
B o
ĠSe ung
ap h
ĠB oy
ĠMon aco
Ġm á»ĭt
Ġnhá»Ŀ n
ĠNH TM
" :
Ġd á»Ļt
ĠT er
D áº¥u
L á»Ļ
ĠV ui
ien thuc
x x
y es
Ġqu e
w agen
ĠHar ris
c u
ĠOlymp ia
Ġtrá» Ĺi
ĠMat t
ĠCN LÄĲ
ĠCá» «
ĠCh áº£i
áº ®
ĠAz erbaijan
Bá» ı
ĠYo on
n o
Ġtr Ã¡
bo ard
Ġm áºŃn
ĠSV ÄĲ
ok e
Ġnho Ã¡ng
há» ĩ
ĠV á
I G
ĠVá »
ĠÄĲ á»įc
Ġs áº£
ĠCh ev
ad or
th ay
es e
ĠNh iÃªn
ĠhÃ ²ng
Ġs áº·c
S ai
ak er
re al
ĠVP Bank
L an
y c
ĠR em
KV ÄĲ
ĠAb b
B iáº¿n
ĠS á»¯a
T oy
ĠB Ã¹
Ġs Ã´
ĠÃĲ áº£ng
Ġth Ã¡n
ĠSer ies
Ġblo ck
ĠH PG
E l
Ġh áº¯t
H ano
S áº¯p
Ġ12 4
Ġd Äĥm
ĠMc C
ch áº¿t
ĠG R
Ġs hi
V Ãµ
x cÆ¡
ĠF er
Ġn u
c ert
Ġs pa
200 3
ĠL áºŃy
ĠK hÃ³a
ĠStam ford
ĠEm irates
ĠH il
Ġ3 30
ov ich
es a
Ġnh ÃŃch
ĠF ul
Kho áº£nh
ĠR au
ĠR et
ĠKh Ã¡n
V inh
g as
yl v
ĠE co
Thá» ¥y
ic t
Ġs áº£ng
ĠAstra Zeneca
ks wagen
M ong
Äĳ áº¿n
Ġr Æ°á»£t
ĠKh Ã¡c
ĠJ et
Ġng uyá»ģn
ĠR áº¡ng
ĠT áº§m
ĠPor oshenko
C á»Ńa
7 50
con om
Giadinh Net
ai i
S c
Ġb áº§y
ĠT áº¥m
ĠH áº¡ng
ĠNhá» Ľ
ĠThÃ ©p
Ġl iÃªm
ĠmÃª nh
au t
Ġf l
Äĳ á»Ļi
ĠKh uáº¥t
Ġth áº³m
ÄĲ á»ĵ
ĠH Q
H uyá»ģn
ĠIn c
ĠMart ial
ĠTr áº£
B áº§u
U D
q ui
ĠCÄĲ CS
cel and
200 1
Ġm Ã¨
BC K
w ich
Ġnháº¹ n
ĠCz ech
ĠF red
Ġlá» £p
ĠGi Ãłu
f orm
it i
id i
ĠD C
abe u
ĠM á»ĳi
if i
Ġxá»ī n
ch eon
Ġv áº·n
an th
Ġn em
Ġso lo
£ m
Nhá» Ľ
ĠChi c
ĠH or
ĠTr o
Hano inet
ĠP ed
k áº»
TV S
Ġsá» įc
Sing apore
Ġ13 8
ĠX oÃłi
d ong
ĠKH CN
Ġ áº£
um b
ĠQL DA
... ".
ĠRoll s
Ġngá»§ i
ĠL og
ĠD al
ĠBern abeu
ah u
Ġr oi
ĠT Æ¡
Ġh uyá»ĩt
Ġ196 3
ĠAgu ero
Ġc over
lo ud
ĠNh áº±m
k á»³
ĠT áº£
ĠD ev
Æ°á»£ m
ĠS Ã³ng
ch uyá»ĩn
ĠTrá» £
es us
ot s
ĠP ay
ro om
ĠA V
ĠRodrig uez
âĢ¦ âĢĿ,
Ġg Ãło
v Ã¬
Ġv est
ĠSh ang
Ġsá» ¥c
Ġc uá»ĳc
Ġl áº¡ng
Ġr iáº¿t
Ġp op
C Æ¡n
ĠAlg eria
ai s
V ua
ĠC ur
Toy ota
ĠÄĲá» £t
Ġn Ã¡ch
ĠH iÃªn
Ã² m
Ġm Ãºc
Ġr Ã´
ĠHol land
r or
Philipp ines
ĠS Ãª
ĠD á»ĩt
ua t
Ġxo Äĥn
Ġ á»ķi
ÄĲ Ã³ng
ĠTM ÄĲT
Ġmá» ĵng
it ar
X u
ĠhÃ ºc
Ġr Ã¬nh
ĠBus h
ĠÄĲ Ã¡p
ĠA B
ĠU á»ĳng
t hÃ´ng
ĠD ig
ear ch
ĠN á»ķi
ĠH ÄĲT
Mal aysia
ĠPh n
A m
c ia
ĠHo t
Ã į
ĠÄĲ KVÄĲ
ear l
ĠHa aland
ĠPhil ip
b áº±ng
Ġra p
ĠGard en
ĠQual comm
Ġch Æ°á»Ľc
ved ev
ĠCh Ãłm
K ienthuc
ĠB P
Ġng á»ķn
ĠF e
Ġ16 5
ĠKho Ã¡ng
ĠEr ic
Ġm etro
ĠGi rl
thá» §
Ġph Æ°á»£ng
ĠH H
ĠGi l
Ġr áºŃm
ĠLig ue
Ġo Ã¡n
Q P
ĠVI P
C ad
g irl
ĠF el
ĠKh Ã¡ng
ThÃ º
CA TP
ĠCen tral
ĠCh Ã¡y
Ġd áº¥n
n ar
C amp
ĠPC R
ĠMas an
K hÃ
V Æ°Æ¡ng
n Æ°á»Ľc
ĠM Ã¨o
Ġthá» ĩ
Ġtrai ler
ĠÃģ ng
Ġkh ay
ĠÄĲ TVN
Ġg á»ĵng
Ġr á»ĵ
SD ÄĲ
V H
Ġc áº±m
ĠPan ama
ĠM is
D R
ĠS ter
ĠM Ã¡t
ÄĲS PL
s il
B Ã¡n
Ġqu ai
Ġn ick
Ġch at
th er
IC A
ĠDo w
Ġv áº§y
b iáº¿n
ĠU V
Roy ce
D S
ĠHarv ard
om b
Ġbá»ĭ a
O R
c Ã²
ĠS áº¯p
ĠKhÃ ºc
ĠÄĲ áº«y
Ġh anh
Ġtr iá»ģn
ĠÃ Ĭ
ĠL ump
ĠK CB
un e
d iá»ħn
áºł I
ĠUn ivers
f o
Ġ13 4
ĠViet GAP
ĠD ol
m á»Ł
Ġl Ãºt
ĠM ass
Ġb l
Ġy en
ob s
ĠM áºŃt
ax i
ĠE un
uck er
Ġná» ī
W B
Lá» «a
Ġkho Ã©t
Ġo ff
U A
Ġ ex
ĠF ood
ĠF il
ĠO l
ie z
ut ter
Ġ36 5
ÃŃ a
Ġch áº¯p
Ġs tyle
B iá»ĥn
ĠHo SE
ĠNhá»± t
d Ã¢n
ĠG om
op y
Ġhack er
H uy
ĠAn n
ĠTh áºŃp
ĠP ap
Ġk n
ĠNg á»¥y
ĠC áº¡nh
8 50
ce ae
T inh
TB KTSG
ĠG PLX
ĠW ol
Ġ38 9
ĠcÃ¡ u
ĠGen er
ĠÄĲ á»ķng
ĠChrist ian
ĠH Æ°á»Łng
Ġnhu áº§n
ĠI C
ĠHan oi
ĠBor is
ĠM and
ĠTo wer
ĠhÃ£ nh
ĠD iá»ĩc
Ġtu á»Ļt
Le e
om o
A ng
ĠG Ãł
ar en
v ille
ÄĲ á»ĭnh
ĠTim or
© n
Ġbá»Ļ n
bo x
ĠP R
Ġch Ã¡t
Ġs Ã¡n
ĠN á»ģn
ĠAut o
Ġr Ã¹ng
D uy
ĠChic ago
ĠCA H
ĠBamb oo
Ġx Ãª
Ġs Ã¡o
cel otti
ĠN ational
ĠTh Ã¡m
ĠL amp
s y
ea ch
!! !
Ġ9 99
rol et
Ġm áº¥u
M a
Ġthá» Ľt
M D
gg er
l Ã´
S T
ĠP op
l oáº¡i
I t
Th áº§n
mar k
ĠL áº¡ch
Th uá»ĳc
ĠIn vest
Th Æ°
Ġl ink
Ġd r
ĠZ ika
ĠÄĳÃ£ ng
ĠLump ur
ĠG Ã¢y
P R
ĠB Ãª
ĠZ en
ster dam
Z ing
ĠG I
' ),
ĠMed vedev
il o
I ÃĬN
r at
Ġláº» o
ĠT ar
? ",
us alem
z h
ÄĲ iá»ĥn
? !
tin o
and owski
ĠEd ward
ĠR oss
aul t
R au
Ġn áº¡c
rid ae
ĠKu ala
ĠRa j
igh ton
ĠHam as
ĠG on
ĠI celand
c áº§u
ĠX á»©
ĠP ot
Ġy á»ĥ
Ġd áº³ng
ĠT Iáº¾
ĠHaw aii
app y
ĠT á»Ļi
ĠN ev
ĠB ob
qu Ãª
ĠBH TN
Th áº£o
Ġxo ang
ĠL ight
ĠVi k
Ġd ÃŃ
ĠF ashion
th iÃªn
BH XH
ĠBro wn
ĠhÃ ¹m
ĠD ragon
ĠC K
ĠG ame
ĠUP CoM
ĠIbrahim ovic
as il
ĠTim e
ĠAn t
C áº£i
Giá» ¯
ĠO h
T imes
N á»ķi
ĠThá» Ń
TT T
V FF
Ġth uyÃªn
Tr uy
4 50
ĠGab ri
any ahu
ine z
Ġd ong
ĠM ap
Äĳá» ©ng
ent al
Ġd el
F acebook
Ġ12 9
Ãª ng
Ġ as
A s
Ġbá»ĭ ch
ĠBal tic
v Æ°á»£t
Ġnh á»ĳi
Ġr Æ¡
Ġs áº§m
Ġ22 5
ĠG am
Ġch áº§n
Ġc l
b áº¡n
Ġf ile
ul t
li x
N a
vi ew
ĠhÃ ¢n
ĠM ega
az z
Ġtá» Ľ
ĠWe ek
ĠM XH
t om
lá» Ľp
ĠR over
ĠLá» Ľp
b all
ĠThu áºŃt
od a
C TCP
Ġ? ?
ÄĲá» Ĺ
ÄĲ Ãło
ly n
z z
Ġh at
em y
ĠHo us
ĠÄĲ áº¥y
giá» ¯a
l ist
ĠL ink
Ġv áº¿
3 20
ĠO ff
ĠI U
ĠVi os
ĠL um
enn a
Ġy ou
ĠP hÃŃ
Ġ14 4
Ġth áº·ng
ĠPN J
B inh
ĠCh e
c hÃŃnh
Æ°á»Ľ n
Ġch ao
b á»ĩnh
Ġph Ã¡ch
Ġm g
man uel
ĠThu áº§n
tr ick
m on
ĠL ab
ĠL ive
ĠJer usalem
Ġtr u
eg as
ĠEx c
K á»¹
U NG
ĠLe g
ĠL ind
ucker berg
Ġg ames
T ang
ĠF uk
Ġg o
Ġs Ãł
Æ¯á» ľ
Ġm uá»ĳng
ĠC á»ĵn
c áº£
c p
ĠNet anyahu
te ur
us ta
ĠCarl os
Ġd ay
ĠH áº¡n
lo g
ĠTech n
er i
ĠPers ie
q uá»ĳc
b ack
ĠE ti
ĠRoy al
ĠMas ter
Tr Ã¬nh
ĠBV ÄĲK
ĠG ad
ĠV el
ht ml
Ġm Æ°á»Ľt
? .
Ġrá» £n
Ġnh Ãºng
M áº¥t
ĠM SN
ĠPh one
r Ãºt
ĠVietnam net
Ġt anh
ĠAj ax
ĠIns ider
G V
Ġs Ã¡
ĠChá» įn
ĠthÃ³ c
Ġgi Äĥng
b ass
Ġx Ã¹
ĠT GÄĲ
ĠK enn
AS EAN
Kh Ã¡n
ĠK it
Ġm ui
D Æ°
ĠCA P
Ġnh áº¥p
ĠB C
Ġs á»Ļ
B YT
NS ND
ĠSp ace
ab le
id o
est a
Ġchá» ķi
p lus
ĠH av
ĠN CT
Äĳ Ã¡
b ul
Ġng Ãºt
ĠT Ãºc
th Æ°á»Ŀng
ĠB h
Ġc áº·n
V ai
Tr á»Ŀi
ĠbÃ¨ n
ĠChá» ©c
Ex press
f or
P H
NS Æ¯T
Ġt Ã¬
ĠThÃ ´i
Ġt áº¥c
áº¦ N
Ġx Ã²e
Ġnh Ä©
b ang
al ines
I B
ĠE C
ĠFernand es
ri que
ĠT ony
Cad n
D áº«n
ĠOs aka
Ġg l
Ph Ã¡o
ĠdÃ¬ u
ĠMoham ed
B á»¯a
ĠEx press
Ġ áº
ĠC ard
HN MO
TA ND
ĠGold en
g l
ĠBV TV
ĠE ar
c Å©ng
Ġn oi
ei ra
w i
n Æ¡i
ĠR onald
ĠL LVT
c hÃ¢n
Ġ13 6
ĠtÃŃ t
GD P
Ġtr Ã³c
as a
ĠBS T
ĠB ai
g t
D ÄĲ
ĠH uyáº¿t
E E
ĠMar io
Ġ >
Ġphá» ĵn
ĠNg á»±
iez mann
ĠN oo
Phá» ĳ
Ġn áº¥c
ĠTh iá»ģn
ĠM á»ı
Ġng a
ĠY ing
D iá»ĩn
ĠB Æ°á»Łi
Ch Ã¡y
gi ao
ĠM á
ĠC it
ĠMá »
ĠHD Bank
Ġv Å©ng
ĠÄĳ ong
ĠÄĲ ak
ĠÄĲ Ã¡n
IV E
o ol
ĠF ri
). -
áº« ng
ho use
Chá» ĳt
Ġpen alty
ĠH Ã¡t
G M
T IN
b ar
Ġx ui
PL O
ĠH ir
ur ne
Ġl Ã©p
ĠZ uckerberg
t iáº¿p
T R
Chá» ĳng
Ġ el
t á»·
ye ong
C ung
ĠJ ay
ĠChan el
ir i
ĠCS HS
ĠAm sterdam
ĠAn celotti
ch ip
t ai
ĠCh iÃªm
ph áº§n
w are
Ġv Ã£i
âĢ¦ ).
l t
ĠB ell
HÄĲ ND
ĠB aghd
ash in
ÄĲ áº·t
tr ung
Ġ13 3
ĠS ab
Ġc omp
ĠT uyá»ĩt
ĠPes kov
ĠG olf
ĠEm manuel
Ġl Æ°Æ¡n
ĠK as
Äĳ a
Ġ ;
T áº¥m
ĠF BNV
Ġ14 6
Ġder by
ĠIP O
r áºŃp
ĠA TVS
ĠH igh
ĠC TV
ĠB á»Ļi
b om
ĠkÃ¨ n
ĠBe au
l en
ĠPas teur
k ei
ĠT áº¡ng
Ġb Ã¡i
V Æ°á»Ŀn
ĠhÃ² m
L Ã¡
n Ã³i
Ġh Å©
Ġbá»ī m
ĠSec ret
ĠGiá» ¯
ĠMod ern
ĠW ill
ĠJo on
ĠAngel ina
ĠGal a
ĠSte ven
Ġh an
ĠMart inez
há»ģ nh
b ay
ĠVol kswagen
Ġsá» ī
Ġp iano
ĠL Ã´i
L áº¡i
ĠS ea
ĠLa w
ui re
ĠNguy en
ĠNic olas
v Ãło
ĠHuy nh
ĠWe ibo
en se
ĠSlov akia
ĠÄĲ Ãª
Ġt eam
ed y
ĠL áº¡nh
xcÆ¡ va
S er
M art
ĠK N
ÄĲá» Ŀi
ĠP ier
ĠVAM C
L G
k en
Ġg Äĥm
ĠM ol
ĠKel ly
Ġm o
ĠN iá»ģm
ĠCam eron
ĠMi ami
Ġqu Äĥng
Ġb Ã¹i
is ia
Ġb áº¥p
C Ãłng
ĠH TV
ĠGar eth
D áº§u
am ex
in son
on et
ĠNG UYá»ĦN
han i
ÄĲ Ã³n
L áºŃp
ag an
n at
am ond
u li
Ġh áº±n
ĠTr Ã¡nh
Ġm ake
CM P
f lix
Ġn it
ĠVit amin
Ġv áº£y
D áº«u
ĠP itt
ĠTor res
w ork
j ect
Ġf ol
ĠMich el
Ġ13 9
th Æ°Æ¡ng
el d
PC R
ĠV AR
Lo áº¡t
Ġk it
ĠGeor gia
Ġs Ã³i
c Äĥn
Ġnhá»Ľ t
ĠR S
ĠL otte
Ġo anh
ĠB Ã©o
Ġngá» £p
id ol
Ġb iáº¿ng
ĠN A
W orld
ĠM ak
al le
ĠCh at
ĠÄĲ áº·t
ĠBah rain
Ch Ãło
Ġc Æ°á»¡i
r ome
Ġ15 2
ĠIs land
ylv ania
ĠBi eber
ĠÄĲ Ã¨o
Ġl áº«m
Ġ13 1
Ġ196 1
ĠD Æ°á»Ŀng
âĢ¦ ;
ĠL Å©y
B ra
ho a
ĠVinh omes
th áº¿
ĠO man
ĠH ealth
ĠB B
H oÃłi
¬ a
Ġr Ã´n
Ġ195 8
ĠJose ph
ĠTo wn
h áº¡
w ar
d au
Ġs áº¡p
Ġh áº¥n
at in
m un
Ġg áº¯p
ĠRaf ael
ĠB urn
ĠH im
ĠG H
b ol
ĠkÃ© n
ĠVirgin ia
Phá» ĳi
Ġnet izen
ĠGom ez
p ol
ĠT e
Ġsá» §a
c Ã¡
d es
ĠH um
S Æ°
ĠE TF
A ustralia
ĠGeo met
ĠB ec
C áºŃp
opter a
Ġ8 50
ĠZh ang
Ġgiá» Ł
ĠKh an
ĠO ut
C uá»ĳn
Ġc oll
ĠY eon
ĠA BC
ĠVN A
c al
N Ãłng
ĠPhn om
ĠSteph en
H A
Th áº¯ng
ª u
ĠF utsal
ĠNgh Ä©
Ġt áº±m
Ġs Ã²
ĠRob erto
as aki
l ic
ĠchÃ ²m
ĠEd ition
Ġm ag
in ch
ĠKen ya
ĠUB MTTQ
Ġc áº³ng
r ia
Ġph ot
ai ne
iv a
Ġgá» ī
ĠAn na
th anh
N á»ģn
Į C
ĠPe nh
ut e
ĠTr áº§m
Ġ195 9
ĠS ap
t ay
ĠC le
c er
ĠT ab
Ġ13 7
t inh
ĠCas tro
ĠL Æ°á»Ľi
ng er
ĠF ut
ĠL iu
ĠGeomet ridae
Ġd Ã£i
Ġchá» Ľ
qu Ã¡
us sia
S áº¯c
ĠTr á»ĵng
ĠK ore
ĠCam ry
ĠT Ãły
up e
all ad
t Ã´ng
Ġs il
t ÃŃn
ap an
Ġk iá»ĥng
ĠMur ray
Thá» ıa
Ġn Ã¡m
ĠBr ook
ÃĢ NG
C áº¥p
Ġtráº» o
Ġb y
ĠLew andowski
Ġr Ã¢m
Ng áº¯m
ĠM ao
ĠI v
CT news
Ġtr áº§u
ĠH áº¯n
es tr
A d
Giá» įng
Ġtr Ãłm
P od
Ġch áº¥u
Ġcon cept
ĠkhÃ ¢m
Ġ15 6
Ġ18 5
Q uyá»ģn
IM F
phÃ ²ng
M y
Ġ16 7
ĠS anh
ĠCon s
6 50
ĠK ey
ĠSl am
ĠIn cheon
A Bank
ĠT i
ÄĲ áº£m
ĠRang er
ĠT ed
Ġphá»ĳ t
Ġ3 70
ĠI T
qu áº£
ĠChar lie
Ġtr uáº¥t
ĠNh áº¡
ĠTT ATGT
Th Æ°a
B erry
x em
ĠCh iá»ģng
ine a
ĠC áº¥n
c á»©
ĠÄĳÃ´ la
Tr áº¡m
ÄĲ au
D av
ĠJ ess
há» £p
tr Æ°á»Ŀng
Ġ Æ°
ĠL Ãłnh
v ua
r it
T hÃ¢n
ĠAlex and
Ġs áº£i
ĠT G
ui z
ĠBr and
ew s
ĠMeg han
C áº©m
ĠR ain
ĠS XH
P r
ĠNV CC
ĠGi an
Ġgen e
ĠCo ut
ĠSim on
Ġph áº¥t
Ġd áº«m
ĠD T
Ġc Äĥm
ĠK ard
r ent
G oogle
hÃ³ i
U n
Ġkhuy nh
TT M
ĠD áº£i
Ġhy brid
ĠK aw
k áº¿t
Ġnhá» īnh
ik o
Ph a
f Ã©
ch et
Ġ19 00
ĠQu een
B D
ĠV EC
Ġnh Ã²a
ĠLu Ã´ng
ĠRom e
Ġkn ock
TT H
Ġtá»Ļ t
Ġn Ã´i
re en
ĠF ull
G al
Thá» Ń
ĠÄĲT DÄĲ
Ġx uyáº¿n
S port
or th
ĠL Ã¡t
ĠSh er
Ġdá» ım
ĠCarol ina
ĠNov os
ĠJack pot
ĠSt and
ĠK iá»ĥu
ou gh
ĠÄĳá» Ĺi
st em
Ġt en
ĠLamp ard
ĠPh ar
Ġg Æ°á»£ng
ĠSn ow
H AGL
ĠM Ã¡c
S L
ob e
um i
ĠKh al
ĠG ood
ĠGr iezmann
Lá» Ľp
ĠLo ck
L Ãªn
ĠCol or
ĠGi áº½
ĠP A
P lus
ĠTá» ī
L IVE
N C
C Äĥng
f ia
ĠTh Æ°a
Ġdu á»ĩ
Ġ14 2
nh Ã³m
ĠB iáº¿n
Ġl iÃªu
s ylvania
ĠKab ul
ĠR un
Ġvá»¥ ng
uch el
1 40
ĠLop ez
L T
Ġká»ģ nh
j amin
ĠMir ror
ĠH T
c Æ°á»Ŀi
ĠBr om
ĠUl tra
Ġx Ã³c
Ġs p
s áº£n
ĠÄĲ Ã¡m
ĠN ord
ing er
ĠSen kaku
qu ang
Ġblo g
Ġ áº¯p
Ġgames how
ĠT KV
ĠA BS
ĠC ong
us se
ĠNN PTNT
ĠB CÄĲ
C Ã¡nh
G Ã¢y
ĠM á»Ļng
ĠY am
ĠAl b
Ġca s
Ġngo Ã£n
Ã Ļ
ĠT ao
ÄĲ Ã¬nh
ĠH áº¿t
ow ell
ĠEti had
n ia
Ġtá» £n
Ġv áº§n
O n
B M
ill s
al s
» Ķ
ĠBos ton
Ġho m
ĠT á»įa
ĠQÄĲ ND
stan bul
ĠK itco
ĠSter ling
ĠBal i
ĠL is
end y
c idae
M Ã£
t im
id el
ĠW olf
á »Ķ
ĠL NG
C EO
H áº¡t
ĠP ri
ĠJo han
Tr Ã²
Ġnh Ã´
ĠSc ar
ĠC iv
ch im
ĠR on
th oid
ĠKh iáº¿t
Ä ±
ĠC CH
ra k
ut a
Ġc áº±n
Ġnhu á»ĩ
G á»Ńi
ĠGi Ã¡c
V KS
ua tin
c ord
t ing
Ġcoll agen
ĠS ad
ĠCr oss
en o
H ar
1 10
ĠS or
oid uatin
ĠC lip
M Ã¡i
12 5
ank a
... "
Ġ7 20
ph iÃªn
Cl ass
Ġng áº©n
Ġtr áº§y
Ġnh Å©
ul ia
thoid ai
s ao
Ng á»ĵi
Ġ Ð
ĠTN XP
b ook
ĠTr ip
ĠV es
CS GT
ĠL Ã£i
st ock
G Æ°Æ¡ng
han ol
ĠB aby
Ġhá» Ŀ
ĠTh ung
Ġ ad
Ġv áº¡t
ĠTh er
Ġvá»¥ t
ĠCN CH
ich i
Ġá» ī
ĠXV I
Äĳ oÃłn
Ġ14 3
ch Æ¡i
ĠchÃ ´m
ĠAr ena
Ġm Æ°á»Ľp
ĠChev rolet
ĠS Ã¹ng
ĠPenn sylvania
ĠAn field
Ġáº¤ t
brid ge
ĠMos ul
ĠLá» ©c
ĠIS O
o f
b it
k ins
ĠGi áº£
ĠDe f
ĠDon bass
ĠD K
Ġbl ue
ĠSha w
s Ã¡ng
ĠG CN
âĢ¦ âĢ¦
Ġb oy
ri ch
ĠBr uy
Ġ98 1
Ġcá»Ń u
ĠP L
ĠMoham med
ĠDo ji
ĠR Ãło
ĠthÃ ©t
X ung
ĠR ol
la zer
at s
ĠN u
Ġp oly
Ġng Ã¹ng
ĠAb ram
ĠÄĲ áº¡m
B O
âĢ ĺ
ĠLad y
au s
h r
Ġmá» Ľ
ers burg
Ġvá»ĩ t
Ġn áº¯n
ĠV Ãłm
K Ã½
ut hi
ĠcÃ ²ng
ĠXp eria
Ġ25 6
HÄĲ XX
Ġ7 37
S u
thoidai plus
Ãģ nh
ĠT CN
200 2
ĠKhá» ķng
ĠCar ib
el lo
ĠN oc
ĠSC IC
ÄĲ Ãłm
ĠHolland e
Ġ16 8
ĠD á»±a
ĠJ oo
ĠSa f
Ġl Ã¹n
c am
ĠMo yes
ĠH ass
han a
F an
Ġlog ic
I F
ĠphÃ ¨n
ĠVin alines
ĠFran co
Ġv ali
ĠK P
ĠNet flix
Ġm Ä©
ĠP el
Is rael
end er
low een
ik h
ĠTh uyáº¿t
ĠDe ir
ĠMag uire
Ġb Ã³i
ĠGi o
ĠHo tel
ĠI stanbul
ĠR C
ĠRes earch
ĠCN BC
Ġs áº£y
ĠTr á»Ł
lu ck
iz LIVE
ĠMad uro
Ġc áº¡p
S O
ĠHu go
J u
P ost
ĠKid s
th am
ĠPer ez
T Æ°á»Ľng
Ġh Æ°Æ¡u
ĠÄĲ K
Ġ Ã³i
ĠT áº§ng
» ī
Ġmá» įng
Ġtrá»£ n
ĠVI B
ĠhÃ º
ĠThÃ ¢m
ĠBr ighton
ch uyÃªn
ĠBruy ne
ĠB ook
ĠÄĲ áº¡
u oiduatin
Ġm Ãło
ĠMat a
ĠP CTN
Ġs i
á »ī
ĠN ight
ĠÃĶ n
tr i
ĠÄĲ áº¹p
ĠXI X
ĠR IA
Ġkáº» o
Kho a
ĠÄĳá»Ļ n
Ġvá» ¯a
ĠWar s
Ġ3 40
Ġt e
Ġ3 80
ĠX ung
ĠB á»ķ
Ġr Ãª
ĠF r
Ġm Ah
L D
kh ai
ĠSw an
ĠTr avel
Ġ Ã¬
ĠlÃ¬ a
Ċ Ġ
Ġc Ãłn
Ġ idol
Ġqu ÃŃ
Ġd áº»
ĠGabri el
ĠBaghd ad
nam e
ĠCav ani
ĠGe un
ĠK er
H Ã³a
t Ãłi
A g
Ġk V
ĠPC TT
ĠMark eting
ĠNik kei
ed s
ĠX L
S a
ĠSh ark
ĠArt eta
tr y
L Ã¢u
Ġhá» ¥i
os ite
N á»Ĺ
Ġst atus
t Ã¢m
est ay
ĠVin com
ad ing
Ġl im
ĠVinac onex
ĠMor gan
ĠY as
EU T
ro ud
Ġ19 30
ĠC áº©n
ĠBen jamin
2 40
ĠN á»Ĺi
A NG
ĠG as
Ġph iá»ĩn
Ġl uyáº¿n
yl on
ĠI R
j in
ĠP i
ĠPT NT
± a
X S
B á»ķ
Ġt Ã©p
un er
ĠH uyÃªn
Nh áº¥n
ĠFran ce
Qu áº§n
H P
ĠChá» ©
c ap
Ġng uÃ´i
ar ab
et ta
ĠX á»ķ
ĠCar ter
ĠR ica
Ġta b
ĠCam era
ec tor
S Ã¡ch
ĠTeleg raph
Ġhá»ķ i
ĠBá» īnh
ĠBlo ck
q a
ĠN áº±m
H áº¿t
chá» ĵng
D T
CS XH
ĠE X
w ait
Hu á»³nh
Ġ14 7
ĠS ay
rot imes
ĠTr Ã¡c
ĠUB TÆ¯
.... ....
c l
ĠE PA
Nh an
ĠMa ch
ĠK um
ĠRodrig o
l ong
Ġ16 2
nh iá»ĩm
EUT ERS
v is
Ġ14 8
ĠphÃ ¬nh
ng Ã´i
Ġt eo
y ong
L and
ĠGr am
Há» ıi
ĠMod i
Ġr Ã¬a
ĠKh Ã¡i
Ġs á»¯ng
ĠM á»Ļ
ia s
ĠNg oan
Ġgá» Ŀm
ĠCu Ã´ng
ĠKh áº©u
ĠPhilipp e
Iá» Ĥ
... ).
at ti
ĠMal i
Ġin s
ĠT em
Camp uchia
P K
x a
ĠT Ã¡i
ĠKh Ã¡
ĠS ak
ĠAmer ican
Ġs ho
ĠDi amond
ĠM Ã¹
ĠR á»«ng
ĠMin sk
ĠB á»Ļt
ĠAr sen
at ri
Ġ195 6
ĠL ing
x anh
ĠAnd y
H Æ°ng
Ġm áº©u
ĠWay ne
Ġit em
áº¾ T
Ġ15 3
ĠL il
ien ce
ĠMan uel
Ġl Ãµm
to ur
Ġng á»ĳc
Ġb áºŃy
viet nam
Ġ17 4
Nghá» ģ
T Ã³c
ng oÃłi
ĠTA SS
ĠB ad
ĠV egas
Th áº¥t
Ġbá»ģ nh
Ġtrá» įc
ĠM á»ħ
pr om
B L
ĠlÃŃ u
ĠInf onet
ĠHÄĲT V
ĠP re
ol la
5 50
ĠV Æ°á»£t
ĠLy on
ad ona
Ġb áº§n
th an
ĠMar cel
urg en
V ND
Ġch uá»ĵn
Ĵ NG
r Ã´
ĠTh uyá»ģn
ĠN Ã´
op ia
s Ã¢n
Ġo ut
ĠT itan
d anh
ĠÄĲ Ã©c
ĠYing luck
Ġ15 8
n el
R ob
M os
ĠY ahoo
ĠT uchel
ĠL áº¯c
do anh
Ġ29 0
Ġm Ã¡ch
ĠCer am
ĠNoc tu
H áº¡nh
ĠGu inea
ĠY oshi
Ngh Ä©a
ĠTH X
Ġbá» £
ĠBec amex
ĠNoctu idae
ĠCo un
ph ong
18 0
ĠÄĲ au
Ġcho Ãłng
ÄĲ Äĥng
ĠT áº¯c
ĠO LED
au x
ĠB un
Ġrock et
ĠKard ashi
tr ang
ĠS ib
TH PT
Ġgu itar
ĠvÃ© n
H uáº¥n
Ġbá» Ŀi
G Ã³p
ĠAl bum
ĠLÄĲLÄĲ VN
B Ã£i
Ġnh Ã¡c
T Æ°á»Łng
ĠLá» Ĺ
ĠU BCK
ri o
ĠW ave
u th
Ġs tream
ĠT áº¡m
ĠChrist oph
y ad
ĠThá» īnh
s son
j k
z en
Ġnh áº½
M iss
ĠH ad
Ġc ard
Dav id
ĠB uk
Ġ16 3
Ġnh am
S á»¯a
Ġnh á»į
L ao
HN X
Ġhá» ħ
Ġx á»ĭn
n d
ĠB ud
1 000
Jo hn
ĠS TB
bo urne
m Ã¡y
ĠPhá»ķ i
ĠK BNN
ĠNhá»± a
om et
Ġ enz
th ong
LÄĲ LÄĲ
Ġw ith
Ġca st
b oy
Ġh áº«ng
Ġt al
M Ã´i
Kho áº£n
ĠF ire
ĠHá» ıi
T iÃªm
ĠHal loween
ļ I
ry s
Ġshi pper
ĠW TI
ĠSant os
Ġng á»Ńi
Ġthá»ı m
al an
ĠbÃ¹ a
ĠCCH C
V CCI
p ing
Ġ15 7
kh Ã¡ch
ĠTh Ã¡o
ĠcÃµ ng
Ġs Ã¹i
Ġsu Ã´ng
ĠD áº¥u
Ġ at
ha w
ĠZ o
f urt
ĠPau lo
Ġqu áºŃy
t Æ¡
ĠNg á»Ļ
ĠLum ia
Ġcá»© a
Ġnh Ã¡y
Ġma z
ĠGP S
Ġ or
m as
ĠHar t
d g
Ġ4 20
Ġng áº¡o
L Ã£i
ĠGR DP
g mail
Ġváº¯c xin
D r
ĠB est
V Ã¢n
ĠEx p
ĠLu k
au d
Ġmá» īa
ĠÄĳÃ ¹m
ĠB G
ĠR ah
P ro
ĠB et
ĠM anh
t iá»ĥu
Ġ195 7
Ġn Ãł
eo l
ie u
Ġbu á»ĵm
ĠÄĲ á»ĭch
ĠC ab
Ġchá» Ļi
Ġc hÃ´ng
ĠHS BC
QÄĲ ND
ia t
ĠTun isia
Kh áº£o
ĠD á»¯
Há»į a
Ġhá» Łi
M ic
T hÃŃch
io us
Ġr Ã´ng
M iá»ģn
s ang
ĠW om
ĠL P
T om
____ ____
D onald
ĠB ez
Ġn áº»o
e et
Ġm eg
0 50
ĠGH PG
ĠD ae
ĠD á»«a
Ġm Æ°á»Ľn
ĠNovos ti
ĠVina Phone
ĠN ak
ĠBlack Berry
ĠC L
Ġ oi
ĠPed ro
ĠKCN A
H áº±ng
ĠL td
ĠCT G
EL TS
Ġg r
Ch áº¡y
Äĳ áº¡o
b Ã£o
Ġvá» «ng
iz e
ĠtÃº m
ĠVn Express
ĠVik tor
Ġhá» Ŀn
ĠI mp
ħ u
t á»ĳ
D e
Ġ19 46
ĠTr uyá»ĩn
T áº¡p
e im
l áº¥y
ĠÄĲ Ã³ng
C Æ°á»Ľp
... ;
ĠT erry
ĠMan ag
Ġ9 11
ĠL CD
Ġngá» Ľt
uk a
ĠPhil lip
ĠLy n
T Ã¹y
' ?
ĠhÃ£ n
Ġb itcoin
ĠhÃ ©o
Ġch an
ĠJ esus
ĠHá» ·
ĠF ur
Ġ áº£i
ĠModern a
ub er
ĠS Ãłn
ani um
Ġtu á»ĵng
Ġthá» ıi
g iáº¿t
tr ol
CA O
ar on
o us
ot elli
Ġ Æł
ĠMod ric
« m
Ġgá» Ľm
F DI
ĠH end
Ġgi áº§y
Ġhá» Ŀi
em b
n á»ķi
Ġx á»ĩ
Ġb uá»ĳt
oc co
ĠC áº¡p
da fi
Iá» Ģ
Ġm l
c áºŃu
l ai
x Ã¢y
Ġ op
Ġ4 80
Ġ â
ĠC opa
ĠM Ã¢u
ĠT ele
Ġtá» µ
ĠLuc as
ear s
ĠKardashi an
» Ĩ
ĠCo ca
B Ã¹i
ng uá»ĵn
S oi
á »Ĩ
Bar ca
op ol
ar s
qu Ã¡i
v ir
ĠK TS
Ġbá» ¡
ÄĲB QH
m es
C X
ĠL eo
ĠM Ã¡i
Ġk iá»ĩu
d Æ°á»Ľi
ĠTr Ã¡ng
ĠInn ova
Ġcon cert
ĠV id
Ġn áº·n
ĠKiatis ak
ĠRo ad
ng uy
ĠPV F
lo ck
ĠH on
S Ã´ng
Ġáº¤ y
b á»ĳ
ph áº£n
anc ial
ĠJ r
Viet tel
hi r
ĠP ixel
Ã³ e
Ġv Ã£ng
CL OS
ess a
Ġro om
ĠC oo
ĠNH M
H áº¡n
ĺ I
eng ers
i esta
ty list
Â »
C Æ°
ĠMar ie
ĠK or
ho i
ĠFort uner
ia ceae
eg al
ĠK ro
ĠR ose
ĠMac Book
da q
ĠV oi
ĠS tream
ard y
we et
Ġá»Ĳ c
ĠR ou
ĠE thi
ĠP ul
ros s
Ġh Äĥm
Tr á»¥
V Ã´
Ġt áºŃu
W eb
ĠEn rique
BGD ÄĲT
nh Æ°ng
c áº¥p
hi o
ot ball
h ol
ĠH C
ĠCh anh
ĠC ast
aw i
ĠJ obs
Ġchá» «
b en
Ġr ub
s Äĥn
d d
ĠG ol
M er
Bra zil
Ġn ao
ĠTay y
ĠKu wait
ĠS uy
ĠCo ur
Äĳá»ģ u
Ch Äĥm
ei ro
uss ier
ĠH Ã£n
v iá»ĩc
" ),
ĠhÃ¨ n
ĠNg Ãłn
Ġ17 1
ĠS us
Ġ15 4
ĠI ELTS
NT M
ĠTh uáº¥n
ĠhÃ ª
Ġv áº±n
Ġ9 50
ĠL or
r Ã´ng
T á»ĳt
ĠTV B
ĠK yr
ĠDom in
ĠCeram by
n Ã©m
ĠK op
ĠCam bridge
ĠCeramby cidae
» £i
á »£i
ĠCh Æ¡n
Ġ14 9
ĠSt ock
ĠCatal an
Ġ15 1
v et
t áºŃp
ĠAlex is
og ue
ĠK un
x Ãª
ĠNh an
ĠC ad
t Ã¡c
Ġr Æ°á»Ŀm
as ka
R EA
ĠPat rick
ĠD er
áºµ m
ĠPh áº«u
h oÃłn
CO M
ĠTro ussier
c Æ°á»Ľp
Ġl Ãªnh
z ig
Ġt Ã£
ĠÄĲH ÄĲ
ĠS K
M G
ut t
Ġl áº±n
Ġbá» §a
Äĳá» £t
ĠBol ero
ow n
th áº£
ĠNh iáº¿p
Æ¡ ng
Ġtiáº¿ u
ĠPet ersburg
UA E
Ġn Ã¡u
ĠPh o
ĠÄĲ á»ĵi
Ġm iáº¿n
Ġr Ãłnh
Ġph Æ°á»£t
ĠJu ve
ĠOx ford
Tr á»Ļm
ĠL Ã²ng
re e
Ġb on
ĠSan cho
Ġtr end
ĠH ab
m ir
ĠS at
Ġn om
iv ia
ĠkhÃŃ t
ĠG Ã¡i
Lu Ã´n
l á»Ļt
e ed
ĠD á»¥c
ĠMon t
ch Ã¡y
ĠH at
âĢĿ. /.
ĠAl pha
l Äĥng
ĠB á»¯a
Ġ áº¯c
ĠWhi t
ck er
ĠC Æ¡n
el y
utter stock
Ġn ano
Ġlá» µ
Ġr Ãºng
ĠTayy ip
ID EO
Ġfan s
ĠGi roud
ir ect
T ech
Ġ19 55
ĠQu Ãª
L áº¡m
f ood
ug h
ĠSerg ey
Ġsá» ĩt
ch ung
Ļ ng
ac tor
ĠP ra
Ġ amin
ĠR ud
ĠMich igan
Ġh un
ĠK em
IC E
ĠHass an
ĠÄĲH CÄĲ
I CTnews
ĠR an
ĠH ae
Äĳ Ãłn
ĠKho Ã¡i
ĠPort o
ĠExc iter
Gi áº£
nh áº¥t
ĠA ki
ÃĢ N
ĠR EUTERS
K iá»ĥu
ĠB O
ĠUB TVQH
R T
ĠHo uthi
ĠAr m
ĠSa h
ĠLu Ã´n
iz za
bo urg
ĠCol um
B áº¡ch
Ġcá»ĳ m
ĠA qu
ĠChi m
ez bol
R P
ĠD un
Ġng Ã³t
L HQ
Ġ17 6
m ond
ĠH áº¡c
M áº¡ng
l ia
ĠGad dafi
v á»ĳn
iv o
lo yd
ĠB á»į
Ġsáº «m
Ġth iáº¿p
ĠH anh
Ġcas ino
A sia
ĠSec ur
ĠX D
A ir
ĠT oshi
ĠP owell
ĠH Ã´n
J et
ĠStand ard
C I
ĠAD B
uy a
ĠHous ton
2 30
IN K
ĠÄĲ ÃŃnh
... âĢĿ
ĠG all
Bl ack
ĠT áº£o
ĠCai ro
ĠTr Ã²
k av
ad y
v Å©
19 99
G A
D á»¯
ĠÄĳÃ ¹ng
ond er
at ions
ce p
ezbol lah
ĠCh iáº¿t
ĠNas daq
ĠCar r
Gal axy
ĠCh Ãł
G Ã³i
Ġs Ãłm
s et
S te
] ]
ĠD á»ĭp
il li
ĠÄĲV TN
v al
v á»«a
Ġ *
lá» £i
it hi
ĠM áº¥t
Ġg á»Łi
Ġká» ģn
ĠG ai
ĠFrank furt
T Ã¡o
ÄĤ N
á»¥ i
on so
Ġchá» ĵn
" ).
Ġnh Ãµm
ĠJohn ny
ton ia
ĠV L
ĠS áº£ng
ĠTo uch
ĠtÃŃ a
ĠÃ´ xy
c á»ĳ
ĠR M
Ġs Ãłi
ĠK DC
s ay
c á»Ńa
Å į
ng oáº¡i
ĠBá» ı
ÄĲ áº£o
ĠTh aco
ĠJ urgen
in am
ph ia
Ġm ÃŃch
ĠMar adona
ĠG aga
ĠC ore
3 60
ĠHit ler
ant s
d ep
ĠN AM
ĠB á»ĵn
h yd
ĠCiv ic
T áº·ng
S Ã³c
ĠJav a
Ġxu Ã½t
x uáº¥t
ĠKh ung
D V
Ġnh Ã¡
th iáº¿u
B e
C om
S Ãłi
ĠSch ool
s er
ĠS á»©
op hi
ĠV ision
ar u
GB T
av er
cá»© u
Ġng áº§u
19 98
ĠR O
Ġp oster
o T
Ġso Ã¡i
Ġsá»Ń ng
2 20
ĠTAND TC
ÃĤ m
ĠRog er
ĠVÃĢ O
ĠBar b
ev el
ĠB ak
ian e
won do
Ġom ega
D Ä©
g ate
ĠJess ica
v Äĥn
ris e
ĠJ apan
Can ada
Ġp l
Ġ3 10
R S
Ġmaz ut
Ġhu á»³nh
ĠE conom
Ġ16 1
ĠEver est
T áºŃn
Ġ au
ĠT iger
Ġ áº¯t
ĠPh áº£n
ĠM iÃªn
ÄĲ Ã´
ĠO hio
Gi Ãºp
Ġv áº¯n
ĠSp r
Ġ195 3
Ġh e
ÄĲá» ģn
19 95
ĠF idel
am an
Tr Ã¡nh
Ġná» ĩ
ĠKenn edy
h áº¡ng
uk e
ĠB each
um in
t Ã´i
ĠMel bourne
Ġyá»ĥ m
g n
IC O
ĠMich elle
ĠXH CN
ÃĤ Y
att an
Ġsh ort
Ġ15 9
ap ixel
Ġ17 8
on line
tr áºŃn
m at
ĠLim ited
ĠTh Ã¡c
Äĳ á»ķ
ĠBez os
ĠMot ors
Ġ hÃŃch
Ġdá»¥ m
T ÃŃn
ĠN an
Ġr Ã¬
ĠB iá»ĩt
m á»¥c
ĠK KT
ĠD iana
ĠHá»į a
l eo
ĠElec tron
chÃ ºng
Ġl á»ĳ
Ġsáº ©
ĠW u
F ran
n áº±m
Cá»© u
ĠS CMP
Ġhot girl
G u
B B
K Ãªnh
anc y
ĠUS A
Ġ Æ¯
Ġb Ãłnh
ĠCr uz
Ġmá» Ńa
c áº¯t
Ġv Ãºt
ĠVill ar
T a
en ia
ĠLen ovo
ĠL ag
ri p
under land
L L
ĠbÃŃ ch
ĠN áº¯ng
ĠGHPG VN
f l
A A
ĠSo ft
Ġh Ãłu
ĠR uss
ĠphÃŃ ch
imb le
h er
id d
ĠÄĳá» Ŀm
Ġsá» ¥n
s Ã¡t
ĠR á
ĠRá »
CN V
nh iá»ģu
Ġngh Ä©nh
ien co
c Ãº
tr eo
ĠD Ã£
Æ ¯ng
ed it
ĠPrem ium
d ung
ĠDav is
Ġr ich
A t
Ġb Æ°ng
Ġs Ã¹ng
g hi
Ġn Ãºp
Ġb á»Ł
O NG
ĠD im
s ov
ip zig
ĠC uá»ĳn
L áº¡ng
ra vel
ĠG ary
ĠT ill
ĠN ova
3 40
Bar celona
ĠK ol
Ġl uá»ĳng
ĠCá» §a
ch áº·t
ĠH ezbollah
ĠMar cus
11 5
Ġfl ash
Ġins ulin
ec ta
Viet NamNet
Äĳ á»Ļng
ĠP Ã´n
áº¢ I
ĠTr uy
ĠX inh
Ġm á»ĭ
s á»©c
B izLIVE
ch ar
s á»ĳt
ĠY G
Ġlá» ıi
ĠÄĳÃ³ a
Ġ20 5
ĠDi or
ar io
Mo urinho
V TV
NV V
ent e
Ġch áº§u
ĠHS G
Ġl Äĥm
1 35
Ġtá»ĭ nh
t ok
Ġ21 5
Ġcá» ¯u
ĠDN NVV
b á»ĳc
II I
Ġgá» ıi
ĠCru ise
ĠM ini
ĠMar co
Ġ19 40
ĠL GBT
Q SDÄĲ
Ġnh áº¥c
Em ail
ng hi
ĠP ia
n ick
Ġm áº§u
S an
An d
Ð ¾
Ġnh Ã¡o
al is
ĠbÃŃ t
Ġs uyá»ħn
ĠMo z
imble don
ĠTh áº»
ĠCout inho
c ci
v iáº¿t
Äĳ Ãło
ĠTal ent
ĠVin as
19 97
Ġr áº§u
Ġg ao
Ġd Æ¡i
ĠM em
ĠAr n
ch enko
ĠW ell
eop le
ĠG á»Ĺ
ĠA TP
at ed
Ġnh Ãºn
ĠKr ist
ĠD S
ĠÄĲ S
ĠTh ang
ĠCS CÄĲ
Ġphá» Ļng
B ID
Ġnu á»Ļt
s á»ĳc
ĠCP H
f it
ĠB Ã£o
re gas
ĠAl f
ĠOcean Bank
K iá»ģu
Ġx á»Ľi
Ġch Ãły
ĠN y
ĠNH CSXH
Ġ et
19 54
Ġd iÃªm
ĠX avi
ChÃ ¹a
c es
ĠM S
Ġlá» ĵi
ĠBent ley
m á»©c
Ġl á»ĳt
tr áº£
ĠCor olla
tr á»¥
ph Ã¡
ĠJenn er
ĠV a
ĠAndre a
Ġn á»įc
ĠMal l
ĠSo c
ĠV áº»
ĠP S
ĠH AG
Ġm on
ĠMay a
ĠGram my
Ġl iu
ak s
ĠNh áºŃp
ĠW el
Gi áº¥y
n ie
Ġph Ãło
Ġc rop
N Äĥng
h ail
ĠS ara
L Å©y
Ġ á»ĳi
ĠO zil
q qa
v Ã©
ĠÄĳ áº¥ng
os i
ĠN uÃ´i
ĠÃ į
ĠJun ior
ĠDN A
Ġr Ã¨m
ĠL á»ĳi
ag u
Ġvá» ±a
Ġb eta
ĠGon z
Ġ5 70
ĠKhÃ ¢m
ĠTo day
ĠP ence
Ġho n
Nh a
2 80
In ter
ĠB ung
Ġ18 9
Ġd Æ°á»£ng
Cam era
g Ãł
ĠcÃ ¢m
ĠChá» īnh
Ġg Ã¡n
N á»¥
ChÃ ¹m
ĠV R
ThÃ ¹y
ThÃº y
ĠcÆ¡ i
¨ C
ho u
ĠAr iz
K ÃŃnh
b Ãłi
Å ¨
Ġn áº¥p
Ġtrá» ĩt
col ate
Ġkh áº½
ĠVI á»Ĩ
g et
ĠLe ipzig
CM O
Ġ17 2
ĠCN C
v á»¥
Æ¯á»ľ NG
ĠH V
m u
se ille
M N
ĠG hana
C á»ķng
ĠL B
Ġph ui
ĠRi yad
ĠJ osh
9 50
ĠMap s
Ġnhá» ¡
ĠTh Æ°á»Ľc
ĠRe g
Ġb ol
Ġb iáº¿m
b Ã³ng
ĠNg uyá»ĩn
ĠchÃŃ p
m ang
ĠFin ancial
L aren
ĠEthi opia
ĠM I
17 0
Ġkh a
ĠSom alia
C TCK
at on
ĠG M
ĠSnow den
ĠT as
ĠÄĳ Ãły
Ġng Ã¡y
ĠCh Ãło
10 1
ĠtrÄ© u
k hÃ
Ġ2 12
ĠH as
ĠA NH
14 1
ĠKy ung
Ġ16 4
Ġk il
ĠD eb
tin ental
f ica
ĠA G
K on
k an
ĠBal otelli
ĠMat th
re z
Ġgi áº«m
ĠPr ess
ĠBurn ley
ĠWal ker
ĠAl aska
ĠD L
ĠW imbledon
Ġ uyá»ĥn
pp ing
ĠÄ ©
Ġláº» n
ĠR h
ou d
Ġr áº¡
ĠTÄĲ C
Ch Ã¡nh
ĠBr asil
2 60
b Ã¡o
he im
l on
ĠTr u
UB TVQH
To Ã¡n
Bu Ã´n
ÃĢ I
k Wh
n ess
ĠBas el
et ts
ĠTP Bank
Ġm Ãºt
Ġ Ã³ng
ĠS O
ĠBl ink
ĠQU AN
Ġt Ã¡p
ĠH áº¡o
ĠFan page
Ġl áº¡y
Ġkh áº¥n
ach us
Ġp ixel
Ġd es
ĠM INH
Ġqu Ã¡ng
ĠHe ung
ĠTT XH
it ies
G PT
ĠS him
T Ã¡i
ĠTh áºŃn
ĠSy stem
ĠAriz ona
C OV
v ÃŃ
ĠG od
ĠSu ga
Ġhá» Ńng
âĢĿ !
Ġm Ã³
ĠB á»ĵi
is er
L á»±a
ĠCh áº¡y
ĠA IDS
ĠPC I
ĠchÃ³ c
ĠWar ren
b l
et amine
Ġshow room
Ġn ylon
c os
Ġhom estay
ĠSer v
Ġg el
et z
t á»ĳi
Qu ay
ĠAM G
ĠKore a
ff ee
Bay ern
S Æ¡
ĠSp ider
AM A
Ġh áº»o
ĠGaz prom
ĠFernand o
ĠC Ã¡p
ĠSar ah
ĠI N
ĠIs a
ĠBl anc
ĠSa ch
am ey
chet tino
R o
ĠAV G
th a
ĠM Äĥng
ĠT eam
Ġb áº·m
estr ogen
ĠTele com
ĠR Æ°á»£u
ĠGu cci
Kh uyáº¿n
Ġ3 90
Ġn Æ¡
ĠPhar ma
ĠO f
l Ã¡
ĠVin ashin
Äĳ iÃªn
Ho áº·c
b ÃŃ
ÄĲ á»Ļ
ĠGener al
ĠGu am
ri ot
Ġ16 9
h ye
Ġblo gger
U P
Ġcast ing
ĠO ppo
W D
c á»±c
B i
ĠLe eds
Ġblock chain
G Ã³c
N áº¯m
ch uyá»ĥn
tr ic
ĠÄ ĥ
ĠPot ter
att le
Ġb áº¿t
ĠV A
ĠTill erson
ĠWil son
s burg
in da
Ġ19 2
Ġc ode
ĠL á»įc
Ġ19 47
j e
ĠNg á»ĵi
ĠEar th
T Ã´n
ĠB it
ĠVN CB
Ġv Ãªnh
Ng Æ°
ĠSal v
Tr áº¥n
p ur
ch ai
p i
ĠInd ustr
Ġ18 8
Hy undai
ĠA CV
ĠSel ena
v Ã²ng
ĠMW G
CP I
ĠBeau ty
or o
ĠN á»¥
ĠBol ivia
ĠChá» Ŀ
ao mi
ÄĲ áº¥u
HH GÄĲ
ĠT iÃªm
ĠJenn ie
ĠTN MT
L ink
ren ce
ĠK om
G o
ThÃ ºc
ĠO mar
C ovid
ĠSch ol
ĠPh áº¡t
m Ã¹a
ĠA ub
à ¸
r ate
dau tu
ĠBill board
ĠJ ason
ph an
y u
Th áº©m
han na
ĠPro ject
N áº¯ng
ĠUnivers ity
ĠÄĳ áº£n
and y
M ich
ĠH áº¯c
Ġcá» ıi
amp s
em on
ĠJ os
id es
Ð °
ĠN est
Ġh ecta
ĠBl ade
ĠphÃ¹ n
v ai
Kh ung
ĠM ig
BID V
ĠMark et
K á»ĭch
Ġ17 3
ĠFranco is
ent o
ĠÃį ch
ĠH ur
ĠC I
uz ia
t iÃªu
ri z
ĠEd en
il i
ĠN á»Ĺ
Ġ4 30
H ung
s hip
ĠT K
ĠMor occo
D Æ°á»Ŀng
ĠP ad
ĠD h
ĠSing h
m ade
c z
ĠL á»Ĺi
Ġ17 7
Ġtrá» Ľ
Ġ Ã©o
ĠLu ke
ĠEs tonia
T áº§m
ĠMan e
V it
ĠLH TN
ĠÄĲHÄĲ CÄĲ
Ġvá» ĵng
p earl
ĠAsh ley
ĠLaz ada
ĠTh iago
ĠMB B
ĠW ik
ĠJet star
T Ã³m
ĠY a
Ġng áº©m
3 80
Ġt weet
ĠVar ane
âĢĿ )
ĠColor ado
ĠS á»ķ
ĠG ul
erm ain
M ac
ushi ma
al es
imb ab
M u
m ino
G Ãł
ur as
ĠÃ ī
" ?
tr á»ĭ
Ġca ffe
ĠNh ai
and ro
ĠL A
ĠK V
erg y
h iá»ĩp
ÄĲ an
ĠAnton y
ĠKar l
Ġbo ong
kho e
Äĳ Ãªm
ĠRa qqa
áº¤ T
ĠSG GP
H Æ°á»Łng
Ġng ai
din and
ĠHai ti
ter res
ĠÄĳ iáº¿c
Ġr áº§y
uez one
m áº·t
Ġ3 000
ĠCh eng
Ġ16 6
p l
al in
áº¤ N
ĠTh S
ĠGi Ãºp
at ic
ia h
ĠF O
ĠAl bert
Ġb Ãºi
ĠY oga
Ġt uá»Ļc
ĠL uiz
ĠM á»«ng
V ui
Ãµ a
Ġsal ad
ĠH U
th e
p in
Ph áº¡t
IC EF
ĠK ÄĲT
Ġ24 5
imbab we
ĠFul ham
ĠBS R
ĠthÃ ºng
ĠDig ital
Ġvá» Ľ
ĠnghÃ ©n
P ink
Ġthá» ī
ĠY oko
ĠLe v
CN CH
19 93
ĠPhÃ ª
g ra
ÄĲ áº·ng
ĠMor ris
ĠHS SV
Ġt Ã³t
á»¥ t
Äĳ Ã´
or p
ĠFo otball
Äĳ á»Ļ
ĠMB H
Ġs áº¥m
ĠQ P
Cá»¥ m
k us
19 0
Ġ4 60
! âĢĿ,
Ġra ting
Bá» ī
ĠP ass
ĠChristoph er
TT O
Ġs anh
ĠAl an
ĠMass achus
ĠPier re
Ġn atri
Ġd áº·t
ĠE CMO
ĠVillar real
Ġ18 3
T Q
ast ic
' )
Ġm Ãºn
Ch am
+ ,
ĠSt one
Th o
ĠGrand e
âĢ¦ ),
ĠMid u
S yria
ĠGar cia
Ġho Ã¡
ĠGu terres
ĠD or
ĠTÃº y
ĠTa j
amey ang
Ġr á»ĭch
az e
phi c
d Ã¹
9 90
Ġch uá»ĳt
Thu áºŃn
S á
Sá »
el in
ĠCr edit
Ġnh áº§y
Kh áº³ng
ĠD á»ĭ
q uÃ¢n
ron t
ĠZ ar
ather ine
ĠLad en
ĠSho igu
c áº§m
ĠN Æ°Æ¡ng
ĠPar ag
ĠCh ap
T ottenham
ÄĲ áºŃu
gy z
L á»ĳi
Ġr i
ĠLeon ardo
ĠBo x
ro und
P ark
B iá»ĩt
F ord
M K
ĠN BC
Ġtho i
bor ough
ĠP ir
ĠAv iv
ĠSwan sea
Ġx á»Ł
Æ°á»Ľ u
ĠV áº£i
on to
ĠC Ã¡m
á»Ĳ C
ĠV e
ng u
ĠB ey
col n
th áº§y
Ġs am
J enn
ĠB io
uk ov
ĠLat in
ĠTr ai
ĠEd ge
ch en
19 96
ĠJu li
N á»Ńa
ĠTr áº¡ng
ĠCar lo
x á»Ń
d ie
Äĳ áº·t
ĠInf in
Ġra dio
c Ã¢u
ĠCl ass
ch iá»ģu
ĠRom an
AF P
ĠS underland
ĠS MS
Ġdá» Ĺi
2 70
ĠM iller
ĠMi u
itt le
SI P
Ġ18 2
c áº§n
ĠK ath
T uyá»ĩt
ent ial
ĠP ique
ĠHill s
ĠPr inc
ĠD áº«n
ĠDo ug
t Ã¹y
EC D
ĠI A
l iÃªn
ĠK ay
M áº¡nh
G I
ĠB all
Gi an
ĠM oto
ĠVi enna
f ace
ĠL Äĥk
ĠPat riot
th ur
Ġw ifi
LA CK
ĠSap a
ĠSen egal
3 30
gi Ã¡o
ĠS á»£
ĠQu e
ĠN ut
ac y
Ġ18 6
p u
T á»ĳc
Man chester
Ġ ar
Ġnh Ãºt
Ġ17 9
l áº¡
Ġngá» £m
ĠI gor
ak o
ĠthÃ³ t
C áº£ng
c y
ĠIsa ac
ĠC ot
ĠFir st
° C
Ġ18 1
ĠS iu
ĠL iz
! ?
ina wa
ĠAl v
el son
Tá» ī
Ġ2 19
ra h
ĠMassachus etts
Ġba ht
Ġ Æ¯ng
ĠBlink en
to is
ĠFab regas
CB M
ĠV iÃªm
ĠBol ton
Ġtab let
th Ã¡nh
Ġhá»Ļ t
ĠP ink
19 94
ĠF air
ĠC y
eo t
L y
V IDEO
ĠN on
há»Ļ p
as m
ĠNov ak
ĠPo chettino
B CT
ĠSav ills
ĠColum bia
Ġt ennis
Ġ20 3
Ġhá» īnh
ĠPer ry
Ġgiá» ħu
F T
Ġlo an
ĠN in
ĠCorp or
ĠPh iáº¿u
C hÃŃ
T á»Ļi
M Ã¢y
ĠNh áºŃm
Gi áº¥c
ĠK iá»ĩn
ĠViet ravel
Ġn ÃŃn
ĠV D
2 10
B GTVT
ĠW is
ĠMar seille
ĠNghÃ ©
X áº¿p
ĠVol od
en ne
gyz stan
ķ n
ĠBR T
Ġlo ang
ĠAh med
ĠB ond
Ġx Ã©n
o ch
ĠZ imbabwe
ig a
Ġqu áº¹t
ĠChÃ ªnh
ĠAh mad
ĠW hat
ĠSh utterstock
ĠGr uzia
ĠN Ãło
d á»ĭch
t am
ĠcÃ ºt
» ĮC
á »ĮC
ĠF B
= =
ero on
Ġmeg apixel
ĠD z
Ġn iu
ĠSt oke
ĠKyo do
ĠMc G
ĠNg ang
ĠCon ne
-------- --------
ĠCong o
ĠAn ne
L á»ĩ
Ġp ar
TP P
ĠW ag
Ġ21 7
ĠA ustr
ĠMar i
ĠL ov
ch an
hÃ³ ng
ĠAv engers
Ġb reak
ernand ez
ĠJ en
ĠD Ãłn
c ini
ĠMac au
ĠJam ie
ĠSp a
p an
ĠB ab
ĠCO P
ĠT BA
ĠH erm
ĠAc t
Ġ18 7
ĠPl an
D G
V iÃªm
Ġnh áº¿ch
áº¬ T
PhÃ ºc
ig o
Ġg áº¡
ĠNat han
Nh áº¥t
ĠD Æ°á»¡ng
ĠF ast
ro g
ĠCh alle
ut o
id as
h ama
Ġc al
ĠC Ã²
Ġte aser
ĠÄĲá» ©a
ĠB LÄĲ
ĠU s
t Ã¡i
E WS
ĠD Å©
ĠShang hai
ĠLeg end
Ġd Ã¡t
b s
ĠX Ã¡t
Ġso da
Ġ195 2
ĠC áº¯t
ak ov
Ġo áº£i
hÃ ¬nh
Ġn á»±c
Ġhi u
ĠTh uyÃªn
ĠBen fica
ĠD Ãłi
ĠHÄĲ BA
ĠBH L
ĠÄĲ Ã¢u
Ġl Ã¡c
ĠL á»±a
ĠEr eb
u er
Ġch Ä©a
ĠPh Ãłm
Ġ Ã´i
n ers
ĠB kav
ĠCh rys
V I
ĠK in
há» Ļi
Ġá» ¥
Ġ á»ĳt
Ġr ÃŃt
ĠI ch
Ġx áº»o
ĠkhÃ³ e
Ġs ing
ĠAn a
ĠP O
Ġso fa
ĠÄĲ iá»ģm
ÄĲ inh
b áºŃt
ap or
ĠElectron ics
ĠArsen e
em outh
ĠHend erson
ĠhÃ³ m
E G
Ġ202 7
em e
esse nger
ĠMcC ain
ĠTher esa
Ġ5 000
ĠL IÃĬN
á»ĭm á»Ľi
y ch
ĠBV MT
chá» £
ĠOk inawa
ĠS á»Ńa
ĠA ustin
ck ho
Ph Ã¡
Ã´ á»ĭmá»Ľi
L Ãłn
ab ad
ĠNet work
ĠMik hail
ĠL Å©
ĠShop ee
Ġph om
G Ã£
ĠBus an
ĠTr á»ĳng
ĠO CB
ĠG el
ĠK TT
ĠMc Laren
rid ge
ĠBC TC
h in
ĠRob ot
ĠdÃ¹ i
Ġr uá»ĳc
ish ino
ĠMor ata
er en
ĠR ice
Ph Æ°á»Ŀng
tr uyá»ģn
ĠZ e
ĠCB CNV
VP CP
ĠR az
Ġr áº§n
ĠWat ford
ĠChá» Ń
ĠB rian
ĠcÃ³ p
M i
ĠChampions hip
» ¦
á »¦
ĠC re
k ey
gi Ã¢y
ĠFo und
ĠDV D
ĠV ÄĤN
u le
á»ģ nh
P INK
ĠR iver
q uyá»ģn
ĠTá» ģ
ĠC yr
ai re
Ġnh eo
Ġng áºŃy
Ġ um
Äĳ en
ĠH em
ĠV iÃªng
Ġs áº¡m
y me
t Æ°
ĠP K
f ri
ĠL Ãłn
ĠHÃłn Ã´á»ĭmá»Ľi
» ©t
á »©t
Ġl á»ĭm
Ġdi va
LACK PINK
he ed
ĠL ot
ĠP ao
Ġ uyÃªn
ĠBel la
and e
Ġ5 60
... âĢĿ,
ĠB eng
ĠJon athan
ĠD Æ¡i
ĠAr ch
C ol
phá» ¥
ie g
ĠOli v
ĠM á»Ĺ
ĠVin pearl
Ġ23 5
ot on
ĠC Æ°á»Ľp
ĠManag ement
ad er
ĠBuff ett
ill as
P SG
urn emouth
ĠDo ha
ĠÄĳ áº±m
ĠJ ar
ĠN ano
Äĳ Ã¡ng
V an
ĠDo wn
ĠT TC
ch iÃªu
Ġ19 4
Äĳ á»ķi
ĠSul li
ĠCB CC
ĠFer dinand
Ġ Ã¹a
B áº¡c
Ġb Ã¡ng
Ġkhu áº¿ch
m Ã³n
Ġx Ãºi
Ġ19 49
ĠEreb idae
Ġ18 4
ĠB is
ĠRe p
Ġgiá» Ŀi
Ġ5 20
ia r
p him
Ġ !
* )
giá» ¯
ĠT áºłI
Ġd ance
haw k
ĠK ÃŃch
n á»Ļi
h ang
Ġ $
ĠR al
ĠK ov
ĠH ak
Th áº¡ch
ĠE st
ÃĢ NH
Ġng Æ°á»£ng
C ty
ĠL ay
Viet combank
ĠI ron
Ġnh áº£m
S al
ĠD ur
ĠT TCP
X T
ĠH ama
ĠMan s
port s
ĠV Æ°Æ¡n
hy un
Ġcho colate
Ãģ C
Ġca fÃ©
D M
end ra
Ng uoiduatin
s c
ch ui
ĠEuro zone
ĠDy nam
h áºŃu
Ġ19 3
b at
ĠNov aland
Tr Ã¡ch
ĠQ G
ĠRob in
ond uras
ĠV ogue
th uá»ĳc
ĠOff ice
Ġngá» Ľ
ĠC Ã¢n
as y
Ġá» ·
l ao
Ġbá»ĳ t
ĠÄĲ á»ķ
ĠMal d
ĠP G
Ġm il
t áº¥t
Ġs áº§n
ĠB iá»ĩn
ang nam
ĠB ug
Ġph iá»ĩt
ĠAr c
ĠC ienco
» Ľ
ĠÄĲ iá»ĥu
ĠBÄĲ KH
ĠN ike
ĠchÃ ¢y
D ragon
inn ess
á »Ľ
ĠJ or
T á»įa
ĠSm all
ar in
ush u
ĠKh Ã¡t
U ng
Ġbol ero
m Ã´n
ĠSha h
ĠR ex
ĠL uyáº¿n
ĠCá» ¦
ne um
ĠM áº¿n
Ġv ÃŃt
ĠK ishi
N E
ĠMo unt
qu oc
Ġb ox
ĠNhu á»ĩ
Ġn áº»
l Ãºc
s á»ķ
Ġv áº©y
ĠI Q
Ġl ip
H OSE
ĠNh anh
ĠGra ham
s ong
il ia
EC O
c áº·p
Ã §
T KCN
Ġ19 44
Ġlu á»ĵn
Ġ estrogen
l ish
ĠS z
ĠL áº·c
ĠI z
ĠH all
Ng á»įn
ĠL ac
ĠLin coln
Ġr up
Äĳ Ã¢y
ĠChat GPT
ĠR á»Ńa
ĠW ong
Ġ áº¯ng
ĠÄĳ Ã¡u
ĠTR á
ĠTRá »
ĠchÃŃ t
Ġch áº¡c
ĠKho ai
Ġr Ã´m
qu in
ĠVH M
ĠD uyá»ĩt
N Ã©t
ast ian
up er
Ġxá» ı
ĠC es
ĠKyr gyzstan
om on
Ġrá» ¥c
Ġm el
av a
Tr ail
E uro
ĠHu gh
s ide
M Ã¢u
ĠG IA
chÃ º
Ġ á»ĳ
w en
Ãļ c
Ġo ai
ĠLÄĲTB XH
ĠT Ãłng
ĠMat tis
ÄĲ á»Ļt
ĠC áº¡n
ĠX áº¿p
Ġ21 8
ĠCá»¦ A
Ġl Æ°
Ġ22 2
N Ãºi
j ar
Ġch ang
c in
ĠCh rome
ĠGu ill
ĠP av
Ġto Ã¡i
ok a
ĠT ÃŃ
Ġv Ã¡t
Ġ19 42
k u
ĠVen ice
F ED
ĠCh uá»ĳi
ĠTho Ã¡t
ĠH ernandez
ĠC ent
c Å©
Ġng áº£i
ĠPar t
ĠÄĲ uá»ĳng
ĠCam eroon
Ġtrá»¥ i
Ġng Ã¡t
ĠSal man
ĠN áº¯m
19 92
S K
ĠH err
um er
ĠE o
ĠBil bao
Ð µ
err ard
it ol
Ġt on
Ġtr Ã¡o
A pp
. (
ĠMik el
ĠInvest ment
ĠN ÄĲ
ĠAsia d
b Ãłn
Ġng Æ°á»Łng
00 1
C ÄĲV
Ġ20 4
ĠMas ters
3 21
Ġc ort
O ne
Ġg Ã¹
ĠS Ã¡t
B ang
ĠN Ã©
ĠDá» ¥ng
Ã ī
ĠT I
ĠC II
ĠHir oshi
ĠJer sey
ĠX Ã³m
ĠBr u
am en
ev i
Ġ27 5
Ġqu áº·c
ĠK L
Ġ19 48
Ġtu á»ĵn
Ġs tylist
ĠCour tois
Tr á»ĭnh
Ġ19 20
ĠW r
ĠG at
ĠLá» «a
Ġsáº© y
Web site
ĠRang e
Ġthá»¥ t
T G
Äĳ iá»ĩn
10 5
V áºŃt
Ġst udio
ĠEn ergy
Ġng Ã¡o
Ġ5 40
Th áº£m
ĠB I
ĠV áº¡c
ĠSh ak
ĠPhan tom
ĠChá» ĳt
oth er
ĠA ug
ĠD ell
ĠPr ay
ĠCatal onia
Ġje an
ĠKro os
P lay
th áº£m
ĠV ers
19 30
ois ong
ĠT CC
ĠHo ms
Ġl Ã³ng
19 72
Ch Æ¡i
ĠSt udio
M ark
ĠSX KD
us ra
N Ã³ng
19 88
d á»ħ
ĠBr ight
0 80
ed oisong
ĠT Æ°Æ¡i
ĠPet r
gg s
Ġm ac
ĠR um
Ġd Ã¬m
Ġv áº¹o
ĠTr Æ°a
ĠLing ard
ĠE zz
AS EP
ĠInd ia
ĠBank ing
Ġ7 77
lin s
ĠN O
ĠZ in
ĠÄĳÃ ºt
ĠB re
ĠC ay
19 90
N uÃ´i
ND N
ĠGirl s
op s
Ġnick name
ĠS S
Ġb áº£
ĠHO ÃĢNG
ĠNh iÃªu
ain i
ĠN hÃŃ
ĠR ow
ve en
ĠRet ail
ĠTr ay
19 91
Ġth áº£y
ĠchÃ ¹i
ĠLaw rence
ĠÄĲ Ã¨n
B Äĥng
C Ã¡t
D a
as ia
ĠTHA AD
Ġch áº¡nh
ĠKh en
nh áºŃn
Ġd iáº¿t
Ġá» ¦
ĠE ast
ĠTrá» «
ĠJ P
Ġchá» Ļ
em i
T iÃªn
ĠD iÃªm
H iá»ĥu
ĠAub ameyang
ch at
on idae
chu áº©n
Ġnh áº£nh
ien Viet
ĠD áº¡y
ch y
kus en
Ġ19 41
ĠSib eria
ĠTor onto
ĠÄĲ Ã¡c
ĠD ec
ĠF i
NT Q
ĠLux ury
Ġ3 25
ĠC VT
ist o
ac era
TN MT
ĠLe ver
j ib
ĠGi Ãł
L Ä©nh
um ber
Ġb Ã´
Ġb iáº¿c
ĠH á»ĳ
ĠNg á»įn
ĠCoo per
is m
th áº»
ĠMas on
ĠCorpor ation
c rai
ĠN ishino
ĠN á»ĳt
CS C
ĠEv ans
ĠM Ã©p
ĠCh in
Ġ20 8
ĠTechn ology
ĠGu inness
Ġ4 70
ĠP eople
ĠAl ves
ĠH onduras
ou cher
ĠC ua
ug eot
19 89
t v
ithi um
ĠSA B
D F
ĠP M
ĠM Ãºa
Viet in
ĠR áº±m
el ine
áº¢ O
ĠH wang
ĠPV S
ĠChan nel
Ġná» ¡
Æ¯á» ¢
ĠMoham mad
Gi Ã³
Ġtrá»¥ y
em iro
ĠWol ves
AR S
ĠS und
Ġ21 6
ckho edoisong
l ant
Äĳ au
ed ad
ĠS CB
Ġná»ĩ m
b ell
ĠG áº¡c
Ġ en
ib le
M en
ĠKT NN
ĠA x
ĠB Ã²
phÃ ¹
ĠComp osite
Ġ4 40
ĠG E
p et
ĠR ic
ĠManh attan
M e
c ott
g ram
ĠÄĳ iá»ĥu
os hop
ĠMar athon
ĠKH ÃĶNG
n á»ķ
ĠCh er
ĠAnd erson
ĠVes pa
ĠS eb
ĠT Ã´m
B ig
ĠK iá»ĩm
Ġn Ã¡i
Ġqu Ãłng
Ju ventus
ĠP elle
ĠI DC
ĠL ow
ĠCol le
ĠH ap
Ġn ai
ĠB á»įn
ĠFuk ushima
M áº¹o
ĠC á»Ļt
Kh áº¯c
ew ay
Ġm áºŃu
BGD PL
ĠXp ander
ĠLew is
ĠKh áº©n
ĠH appy
ĠCol e
ĠH au
ĠL it
ĠA aron
Tr á»©ng
ip an
ĠSam uel
ĠSer ena
ĠR aul
ĠD Æ°a
umb ai
ĠMarcel o
Ġh áº¯c
Ġh uÃ¢n
al t
ĠB SC
gan sk
Ġv Ã¡nh
ing rad
ĠM á»Ŀi
Ġr Ãºp
Ġ20 35
Ġb Ã©t
Ġ2 11
ĠGiá» ĵng
c ung
ĠDu c
ĠCan on
Tr ump
ĠÃĲ áº¡i
ĠI oT
Ġ20 9
lo ad
nh an
S ch
m ay
ĠLib er
it ez
ĠAs us
p ad
ĠXVII I
s ai
em o
Ġ19 43
Ġ ol
ĠLu gansk
Mic rosoft
Äĳ á»ĳt
ed u
ĠC Ãłn
Äĳ áº¥u
ng há»
ĠP ic
ed onia
ĠEU R
ĠSt ol
S Ã¡u
ĠB ac
ĠSun ny
ut ion
ĠC loud
ĠM essenger
99 9
BÄĲ BP
Ġáº ¨n
Ð ¸
ĠÄĲ Ã¡y
ick y
uy en
ĠNhá» ı
im i
c ard
ĠT Ã¡
b Ã¡nh
M on
ĠWat er
do w
nat aka
Ġtr Ã²ng
us a
ĠSil icon
X EM
ĠN Ã´m
P etro
ĠIn iesta
Ngh Ä©
ad on
ina e
Ġrich ter
Ġl Ãµng
ĠYoko hama
M il
S e
m Ãłu
m á»ĳi
Th Ã¡ch
y eon
ĠH ind
iss a
ch el
ĠT áºŃn
Ġl áº³ng
ĠT axi
ĠTr ust
ĠTh iá»ĩp
ĠLau rent
Ġ21 4
ĠÄĳ ay
H Ã©
amil y
S Ã³ng
ĠVolod ym
Ġdo ping
ap l
ime one
ĠMid d
Ġngh iáº¿n
Ġvi r
ch t
ic es
con s
Ġgl uc
is o
ĠG em
ĠCh un
Ġp Ã´
ĠG Hz
ĠMc K
ĠEs p
ĠKar nataka
ĠEX O
ĠQu ÃŃ
and ra
ĠM ate
h áº¿t
Ġkh áº¿
P ar
ĠR Ãł
C al
ĠÄĳ uá»ĳc
n Ãłng
ĠT á»ĵn
ĠBá» ĥ
t á»Ń
ĠY i
w orth
Ġnh áº¥m
ĠL áº¡m
ĠA ung
ne x
Ġo x
Y o
ĠH ans
ĠLock heed
A X
ĠV T
c Ã¡n
L Ã¡i
ĠV biz
V iáº¿t
O r
ĠSpace X
ĠP od
A b
ĠFl ash
Gi ang
W TO
ĠGun nar
N á»£
ĠBo urnemouth
B á»ĵ
ins tein
ĠX uyáº¿n
C áº¡nh
ĠLaz io
Ġ20 6
ph en
ĠSp ec
t Ãłu
... ",
ĠW o
St ar
ta h
ĠFal cao
ack er
ĠNor wich
Ġm in
» ĥn
á »ĥn
ten berg
ĠEm ma
ĠN Ã©n
N eymar
ÄĲ Æ°Æ¡ng
l á»Ŀi
ĠL ine
S on
Ĩ NH
eren veen
ĠPep e
P al
Ġg anh
ork s
ĠN ot
ĠTur bo
ienViet Post
ĠM umbai
ĠPl at
Ġ0 90
O L
Ng Äĥn
ĠC ov
ĠTh iá»ĩt
ra w
ĠRC EP
M Ã´n
há» Ĺ
ĠNh Æ°á»£c
ĠVIá»Ĩ T
ĠFound ation
Ġ6 30
Ġng Ã¡c
ot el
ĠN áº¡i
ĠV J
con n
ĊĠ ĊĠ
Ġcar bo
ĠRe cep
Ġláº½ o
Ġgi Ã£i
ĠQue ens
V L
ĠJ ane
Ġt Ã©t
D áº¡y
v á»ĭ
p hÃŃa
B en
) âĢĿ.
Ġtá» ģ
Chá» Ŀ
M áºŃt
g ie
ch em
ĠD X
C R
Ġngá» ¥t
ol in
hi ng
ĠLat via
o ay
ĠSo ci
ĠDo an
Ġ20 7
ĠX ÃŃch
4 80
ĠGiá» Ĺ
Ġch áº»
be ck
ĠS Ãºp
ĠQ Ng
ĠY un
ho g
22 5
11 3
ĠS qu
ĠCo ffee
ĠB ut
ĠAt t
ĠQu á»Ľi
ĠL em
U R
ip e
ĠC ech
ĠJ a
ĠC BS
ĠParag uay
ĠN á»Ńa
Ġx iÃªm
h Æ°á»Ľng
ĠAnd er
ĠR ico
Ġng Ã¹n
p Ã´
ĠD aw
Æ°Æ¡ c
ĠTC ty
ell en
ĠDan ny
ĠRou hani
ĠM áºŃp
ar n
Ġf eet
ĠBl uezone
Ġd Ã´i
ĠcÃ ¹i
ĠGre at
ĠVolodym yr
ag awa
ina w
v áºŃt
Ġhá» ±c
ĠV ent
at hip
ern er
ip edia
ab aby
b áº§u
ra ft
Ġná» ©a
b ot
4 40
Nh áºŃp
Ġs áº¡
ĠAth ens
Ġnh Æ°á»¡ng
ĠC MC
ĠM oney
H R
c áº£m
n an
ĠN ow
c Ã¡nh
áº¢ N
yl l
ĠPV D
Lá» ĩnh
Ġt áº¥y
ĠAbdul lah
ĠPel osi
Th Äĥm
ĠAbb ott
Ġkhi Ãªng
s uáº¥t
Äĳ á»ĵ
m Ãł
Ġs Ãº
ĠR at
up ol
ĠChar l
ĠTr eo
i Hay
K ia
ĠH R
ĠL lor
ĠKo h
su ckhoedoisong
Ã Ĵ
ĠU FO
it ton
Ġnh en
Ġt itan
ĠTHA NH
ÄĲ N
ĠSp urs
ĠPr ad
ĠMu ang
z an
ot or
ĠSo chi
ĠMan cini
Ġl em
4 90
¡ n
E n
ĠSand ers
ĠRiyad h
ĠKar im
ĠM ina
ĠE CB
I R
ĠBor ussia
ĠI phone
ĠG á»įi
ĠL á»Ńa
Ġc áºŃt
ĠR in
V ÄĲV
ĠâĢ Ķ
b le
ĠM end
Ġl áº¥m
m Ah
PP O
ĠM ov
Ã ĥ
V iÃªn
it su
ĠLever kusen
ĠN á»£
ĠGo al
b ury
ĠAl onso
ĠTr an
ĠD ang
Ġ999 9
G en
Äĳ áº¹p
Ġ26 5
c ul
enz o
uch i
amb ique
ĠB ow
ĠP ok
ou k
heim er
ĠTh iáº¿n
Ġr em
ĠM es
ĠCP U
Ġl áº£
D on
19 46
Tr á»ĵng
ĠHy brid
Ĭ CH
ĠC CN
Ġ19 1
lad e
m áº¯t
Mer cedes
ĠD á»¥
u f
ude au
F PT
ĠRich ter
ĠCS B
hol m
ĠAr áºŃp
ĠPr es
L ÃŃnh
ĠN ich
ĠK ent
Ġ5 80
TH A
ienVietPost Bank
Ġmar athon
ĠBá»ī m
ĠWar ner
H TX
ĠM iÃªu
hi d
ĠR Ã´ng
f ish
ĠG an
is ter
eb e
Ġd en
Ġh as
ĠI BM
ĠMÃ¡t xcÆ¡va
ĠG errard
ĠT iáº¿c
ĠNik ol
m Ã¹ng
ĠAll en
ĠA L
Ġso c
Ġx áº¯t
n u
Ġn Ã¨
ĠVinas un
ĠBe at
ĠA vent
c á»¥
ĠHe erenveen
ĠKy lian
ĠL oa
Ġb áº£nh
ĠN ancy
ul o
Ġr Ã¨
C ity
ĠFre e
ĠT TVN
ĠVi ew
Ġx iÃªu
C áº¯t
ĠS imeone
Ġs áº¥p
gia dinh
ep end
ĠChá» ¥p
N ASA
ĠT U
L áº¡c
O lymp
F or
ĠNhá» ķn
ĠSach s
Ġ195 1
ch es
O PEC
ĠATVS LÄĲ
ĠF und
igu ain
Ġd eb
nh a
Ġgi en
ub lic
ĠÄĳÃ ¹n
UY ÃĬN
ĠSoci edad
t ime
Ġg ara
tr áº»
Ġcom bo
T Ãº
ĠJ oa
Ġb allad
ĠP om
ĠN M
Ġform ula
Ġsing le
Ġl Ã¨o
Kh áº©n
O I
ber l
K A
am ol
le g
Ġ25 5
ap ova
ĠR ivers
ch uyáº¿n
P ay
C ola
ĠBG K
ĠLux em
w as
ĠTh or
ĠÄĳo Ã¡i
ĠV as
ĠGold man
5 60
Ġc áº¡y
ĠBen itez
2 90
ĠTr udeau
ĠHy men
ĠB ag
c áº¥m
Ġl iá»ģm
ĠRol and
Ġ21 3
r ie
x áº¿p
op mart
Æł XH
ans as
ĠGi ggs
ĠT CM
ng á»ĵi
ĠLes te
Ġrá» ¥t
Ġm y
app er
á»· u
d ing
A lex
ĠI ng
ĠT CB
mo on
Ġ[ [
Ġc Ã¡ng
el o
m áº·c
is i
ĠH and
, ..
ab in
ĠPhá» Ľc
ĠthÃ¹ y
" âĢ¦
ĠKhu Ã´n
alan ta
ĠB Ã´i
ĠC au
ĠL TE
Ġá» Ķ
Ġkhá» īnh
19 47
Ġ5 30
ĠW onder
ĠKishi da
H an
Ġr áº£
= "
if one
NT ech
ĠN Ã¹ng
ĠTIáº¾ T
Ġenz yme
at ex
on o
ĠOcean bank
p hÃ¢n
ĠRi hanna
ĠQ N
Ġ22 4
Ġ ion
ĠR Ã´
ĠDem b
t ang
ĠE PC
ĠÄĳá» Ŀn
ĠD ata
ĠBá» ĨNH
ĠP ur
g Ã£
atch back
Ġchá»ĭ t
oc us
ĠNT D
ĠNh am
ĠÄĲ áº©u
ent s
ĠKan te
oster one
ĠMu eller
Ġqu áº§ng
ĠM iá»ħn
c tion
C VN
1 12
W est
m ore
ĠÄĳá»ģ m
ĠAbram ovich
ĠB ran
un ce
ro ad
ĠAng ola
ĠMar ina
gh áº¿
ÄĲ iáº¿u
ThÃ ´i
Ġrá» £
ĠStol tenberg
ĠCh iáº¿u
ĠU g
m á»Ľi
Th ua
Ġhá» Ľt
Ġ18 00
ĠMar sh
ĠQU á»ĲC
Ġr áº¡c
ĠMel ania
Ġng Æ°Æ¡i
ĠMoz ambique
ar ov
Ġsá» Ľi
os p
G r
ĠSh inaw
ĠH Ã´
M M
T Ã¹ng
ĠSD F
IS A
Ġp ol
ĠTrá» ©
Ġh áº¡c
ell aini
ĠS BS
av an
Ġp izza
Ġkhu á»·u
ĠÃĲ á»ĵng
ĠHerr era
ĠDi jk
ĠÄĳ anh
ĠÄĲ á»Ļt
19 73
re a
S EA
ĠD ark
ĠL Æ°á»Ŀng
ĠBV H
ĠVu itton
ĠI CT
ĠGi áº¥c
ĠJu lian
G Hz
Ġn Ãºm
5 70
ĠP P
Ġmar gin
ĠS áº¯t
b uck
G áº¡o
n Ã¢ng
ng e
ĠPh Ã¡
ĠCas illas
ĠB á»ĳi
c tor
Ġur anium
ĠG á»Ńi
Ġm Ãłnh
ĠShinaw atra
ĠA ur
ĠSN SD
Ġn áºŃu
ĠW h
ĠIch neum
ĠIchneum onidae
ĠF ans
d ao
ĠTh ong
áºł NH
C Ã¡o
ĠInd epend
A v
Ġr á»įi
Cap ital
Ġnhá» «
Ġch áº±m
ĠS ok
ĠHÄĲ LÄĲ
Ġr an
LV N
ives how
SB D
Ġnhá» £t
ĠBrit ney
ĠK D
Th áº¡c
Ġ31 5
s áº¡ch
Ġth ong
ra f
ĠAl li
ĠO ng
ĠLis bon
Ġ5 12
D iá»ħm
ĠPh ot
l ov
Ġg há»ģnh
ĠU m
b ro
ĠSc ience
il lo
ĠVP B
ĠS app
Ġdu á»Ĺi
f in
ĠM ug
ĠM eta
11 7
ĠB phone
P VN
ĠCh am
ĠMald ives
r ik
ĠA qua
ir am
ĠK ash
Ġx Ã¨o
all et
qu Ã½
ĠUBCK NN
ĠAvent ador
ĠV at
ĠTN CN
I U
S uy
ĠG ho
AR T
ĠR Ãªu
ĠG Ã£
Ġph áº£
is ton
Ġdá» ģn
Tr Ã¢n
ross over
ĠR ak
". /.
C á»§
ĠNG á»ĮC
F BI
ĠtÃ¹ m
ĠÄĳÃª nh
Ġphá» ī
H e
ĠM ing
ĠR eb
Ġsá» §ng
T Æ°á»£ng
ĠJ ust
ĠLe ng
ah n
] .
Ġg áº·m
ĠM Ã£n
L Å©
ĠDemb ele
ĠcÃł phÃª
Ġcá» ¯
Ġt iá»ĩt
ĠG oo
ĠChÃ ¢m
Ġgh áº»
ĠB Ãºt
ĠT TTM
il ic
ĠRem ix
G R
5 10
ber ry
ĠSam son
Ġm áº¡t
ason ic
gr ini
ĠM ERS
Ġx iÃªn
). /.
ĠAI PA
Å Ĥ
sk a
Ġnh á»įt
W A
ĠGD NN
H Ã¹ng
há» ĵi
ĠJ ICA
ĠS ag
ĠD H
G Ã²
ĠBu ck
z heimer
ur u
ĠFir mino
F S
Ġth au
Ġg áº£
ĠR up
ĠhÃ ºng
ĠTom a
ĠS as
ĠMatth ew
ĠCas emiro
ĠS ark
ĠÄĲ ÃĤY
EN CO
Ġ6 40
Ġ áºµm
Ġng Ã³c
t áº¡o
un es
uch in
ĠSh ay
Ġp H
ÄĲ á»ĳng
ĠAki ra
Chu á»Ĺi
ĠH Ã²e
ik istan
ĠKh as
ĠLog istics
ĠMu ham
iz on
Ġr uá»ķi
ĠM old
G áº¯n
m el
Ġg Ãłi
ĠO S
Ġ23 9
ĠD id
M Ã£i
u al
... ),
Ġm áº£
Ġbá»ķ n
ĠY uri
Ġ27 9
th áº¥t
ng há»ĩ
l á»«a
Ġ6 20
Ã¨ ng
ĠC Äĥng
Ġ6 60
Chá» ¯a
ĠGD TX
Ġtrá» ı
Ġtu r
Ch at
G roup
Ġ22 6
ĠHo p
Ch iÃªm
gg io
ĠBern ard
T ÃŃch
and i
s ch
Ġr áº©y
l Ã©
Ġ4 10
Ġgiáº¿ m
il ton
m áº¡nh
N á»ķ
ĠV S
all as
om el
b ala
ech en
Ġkh Ã¡u
ĠDen is
ĠJer ome
ĠQu ay
Ġ ),
Ġl Ã¬nh
in ce
id an
Ġh ip
Ġstream er
ĠVi gl
es co
chip s
ĠJor ge
ĠDe pp
10 2
ĠSp ears
Ġth áº¹n
f u
ĠT áº»
ĠÄĳ áºŃn
ĠF old
Ho SE
V al
ĠCh ol
J ack
id ent
ĠLÃ£ m
X i
L ai
t iáº¿n
áº ©ng
og lu
ĠH Ãłi
nh áºŃp
rai g
iet nam
ĠN ang
19 79
Ġcá»į p
10 3
ĠBrit ish
ĠBlack Pink
ĠVigl acera
b iá»ĩt
ood y
ĠAn to
ĠPe ugeot
Ġth Æ¡i
rus h
ks and
ĠM R
ĠK iÃªu
M as
ĠMil ey
ĠCl au
ĠG le
ĠP BGDPL
ĠthÃŃ a
ĠÂ ½
uat em
il ity
que z
11 1
ĠExp lor
ĠF at
chá» ĳt
ĠPu erto
ĠG L
Ġn ong
ĠMarc os
ĠHK TT
ĠLe ad
g ers
ĠCarib e
ĠMat ic
2 12
B MW
Ġr Äĥm
au n
ĠK CX
b al
S á»Ńa
ĠDaily mail
m ut
B XD
Ġt áº¯p
ĠK Q
ĠDes ign
ra ham
ÃĻ NG
ĠS amp
um an
k ai
Ġph Æ°á»Ľc
ĠColle ge
há» į
ĠnghÃ ªu
ĠMul ler
lin ois
ric io
Ġlo ve
Ġ un
is co
i ya
ĠMc Donald
ĠKy i
ĠLuxem bourg
t áº§m
ĠN PK
gi es
if a
Ġ37 5
7 20
cho ol
ĠKiatis uk
Ġtá»ĩ p
Y áº¿u
ĠV isa
ĠA eg
ĠCyr us
ĠAm b
z ania
10 9
R á»Ŀi
w o
Ġf rom
tr ai
tour ist
ĠXS KT
ĠL ake
Ġná» Ľt
ÃĤ M
Ġsá» ©a
Ġ28 5
b Ã¡c
ND P
L Ã´
ĠF all
end all
Ġph áº¿t
my ra
Hot line
ĠT KCN
Ġf ull
ek o
m ai
ĠLe y
áº¬ N
Ġl Ã²a
ĠBan d
ĠD oll
J e
en ix
ĠT áº·ng
ĠÄĥ ng
ĠCap itol
14 8
ĠPrad esh
ĠL ip
Ġgiá» ¡n
ĠNghÃ ¨
CP OA
ĠRes iden
it or
ĠMos s
ĠTT GT
ĠW ei
Ĺ ı
ĠAustr al
ĠB og
ĠTr Ã¢u
u da
ĠM om
Ġco c
ĠAl ba
tor y
x uá»ĳng
ĠCo upe
Ġk o
M Æ°á»Ŀi
P er
g am
ov an
let ic
Ġb lazer
Ġc up
ĠG há»ģnh
Khá» §ng
ng ay
Ġl áº£ng
Ġ7 30
ĠKat y
Ġ22 9
ĠSo hu
AD B
ĠB ou
s tr
ĠDoug las
? ...
nh áº£y
oo p
Ġ22 1
ĠKh Äĥm
zo om
ĠVi v
Ġ22 7
ĠD ak
uatem ala
Ġ15 00
Ã ¤
l b
Ġx Ã¢u
ĠKh oan
ĠTae k
o it
enc ent
ĠCh av
3 10
Ġqu á»ĩ
ĠB ull
ĠL iv
Ġt uyá»ģn
5 80
ĠEr n
ĠM n
ĠÄĲak rÃ´ng
ĠPV I
ĠB ong
ep t
ĠTh Ã¡ch
K m
ĠGl ass
» ¥ng
á »¥ng
d ÃŃnh
ĠNhu áº¿
agu ar
th iáº¿t
VKS ND
ĠJo y
L á»¥c
ĠDia z
12 3
Ġcarbo hyd
ĠK w
ĠH ero
oz y
W ashington
land o
M áº¯t
ĠMer c
ĠEl ly
ĠT ong
ĠY áº¿u
ĠCH I
ut an
ĠX ay
BÄĲ S
ĠNe uer
l áº¥p
Ġtho áº¯t
ĠErik sen
ĠS ÃŃp
ĠS ig
ĠATVS TP
M E
L Ã²ng
Ġhá»Ļ c
FI FA
ĠAbb as
ĠTrip oli
Ġn Ã²i
Ġv ol
ĠD iá»ĩm
Ġl Ã³
Ġnh Ã¢m
Ġ24 7
ai ly
ĠAr k
Ġcá» Ĺi
Ġb anh
Th Ã¡p
19 68
Ġtrá» ĵi
ĠH iguain
ĠPhÃ ¬n
ar ch
ho on
ĠCh iÃªn
ĠRivers ide
ĠRang nick
ĠNg o
akh ar
t hÃŃch
ĠF DA
4 30
ĠD á»ħ
V á»ĩ
ĠHymen optera
© m
Ġc r
ĠMar oc
ĠST EM
Ġ23 1
ĠNex us
ĠF ior
Ġchá» ±c
ĠIU U
ĠViet Jet
ĠAl zheimer
! ",
p ir
ph Æ°Æ¡ng
i j
w atch
Ġ24 9
Æ°Æ¡ Ã¬
Ġl Æ°á»£m
ĠIl linois
ĠU t
H ua
ĠHar per
ĠBrook lyn
Ġs mart
ĠDep ay
N usra
ĠS et
+ .
ĠN eo
ĠTrá» ©ng
nex press
Ġt eh
Y P
Ġv áº¹t
ĠS Ãło
ĠKaw asaki
ĠR B
ĠAc ad
ĠM G
Ġ24 2
t á»ĳt
as o
ĠJ eon
Ph áº¥n
Ð ½
Ġ Ã¡ng
y ang
ĠNa jib
ĠComp any
VN PT
ĠCom ex
ĠR ib
play er
Ġnh áº¡o
ĠToma hawk
Ġd áº¥m
Ġth Ãły
lin k
ĠT NDN
au g
ĠX y
ĠchÃ £i
ĠW ook
ur al
ac et
ĠX Ãł
ĠRap tor
ĠTo ure
g Ã¡i
buck s
ĠN ÆłXH
Thá» ©c
p en
ĠStock holm
Ġch Ãłm
ĠBug atti
C him
z on
al ke
SGGP O
R á»«ng
M Ãł
ĠMo ore
Ġdeb ut
ĠKhÃ ¢u
Ġm Ã¡ng
ons ai
ĠAc cent
L áºŃt
Ġsá» ©t
Ġ19 39
ĠVill as
ÄĲ Ã¡
c áº£nh
ĠBá» ģn
D áº¡
It aly
ĠGreen wood
ĠAbd el
ĠgÃ³ a
usse in
ĠScar borough
C Æ°á»Ŀng
ĠSu u
thá» ķi
is se
ĠPelle grini
ĠVH NT
gi áº¥y
ĠPal myra
ĠBr os
ĠP LO
ĠL áº½
ĠSuk hoi
thá» ĥ
f acebook
S m
Ar gentina
ĠN elson
n on
is son
Ġdr ama
ĠMob ifone
ĠM áº¡i
th áº¯ng
ĠSalv ador
10 4
ĠC ÃĶNG
Ġteh sil
ĠGi uá»Ļc
S ham
ĠAl c
ib r
ĠA H
ĠMac edonia
es p
Ġ6 80
P N
ĠÄĲá» £i
S ol
ĠMai n
ĠP Ã¹
S á»£
6 80
ĠÄĳ Ã¡t
il et
ĠGre g
m and
ol ia
Jenn ifer
V ic
F P
et er
ĠR im
ev ez
s á»Ń
ĠLib an
Ġth Æ°á»Ľt
U AV
d Ã¹ng
ĠHo ward
ib ank
ĠN ass
th y
k áº¿
Ġ30 4
Th áº»
ĠTh áº±ng
car e
is ic
ĠVin cent
th Æ°á»£ng
ĠI sk
ĠVi ent
dio xin
ĠCon trol
Nh iáº¿p
Th uyá»ģn
ĠEzz or
ĠR iá»ģng
ed o
ĠNhá»ĭ p
Ġgu á»ĵng
ĠD I
Ġ4 12
ĠCl ark
ĠVN G
ĠCT ÄĲ
â Ĺı
SD F
ĠV áº½
ĠTHá» Ĭ
evi ew
ĠFel ix
T im
ĠS tyle
T áº¥n
su it
ĠC orn
ĠNg Ãµ
Ġg áº«y
Ġr e
h or
ĠTT ÄĲT
Ġch áº§m
Nhá» ĭ
) /
qu ay
s ha
ĠNh iá»ħm
S how
ĠGho uta
h áº¡t
ell es
Ser ies
Ġgi Ã¹m
ĠTR áº¦N
ĠChan athip
ĠTu c
ĠR A
Ġcom ment
ĠL ÃĬ
ĠT on
V Ã¡y
ĠTaj ikistan
ĠS r
ĠSport ing
ĠUN CLOS
ĠSe an
ĠEVN N
ĠL Ãºa
C Æ°á»Ŀi
B Ãły
Ġr á»±a
ĠAt alanta
Ġkh iÃªn
ĠHo áº¯c
Ġ3 12
Ġbo ots
ÄĤ NG
Ġr Ã¡ng
Ġ23 4
Ġlá» įi
ĠP TTH
h m
ad el
Ġp er
b urn
Ġ22 8
Ġt Æ°Æ¡m
Ġkh áº£m
Ġph Äĥng
4 60
ĠF rid
Ġ23 2
ido do
ĠKas per
phá» ĳ
ĠM uá»ĳi
c over
Ch áº¥n
ĠF ellaini
ĠDu á»ĩ
ĠRe agan
Ġkh anh
ĠV SIP
ed ine
k iá»ĥm
ĠS eng
ĠAl ph
ĠKe angnam
A f
ier i
Ġáº¤ p
ĠTr á»Ļn
á»Ł m
ĠTan zania
ĠFox conn
con sin
Ġ24 3
Iáº¾ N
Äĳá» īnh
ĠAl ber
4 20
ĠK ilo
ĠVN R
ĠFans ipan
K hÃ³a
ĠG uatemala
ĠHil ton
v áº«n
ĠHad id
ĠG rai
I CM
ĠB av
ļ t
ĠL ittle
ĠHo on
ĠJ is
Ġc rossover
ĠT ung
b ong
Ch e
SH B
Ġá»ķ ng
enc y
Ġax ÃŃt
Ġcá» įng
á»ģ m
Ġl Ã¢ng
Ġm iáº¿t
ĠA se
ĠPr im
ĠT ob
ĠthÃ ²
ĠC and
Har ry
EV FTA
ĠL ak
CÃ´ng ThÆ°Æ¡ng
: "
ĠHam ilton
tr á»±c
Ġ26 8
ĠNh Æ°á»£ng
t ung
ĠW idodo
x tan
ĠMig uel
ĠWik ipedia
ĠKr as
ĠElec tric
ĠC ode
ĠE TC
Ġca c
ĠInfin ity
M ax
C áº¥m
b Ã¬a
U K
ĠThá» ĳt
Vit amin
ĠL ung
chá»ĭ u
ĠNar endra
Pod s
d Ãłi
ÃĤ u
ĠPet rov
Ġf lav
V en
ĠA hn
P aul
ĠM á»±c
eo r
tr áº¯ng
ĠShe ikh
ĠCh Æ¡i
Ġr Ãº
ier ra
uc ci
ĠV is
E ver
ĠDuc ati
ĠB LACKPINK
D Æ°a
ester n
ĠrÃ¬ u
ĠcÃº n
ĠH ey
el i
ĠP un
ĠCC TV
ĠZ am
ĠR Ã¹a
co in
ĠX oan
Ġden im
15 4
Ġcaffe ine
PP P
ĠIP U
Ġd áº£
ĠIr ina
ĠFu j
áº¢ NG
ĠG yeong
ĠAr thur
eth yl
ĠCo in
P op
ĠD ance
ht ar
ĠÄĲ oÃłi
Ġf ashion
ĠJ ulia
ĠLÃªn in
ost ok
Ġ zoom
Ġsil icon
Ġc c
Äĳ Æ°a
ĠHy o
Ġvá» ĵ
ĠK Ãª
ĠYang on
ĠFur ious
Ġn ot
nh áº¡c
Ġin ox
ĠW erner
R Æ°á»£u
ĠSá» Ĳ
ĠMotor ola
Ġtrá»ĭ a
z ie
Ġk á»ĭ
r ice
** *
ĠK BC
ĠExplor er
ĠthÃ ¬nh
u ver
ĠMá» ļI
ĠF it
Tr á»£
ĠG ong
ĠT een
ess ing
ĠCamp bell
T hÃ³i
ow a
A FC
Ġmá»į t
ĠYoshi hi
Äĳ Ãºng
ï ¿
ĠUN ICEF
Ag ribank
any e
ĠÄĳ Æ¡
Hua wei
M r
Ġhá» £t
ĠPhÃ ¬
ĠN ice
ĠFri ed
ĠJac ob
ph y
ĠBey on
hog gi
Ġlá» ¥i
X Ãºc
ar ay
Ġth áº£nh
ĠK á»µ
Ġl á»±
ph un
XH CN
Olymp ic
ĠvÆ¡ ÃŃ
Ġph Å©
Ġs Ã©c
ĠH orm
Ġv eo
ĠM D
Æ¯á» ļ
ÄĲ Ã¢u
Ġhá» ¯ng
ĠN orm
ĠNev ada
lat an
ĠTr a
v ui
ĠPo int
ĠB Ãłnh
Ġrá» §a
it ime
ĠUy á»ĥn
ĠC raig
5 20
ĠT encent
Ġchá»Ń ng
ch áº¿
ĠSte in
n ic
ĠSt ew
ĠVient iane
ĠV á»«
ĠMax im
ĠGra echen
ĠH eb
ĠNS A
ĠAl m
ĠAngel ababy
12 6
K ÃŃch
Ġg Ãºt
ĠRe view
ĠIN F
Ġt one
BC ÄĲ
ĠB Ã´
ĠT ÃŃt
Ġb ot
ĠBru ce
) "
as c
6 30
Ġs ub
P o
ĠKn ight
b áº£ng
ĠEm ily
ĠBlanc os
ĠL á»±u
ĠJ ai
ĠH VN
ĠS B
ĠSlov enia
Petro Times
Ġl áº¡ch
L Ã£o
AN K
ĠK us
st one
ĠS Ã¡n
ĠNh áº¯c
K ar
ĠN Ã©t
ĠM PV
un o
D á»ħ
ĠF ly
ĠHo dg
Ġ23 6
ch n
Ġlá» ©t
ĠM áº¡n
ĠZ akhar
ĠSark ozy
igh light
ĠÄĳá»ĥ u
ĠCru iser
Ġng áº©ng
Ġtrá» ©
ĠT Ã¨o
is ha
Ġchi u
12 8
Ġmu á»Ļi
M in
ĠA st
id ia
ing o
id s
G ermain
Ġt uáº¥t
Ġ22 3
Ġ30 5
Ġl ithium
ĠRam sey
ĠÄĲ Ã³n
et ti
ĠM ill
ĠSur face
Ġtu Ã´n
ĠNav as
en os
Ġ3 35
Th S
ĠTr á»Ļm
G L
c ua
ĠK ob
Ġx á»ĳi
ter est
Ñ Ģ
Ġv oucher
Ġnh áºµn
ĠvÃŃ u
our i
BH YT
Ġst art
ĠFor ce
ĠKhas hoggi
Ġgi Ãªng
ed l
ĠW W
Ġ23 8
Ġl áº¯t
F in
ĠJ ab
b ie
ĠS á»ĳt
10 8
Ġt áº§u
t z
ĠAb raham
ith u
ĠMorris on
M exico
Ġth áº±n
khá» ĳi
ĠH ussein
C áº§m
Ġn áº¿t
3 90
x on
ĠA eon
ĠShar apova
¬ m
Ġ3 24
Ġchá» «a
âĢ¦ ".
enn es
ĠN L
ĠAlf red
og o
Iá»Ĩ N
ĠCar n
Ġc Æ°u
Iá»Ĥ M
Ġchá» ĵi
Tr á»ĭ
ĠV il
ĠM am
ĠWis consin
ĠÄĲo Ã²ng
Ġ ev
ĠR OS
N m
ĠTr á»Ĺi
13 2
ï¿ ½
b ull
Ġv oan
ĠN Q
ĠMat s
ai ca
ĠMa j
Ġg out
C loud
ĠSil ver
ul f
ĠN ino
Kh Ã¡t
H Ãłm
H á»Ļ
Ġlu áº©n
ĠKar aoke
p etro
ĠTP DN
g es
ĠK BS
ĠTH I
S Ã¡t
ĠSun ni
ov sky
ĠVI E
ĠIS S
Ang el
ĠK ep
ĠÄĳ Æ°á»£m
Ġb áº½
ĠTr Ãło
ĠI NS
ĠOr lando
Ġd Ä©a
Ġ are
ĠchÃ ¹n
ĠOr ig
do ch
el u
Ġ19 36
H Ã´n
Ġsu it
Ġx áº©m
ĠMi y
hÃ ºt
V A
ĠP il
S áºµn
te c
ĠJim my
( *)
ĠS ign
ind y
ĠhÃ³ t
if y
17 5
ĠEl ite
AN TT
od es
ĠWil d
b Ã³c
ĠO Ã¡nh
Ġl iáº¿ng
ĠH á»Ļp
Ġan ti
Kh áº©u
Ġd ata
Ġn á»Ļm
âĢĻ ),
ĠD F
nh o
Th Ã¡nh
H a
ĠA ld
B TS
ĠMuang thong
áº¦ U
N e
ĠE P
Ġ Ã¹
ĠS id
Ġt Ãłnh
ĠAth letic
acom in
ĠPho enix
ĠKH XH
ĠLar ry
s m
eb ack
Ng á»§
ĠIA EA
ĠGD CK
ĠPan asonic
N o
ĠÄĳ Æ°Æ¡c
Ġh áº¿n
Khu Ã´n
ĠR iv
ĠGD PT
ist ic
ĠRe port
Ġ30 1
G Ã¡i
ĠGP U
Ġgh áº¹o
ĠUg anda
6 40
u o
ĠHo s
il m
Ġnháº½ o
od ay
6 60
Ġ25 1
it on
ĠPark er
Ġl Ã¹a
á»¥ a
ĠChu á»Ĺi
t ex
w player
Ġ áº¡ch
Ġnh Ã³i
ĠTh ak
ĠG uy
N okia
ĠB orn
ĠAnto ine
Ġb Æ°Æ¡n
R Ãł
ĠM BS
ĠL ienVietPostBank
Ġá» ³
Ġ25 4
Ġ24 8
ert z
Ġ29 5
W in
ĠB ack
Ġt Ã²ng
ae k
ĠAlb ania
ast el
ĠMir anda
g io
ĠMah m
ĠOli ver
ines e
ĠTP CP
Ġch Æ°á»Łng
ĠC li
ud ential
ĠMod e
Ġtal uy
ĠGr ay
1 45
ĠStan ley
ĠE SP
ĠP y
11 4
ĠHS X
ĠWag ner
Ġ25 2
ĠP ang
Ġvá» ī
15 2
PhÃ ¹
ĠAs an
ĠKo eman
ĠÆł n
Kho ai
ĠChá» ¯a
Sá» Ľm
ĠO il
ĠSH S
ĠJan eiro
ĠSt ur
ĠAd rian
ĠA NTÄĲ
ĠO PPO
ĠMat xcÆ¡va
ĠT est
ĠChi ang
ĠEm p
Ġ26 4
hi ll
Ġmet hanol
hÃ ²
36 5
ĠSch we
ĠTh Ãło
ĠhÃ ³ng
r ac
ĠS ett
ĠJ MG
Ġ78 7
ĠDis play
Ġch áºµn
Ġhá» Ľ
tr iá»ĩu
ĠStar bucks
Ġw orld
ĠG Ã³p
Ġá» £
ĠFin ance
ĠNh áº«n
ĠSouth gate
Ġca p
ĠBar t
ĠA NTQ
Ġhá» ī
ic ius
l Ãª
ĠMuham mad
ch inh
ĠIndepend ent
M Ãły
Ġc uá»ĵn
el ly
Ġg áº¥c
end i
ĠS em
ĠM itch
ĠVol vo
ĠA MO
ĠP age
ĠHold ing
ĠTuc son
ÃĶ i
ĠAd idas
EO N
C anh
ĠRob ben
Ġh atchback
Ġ4 90
ÃĢ O
ac an
ĠChav ez
SC E
Ġd áº¿
ĠBuff on
ĠVat ican
ĠÄĳ Ã¡c
ĠPr ime
ĠD iÃªu
let t
C á»±
ĠO M
ht m
ĠMark le
Ġng Ã´ng
Ġng Æ°Æ¡Ã¬
nh Ã´m
ĠXX I
G á»įi
Ġbá» ĩt
ĠR ac
On line
us k
8 40
BC A
ĠJ azz
b Ã³
ch amps
ĠX U
Ġm Ã³i
ĠSant iago
Chá» ¥p
ĠC all
Ġma fia
ĠBR I
ĠHarv ey
ĠN KT
ĠGr ace
ĠNav al
f ast
ĠTT YT
Ġtá» ĥ
s ar
gi Ãºp
ĠDy bala
ĠV SA
ĠTR UNG
k im
ĠHá» ĺI
ĠM ÃŃa
ĠNhÃ £n
chá» ¯
âĢľ .
Ġ3 19
ĠMatt eo
ĠNV L
ĠP LVN
Ãļ C
Ġph Ãłng
ĠChÃ ¨o
ĠL eop
ĠP earl
ĠP LA
ĠJe ong
Pet rotimes
Ġl áº¹
Ġs Ãªn
ĠE ug
ĠMic ro
Ġtest osterone
ĠLu ka
M L
ol et
Qu Ãª
ng Ã£
x áº¥u
hi t
ĠTitan ic
d al
ĠVal ley
7 60
Ġngá» Ĺng
ĠCH XHCN
ÄĲá» īnh
Ch ar
sh ine
ĠLat akia
ithu ania
land er
Ġh Ã¡ng
ĠC ir
B ill
ff ield
ĠEng lish
ĠM Ã¢n
» Ľt
á »Ľt
TC T
ĠB áº¿
98 1
ĠFut ure
Ġshop house
ĠPol y
C áº¥u
9 20
qu es
nh áº±m
iz u
P O
ĠHo ang
ĠStew art
om i
ĠLuk ash
let on
ĠF TS
Ġcarbohyd rate
al li
ĠN iá»ĩm
am oto
q i
d om
Ñ ģ
ĠSus an
ĠEd u
v iÃªn
ĠF arm
U T
Ġ202 8
Ġthi u
ĠT oni
Ġqu áº«n
ins te
ĠCh áº£
ĠJ oan
Ġp o
Äĳ á»ĭnh
ĠHiroshi ma
Ġ Ã³
ĠHe at
L i
ĠTH U
k ong
t á»Ļi
Ġh áº¹
ĠD W
Ġb onsai
ĠV Ã©
ĠchÃ³ p
ĠNap ol
b iáº¿t
Ġ29 9
ĠX Æ°á»Łng
ĠKho áº£nh
ĠSi em
v á»¡
Ġc p
ĠE va
Ġb Æ°á»Ľng
Ġbox ing
l inh
Ġs iÃªng
con i
M ade
ag on
ĠW iki
Tá» ©
ĠP ict
ĠAM D
7 80
K N
ĠZin edine
ĠTr ue
HÄĲ QT
Ġso Ã¡n
av y
11 6
ĠBos nia
m id
Ġ23 3
tr á»įng
ter n
en berg
ĠAd ri
5 40
ch áº³ng
Ġ24 1
ĠCal isto
ĠI an
ĠCB RE
N á»ĳi
ĠMar ca
ĠAMO LED
R ON
ĠM it
P CCC
Ġx oan
ĠQu in
Ġlá» īnh
ÄĲ áº±ng
23 5
ĠCap tain
Ġg áº¡c
ĠJ ens
ĠComp lex
; âĢ¦
ĠT Ã¡nh
ĠH idd
V IT
15 5
ĠHol mes
ĠLiber ty
el ia
ĠDid ier
G l
n áº¡n
Ġ ).
b á»©c
ĠY áº¿t
d áºŃy
H iáº¿n
ĠA ud
Dr ive
ĠNhÃ ©
ĠD á»ĳc
ÄĲ áº¥y
ĠE p
ĠKos ovo
ĠFior entina
ã ģ
Ġto ang
rog ba
ĠK oi
ĠWeb site
ac le
ĠRom ney
ĠR EE
ĠKy lie
ĠC ell
Ġd ec
gi áº£
Y áº¿n
Tr iá»ĩt
ĠD R
ac a
ĠC ort
0 20
ĠZ ero
iÃª Ã¹
conom y
ĠS OS
ĠE IB
ĠWars aw
ĠÄĲ áºŃp
yo ung
Ġxo ong
ĠH Ãºc
ĠCl ar
202 7
ĠG áº¥u
ĠT evez
ĠS SD
ĠL et
Ġ25 8
0 60
19 69
ĠV ardy
ĠF ront
ĠKh ark
t t
12 4
ĠSub aru
ĠK ao
f ax
ĠStan ford
N ay
n os
Ġ30 8
ĠOliv ier
Viet Q
ĠSe attle
. '
V áº¿t
Ñ Ĥ
m os
ĠRed mi
p es
1 19
ĠY uan
ĠC ass
Ġ19 38
10 6
Sai gon
Ġn á»ĭnh
ĠK ub
88 8
M c
ĠV B
M azda
ĠK Ã¨m
ĠHu ang
Ġh Ã¡
Q U
Äĳ o
k ar
ĠM iá»ħu
22 7
C rist
ĠKhÃ ´n
Ġs áº¿n
Ġg roup
mp ic
Ġ26 7
ĠL X
gr ande
ĠKho ang
DI Z
E CB
0 90
b iá»ĥn
at as
Äĳ un
ĠCar rick
ar es
rip al
Ġn Ã¡
ĠVid al
ĠCh ai
ov inam
av ia
nes ota
Ġnh Äĥng
Ġr áº¿t
Ġ24 6
t hÃ¢n
hÃ ´
ĠSp ot
Ġnh áº·n
le v
Äĳ Ã´i
Ġchá» Ľm
ic us
ants ir
19 86
bao dautu
ĠFrid ay
Ġnh Ã³t
ĠFor est
ĠD ra
Ġt Ã½
net t
ĠDr ive
6 10
Ł m
ĠSmall ing
5 30
ĠCar ina
ĠP on
ĠWilli an
n áº·ng
ĠMA X
ĠKash mir
ÄĲ Ã¨n
es is
uc ation
n Ãªn
Äĳ á»ı
hi to
ĠK eo
ĠPro duc
th al
2 23
inste iger
ĠD AP
Y D
t ail
nh Ã¬n
en do
ĠHe art
D áº¡o
ex co
ĠQ Q
K HHGÄĲ
ĠDoll ar
ĠWom an
m Ã¡u
ĠJ aguar
op ment
KhÃ³ i
ĠGCN QSDÄĲ
Ġth at
ĠK ings
Ġlip id
ĠBV SC
ĠW emb
hÃ² a
p ar
Ġt Ã³e
10 7
ĠHu Ãª
N Ãªu
ĠIs lam
Ġtr Ã¡m
qu ets
ĠHun ter
Iá»Ģ U
ap ol
ĠK uz
Ġ10 80
l Ãłng
sov petro
ĠS ierra
ind er
K TT
ĠSqu are
R ed
Ġs ne
ĠT á»ĭch
ira vir
ĠPh iÃªu
Ġd Ãºi
ĠM SB
ĠSch alke
ĠAlexand re
lo e
ĠSt ory
H ong
ĠB ever
ĠUn ion
ĠV ung
iá»ħ ng
ĠC ope
ary an
d ale
ĠNg á»±a
Ġsoc ola
ĠWel beck
Ġcá» £t
H Ã¡t
ĠN á»ĳi
ĠV áº¿t
ĠM uk
es i
Ġmag iÃª
ĠB le
ĠH UD
ĠHam burg
ĠSk ripal
ĠH ÃĢ
ĠHan n
on na
ĠOp era
n CoV
Ġ24 4
ĠShang ri
Ġ35 6
er ing
Ġ20 40
ĠGI Ãģ
ink a
tr anh
ĠAse an
D á»«ng
ĠK Ã©o
ĠMary land
ĠBlock chain
ĠIsk ander
t os
ĠT it
ĠMin nesota
ĠVL XD
Ġgluc ose
g Ã³i
ĠRen ault
Ġ27 4
k á»¹
ĠBe ek
n ell
ĠC hÃ³
ra p
ĠChÃ ¨
ĠCH Ãį
TS KH
ĠWemb ley
ĠAir Pods
pp e
ĠKh iáº¿u
Ġ8 20
w ick
et on
ĠR us
ĠN áº¥m
ĠC opy
v it
ĠA ce
un i
16 5
Ġ27 2
Äĳ áº©y
al aya
ĠIs co
ĠChrist ine
ĠL U
ĠC ub
Ġ29 8
l Ã²
D Å©ng
ĠR ho
» §i
á »§i
at ter
Ġnh Ã¡p
ĠKal in
22 2
do wn
Ġv ac
ĠYo ur
phá» ¥c
Ġ23 7
ĠÄĳ áº§n
ĠAm ber
ĠB Ã¢n
um e
Ġp an
ĠGi b
v áºŃn
en burg
R ad
Ġph oto
ĠAm y
Qu áº¿
l iá»ģu
ĠmÃ£ ng
ĠSe ABank
in fo
Ġ19 37
ĠBh utan
ĠGat eway
Ġs Ãª
QL TT
ĠV á»ı
4 70
' '.
c op
m ec
ĠR Æ¡i
ĠAt lant
as p
ĠEur ope
T axi
ĠH M
SL NA
riz io
ĠJ al
EU R
Ġmo Ã³c
Ġx Ã¬nh
ĠM K
ĠHun t
ĠTh Äĥm
ĠkÃ¬ a
S uz
ĠZo om
ĠÄĲ oa
Ġ26 2
AM G
uts che
0 40
Ġcá»± a
6 20
Ġv Ã¡i
ĠSt ate
11 8
ĠLim a
ĠH L
ĠHu b
iff any
ĠB M
ĠNe il
Ġj ack
oth y
Ġv áº©n
A B
âĢĿ (
ĠV pop
ĠL ap
ĠDes champs
Ng Å©
Ġphot oshop
E d
ĠD at
Ġ !!!
Ġ4 000
om at
R Ãºt
ĠP it
d iá»ĩn
Ġkhá» Ŀ
ĠInter pol
ĠN ur
Ġ25 7
ã ĥ
Ġv Ã³t
ĠPhil adel
o xin
Ġty pe
My anmar
ĠL ithuania
ĠCH á
ĠCHá »
ĠÄĲ un
ĠF our
; ...
ab lo
q uyáº¿t
ĠS ton
19 87
Ġmen u
omel idae
ĠRod gers
ĠL Ãłi
ĠIv anka
udi os
Ġ Å
ĠC áº¥u
ĠAR M
e em
ĠChrys omelidae
ĠE PS
em ia
ech n
Ġ48 8
p ink
ĠC in
V a
ĠSub eo
ĠSecur ities
ĠLit va
ĠchÃ ¹ng
Ġd áº¥p
ĠAl tis
» ²
tr á»Ł
ĠÄĲHQG HN
ĠNg áº§m
ĠY ak
ĠC Æ°á»Ŀi
ed es
Mich ael
ĠD Ã¢y
A c
S tr
ĠQueens land
ĠV C
Ġp ap
ĠQU ANG
ĠJam aica
F L
Ġ30 2
COV ID
b Æ°á»Ľc
giá» ĳng
ur ch
ĠS SC
Tr uyá»ĩn
ĠM og
: âĢľ
G h
Ġ33 7
au me
ĠPhiladel phia
ĠY ellen
Ġlá» £
ĠEs s
Ġ3 45
enn y
ĠHy uk
Ġto ilet
ĠNig er
hn er
V EC
ĠAqu ino
km en
ĠBrent ford
Ġp astel
us ic
P ep
ĠTr áºŃt
ĠW ard
ĠMTTQ VN
TT DL
ae v
t Ã¬m
ĠM Æ°u
ĠSaigon tourist
ĠFernand ez
C IA
Ġrá» £p
lan ta
Al bum
ik ov
ĠDe an
ĠA UD
ĠPap ua
ĠKh erson
0 70
co unt
ĠM O
km an
Ġd iáº¿p
B io
ĠC atherine
M ob
ĠMari upol
ac as
ĠB ot
Ġnh Ã¡m
ĠMar s
d son
ĠJer emy
ĠA o
F DA
ic ia
c le
ĠWom en
ĠT at
Ġn ua
f eld
Ġn Ã©p
ĠF E
ag i
Q I
ĠNic ole
ĠB akh
ĠO re
ant an
ĠX ong
ĠSu zy
ĠC Ãłi
ĠThak sin
ĠF ocus
tr uc
ĠZ apor
ĠSo und
Ä© u
6 70
Ġkh áº¥t
Ġvá» ±ng
L á»Ļc
n in
ov en
T Ãºi
m Ãª
Ġ28 8
Ġho e
ĠBur iram
Ġ5 10
ia tion
S un
ĠCro wn
IP O
SM N
cá» ©ng
ĠShar p
ib er
ut i
T Æ°á»Ŀng
Æ°á»Ľ m
W e
ĠFut ures
Ġc ovid
ĠT ig
Tr ÃŃ
ĠN iel
Ġx Ã©o
ĠK anye
Ġhá» ·
ĠPia ggio
ĠÃĶ i
ĠB K
Ġ Î
TT C
12 1
ĠT ah
Ġm obile
ĠHaw k
stan tin
ĠPal m
19 82
ĠV K
ec ca
ĠSev en
P aris
ĠVir us
in ay
Ġh Ã¡m
M obile
ĠO ECD
ĠSt udios
Ġ45 8
ĠD á»įc
ĠD OC
á »²
ov ers
Ġcar ot
Ġop era
Kh Ã¡
ĠPh Ã¡n
m iá»ģn
K em
ĠSH TT
áº ¶
ĠC ES
ÄĲ á»ĵn
ĠTh en
ĠPol king
chá» įn
S ony
H iá»ģn
K at
ĠZ latan
ĠTaek wondo
ĠPhá» Ł
Ġlo anh
ha el
ĠLan e
ĠR Æ¡
J ames
Äĳá» ©a
Ġs Äĥm
8 60
Ġ26 6
ĠMold ova
Ġqu á»ĩt
Crist iano
? '
I raq
ĠY el
id aceae
Ãĵ NG
Ġl Æ¡i
ĠTh is
ĠnghÃ ©
nh agen
ĠGi use
ĠCOV AX
av irus
ĠD allas
ĠCh áº½
ĠBra h
áºł N
Ġnam e
ĠAl leg
r ell
R á»Ńa
ĠKat ie
13 6
Ġl ed
Ġthá»ķ n
ĠMal ta
M or
ĠA EON
ĠEver grande
ĠBro ad
ĠL Ã¹ng
Ġg áº¥m
ĠDe ep
ĠOne Plus
Ã ģn
ĠK err
N L
ĠI TA
s hi
ĠWhat s
Ġmod ule
ĠTur in
Ġngo ai
Ġtr áº¡ch
Ġn Ãºc
ĠThá» Ł
Ġhot line
M Ã´ng
Tr ÃŃch
ox ide
ĠBoy s
B áº¡o
ĠNag orn
D uyÃªn
og ne
s Ã³ng
Ġch Æ°á»Ŀm
ĠDev el
ĠAd ele
á»¥ p
KCN A
ĠTr Ã¹
ĠP ele
ĠS W
Ġtrá» ģ
ÄĲ á»ķ
ĠLo áº¡t
ĠlÃł o
Ġ( ?
ĠAcad emy
Ġhá» «ng
ĠL Æ°á»£c
E conomy
Ġ6 70
ĠX iá»ĥn
im p
ĠHo k
) ".
Ġdi oxin
b un
h on
ĠE th
ho áº¡t
Chá» ©c
Ġnháº¹ t
ĠVel vet
b ike
ĠN Æ°a
ĠShe ffield
Ġs ize
ĠTr end
ÄĲ áº¡t
ion al
t es
Ġph Ãłm
ĠL ily
ĠM eh
hÃ ©
ĠAsan zo
ĠGar ros
Ġk W
ĠEng ine
12 9
ÄĲB SCL
ĠJis oo
ĠS uez
sk aya
f r
Ġc ur
ĠcÃ³ i
Rob ert
ĠPr udential
ĠM oody
ĠÄĲá» ĺ
ĠNG H
ĠStr ai
ĠF ad
Ġ35 5
Äĳ Äĥng
ph arm
ĠGi Ã¡n
ĠWal ter
ĠSo on
Ġká» īnh
ĠVi vo
ĠBet is
g il
19 67
ĠCá» §ng
ĠT IN
ĠVi go
Ch rist
ĠX M
iet y
ĠWat son
ĠO la
ĠCot ec
ĠSett ings
ĠRub y
il ever
s hire
ĠG ri
ĠBus quets
ĠLu ang
ĠCh ad
as u
ĠP antsir
ĠHar ley
ĠV RE
ukov ych
Ġ7 80
ĠS Æ°á»Ľng
Ġv in
ĠF loyd
ĠFab io
Vietin Bank
ĠVina Capital
ĠKTT V
Ġh and
Gi Ãłnh
ch ang
ĠBir d
ag as
ĠChalle nge
E W
ĠE up
TN AM
T uyáº¿t
Ġg Ã¡p
ĠN á
ĠPr Ã´ng
t oÃłn
ĠCh áº©n
Ġg á»ĵ
ĠNá »
ĠMil it
ĠBar r
ng Ã¢n
Ġcho áº¡ng
B Ã´ng
un k
ĠMor si
u do
M b
aph one
» §ng
á »§ng
po int
ĠJan et
h iá»ĩu
Ġb áºŃp
EC H
k or
m á»ģm
Ġrup ee
ĠChu ck
ub le
Ġg Ã¡o
ĠN em
ol lo
c at
At letico
Äĳ áº£o
ĠFl ick
ĠSoo bin
c ong
ĠVP CP
ro e
Trail er
lus coni
ĠTr av
ĠK endall
TT LT
ĠZ a
ĠNT NN
Iá»Ģ N
k ook
ĠI CBM
c Ã¡t
ort ivo
ĠCap e
S outh
7 70
ĠD uma
P ak
m Æ°a
ĠNest lÃ©
ĠJe ju
7 30
ĠSeb astian
M á»Ļc
hi ro
EA M
im o
ild ing
D OC
ĠV á»¯ng
at ure
G ame
ĠÃĲ á»©c
19 50
tho use
am o
ĠCom mun
b iá»ĥu
ĠK IA
ĠSi ro
n Ã´ng
Ġkhá» ĳ
Ġl áº·t
ĠMar gar
ĠI owa
ĠX iÃªm
Ãµ n
ĠCon f
17 1
ĠP ick
ĠArm ata
ĠL á»¥a
9 80
ĠAir es
ĠHorm uz
T Tr
lian z
ĠT iá»ģm
ĠW AG
ĠJav ier
ĠF amily
han e
Ġgh áº¹
ĠAir Asia
ĠVen us
ĠMend es
Ġ8 30
19 85
ThÃ ¬
ĠPir lo
ĠYan ukovych
ĠSh an
ent a
AT A
ĠÄĲ iáº¿u
ĠTP CN
r ico
Ġnh Æ¡
Ġv Ã³
Ġq uyá»ĩt
ĠL áºŃt
Ġu á»ķng
H á»Ļp
M Ãª
ĠDX G
ĠS U
T an
ĠRen o
ach e
ĠH NG
ĠRad io
0 10
ĠB aker
20 5
ĠDomin ic
14 2
ĠInd ian
ach i
Æ°á»£ p
ĠWin ner
ĠLau ra
Ġ9 60
ĠT ol
ĠL áº¥p
ĠP áº¯k
ĠD iv
ĠS ix
ĠK omp
ĠShi ite
b reak
Ġl áº¡p
ĠOm ega
Ang ela
Th áº±ng
tr ao
7 90
8 30
L á»Ńa
NhÃ £
ĠWal cott
B om
Ġn Æ¡m
Ġ >>
Ġn áº¥ng
ĠT áº£n
ĠSe ong
ĠViet sovpetro
ĠS ino
m iá»ħn
A L
Å Ł
out ube
ĠM Ãły
ver t
ĠGh ost
ĠPin terest
Ãģ T
ĠRom elu
ĠHind u
ĠBy ung
Ġná» ĩn
ĠInter est
ĠB ail
Ġ33 3
ĠL PG
ĠAc cord
Ġmicro SD
ng á»§
D á»įc
ĠVill age
Ġb áº¹
R obot
w orld
ĠCO C
Â ·
ĠAc c
S uper
ĠS Ã¢u
0 30
ĠR id
ĠMar ine
24 7
ĠHop kins
nh anh
SD L
nh áº¡y
Ð¾ Ð
ĠY aya
n Ãºt
V ina
g áº·p
8 70
ĠC ul
at ive
acc a
Tom inay
E s
8 80
ĠV nexpress
ĠTT KS
Ġg ly
Ġ3 22
Ġn Æ°á»Ľu
khi t
c áº£i
chá» ©ng
Ġ31 6
C r
s or
y ah
L am
V Ã©
ĠSp ir
ĠAr my
ĠAl lianz
12 2
ĠF ind
Æł N
Ġp ost
R NA
¥ m
ĠGi Ã³ng
ĠMar in
H am
ĠN eg
ĠLlor is
U y
n á»Ńa
AP I
Ġnh áº©m
Ġd Æ¡
Ġcá»¥ i
Ġpr essing
ĠLukash enko
Ġ all
C hÃ³
ĠÄĲ u
ht ag
ngh Ä©a
ĠTik i
Ġng Ã²
D ani
V irus
ĠF um
tr Ã¬nh
olo gies
er ick
ĠL ok
khit aryan
any ol
13 4
Ġ6 10
burg h
pet rotimes
S Ãłn
ĠB MP
Ġs treet
ĠF ant
ĠThá» ı
ĠH ÃĮNH
ĠLot us
f ol
ĠL ed
ĠBa ek
ĠM ÃŃ
m áº«u
ĠH á»±u
c anh
T áº§ng
ĠY ok
ĠDN TN
su al
phi s
c Æ¡m
x ÃŃt
6 90
ĠBe ir
Tr i
ĠL ille
ch in
ĠSan na
ĠGor don
ĠAlleg ri
l á»±c
ĠCh ong
Ġs andal
ĠTr ium
ĠD rogba
ay o
an ie
D Ãłnh
ĠMiss ouri
Y ou
x u
B TV
Ġg á»ķ
ĠH ard
ĠKy iv
ĠArc ti
ĠCH LB
ĠC ath
ĠT ot
........ ........
j un
ren e
ĠSchwe insteiger
C uba
ĠEm ail
ÄĲTB XH
CP C
18 5
ĠCharl otte
ĠEd ucation
ĠS áºµn
ĠArcti inae
Cho Ã¡ng
New s
âĢ¦âĢ¦ âĢ¦âĢ¦
ĠL ite
ĠG Ãłnh
b and
ĠAss et
qu áº£n
Ġn Ãłi
ĠN BA
ev o
Ġbá»ĭ p
Ġmu á»ĵi
Ġvir ut
ĠTr á»¥c
ĠEl an
4 10
ĠQ SDÄĲ
ĠAustral ian
ĠM iá»ĩn
ĠNaval ny
ĠAt lanta
ĠGi Ãły
ĠY aris
n up
AS S
ĠKy oto
ĠLan c
ĠBat man
l Ã´ng
Ġph ung
ĠBá» Ĺng
Ġgi Å©
D iá»ĩp
ĠG au
ĠF au
l ot
o ai
Ġng á»ĳn
ĠÄĳá» īa
ĠAz ov
ĠSp eed
ri er
áºł M
12 7
ĠV ert
ĠN ott
Tá» §
ico id
ĠWolf sburg
ĠSol eim
Ġkhá»© u
ĠBer lusconi
ĠSA O
ĠB es
ĠK won
li ch
ĠT Ã¨
ph etamine
ĠSun shine
th ua
ĠBu enos
G H
ĠK ad
ĠSte fan
ri x
ĠV accine
ĠT ank
ĠHu ll
ĠEr ling
To quoc
for man
N XB
ĠNg Äĥn
ĠUnivers al
Ġd áº§y
ĠHá»į p
ĠLight ning
S en
kh áº©u
ag ne
C E
Ġd is
Ġfol low
ĠR ick
Ġc áº§y
ng on
b áº¯n
te y
m Ã¡t
ĠZakhar ova
ĠM SC
NT K
co uver
ĠB ord
ho Ãłng
ĠMah rez
9 60
c Ãł
ĠSir i
ĠH MS
ĠKasper sky
ĠRe cord
Ġu áº¿
Th Æ°á»Łng
ĠRe v
ipp i
Ġcom eback
19 80
B á»ĳi
ang a
Ġmai l
ĠPep si
n s
ĠGran t
Ġdo wn
Ġx Ã²a
ur ai
ĠCA D
Ġd anc
nh eim
ud din
Th áº¯p
77 7
Ġv Ã¢ng
omp son
k á»·
ĠN Ã¡
ĠDe ad
ĠSoleim ani
nh u
Ġr áº·ng
ĠG LC
yr on
il yn
ĠAsh ton
ĠAR V
ĠN á»Ł
ĠBakh mut
s ton
Tr ans
ĠÄĳá» Ŀ
av en
Ġt Ãły
ĠT oan
Ġn áº¹p
ĠMed ic
Ġw e
ĠRo os
Ngh iÃªm
ĠBá» ıng
ĠTá» ıi
k Ãªu
ĠB áº¡t
ch Ã¡u
Ġm Ã³p
ĠQ CVN
we ather
Ġh uyÃªn
ĠAss oc
lyn n
ĠP CT
im et
ĠDh abi
S eo
Ġgi Ã³ng
Ġg ala
ĠStrai ts
? ,
c tic
ĠHS MT
lu áºŃt
ĠH eo
ks how
ĠMon te
ĠkhÃ ²
ĠCÆ¡ m
ĠTM V
erm o
Äĳ áº¯p
ĠDak ota
ĠBeng al
ĠBrad ley
ĠCope nhagen
ĠM ia
V oi
CN TT
qu Ãªn
Äĳá» ¥ng
ĠGer ard
S il
c Ã¢n
ĠSar ri
ĠC GV
ab al
Há»į p
x Ã³a
/ -
ĠMis tral
ĠZh ao
ĠNH K
ĠKH KT
Ġgi Æ°Æ¡ng
ĠA ff
s á»Ł
Ġ5 90
Ph oto
nghá» ī
Ġvo á»įc
S hi
ĠAeg is
Ġthu i
ad an
TT CP
ĠV CG
ĠM Ã¡
Ġ26 3
ĠW ith
ĠEx po
al ie
CC S
p ro
13 3
s Ãło
eth er
ĠSecur ity
n Ãª
ĠV QG
ĠR ot
R os
ĠSah ara
ĠSaf ari
ous ine
Ġg Ã¹i
nup iravir
ĠX Æ°a
Le aks
d oi
ĠSte el
C áº©n
ĠH in
Ġ19 29
ill ac
L áº§u
O s
T Ãłng
tr Ã¹m
há» ĵ
Ġc ui
Ġbá»ĭ u
19 76
ĠDan ang
Ġ4 25
C Ã¢n
thá» Ń
Ġb eng
Ãģ CH
Ġc ol
Ġ Ãº
ĠRuss ell
ber ra
19 65
Ģ N
Ġw hi
sil k
ĠKh uyÃªn
Ġm Ãµm
Ġgi Å©a
ĠNh áº¡n
ĠW EF
ĠkhÃ ¹ng
R ich
ng hiá»ĩn
Ġd áº¹t
Ġi T
ĠâĢĿ .
K arab
j n
Ġr iá»ģng
ĠAn aly
ent in
t uá»ķi
A NH
ĠU d
it ic
ksand r
ĠZar if
It alia
ĠP GÄĲ
s oi
40 4
Æ¯á»ľ I
ĠP os
16 8
ĠAl ice
n uÃ´i
Tá» ıi
ng he
Ġ30 6
t uyá»ĩt
B iá»ĩn
ĠW endy
ĠB uá»ĵn
ĠUn i
M H
ĠT á»±u
id on
Ġ27 3
Ġná» Ľp
ob a
ĠSz cz
ĠA sen
ĠGang won
Ġoff line
ĠF ol
ĠEnter p
ĠHo m
8 20
P utin
Ġng Æ°á»Ľc
Ġ35 4
C PTPP
Ġh Ã¡ch
CN N
Ġfol ic
Ġnh Ã£o
ĠH áºŃn
re f
lad bach
Ġbar ie
h ung
Ġs ale
ĠF on
D ung
n Ã©
ĠFTS E
M el
ĠPetrov ietnam
ĠT Æ°ng
iÃª t
8 10
ĠT Ãª
ĠSt art
25 6
ĠGer man
ĠTik tok
Ġnh áº£n
ĠNat ions
Ġrá» īnh
UB KT
ĠJo ao
ed er
ez il
Ġ27 6
l á»Ļ
l im
ĠM endy
p ost
el of
ab et
ĠT hÃ³i
ĠMau ricio
ĠVin atex
Ġz alo
berl ain
' t
AN OI
Ġd Ã³
if ood
ÄĲ áº¹p
ĠAy un
ĠMad onna
Ġ25 3
ĠUn ilever
ĠKy le
Ġl iáº¿m
ĠG in
h ong
Mos cow
ĠÃĲ Ã´ng
ĠDef ense
Ġ28 1
ĠD B
Ġ" "
F ood
ag le
ĠHá» Ľn
ĠPh oto
Ġf in
ĠHar am
ĠCS XH
j wplayer
D j
t uyáº¿n
ĠL loyd
aze era
ĠH UY
ĠW es
ĠHu dson
ĠD IG
áº® C
ĠJoa chim
ĠL áº¯m
l ob
ĠY eo
ĠhÃ©c ta
R om
Ġx áº©y
Ġ" .
ĠAn at
ĠmÄ© m
ĠJosh ua
Ġcar ton
ĠTO P
Ġet hanol
Karab akh
ĠSin ai
ĠOd essa
ĠChi ld
b Ã¹ng
ĠV E
l ess
or ia
ĠF lip
br ight
ic ot
Tr Ãºc
Iá»Ĩ P
ĠG áº¯n
ĠM Ã©
ĠK ap
8 90
ĠDep ortivo
ĠK obe
Ġs kin
Ġkh Æ°á»Ľc
ĠN umber
ĠTechn ologies
ĠP B
ĠCarib be
Ġcl ick
ĠOre gon
H á»¯u
ĠTr ail
âĢĻ âĢĻ
ĠOr gan
Ġyá»ĥ u
ob i
ĠAl ess
ent ino
N áº¥m
ĠTur kmen
x b
00 2
áº¤ U
ĠGol an
ĠC á»ĵ
ĠÄĲ Ãºc
ĠhÃ ¹
Ġá» Ľn
ho ck
19 5
ĠCh ern
ĠSoft ware
ĠA er
ĠCh ao
Ġmag ie
ĠPart ners
Ġcá»Ļ c
ĠS ik
ĠO TP
ĠG á»ĳm
Ġáº ¨m
ĠOr ange
ĠNev ille
ĠCel ta
B aghd
ĠBay er
H áº¡ng
ĠLin da
ĠVan couver
ĠNat ure
r ing
ne ider
ĠAl t
ĠBr oth
TS C
Ġngh iá»ħm
ĠHo ts
ĠHo REA
Ġ( âĢľ
3 75
ĠP ET
ĠAndre as
ĠB áº¿p
uá»ĳ m
F e
al og
D iá»ĩu
ag ship
ĠT iffany
Ġ3 99
ĠVin icius
ĠhÃ ªnh
ĠR ab
ĠS Ã¬n
ĠI g
Ġ27 8
en kov
c áº¯m
ĠRos Ã©
v áº¥n
ex t
ĠInd iana
G reen
k Ã½
av in
ĠYouT uber
Ġcon d
ap e
ĠSl im
ĠS I
evel t
ie ng
ĠPV T
Ġb im
ĠWhit ney
ĠG ro
ĠD M
f one
ĠP sy
Ġá»¦ ng
ĠH á»ĵn
X a
b Ã©
Ġn Ãµn
7 40
ĠT oáº¡i
Ġl Ã¡o
ĠC Ã¡o
ĠM áº¡o
ĠF ive
ĠS R
ine ken
T Ã´m
Äĥ c
ra v
ĠW estern
Ġ12 00
ĠD io
20 4
ĠEl le
m Ã´
ck tail
x ay
Ġthá»ī u
ĠRM IT
ĠV Ã¢ng
ĠWhats App
al ez
S mart
Ġxáº» ng
ĠCH K
il es
Ġho en
B áº£y
w at
Ġkh Ãłn
ich el
ĠAl ab
ĠWar ri
ĠO ver
ĠnghÃ ª
yp rus
Äĳ áº¯t
ĠP ablo
Ġ28 6
ĠMar itime
ĠE k
ĠR X
V ol
Ġ0 98
cover y
G ar
ĠW y
Ġ28 2
Nhá»ĭ p
Ġtr á»ĭch
ĠEng land
ĠAp ollo
ĠMc Tominay
Ġr eview
Ġ26 1
ĠPC A
ĠU K
ĠD iá»ģu
oy a
ĠChar ter
19 9
ĠG lor
13 7
ĠCol l
s ur
st ad
Ġs ter
ĠC F
ĠL V
ĠA IC
ĠKr is
ĠCar e
ĥ nh
Ġc ot
ĠM k
U SA
ĠTh a
áº ¨
ĠC indy
V á»ı
Ġ6 36
ed i
ĠBO G
Ġ9 30
ĠHá» §a
ng á»±a
ĠL anh
ĠTH ÃĢNH
ĠPro per
ĠVin acomin
ver de
Ġph uá»Ļc
ĠWell s
ĠMarsh all
X uyÃªn
Ġmá» ģ
Phá» ¥c
l á»Ĺ
ĠM N
ug a
er an
ĠMc Car
m á»¹
2 45
ĠGi Ã£
ĠPar aly
Ġco upe
ĠHQ C
m ingham
ÄĲ á»ĩ
ĠK le
29 5
ĠC oi
et e
ĠPL X
ĠNiel sen
k ina
x ra
ĠH PV
ĠK ok
M ad
Y amaha
y uk
Ġnh áº±ng
Ġrá» §ng
ĠElan tra
ĠD ip
ĠNg u
Ġchá» £p
Y M
ad ow
k Ã©o
os tr
v ay
ĠAl isson
ch Æ°Æ¡ng
Ġ32 8
Ġn Ã£y
ĠJ esse
ĠGuill aume
o ul
ĠCan berra
ĠBar ry
Ġ {
ĠB ian
Ġm á»ĳng
Ġc ut
ĠHerm es
Ġghi m
iz h
Ch uá»ĳi
ĠTT ÄĲB
ĠKhá» ķ
S Ãºng
ĠF ish
Ġr ob
ĠRap hael
ĠVlad iv
Ġth iáº¿c
az ette
ĠPl Ã´ng
Ãģ NH
ĠTh ink
ĠB Ã³
ud y
ĠB Ã¡u
ĠCh áº¿t
Ġtrá»« u
land s
15 8
S á»ĳt
Å¨ NG
a a
Ġan t
27 5
ĠKal ibr
V accine
Ġ19 32
s how
ĠtrÃ¬ u
ĠÄĲ Ãłng
ĠC J
ĠMes ut
ĠC á»ĳt
ĠG A
Ġsho ot
n m
ĠTh iá»ĥm
Ġxu á»ĥ
ĠTh ompson
X Äĥng
Ġtr áº¯m
Ġ7 47
hÃ £
ĠKu in
ĠRonald inho
s tein
ĠCh au
Ġ4 75
ĠY at
B á»Ļt
Th Æ¡
r Ãª
ĠÄĳ Ã¢
ĠLu han
ĠH ell
b Ã´ng
eria l
ag ua
Ġ9 90
ĠSim p
13 9
ĠTeleg ram
CÆ¡ m
14 4
ĠTed ros
5 90
il is
u oka
n á»ģn
áº® NG
Ġm á»ĳ
ĠTG PL
Ġg Ãłu
ĠHodg son
ĠH elen
Ġr Æ°Æ¡i
ĠRob usta
c as
ff et
ĠTHA CO
ĠBeir ut
ĠÄĲ áº£n
ĠAr iana
Kh en
ĠHD R
ĠN im
Ġn Ã¡n
Pak istan
ĠN eb
ĠStar s
d áº¡y
Ġ one
B Ã²
Ġs hip
ĠMy ung
ÄĲá» ©a
) âĢĿ
m á»įi
es te
M ag
13 1
ĠEn d
ĠHo w
ĠMar ri
ĠBl ind
h ua
Ph áº«u
k ÃŃch
ng Ãłnh
Ġtr áº¥u
ĠHD B
an ov
T iá»ģm
ĠRoos evelt
f un
Ġg Ã´n
Äĳ á»ĳn
ĠmÅ© m
Ġlo Ã¡ng
Ġr á»į
19 53
ĠEm ery
ĠCÄĲ S
Ġkh am
ĠMahm oud
B R
Ġ31 7
ĠGel ex
Ng Ãłi
UN CLOS
ĠB á»Ļc
Ġan ime
Ġ55 5
Qu Ãł
Ġc áº·m
Ġba king
L ife
ĠM khitaryan
ĠD VC
d á»ĭ
ĠhÃ ¢u
Ġ7 60
U BCK
Ġ38 5
ĠAlv aro
ĠD ara
ĠZ TE
K hÃŃ
Ġchá» Ńa
ĠF ore
ĠAdam s
ĠEd in
Ġvi sual
ĠKar ik
ĠK iá»ĥn
eg ro
ĠÆ¯ Æ¡ng
Äĳ áºŃp
15 6
O P
ĠTIáº¾ P
Ġ ab
ĠPh áº©m
ĠK iáº¿p
Ġ19 31
Ġl áºµng
Ġtá» Łm
( "
ĠTr ich
iff el
n Ã´
ĠY en
v ax
Ġd á»ĳt
lo gger
ĠTh Ãł
R u
Th ai
ĠB Ãº
j ah
ĠAl am
ĠB LV
ĠTN G
17 6
r iÃªng
ng Ã¡o
ĠM Ã¡u
j ong
th oi
eth ad
Ġ32 6
n uá»ĳt
Ġ29 2
26 5
Ġl áº¡t
est in
Ġg Ã£i
ĠS aka
ĠJeff rey
ĠG á»«ng
ĠCotec cons
ere um
Ġsá» §i
19 61
st agram
Ġ19 35
hÃ ©t
ĠD rag
Ġ7 70
ĠB eta
Ġg áº·ng
Ġ9 20
ĠH is
ĠS ey
Tá» ©c
ĠGang nam
ĠSton es
ĠthÃ³ p
ĠHim alaya
19 60
ĠArn old
ĠMand ela
Ġ19 33
as i
os ph
H TC
Baghd adi
ĠJo ko
ĠBe ast
le d
Ġgolf er
Ġm Ã¡nh
18 3
Ġcoc aine
Ġv Ã´ng
Ġgá» Ŀ
ĠK Ã¨
P hÃŃ
Ġvac xin
ai se
ĠFum io
ĠT Ãºi
á»ĩ ch
ĠSapp oro
g Ã¡nh
Ġo unce
d á»Ł
Ġ36 3
Ġmá»ı m
l is
ĠSi am
n á»ĳi
ĠNin ja
ĠB áºŃt
ĠFal con
C á»Ļt
tho Ã¡t
ĠA U
Ġn áº£i
ra e
ĠT áº©n
ch áº¥m
ĠIP S
ĠY ear
ĠLeop ard
ĠT ui
H iáº¿p
Ġ0 24
uk et
Ġt Æ°á»Łi
ĠR ag
Ġn Æ°á»£p
ĠN CC
ar at
19 8
Ġ28 3
ĠV Ã²
G a
ÄĲ áºŃp
ight s
r ir
b n
od ia
ĠSh el
ĠBit exco
ĠHav ertz
L TS
ĠE iffel
ĠTr Ã´ng
c Äĥng
ĠG ear
18 9
u ter
ĠPict ures
ĠVladiv ostok
Ġs áº¯ng
23 4
Ġh Æ¡
Ġb alo
ĠBRI CS
ĠCon t
âĢĿ ).
ĠS AM
ĠL Ã¨ng
ĠJ adon
Ġkh áº¥m
ĠEsp anyol
B TNMT
k á»ĭch
Ġng an
ry p
ã Ĥ
Ġlá» ķ
itz er
ĠT Ã³m
Ġba by
ĠCar acas
atas aray
ri es
ĠCom ey
0 24
Ġtá»ĭ t
ĠESP N
ega ard
ĠHong kong
H Ã²n
ĠG mail
iz ens
Ġ19 34
ĠPH Æ¯ÆłNG
ĠN ix
om y
Ġnh Ã²m
ThÃ ´n
Ġsal on
ĠLind elof
le e
l Ã£nh
ĠnhÃŃ m
ill on
ĠiT unes
C ard
ĠÄĲ Æ°á»Ľc
ĠCM CN
ĠE instein
Ph áºŃt
ĠSund ay
l ison
ĠD Ãłnh
ĠHag el
Ġg Æ°Æ¡m
ĠG MT
2 15
Ġnh uá»ĳm
14 3
ethad one
ĠX box
ĠDi esel
Ġu á»ĥ
chá» ¯a
c iel
r al
ut ions
Ġo C
ut ch
ĠRom ero
Ġr Ã³i
ĠT áº¥u
ĠL á»į
ĠKrist en
Ġcac bon
Ġph áº£ng
ĠCh ay
Äĳ á»Ļt
ĠI LO
tr Ã²
Ġ4 99
M aster
ĠG ust
Ar t
phá» §
13 8
ĠBig C
ĠKh Äĥn
b áº«y
00 5
u ong
ĠC yprus
25 5
ĠM M
R R
14 9
Ġ37 1
ĠP SV
ĠAr d
ĠK TX
Ġlá» §i
ĠF actor
ten egro
r ina
ed ette
ĠSchol es
Ġsá» ı
Ph e
ĠVSA TTP
ĠR Ãª
g s
7 10
B ÃŃch
N issan
m oi
ĠC Ãły
ĠB eg
ĠB um
Ġam i
Ġn ews
ĠK iÃªm
ĠK ien
ĠOs ama
ĠTá» §a
ngu oi
kh Ã¡t
ĠCa fe
ĠGre y
22 4
m edia
van te
Ġ å
ĠPh iáº¿n
ĠHab ana
ĠÄĲ ua
Ġmá» ¥
Ro oney
ĠF lynn
Ġ6 90
19 77
ĠK ona
d ate
Ġ30 3
h aka
ĠLib eria
ĠO ri
ĠBr yan
ĠHok kai
ĠRobert s
Ġmá» ģn
ĠSá» ıi
ĠB ing
Ġr iÃªu
Ġn Æ°á»Ŀm
D NN
9 70
ĠTC VN
Ġ29 6
g ian
ĠCV ÄĲ
u ard
Ä ģ
P le
ĠB ib
ĠV á»Ł
áº¬ P
s un
A FF
Äĳ Ã²i
ĠV JC
ĠH áº¢I
gi áºŃt
m inh
M iá»ħn
ĠGi anh
zil la
ĠF low
A CB
kh ong
l Ã£o
S á»ĳc
x á»ĭn
x Ã¡c
ĠM á»µ
ĠPar a
ĠBa e
Nh anh
Ġl uy
m Ã¢y
S n
Ġ3 23
G á»£i
Ġng oa
yl an
ĠJ Ãºt
ĠJ CPOA
ĠBarb ara
ĠA AA
19 62
ĠD ick
Ġ26 9
D Ã¢y
ĠT Ã¡t
TN GT
Ġout fit
mid t
g roup
v ideo
Ġ3 21
ĠLo ew
ĠYoshihi de
x Ã³m
Ġrá» ©t
Ġ5 45
j ing
ĠBer g
forman ce
19 84
ĠBir mingham
19 81
ĠO ezil
ĠM á»ĩnh
ĠWal mart
win dow
ĠAbram s
Ġ4 15
en ter
Ġj azz
y on
ĠT Æ°á»Ľc
N ick
9 30
Tay lor
** **
ĠPri x
Ġá»Ĳ ng
ĠKh am
ĠNott ingham
22 8
ev ich
ĠAlex ei
ir d
ĠCard iff
ĠP OS
ĠSt orm
» ©a
á »©a
inh a
net h
ĠSong k
R Ã¡c
is lav
m Å©i
Ġ33 6
end an
3 25
ĠL áº¡n
ĠQ S
y le
et amin
B áºŃt
Ġm áº¿u
ĠH abeco
in idae
Ġ27 1
G eor
M Ã¢m
S el
m Ã©t
Ġ25 9
A TTP
ĠH áº§m
Ġlo áº¡ng
ĠStur ridge
ĠDae gu
h l
Äĳá» §
X L
Ġlá» ³
ĠServ ices
ĠF ai
D B
T Ã´
ĠH F
om er
L en
ĠEup hr
ĠT urn
ĠPr ot
Ġ ed
Ġkh Æ°
ĠHil ux
gi Ã¡m
Ġr á»Ļp
Ġto anh
Ġl Ãµa
Ġn Ã´m
Th Ã¡o
eb o
18 6
g art
AT XH
Xi aomi
B á»į
Ġth áº«m
ĠKhá» ıe
ĠSouth ern
or us
Ġs up
L au
IS S
ĠP Ã¡c
m Æ°á»£n
ĠSte f
thÃ ¬
TB D
Ġm Ã²i
ĠM Ã¼
ĠIC E
Ġtu abin
ĠZ ur
Ġm oi
ĠVal verde
ĠNg áº¡c
Ġm om
ho c
ĠDe utsche
B á»įn
Ġ30 7
ĠS BD
Ġ31 8
ĠHe ineken
19 70
ĠCon cept
» ıng
á »ıng
ĠL ast
Cap rio
Ġkho áº£i
ĠHu á»ķi
D inh
ĠE le
ĠÄĳáº½ o
Ġth áº«n
ĠVIE TNAM
Ġt Ã³p
Ġ9 80
uz u
Ġor gan
ĠÄĲ ÃŃch
ĠU tah
ĠHots pur
on es
ĠN ishi
ĠAct ive
Æ¯á»ļ C
th ai
m ers
ĠC ÄĲT
ĠC Ãłnh
ul ar
ĠSystem s
Ġt iá»ģu
V á»Ł
li ke
ĠWe Chat
ĠXK LÄĲ
ater idae
ĠRi edl
Th an
Ġ28 9
L á»Ĺi
ĠFil ip
ĠWr ight
B ike
M eg
16 2
ĠSol ar
l Ã¢m
ĠBob by
ag lia
ĠJP Y
ĠA TTT
ut ure
ink i
ĠServ ice
or gan
ant es
ĠP and
t ÃŃch
ul lah
ĠÃ ģn
ĠRo jo
ĠMn uchin
16 6
ĠÃ ĵ
j s
Ġn ail
Ä ĩ
ĠIvan ovic
z Äĥng
ĠMon roe
enc er
Ġhas htag
ĠBail ly
nh á»ı
ĠQ CG
ĠL ike
T ek
Ġ inh
ĠVND irect
ĠM MA
ĠPao lo
at ing
eh yd
ĠSir ius
X Ã³a
ĵ m
ĠCharter ed
ĠA udio
os c
ĠMcCar thy
Ġd Ã£n
ĠÄĳÃ ¬
Ġ4 35
Ch áº¿t
ĠShay k
ĠR Ãºt
apl uat
66 6
ĠF un
AR C
Ġg uá»ĳc
Ġv Ã¹
x á»©
ast opol
N SNN
. âĢĿ,
á»Ĺ m
ĠK ara
ĠE than
az ine
re gor
vietnam net
Ġn anh
on oid
ĠVin mec
ĠBal d
ĠN az
ĠDá»± ng
ĠBr y
ĠParaly mpic
4 35
c hÃŃ
ĠphÃ ºng
» Ĵ
h ara
x áº£
ch Ãło
CO C
Vic tor
ĠSulli van
2 99
ĠHav ana
ĠE van
Ġx á»Ļc
ĠLau ren
Ġcot ton
ĠF ac
ap est
Ġrá» ĩ
ĠW ord
S martphone
Ġ40 5
ĠW S
ĠnhÃł u
ĠCon cert
ES T
ran t
ag r
ĠN Y
ĠCh Æ°á»Łng
ĠFrank lin
d ai
m áº¯c
ĠN un
T al
C or
ĠEuphr ates
CN T
ĠPh uket
ER T
ph e
ĠKuz net
G old
ĠR oi
ĠSch neider
Ġb Ä©nh
tá» «ng
ĠK iss
agas car
ĠR ush
li k
ard e
ophi e
ĠClass ic
15 9
M od
Ġd Ãł
ĠG ao
ĠCS ND
Ph Æ°á»Ľc
D O
ĠDe ng
ĠW en
GR DP
ĠT enn
ĠV áº¯c
ĠR áº¡p
00 3
ĠTá» §
ĠFlor es
ĠD PM
ä ¸
' ...
ĠchÃ ¬nh
ĠP E
Ph Ã¡i
ĠToshi ya
eta fe
ph Ã¡o
ĠDi Caprio
ĠVic em
Ġs in
Ġnh Ã£ng
ĠPra ha
an u
ĠD ennis
Ã¢ t
Ġkh eo
3 45
ĠP Æ¡
B el
B iss
K ong
Qu Ã¡ch
Ġnh á»Ļng
ĠMah at
ĠSo fia
ĠLe vante
F one
ĠCA SA
ĠJo el
ĠlÃ² i
á »Ĵ
ĠK wang
M á»±c
P an
ĠB ok
m uá»ĳn
Ġlá» įn
20 3
B áº¿
16 3
ĠK amp
Ġx Ãºm
ĠHugh es
ĠB oko
Ġtho áº¡t
ĠCon tinental
et y
... /.
18 8
ĠKir by
ĠShak htar
) âĢĿ,
ĠN it
Ġ40 1
L á»¯
int endo
ĠT ach
on avirus
ĠPr ice
Æ°á»£ i
ĠTr áº¡c
ed e
ĠCA O
os an
ĠP yeong
ĠR as
org inho
ĠResiden ce
Iá»Ĩ U
ĠP anda
Ġrub le
ulin um
ĠCy ber
in al
ir st
ham phetamine
Ġm RNA
Ġs ÃŃt
ĠC ON
ĠTurkmen istan
P ower
Ġ <
S SI
r au
Ġtr Æ°á»£ng
ad dy
A z
P B
N ov
V Ã¢ng
b áº©n
há» ĳ
ĠM az
ĠV or
ĠK á»ĭp
od en
M á»«ng
Ġ29 3
ĠM áºŃn
ĠPol it
y i
T áº¯m
ĠTN LÄĲ
ĠT TTT
ĠN ani
Ġ28 4
ĠSo ul
ĠKar en
ĠL L
Ġchu m
Ġl Ã³e
ĠMo Mo
ĠTh s
ra phic
19 59
M Ã¹i
Ġn ÃŃt
H ari
Ġ8 10
18 2
Ġur ic
B us
ĠD Ã¢u
ĠB ÃĮNH
! .
ĠCl as
Ġ7 40
d is
ĠE li
Ġm atch
Ġy outube
ĠCh iáº¿m
ĠPr iv
ĠAndre i
3 19
em is
ĠP á»ĵ
ĠAs p
ĠSc ud
ĠN áº·m
ĠIndustr ies
ĠS ae
w ing
ĠQu Ã£ng
al la
Th iá»ĩt
ĠHur acan
Ġt uá»ĳt
ĠÄĲ Ä©a
ĠHá» Ĵ
Ġ9 70
ĠHidd ink
ĠSá» Ľm
Ġch eo
19 83
f ul
Ġ8 70
l ar
ar oo
ĠMag ic
ĠCo ol
Ġ3 11
ĠPV EP
anth a
he an
Ġlá» «
if an
ĠPer eira
Ä Ł
Ġg áº«m
H ol
n Äĥng
ĠD á»±c
ĠCo hen
Ġ5 25
ĠLac azette
Ġ40 8
Nghá» ī
K e
it age
ĠN áº¥u
ĠI w
ĠNagorn o
Ġl iáº¿c
Ġi Cloud
ĠAr ms
Ġnu Ã´ng
Ġtr uÃ¢n
ĠMus tang
p us
F err
ighlight s
Ġ31 3
F estival
26 8
d Ã¬m
ĠTN VN
xy nos
________ ________
¡ i
ĠL O
ĠF ren
u eta
Thá» £
ĠSt u
ĠT BN
ĠCar Play
j ek
ĠNg á»§
Bio NTech
ĠTr ib
ĠKhá» §ng
Ġx áºŃp
Ġ19 17
ĠRe y
Ġr et
ĠG ur
. -
ĠZ hi
ĠÄĲ iÃªu
ĠMu á»Ļn
ĠM itt
j on
Ġ36 7
ĠAc er
Ġph áºŃp
ĠV BA
aw r
ĠHo áº¡ch
ĠB á»ĳng
F E
Ġ50 5
ĠRe us
áºł T
gi Ãł
Há» §y
ĠQ Z
ĠÄĲá» §
ui gi
Ġr á»Łm
ch áº¯c
Ġngá»¥ m
B TT
19 64
Ar n
9 40
Ġs it
s á»£
Ġ Ãºa
Ġg Ã²n
ĠCa hill
ĠFlor ence
b ut
ĠCN HT
Ġfl agship
Ġr eal
N ET
ĠT á»ĳn
ĠL á»ĵng
ar ak
Ġsc an
v ez
omet ers
Ġ19 18
Ġt Ã¢ng
ĠMug abe
ck y
ĠSum mer
ĠToshi ba
ĠO TT
ĠMag n
as ak
as oan
ĠGran ada
H ome
Ġtr Ã¡t
ĠJe ep
ĠMon tenegro
ĠOli via
30 1
d Ãłnh
Ch iáº¿m
Ġ 000
Ġb á»±
ĠS ic
ĠWan na
CS T
28 5
Ġch uá»ĳc
ĠSh ell
Há» ıa
ĠKh áº¿
ĠSp ark
19 74
ĠGiá» ıi
T p
h ome
h el
J ose
ĠSl av
ĠS Ãºng
ĠChá» Ĺ
Ġbu ffet
ĠVin aphone
Ġlá» £m
Ġcomp osite
k ha
ĠInter fax
ĠHu t
Ġchá»Ŀ n
ĠM ey
ĠM ess
ĠPar ad
Pet rolimex
17 7
Ġ33 1
ĠChu á»Ļt
ieg el
ĠÃ Ģ
TH CS
lu á»ĵng
ĠQ aeda
at hi
ĠMC U
A udi
au r
ĠSev astopol
lo gan
ĠMal aga
áº® T
ol ution
ĠC az
ĠW ir
ĠEs per
ĠKe ane
ĠC biz
n á»£
Ġmake up
V S
Ġho me
ĠU FC
Ġ" ,
ĠKit Ã´
ong hean
PhÃ ª
ĠPC LB
D X
ĠMon tr
ĠPh Äĥn
Ġ19 25
ick s
Ġg ar
ĠMargar et
or ama
ĠDav ies
V áº¡n
ĠKhal ifa
ĠKras n
Ġd Ãºm
ĠG iÃª
16 9
ĠCol lins
ĠhÃ³ i
19 63
H ang
son aro
KhÃ ©p
Ġs tory
Ġgá» £n
Ch áºŃm
ay e
ari us
ĠT iá»ĩn
ĠKomp any
Ġá» ¶
ĠK aka
KhÃ ºc
ĠRa chel
ot ion
Ġ28 7
f ox
ĠB ast
9 10
av es
ĠHe ard
g ang
ĠEc op
Suz uki
14 7
ĠNG Æ¯á»ľI
15 3
Ġm Ã©
ĠEl ateridae
d it
ĠP áº¯c
th áº¥p
ĠKov ac
ĠBud apest
ĠGonz alez
d ang
ĠHe ad
ĠC lo
aver se
Ġquá»µ t
Ġi Pod
BN EWS
res h
v idia
H iáº¿u
ĠM ÃŃt
ĠWAG s
Ġ19 28
l Ã¡ch
Ġ8 40
Ĩ Ĵ
el ess
Ġb áº·t
ĠS ob
giá» Ľi
ĠÄĳÃ ¬a
k os
ck i
ĠNN VN
Ġm Æ°á»Ŀng
ĠG Iá»
ĠT F
es ong
r áº¯c
Ġb áº«m
ĠF V
AP EC
ĠVers ace
Ġhorm on
Ġn icot
ĠV issan
ĠTah rir
Ġpro duc
Ġv edette
ĠL omb
ĠO wen
Ġlá» ¥ng
ĠH els
âĢ¦ /.
vax em
ĠFri end
L Æ°á»£t
ail and
y áº¿u
Ġb allet
ec on
Tr áº¡i
ĠPh Ãłn
T w
ĠE L
ĠFil m
at um
Khá» ķ
th áºŃt
ĠlÃ² e
ĠMay weather
ĠX iáº¿c
T ao
a hi
h em
an z
ĠH áº³n
av al
Ġqu áº¡
ay ev
Ġphá»§ i
aw an
ĠS uss
en i
ĠMol nupiravir
ĠCoun ty
Dj okovic
ĠM Ä©
Ng Ã£
ord er
Ġnh oi
ĠL iveshow
UYá» ĢN
ch áº¡m
ĠOs p
55 5
ĠG iáº¿ng
ĠOr ion
hÃ³ t
ĠRak itic
C Tr
ĠE S
ĠBol sonaro
Ġy our
ĠVn Economy
f ort
ĠX o
ĠRun ning
ĠNix on
ĠT E
ag ar
ĠJung kook
M itsubishi
ĠE xynos
ĠEco Sport
ĠSo áº¡n
Q atar
Ġc áº¡m
35 5
ĠRob inson
ch eng
ens tein
ĠHokkai do
ĠP ath
is k
p ilic
ĠChi bi
ĠZ ara
ĠBR G
ĠDA B
Ġ31 4
á»± ng
acet amol
ĠBav aria
L ion
Äĳ Ã³
16 7
ĠBl atter
ĠBuff alo
s io
ac tic
ĠB ee
ĠTh áº£m
ĠN aomi
Ġvá»ĭ n
Ġs ushi
Ġ30 9
ĠEv ra
O b
Ġfashion ista
Ġcar at
ĠMeg an
ĠS oi
ĠBlack pink
ĠC ash
Le icester
ĠA GM
âĢ Ķ
ĠHer ald
ĠWood ward
d áº¥u
19 78
ag er
ĠMos es
ĠB áº¡o
ĠÄĲá» Ľi
b au
ĠNh áº¥n
ĠLouis iana
pilic ueta
" !
ĠbÃª tÃ´ng
ĠSpr ing
ĠV log
00 4
ph in
ĠLand mark
Ġ4 13
ant ara
sh ere
Ġ00 7
ĠPr ince
Ġho Ã³c
ĠGi áº£n
ĠHat ha
ĠU crai
R am
ĠH iáº¿p
ĠJ up
ĠLi am
ĠD irect
ĠUBMTTQ VN
L áº¯ng
il idae
á»¥ n
c ab
Ġkh áºŃp
Ġp a
ol an
IN E
ĠB eo
ĠD Å¨NG
Ġd iá»ĩp
ĠTom my
ĠCaribbe an
ĠN FT
ĠEconom ics
ĠHeb do
Ã¼ r
ĠSte v
l k
ers in
ĠGle i
Ġhá» Ľn
ĠWiki Leaks
ĠLey en
ĠV ovinam
B SC
Ġ7 10
kho áº£n
is ol
Ch iÃªu
ĠMar ilyn
' ;
re at
aw at
ĠÄĳo áº£n
ĠSte gen
o on
Ġv áº§ng
á»Ĳ c
BV H
ĠV ASEP
ĠX haka
ĠTN T
C as
ĠJ YP
h ee
Ġur ani
p ho
ch Ãłng
ĠMem phis
Ġchá» ģ
bi ent
L ew
ĠR Ã¡c
27 9
ĠK Ã¬
ĠMil k
os un
ti es
ĠYe ah
os ta
Ġho p
ĠJ ul
Ġco cktail
ĠH id
ĠGD ÄĲH
z ai
ĠQ i
am el
ĠMad agascar
BÄĲ Q
B QL
B al
ĠBl an
uck y
á»Ķ I
Ġt Äĥn
Ġ19 27
k it
or ies
ĠKh Æ¡
ĠRom ano
21 3
n Ãºi
Ġlo Ã¡t
khá» Łi
ng há»ģ
ĠL ook
ĠRaz ak
Ġgi áº»
Ġnh Ã©p
ell ini
m Ã¬nh
T K
ĠRom eo
W al
Ġl áº¿t
Ġng áº¥n
ĠZapor izh
ur ing
ĠPrinc ess
Ġ50 4
ľ I
ĠFu ji
ĠRan ieri
ar ning
ĠR el
ĠG O
ĠR ost
C u
ur ance
M Ã³ng
ĠNich olas
Ġr Æ°á»Ľi
ĠHy dro
23 6
ĠMo h
ĠGun dogan
S Ã´i
X K
Ġ4 19
Ġr Æ°á»£i
ĠÄĳá» įa
ĠM ick
ĠGal atasaray
ĠStr at
ĠGonz alo
Ġx Ãµa
GP MB
ĠH BC
ib a
Ġ6 75
un ya
22 6
ĠJi ang
C á»Ŀ
et to
ĠS yn
ĠSt artup
Ġ32 7
Ġ us
Ġn áº¹t
yl er
s Ãª
Ġd iá»ħm
ĠTr ading
ĠAN Z
ĠLe i
phen ol
ĠV BÄĲQ
ĠL áº¡
ĠP ui
16 1
ĠHatha way
ĠR ong
ĠV O
ĠA IM
ĠI CC
ĠHo e
et ox
ĠSAO star
ĠGi gi
ĠDz eko
Ġqu áº·n
ĠAd el
l Ãłn
ĠLá» «
ĠN xb
ĠB reak
k et
ew on
ĠKh ao
19 71
ĠMarri ott
ĠFin tech
ĠCad illac
ĠSeo k
ĠH áº¹n
ĠB uch
ĠK ansas
f ile
ĠBol t
han ouk
l á»ĭch
Ġgá» įng
0 28
Ġg há»ģ
ĠJ erry
Ġdá» ģ
âĢ¦ "
ate ng
ĠN ina
Ġ( ?!
ĠD Q
18 4
Ġol iu
ĠkhÃ ¨n
lá» Ľn
Gi Ãły
âĢ ĭ
ĠSum atra
Chá» ¯
m al
Ġto asoan
ĠN ong
au ty
ĠGeor g
ĠD á»«ng
ĠRoss i
ĠKalin ingrad
ĠM ake
es hi
ĠMar ch
ĠGo etz
' ).
ĠWin ter
g áº¥p
ĠH Æ°u
17 8
g Ã³p
ĠNav ibank
ĠK sor
ĠL á»ģnh
ar agua
ĠB urg
ne ft
L HP
Ġcr Ã´m
t áº¥m
esse e
Æ° m
Ġhá» ¥c
ĠD in
etro it
ĠKum ar
Ġdr one
j al
ĠAd en
ĠD áº¿
ĠCit izens
Â ³
15 7
ri y
Ġr Ã©o
ĠNew ton
ĠPhillip s
ĠAut om
Ġenz ym
Ġ33 4
St ation
D ance
ĠH Ã¹m
ĠN CB
20 6
Ġx á»ĳc
ol t
Ba onghean
Ġtr ans
ĠDo ctor
há» §y
Ġs áºŃm
Ġ27 7
ĠPT I
ĠM ore
man e
Ġ- -
ĠG áº¥m
D H
ĠC op
ĠP ose
Ch áº¥m
Ġph iáº¿m
ĠRib ery
L ove
20 8
v áº½
Ġx á»ĳt
Ĭ NH
ĠT á»ĭ
ĠS ens
ĠUt tar
ĠBrah Mos
ĠEcop ark
t Ã¢n
ĠQuin vaxem
V Ãłnh
B Ã¡t
ĠAss ange
ĠM Ã¢m
J ustin
S he
on ic
Ġl Ã³a
Vin amilk
AT M
S JC
Thu áº¿
red it
tr á»ĵng
mer ce
ĠTr in
Ġkh iá»ħng
Y C
ĠRo usse
Ġo áº±n
Ġngo áº·c
ĠMur phy
ĠSeung ri
V ASEP
ĠO z
ĠHel lo
ĠAnd res
Sau di
ĠHal ey
b á»ķ
B áº¿p
ĠD Ãª
Vi ew
ĠAndre y
ĠLuhan sk
S iáº¿t
19 44
Ġn Ã¡y
24 6
ĠVI N
ĠSuss ex
ĠR áº¯n
ĠBr endan
l Ã½
Ġná» ı
ĠTh at
ĠPh e
amb idae
C Q
ĠM Q
v u
al am
ĠTh áº£n
ĠCh ae
ĠTor ino
4 99
T el
hÃ ª
19 2
Ph un
ĠConne ct
PA C
bra him
Ġp ano
ĠBr on
Ä ¨
ch áº£y
ĠSchol z
b ak
ĠSel tos
ĠD Ã¢ng
ĠÄĲ áº³ng
ĠÄĳá»§ i
ĠTW ICE
ÄĲH QG
19 3
li fe
B itcoin
ĠA AG
awr inka
ĠM iáº¿n
ĠSoc ial
ĠSh u
ĠMel inda
ĠGu z
Ġd Æ°á»£t
ĠE Q
pot light
B KH
en sen
ĠRog ers
Ġ40 2
ĠN ara
ĠIs ab
D á»ĭ
ĠN NT
Ġr inh
Ġdi oxide
I m
ĠX ÃŃn
ĠWol ver
ĠX R
Q ue
Ġlog istic
ĠCar ey
Ġf iller
ĠF aso
Ġph uy
ĠS áºŃp
Ġtal kshow
e aux
Ġtr Ãª
al ish
ĠFad il
ĠB Ãºn
K y
l áº¡c
Nghá»ĭ ch
ĠE do
Ġ32 9
Ar ena
oo c
ĠH BO
ĠDu áºŃt
14 6
! '
Ġthá» ĵ
ly se
ĠYat sen
ĠChar m
ĠAS EM
19 66
ch Äĥm
ĠCh uyá»ģn
ng o
Euro zone
4 75
b as
ĠAz pilicueta
âĢ¦ );
ĠSM E
Ġ35 2
ĠHai yan
ĠGri ff
os o
Ã¨ s
ĠB áº¡
Äĳ Ã²n
ĠS AT
ĠVin son
yd er
s worth
Ġchá» Ľi
HC DC
C ro
Äĳ Ãª
ĠCons umer
ĠE A
man i
ĠD IC
Arn old
Ho REA
v y
Ġm áº£y
ĠI ce
K ing
Tr Ã´ng
Ġrob usta
Ġb ook
ĠU NDP
ĠMil ner
ĠSad io
ĠRaf ale
d ia
Ġ39 5
Ġca t
Ġ55 9
Ġv Ã¨o
ĠO GC
Ġr ep
char ito
ĠS Ã´
ĠPlay boy
ra z
ĠFlor entino
TT Y
Ġb Ãªu
ski y
ĠCr ambidae
Ġâ ī
ĠG row
t iÃªn
ĠSk ype
Ġch lor
ĠPh am
ĠGre alish
f est
Ġs ulf
ah ar
ĠFood s
B lo
d em
ĠL ÃĢ
ĠW anda
Ġs ur
V R
Ġs Ã¬nh
ĠZ hou
Ġ29 4
ĠP att
oa h
0 15
0 25
P HC
m Äĥng
b is
z burg
ĠL áº¯p
ĠAf rin
ĠN intendo
ul u
IA EA
Æ¯á»¢ C
ĠBÃº k
In ternet
g áº¡ch
Ġm asc
ctic ut
chÃ ©m
ĠR áº±ng
ĠUr s
lah oma
Ġr Ã²i
Ġm ao
Ġbá» įng
ĠSt alin
cho Ã¡ng
T L
ĠTr Äĥm
TT HC
ĠL Ã¡ch
ĠDu ke
ĠÄĲT M
w ig
l Æ°u
Ã ĴNG
so Ã¡i
Ġthá» ĳ
ĠR IM
Ġt Ä©u
Ġcort icoid
ĠCen tre
ĠC ob
l la
ĠI ris
ĠJ ake
bu Ã´n
ĠClas ico
Ġá» ļt
ĠRac ing
ĠE vo
R á»§i
enz ie
Ġ38 4
iF i
17 3
Ġkhá» ĭ
Ch áº·ng
16 4
H K
ÄĲ o
r á»«ng
tr á»Ŀi
ĠÄĳ Æ¡m
ĠVent ures
Å «
Ph iáº¿n
17 9
ĠJohn s
ĠAlab ama
ĠSun rise
ĠSor ento
Ġh Ä©nh
ĠD Ã¬
ĠNS X
ĠMichel in
ĠRe ap
ĠHo pe
Ġn á»ĭch
ĠT yp
thá» ıa
ĠRah eem
D es
ac tion
iÃª p
uc t
Pet er
L Ã²
18 7
ĠDevel opment
ĠCN Y
ĠKa esong
ti en
ĠSol omon
R ock
Ġ19 22
C Æ°á»¡ng
g it
00 7
ĠA EC
p m
ap a
ĠTim o
Ġn ew
4 25
Ġ36 8
ĠâĢ ĭ
ĠM ito
ĠTT ATXH
Ġb it
VP F
ĠSch midt
W il
Ġphá» Ľi
PM organ
t ics
Ġt Ãło
Ġform at
ĠVAM A
N ad
Ġx áº¹p
ĠI k
thá»ĭ t
ĠR ao
ĠN au
ĠT et
echn ya
Ġng áº¥y
3 15
b Äĥng
Ġ Ã¡y
ul d
ĠRobert son
ĠChamp ion
ĠDem i
ĠmÃ´ t
Ġ29 7
ĠSu isse
ĠAlber to
l áºŃp
ĠChi p
ĠSan e
Ġ900 1
ĠW er
ĠO xy
ĠW as
M áº£nh
¤ C
Ġta ek
ĠKhÃ³ i
v ili
Ġ37 2
ĠL oc
ĠPr om
ĠTenn essee
ĠCol a
Bá» Ĺng
Ġ19 24
ÃĬ U
Ġ33 2
ĠBo ur
ĠY PG
L áº½
ĠNghá» ī
L I
ĠY uk
gi Ã³
Qu Ã¡i
ĠTy son
ĠGust av
ĠEth ereum
Ġblue chip
ĠG etafe
ĠGi ven
ĠKon ash
Ġchip set
Ġ ap
ĠMus ta
ĠC á»į
ac ao
s om
ch uk
ÃĢ Y
NG UYá»ĦN
ĠV á»±c
Ġthi s
ol u
S acombank
Ġ19 19
ĠSi hanouk
qu áº§n
ĠD ab
ĠA ch
Ġbá» ¥
Ġ6 25
ĠNhá» ¯
Ġc opy
ĠP s
es port
áº¤ y
ĠXinh ua
z ing
Ġo Ã¡i
ĠRu á»ĵi
Ġtaek wondo
ng hÃ
Un ited
Ġth iá»ĥn
ĠTur k
ĠâĢĭ âĢĭ
ĠD etroit
ĠG ent
Ever ton
m ins
ĠK HHGÄĲ
ĠHÄĲ ÄĲT
2 18
M Ã¨o
w ord
che ck
P in
v ar
ĠNic aragua
ĠErn est
ĠN vidia
ĠI CD
ĠSa w
ĠA e
ĠHap ro
ĠPan ther
Z or
ng á»įc
ĠH ank
i ent
Ġ4 11
Ġ34 9
Ġ8 60
s Æ¡
ĠA ge
es o
ta wa
ĠK ind
hÃ³ c
ĠConne cticut
ĠNut ifood
28 8
oa ch
ĠL DG
ĠI L
Ġ34 8
ĠK il
tom an
ĠOr acle
ĠG y
th áº¯t
15 1
H i
ĠA mar
utt gart
w oo
á»ģ u
ach er
ĠMo un
ĠA QI
G á»«ng
ĠCh echnya
ĠF AT
ĠW or
ics son
ĠM ub
ĠNh áº£y
Ġho Ãł
SC IC
ĠNg Ã¢m
ĠD um
Ġtu m
ĠR iz
Ã© r
0 75
ĠF ield
48 5
tr á»Ļm
17 2
ĠTH áº®NG
thá» §y
ĠAng kor
Ġc os
ĠV Å¨
ĠP DR
áº ´
ĠOut lander
ex us
ip er
ĠJon as
ĠI F
ĠTH E
ass o
ĠMilit ary
30 5
ĠWarri ors
ĠBald win
Ġlo e
23 1
ĠArab ica
ĠF eng
x Ã¢m
ĠF M
ĠDim it
Ġ34 1
ĠJ orginho
Ferr ari
im an
ks hire
ĠP AC
ĠChá» «ng
33 3
ĠRam ir
B E
Vin Fast
Ġ4 16
ot hi
Ġ34 3
B uá»ĵn
ĠLu d
ĠUn der
M Å©i
com Bank
kin son
ĠDay s
ĠP eng
Ãģ O
ĠS GD
Ġki wi
ĠKam ala
ĠHK QT
W C
oni idae
ĠIslam abad
D an
ĠPray ut
» §a
á »§a
ĠP Ã´
Ġs ÃŃnh
23 7
ĠAm anda
b ine
ĠNgá»į t
ĠHi ro
Ġg ran
ĠL Ã³ng
ĠCB R
S et
23 2
Ġ35 3
ĊĠĊĠ ĊĠĊĠ
35 6
AS T
ĠN Ãª
ĠBern ardo
K E
Ġ ~
Ġhu á»ĩ
Ġmang a
Ġ19 12
ĠDer by
se ud
ĠD ana
40 5
ĠCel tic
ĺ C
ĠÃĲ oÃłn
ĠHels inki
ĠIntel lig
ĠM ack
ĠthÃ ªnh
ĠAnd ers
áºł CH
19 6
ĠXU ÃĤN
ĠOk lahoma
M et
ac in
ĠAnton ov
ĠSC G
ĠÄĲ áº¤U
ĠE agle
ĠL ie
ĠVN E
ĠOt toman
b iÃªn
ĠR and
ĠR ussia
00 6
ĠLe one
ĠK bang
ĠReal me
ĠHum m
V áº¯c
ĠWil shere
ĠMas er
Ġx á»¥p
Ġrá» Ľm
ĠV iss
ĠTh ier
850 1
f en
ĠÃĲ Ã¢y
en ue
Ġ5 75
ĠKuznet sov
ipp on
G á»¡
T or
ia z
ĠSpec ial
3 35
Ġs port
Ġ8 80
Giá» įt
Ġw as
ĠL T
ph yll
ĠTom as
Ġb ina
tr á»ĳn
ĠTD P
Lá» Ĺ
p hÃŃ
w al
ĠPH áºłM
kh Ã¡c
ĠFuk uoka
ĠZur ich
Ġb r
iá» ĳt
ĠEx xon
ĠÃī n
ĠAlph abet
om as
was ong
Ġ36 4
z uk
Ġ end
hÃ ©p
ĠW id
ĠDar win
ĠBur kina
18 1
CO N
ĠHen ri
ĠF us
ĠC ord
ĠClau dio
Ġá» ©a
ĠHÄĲ H
ĠPose idon
ĠKonash enkov
HH T
ĠK á»ģn
ĠEd die
igh ter
19 1
ĠD UY
24 2
ĠInst it
c uá»ĳi
ĠNgh inh
er ic
Ġ19 10
ĠVin Mart
Ġ29 1
t iáº¿t
ĠBever ly
ĠD HA
Ġ19 14
ĠS ou
Thu Ãª
ĠFul bright
Viet lott
fri ed
b uk
ĠFort une
c á»¥c
ĠWeek ly
t ag
ĠB au
Ġ5 15
ĠDis covery
ĠKus hner
ĠÄĳ iáº¿m
oc opy
ĠhÃ ¬
ĠAp ache
w ha
Ġ- >
ĠDu al
Ġw ill
Ġban king
ĠZh u
chÃ ¬a
ĠTR ONG
ĠÄĳÃ¬ u
bient ap
ĠV CSC
ĠA ero
ĠJ ag
Ãģ I
ĠJu lie
ĠChi l
akh on
x o
ĠÄĲ N
ĠBo ateng
Gu ard
b ur
20 7
Ġban bientap
ĠB Ãło
ĠCoun try
ĠSC TV
ĠMahat hir
ĠK Ã¬nh
er es
t hÃŃ
ĠG um
ĠM BA
au rus
V X
ĠH ui
lo c
Ġ5 99
Ġnh Ã²e
ĠBil d
ĠCo co
ĠBr em
17 4
ĠNghÃ ª
c á»Ļng
ĠS ym
li on
ro d
B ong
Ġin f
Ġm uá»ĳt
Ġ( ~
Ġhand made
ÃĶ tÃ´
ĠD ion
ĠA DIZ
Ch anh
ĠJam al
gra phic
S ir
G ap
v áº¿t
ĠkhÃ ª
ĠZh ong
Ġ ag
ĠCN H
ĠN ao
ĠL DP
Ġnghá»ĭ t
Ġ34 6
P ogba
ĠTr iton
Ġthá» Ľ
Äĳ Ã¨n
ĠBr ug
24 3
ep ard
Ġnh Ãºc
C Ãºp
ĠF itch
ez o
ĠGE TTY
ĠThá» £
il s
id ium
ĠB áº£nh
ĠL Ã£n
ub an
Sp utnik
ĠAtlant ic
az zi
im ov
ec ts
ĠLá» £n
3 99
Phá» ķ
ĠOle g
ĠM BC
ĠP ent
ĠN ation
Ġ47 1
L os
ĠB uá»Ļc
ĠBu á»ĵm
s berg
R á»ĳi
ĠQu Ã¡t
2 17
A mer
áº¾ N
B ul
E r
Ġho st
og h
ĠIs hi
ĠkhÃ ¨
ĠC SDL
ĠY ar
Ġng á»ķ
TN ÄĲ
ĠPlan et
ĠTrich optera
c raft
Biss aka
ĠG á»ĳc
og na
ĠTot al
ĠSao star
ĠTim othy
r er
p y
ĠCS ÄĲ
ĠVina chem
ĠF oden
Ġ8 88
áº¤ m
IN I
ĠN ab
ÄĲ Ã¢m
ĠJar ed
D ie
Æ¯á» Ľp
ĠK Iáº¾N
âĢĻ )
T KV
kho a
ĠAsen sio
ĠM its
ĠBL TT
Ġ36 6
Ġn á»ĵm
if orm
ĠPV O
ĠOt tawa
ĠCh em
ĠQ Na
ĠR ik
ĠKT XH
card i
ĠB á»±c
ĠEr t
ĠTh ailand
38 5
ĠNg Ã²i
28 6
ĠL Ã¹
t á»±a
ĠK av
te k
b il
ĠH m
f al
Ġ33 8
ĠRic ardo
c umin
ĠH ana
v as
L ou
In f
Ġ34 2
ĠChu Ã´ng
ĠTR Æ¯á»ľNG
Ã© s
HCM C
50 5
ĠHor net
b á»¯a
ĠQu Ãł
ĠLim oniidae
Ġ9 40
H U
Gi áº£ng
ĠEd inson
ĠOt to
do c
B ia
ĠSá» £i
H Ã¨
26 6
ĠD ylan
ĠU H
Ġmil ig
ĠST ART
ĠGi áº¥u
P I
ĠS ew
ĠFel ipe
apol is
d áº«n
23 8
ĠKer ch
ak ers
Ġ19 23
ap on
Angel ina
mon ella
ĠRal ph
ĠT ea
ĠP ai
ĠKenn y
ĠDav e
Al l
ĠMaser ati
ĠA il
Ġ58 4
Ġh ist
ay dung
l ang
ĠMor eno
ch ol
ois ao
0 36
Ġch rome
pp a
ĠCur ie
Ġ7 90
ĠZam bia
ĠH iáº¿m
ĠHu oai
Ġchá»Ļ p
Thá» īnh
ĠMu ay
S áºŃp
ĠMon ster
ig e
S ar
ĠL una
19 55
Ġo Äĥm
ou ch
ĠWeb b
asm us
ĠS BT
B Ãºn
ĠÄĲT ÄĲ
L on
ĠUr ban
T ur
ĠTikTok er
3 36
ĠN Ã³ng
ĠNH ÃĤN
k al
Ġsil ic
ĠWood s
ĠN TBD
ĠH wasong
ĠXÃª Ãºt
v oi
z ia
Ġng Äĥm
ĠV Ã£n
ĠHu ff
Ġnh Ã¨
Ġf un
ĠT áº£i
Ġ19 11
ĠW ork
dor f
H á»ķ
ĠM E
Äĳ Ã¡p
ss ID
PV C
U EFA
ĠMSC I
ĠD us
ĠCh on
ĠHo ok
MS T
G etty
26 9
Ġch Ã¡c
ĠCh op
ion a
2 19
ĠBeyon ce
ĠCar bon
ick er
ehyd e
Ġl az
ĠX en
ĠHai ley
) ",
ĠCh ase
ĠR ing
ĠDang da
Ġ+ /-
ĠMontr eal
ĠMitch ell
0 35
b ana
ch áº¥n
ĠBin z
ĠM áº§n
ĠHo mes
ĠV ia
B áº§y
20 9
ĠTáº» h
Ġvá» ©c
19 48
ĠmÃ¹ n
D D
v áº¡n
B er
n or
ĠB Æ¡
99 5
ĠP am
es pa
l á»Ĺi
ĠF ah
ĠBer kshire
ĠS int
in er
es ny
cel o
Ġnh áº¡i
cher ano
ĠDá» °
ĠCH O
ĠEn dg
19 41
Ġmang an
ĠL AN
t ur
Ġd áºŃm
ĠS ophie
he in
Ġ35 9
ĠMc Con
ĠI OC
ĠB CG
50 1
asm ine
ĠGh eb
Äĥ h
Ġel ec
ĠCN XH
45 6
Ġng áº¡n
ai d
x it
ĠG ua
ĠC eb
Ġ5 33
og raphic
Ġx Æ¡i
al us
P E
Tho Ã¡t
ab let
Ġsho pping
amen ei
ĠÄĲá» ¨C
Ġ19 26
Ġm Ãº
Ġkáº¿ ch
ob ar
enc ak
ĠX iÃªng
Ġ37 7
ĠRy ab
M ir
V E
j ima
chá» ¥p
ÄĲ áº§m
is tr
Ġnh oÃłi
ĠSh yn
Ġ43 2
ĠK iá»ģn
Ġto Ã¡c
áº´ NG
if olia
ĠCa fÃ©
Ġvi olin
5 25
Ġev ent
ĠOn ly
Ġ9 18
ĠHon or
ĠW TA
Ġphot ocopy
ĠEVNN PT
ĠN áº´NG
ĠHD V
L uc
ĠR á»ĳi
Ġ19 08
ĠAP G
pir in
2 14
ĠÄĲ áº¦U
chÃ ¢u
ĠT iáº¿u
Ġv Ã³n
rey esus
ib ar
ÃĤ U
S car
Lion el
C oi
ĠW iFi
ĠâĢĿ ,
H er
nh á»Ŀ
ur ri
ĠSen se
kinh tex
ĠW ifi
am co
ĠBen nett
19 7
I CBM
A U
kinhtex aydung
ĠW awrinka
L CP
ĠKh amenei
ĠS martphone
ĠSC R
Ãģ P
Ġflav onoid
2 16
ĠZ ay
23 3
c n
Th Äĥng
ĠJ PMorgan
Ġm Æ¡n
ĠZ one
d Ã²ng
âĢľ ,
ĠHarris on
T ime
Ġngo áº£nh
ĠPO W
ĠB ed
ĠViet Nam
á ¸
Tr áº£ng
H ighlights
ĠKo ol
ĠÄĲ Na
ĠP ich
khá» ķng
uli fe
ĠQu i
Ph Æ°á»£ng
ĠPV X
hi eu
ĠE SO
ĠKu o
V á»ĭnh
ĠJim in
ĠEndg ame
ĠPh arm
22 9
l áº¡m
Æ¯á»¢ NG
ĠB á»ķn
Ch áº¥p
ĠHer itage
D el
L CNT
ĠHá» §
ĠCh ua
ĠSo y
ĠTS MC
H Ãºt
; /
25 4
t as
ĠG ate
ĠCarol ine
K K
ĠKH ÄĲT
ĠKe ith
24 8
ĠGreen land
ĠBal kan
ĠGr ig
ĠHá»Ĺ n
ĠErt iga
29 2
ĠAt las
ĠSpot ify
00 8
ĠRang ers
ĠSum it
ĠGheb reyesus
ĠT áº¯m
ĠD ustin
ĠI B
at su
ĠGo et
Ġ4 18
ĠK ry
ort a
ed ira
fer ence
SD T
OO OO
ĠM AC
Kh Ã¡i
ĠM ei
ĠJ ing
ĠU BS
CS VN
ĠSk ull
Ġcor onavirus
ĠH CDC
ly wood
iz ation
oc ar
39 4
ĠA A
W hi
38 6
ĠTyp hoon
ĠThier ry
ĠKon stantin
ĠL ÃŃnh
ĠPhÃ ¨o
ĠMT QG
ĠBai du
Ġ" (
ĠTr áº¯c
ĠMar awi
Ġ35 7
Ġng hÃŃa
ĠF en
ov ac
ĠSp ar
Ġt áº¡nh
ĠM ut
TT CK
ĠM eng
ĠMark ets
Ġd áº±ng
ĠB old
k az
ĠEr icsson
aki ra
ĠVin mart
ĠGr oss
c Ã©
as ha
Ġsit com
5 45
ĠPlay Station
cap e
ed om
ĠSSC ÄĲ
O ECD
ON E
ĠB áº¯n
ĠFried rich
b Ãª
ĠPark inson
ĠPl atin
uck land
ĠH SC
Ġb áº¹n
ĠÄĳÃ³ m
t uy
ĠE to
ĠMat h
m Ãłn
ĠQ PR
Ġ33 9
ĠGl as
ect ion
ai a
Ġbá» īnh
R i
Ã§ ois
ĠSum mit
ĠQu Ãłng
d áº±n
Ġc lo
ĠMedia Tek
ĠVD SC
ĠT ia
25 2
I E
ĠMir age
ĠKep a
S á»©
m iáº¿ng
ĠCh ul
Ġá» Ńng
id ay
ĠTo dd
ĠN FC
ĠKai ty
an te
Ġs ec
ĠSch w
Ġ9 10
om berg
ĠT ass
ĠBuck ingham
E ur
g á»Ńi
m b
Tr Ã¹m
S ay
ĠP MI
27 4
ĠFire fox
ĠVi e
ĠB áº¯p
ĠB QT
G rab
L eo
p or
Ġdo c
ĠW igo
ĠHa j
ĠEm il
C TV
ĠProper ty
ĠMoun tain
ĠGiuse ppe
ĠEnterp rise
le ck
ĠY ale
ĠKhai silk
Ġcond otel
ĠT ul
Ġr Ãªn
ad d
Ġ ez
re ad
ĠC Æ°ng
âĢĿ ),
it es
ĠH ague
ĠTrium ph
n oi
tá» ©
w ald
ĠP Ãł
ĠH oney
36 6
Ġ46 8
ĠNu tr
ĠRousse ff
19 4
k n
ĠW igan
nh áº¹
' ',
ĠPray uth
ĠUrs ula
T Ã¡m
Ġ45 5
IM ARS
ĠSe arch
Ġb ack
ĠX N
ĠBroth ers
0 99
25 8
ĠK áº¾T
ĠWal t
ĠSt uttgart
ĠA TNÄĲ
30 2
ĠY us
ĠVNA CCS
ĠMidd leton
l áºŃt
Ġam idan
Ġs logan
a j
K á»ģn
ĠH ector
b á»ĳn
ĠCh áº£y
ĠSal eh
ĠD ÃŃnh
ĠV áº£
ĠghÃ ¬
il ly
IF T
ĠLiz zie
Ġgar age
ao h
t uyÃªn
ĠK B
Ġáº¢ ráºŃp
ĠZaporizh zh
5 77
ĠMetro pol
D aily
ĠH KD
ĠÄĲ Ä©nh
ĠTal k
qua t
ĠJ ak
Ng Ã´n
ÄĤ M
ĠXD NTM
Ġ37 9
PC I
ĠHot line
ĠX á»©ng
Ġ5 85
ĠM X
ust ic
ĠRost ov
U p
ĠIs uzu
thá» «a
eman ja
ĠS ed
ĠHumm els
ĠTh ua
ĠMcG regor
ĠV edan
ĠRub en
x tr
ĠD ir
b Ã©o
ĠS ty
c io
ĠTr ÃŃch
ĠRe yn
H ÄĲT
Ġv áº¡y
om in
v ers
24 9
Ġ( ;
Ġ7 65
27 2
ĠLu zon
K Ã©o
n ab
s uy
ĠEm my
Ġb io
Ġtá» Ŀi
ĠCho ice
Ġtim e
36 8
enz i
Ġ %.
Ġx Ã©m
ek e
ok u
c g
ĠEm dep
th uyá»ģn
24 4
38 8
Ġchá» ĵm
Ġ36 1
ĠSA NA
ĠRos ario
ĠKhal id
ĠRyab kov
ĠMW C
ĠTr oy
ĠTr ade
zuk ic
ĠM LS
Tr á»«
R Æ¡i
r Ã¡c
ĠVá» Ģ
ĠK ud
26 3
ĠRá» §i
0 12
ĠF oster
ist ar
Ġs and
Ġ4 45
ĠBl ake
ĠJohan nes
ĠhÃ ¹n
ch ange
ĠChrist ina
ĠPh en
EF L
m ing
ĠVN EN
b inh
Ġ19 21
ĠB Ãºp
Ple iku
0 18
0 85
ĠC áº¯n
22 1
ĠS J
nd ai
P ol
ĠBá» ģ
ĠTur ner
Ġblo use
erg en
ĠBl air
ĠT ake
ĠE DM
X Ã³t
ĠC E
Ġta g
ĠMed ical
J un
ĠS ass
Tr Æ°ng
ĠO K
ĠTach inidae
ĠSpir it
k orn
ĠKh áº³ng
ulo use
0 11
L E
an za
ĠSch war
I PA
LÄĲ O
ĠCQ CA
T our
Ġ36 2
kh áº£
ĠSzcz esny
Äĳ áº£m
ĠHau te
Ven ezuela
6 75
há» ķ
Phi l
j ung
ult ure
ĠT ata
ĠX O
iv ir
ib ia
i Pad
ĠT áº¯t
ans a
ĠO ak
ha e
ĠDol ce
ĠAN TV
Ġas en
Ġqu áº»
et ic
Ġl Ã¡y
ĠJohan sson
b áº¿n
c á»Łi
ĠJ azeera
ĠW ed
QP PL
illi am
ĠN ole
Ġt v
Ġvu á»Ļt
ĠBeck s
p ole
e um
ĠM áº¡
Ġ35 1
ĠCol in
k es
ĠMiss iss
ĠVe yron
eg g
co de
ĠSol utions
s mart
ĠMer sey
ĠC NG
Ġs iro
ĠH ip
ĠSo phia
b Ã¡
ĠS Ã³i
ĠYo ona
ĠTer ra
ĠP ack
202 8
Į NG
ĠV on
ĠAd vent
V V
te Dance
ĠBar c
ĠEl li
39 6
ĠHe in
áº¢ NH
ĠSt at
oun t
inam o
Ġnh Ãºm
ĠB ass
ĠÃ Ĺ
ov irus
2 11
C ua
Ġbá»ĳ ng
ĠD iva
26 2
ĠGeo graphic
ĠS ide
ĠT err
Ġ5 65
CA ND
6 17
Ġh iá»ģm
ĠTá» ı
ĠT CH
ĠNO XH
Ġchat bot
ĠKien long
» ıi
á »ıi
ir con
ĠL INH
Bl ue
ĠMu Ã´n
ĠLil ama
Ġtho Äĥn
ĠAl aba
ĠÃª kÃŃp
ĠMay bach
ĠDaw n
ND T
ran e
ĠMad e
ĠCatal unya
ĠNapol eon
n ien
ĠS ne
n en
Ġx Ã³
ĠPer formance
0 45
iF ood
Ġ38 2
ĠCl aire
t Ãºi
y t
ĠK O
V AM
ov i
ĠPa j
ĠPlatin um
Ġp ate
e nh
J ung
ĠCh urch
ĠX P
Ġnhá» ¥y
ĠCes c
ĠCh áºŃm
Ġ50 2
! ).
om oto
com e
Ġant ifan
ĠIs mail
ThÃ ©p
46 5
H Ã¹m
Dani el
M uá»ĳi
ĠM ae
Ġ35 8
ĠUSA ID
Å ¡
Ġth Äĥn
Ġ38 8
tar io
Ġ6 000
ĠIP v
P F
ĠI G
ĠSino pharm
ĠP ax
ĠCav us
Ġin ter
V CB
Ġsne aker
ĠBord eaux
ĠL er
23 9
C ry
O li
Ġch Æ°á»Ŀng
hn ikov
ĠGam ing
ĠK agawa
K I
Ġb Ã¢ng
ĠV CS
Ġp re
26 4
eth ao
ĠK ak
ou g
ĠCer ato
Th áº£
ĠCent ury
Ġ38 6
ĠBa ch
phun u
ĠÄĳ áºµng
Ġv Æ°á»£n
Ġsá» įt
ĠL if
ĠZaporizhzh ia
S im
ĠCr Æ°m
ĠVic ente
ĠV FC
ĠQU áº¢
g ai
ĠJav ad
ĠRoad ster
ĠTr ain
Tech combank
ĠG áº¡ch
ĠLy nh
A CV
g ow
ĠTru Ã´ng
ĠNas ri
ĠTI SCO
ap o
45 8
ĠNikol ai
ĠL á»Ł
Th Ã¡c
ĠSp iegel
or la
Ġqu áº¡nh
ĠAP I
' +
ĠM iz
Ġ4 14
ĠR F
us mane
ĠTh áº¡o
ĠK DL
gi Ã¡p
Ġs potlight
tr Æ°á»Łng
== ==
0 55
B Ã¡m
Ġ34 7
Ġau dio
ops is
ĠKent ucky
ĠPhilipp ine
Ġmasc ara
00 9
ĠS ee
ĠBil ly
M id
ĠX EM
CC N
ĠCal vin
B est
ĠMi x
Ġcá» Ł
ĠLind say
Ġn iÃªu
Ġcho Ã¡n
38 9
I LO
ĠB ÃĢI
0 65
ĠTr Ã²n
Ġ37 8
Ġbe at
ĠÃģ c
ĠN á»ķ
H áº§m
Å Ħ
ri pt
ÃĬ M
Ġ( !?
ĠE ye
ĠBol ogna
lin er
Ġcrop top
Ġt Ãºp
ĠN ippon
an tino
ĠK ot
K Q
ĠVer ge
ĠMoham ad
ac ter
ĠHe ath
H á»ĳ
Ä į
Ġn ia
er er
27 3
ĠX s
ic y
ĠEd erson
w ear
ĠVCB S
ĠB iá»ģn
ĠM áº£nh
ĠN C
ĠReal time
br al
ĠA uckland
CC o
ĠH ao
Ġ7 25
ĠKh edira
ĠCavus oglu
ĠP ix
ĠLen in
ĠIl l
Ch ris
ĠRoy ce
ĠB iel
ĠChÃ ¹m
ĠSA A
Ġf ran
ob ic
ĠPC D
Ġlay er
W F
ĠFernand inho
ĠB MI
ĠTurn bull
m ac
Ġ4 95
es c
IS T
ĠG MD
ĠKQ XS
ĠMersey side
f rey
r um
ĠCh áº¥m
ĠF ax
ĠB áºłN
ĠCr is
ĠMas cherano
tr op
l á»įt
Ġ und
ĠCarn ival
ĠMub arak
ch ong
Ġh ave
CN C
b Ã£i
ĠP Ã¡o
ĠNe ur
ĠHH VN
z eg
Ġ æ
r em
Ġmilig am
Ġn áº¡ng
ĠKo ch
Ġqu áº©y
EA D
Ġf ly
po on
27 8
X á»©
k ie
6 25
ĠM AI
EP R
x Ã©t
ras in
ac ia
Ġáº¤ m
Ġr áº¯m
ĠBuk it
Ġ37 3
ĠVI NA
Ð º
Ġb as
ĠChi ellini
ĠHous ing
ĠE g
an in
ĠCar ne
ĠKaz an
ĠDip l
ĠVin ci
Ġsmart watch
Ġ6 15
gi áº¥u
tr á»£
ĠDio go
mins ter
CK H
ĠFab ian
b ok
t áºŃn
ĠM Ã¹ng
p x
ind h
X anh
ĠIv y
Ġtá»Ń u
SC T
ĠAB B
raph y
ĠSimp son
qu á»·
ĠCes ar
Ġd iáº¿m
ĠSup ach
n á»Ĺi
Ġkhu Ã¢n
Ch Æ°
ĠM Ãº
Ġlá» ¥p
Ð »
CS ÄĲT
7 65
l ak
ĠCho e
7 25
NS T
Ch ina
Ġ37 6
ĠÄĲ á»ĳp
ĠChá»§ ng
ĠH eng
ĠP avel
Ġxá» īa
ĠPar ty
Ġ45 6
0 16
29 8
ĠArms trong
ĠD áº¡o
M R
ĠGu ang
ĠHá» ĴNG
ĠP ew
ĠCh and
tr uy
van ced
yan ua
ĠBT R
ĠC ream
Phá» §
Ġc ity
s op
KD T
Ġsh are
ĠI rene
ĠSiem ens
D Æ°á»£c
ĠThÃŃ t
Ġb al
VC IS
ĠCom m
Ġkhá»ĭ a
ĠR ia
48 4
y ahoo
ĠH wa
R un
m Ã³c
Ġhá» §i
ĠM áºłNH
Ãģ N
And roid
ic in
B G
r d
Ġng Ã²m
x ico
34 6
Ġcl ub
t Ãª
K iáº¿m
ĠSP F
xtr Ã¢y
ĠS le
b ps
ĠEmp ire
ĠL M
ĠPr at
ĠNor man
ĠDW T
ov ation
ho ang
ĠH adi
ĠÄĲ Æ¯á»¢C
SD LÄĲ
N I
ĠJord i
Ġpr ot
ĠZh eng
C Ã´n
Ġ art
ĠAle j
Ġ4 37
ĠLP B
Ġqu áº±n
gi ang
ĠAlv arez
X inh
Ġ19 05
Ġ48 5
Ġ36 9
O ff
um ma
N Ãºt
ĠS yr
ĠO a
ĠKhark ov
ciel ny
ĠN TC
ĠVal des
g om
i h
Ġf r
4 45
R áº¯n
Ġlá» §ng
Ġl Æ°á»Ŀn
Ġ40 4
ĠY os
ĠCh osun
ĠB ei
ĠD arm
l áº¡i
ĠS F
ĠO SCE
nh ung
T áº¡
ĠKir k
ĠT ina
ĠM áº£ng
3 12
Ġv Ã¨
at an
ã Ģ
n Æ¡
ong a
if ul
Ġs elen
Ġqu Ã¡nh
Gi Ã¡ng
ĠGl ong
Ġkh áº¡c
ĠOn tario
illi on
ĠR is
s am
Ġf ac
38 3
ĠD PR
Ġ19 13
ĠGrab Bike
G ENCO
d el
l em
f eng
T ip
ĠCh loe
ĠSt ad
m áºŃt
ĠPC TP
PL A
J P
S ide
ey m
Fran ce
Ġ50 1
Ġcháº¿ ch
ĠM RI
ĠChi charito
t imes
Ġm iá»ģu
ĠJan u
ĠLag arde
khÃ³ c
ĠRum ani
ĠSal zburg
Ġgi Ã£y
Ġnit Æ¡
S áº¡t
Ġb Æ°Æ¡u
Pr em
ĠP AN
ĠTrans form
b ane
ĠTu áº¿
ĠGer ald
Ã¢ p
ĠW ak
ĠW ow
ĠMer lo
uli ver
ĠG and
Mb appe
f ire
37 8
se i
30 9
ĠDynam ic
dong san
C Ã¡m
ĠY ersin
ĠI FC
ĠUcrai na
gi áº·c
va jal
w h
j aya
Ġv log
Ġb Ã´n
ĠT ag
ĠTo uliver
abi ot
ĠV ssID
ĠMac book
Ġnh em
Ġu áº©n
ĠM ICE
ĠF ati
BVH TTDL
V D
Ġ40 6
ĠJal il
4 95
dor ia
ĠCBCC VC
gor od
ĠF ay
ĠHu lk
ĠthÃŃ m
akh et
Cl au
ĠQu ick
Ġv áº¡m
V AMA
Nh Æ°á»£c
Ġf o
Ġlo áº¹t
X M
ec ao
5 95
BC H
ot ic
ĠBB Q
ĠI cardi
ĠCh al
ĠI ker
d á»įn
Ġqu áº¯t
27 6
Br ad
11 00
ĠYatsen yuk
ĠB uy
T iáº¿c
ryp to
ĠGh áº¿
Ġ4 47
ĠRol ex
Ġ19 16
ĠUn ai
Ex imbank
p le
D ortmund
27 7
ĠÄĳÃ ²ng
es ar
gh en
ĠGen oa
ChÃº a
ĠBos que
ĠY ulia
ĠH wan
34 7
Ġ40 3
ĠHá» įng
ĠMor ales
B á»ĵi
Ġc y
Mu Ã´n
ĠTh ib
F M
Ġch ong
PC W
w ana
ĠP ag
ĠTh uá»Ļc
ChÃ ªnh
b Ã´i
ĠTr iá»ĩt
ĠGi org
29 3
ĠHD MI
k iáº¿n
ĠHU T
Ġk iá»ģng
Ġh al
as una
Viet Times
Ġ46 5
I d
le igh
ĠMar ian
ĠÄĲ Ã£ng
ĠM ethadone
am mar
Ġxu á»ģ
ĠUd inese
Ġ4 22
Ġj ump
ez i
ĠX Æ¡
ĠA Z
ĠCle v
K ate
ĠRe ed
ĠX oay
ĠH ND
28 3
18 90
ĠBá» ĺ
ĠGr en
ĠÂ ¼
ĠP ie
Ġca po
ri en
ĠRa fa
ĠL Æ°á»¡ng
ĠG TS
ĠCh erry
ĠghÃ© m
% :
ph on
TC TD
ĠDong A
25 3
ĠSk in
ch ev
ĠStev ens
ĠY az
bro ugh
Ġl áº©m
ĠZ iy
ĠT ian
ĠN ile
erg round
ĠJenn y
Ġl Ã¬m
ĠMand zukic
30 8
f ur
Ġv acc
um o
lec ano
ĠMississ ippi
ĠphÃ ¹ng
ĠE MA
H g
st en
ĠA w
ĠMon ica
ĠOp t
k top
bral tar
3 22
J ICA
Ġ5 35
ew oo
d ech
ĠH OT
ĠRam adan
ĠBell ingham
ĠG lazer
ph áº¡t
ĠFI T
ĠAlc antara
Th omas
ĠPl ace
Ġfol ate
t Ã©
Iá»Ĥ N
Giá» ıi
ĠFin als
Ġng á»ĳ
GD ÄĲT
Blo omberg
ch un
Ġngá» ¥p
Ġqu áº¡i
ĠT ÃĤM
W atch
t Ã´n
Ġdá» Ńng
ĠPh iÃªng
au ss
ĠR ut
ĠlÅ© i
RC EP
ĠGIA NG
å ¤
ĠClev eland
ĠL ord
cÃ´ la
Ġgl ut
h áº¡n
37 3
se v
N ic
Ġ( ,
ĠGlobal GAP
David son
ĠM Ã¬
col m
ĠA man
P ort
UN ESCO
ĠT yr
ĠSul tan
f ly
28 9
Nad al
New castle
ĠArk ansas
ĠÄĲá»ĺ NG
ĠESO P
ĠI PC
J ess
Äĳ Ã´ng
ĠKim m
ĠG hani
Ġgi áºŃm
Ġvi lla
ob o
ĠHam id
ul us
ĠB á»ķng
tr ich
Há» ©a
ng uoiduatin
p hÃ³
ĠNg ao
Ch ev
t áº©y
ĠVictor y
Tr u
ĠSongk rasin
co ck
ĠL Æ°á»£t
ÄĲ CSVN
ng Äĥn
ĠH amps
ĠN ine
thá» £
ĠStef ano
Ã «
0 13
Ġlá» ĥ
ĠTo ulouse
Ġt ie
ĠGS M
Ġ0 97
ĠNav ar
ĠD ah
ĠO to
Ġn Ãºng
S á»ķ
30 4
As ton
ĠTP B
ĠV all
Ġ5 95
CC B
H áº¹n
M at
ĠSh am
ĠMR CC
5 75
ic z
Ġ19 15
Ġchá»Ļ t
ĠNut iFood
h uyá»ģn
Ch ang
Ġshi sha
ĠShi b
ĠJos Ã©
ik en
Ġvol ley
Ġp eso
ĠSand ro
ald ehyde
ĠOs lo
v ing
Æ° h
ĠOd egaard
S Ä©
ĠAst ana
han om
L ive
» īa
á »īa
ing a
mo Ã³c
ĠC ÃģC
v ien
CA P
Win dows
ĠN om
Ġpol yp
Ġ arab
ĠEngine ering
ĠÄĲá» ĬNH
ĠW it
ĠEl len
ĠBook s
ĠT yler
ĠF rom
ĠHy ung
ĠB Æ¡i
ĠO usmane
Ġ40 9
ĠBa za
az a
4 15
ĠTw o
h uy
w ater
U I
ĠVTV cab
0 22
l os
28 7
ĠAd hanom
ĠH us
ĠTO EFL
ĠTh áº¥m
8 25
g ame
CP MC
Tr Ãło
ĠHolly hock
v ey
ĠHuy ndai
H al
ĠP Ã¡
me ier
ĠPlat ini
ne ct
Ġser i
d á»±a
Ġtr Ã¢m
Ġe Bay
Ġ >>>
ĠNag asaki
Ġ7 18
ĠGen esis
eg ui
ĠNV QS
ĠNat alie
l Æ°Æ¡ng
m ler
Ġ amp
ĠTá» ıa
t áº·ng
Ġnh á»Ń
ul y
ĠStu art
7 75
ĠAg ency
ald um
45 5
Gh áº¿
C ov
Ġ50 8
E B
ĠWin ds
Ġngo áº±n
ĠCo V
ĠL enn
Ġ47 3
Th iá»ĩn
ĠKos cielny
ĠPer f
ĠBy teDance
ĠRal f
ĠÃĶ tÃ´
Ġl ine
xx x
ĠCh áº·ng
ĠMal lor
F LC
ĠHo sp
ĠCle ar
s á»Ŀ
Ġn áº±ng
ĠAl ps
ash vili
08 2
os ology
l Ã¡i
ĠN emanja
ĠD il
ĠChrist mas
Ġph Æ¡n
ĠNg áº§n
Sh ar
ĠRay mond
B BC
7 29
t áº¯t
ĠKur t
ĠFl am
ĠSp e
Fin ance
ul ata
28 4
ĠHy per
26 7
ĠTu á»ĵng
me ichel
S ub
ĠphÃ ²
ĠRiv era
ĠPr ague
r á»Ńa
Ġváº» n
24 1
ĠCar vajal
ĠGener ation
eller in
ĠF ury
Ġ19 09
ĠVan essa
ĠSh ort
do ck
ĠBe ar
k on
s Ã´ng
Ġur Ãª
ĠBr ig
ag uchi
z ag
ĠV ong
ĠKal as
ĠH Æ¡i
7 99
3 95
8 99
P orsche
ĠchÃ ²
v ong
ĠPas cal
ĠAnder sen
7 35
ĠCh rom
ĠChrist ie
lá» ħ
Ġmod em
ĠCam b
S ky
ĠInter con
ĠBen ed
Ob ama
ĠT art
Ġl á»¯ng
gi áº¥c
V VN
ĠH ig
ĠBra vo
ĠPaj ero
ĠLyn ch
ĠCHÃį NH
ĠH ÃĲ
ĠJac ques
W illiam
m Ã´i
ĠÄĲ em
Ġthá»§ i
ĠMa as
ĠcÃ³ ng
ĠÄĲ iáº¿m
ĠX Ã³a
hÃ£ y
ĠD ome
8 75
L exus
Ġn il
Ġá» ª
le ans
ĠT eo
ĠF SA
Ġcon s
ta ewon
nh at
R oll
29 6
c ur
ĠQu ad
ĠCaz orla
Ġ Æ°Æ¡i
ĠKH LCNT
ĠKovac ic
X Ã³m
Ġb ass
PN J
ĠP ou
he ad
ĠCol lec
ĠAm az
ĠB ore
t Ã¡t
Ġh igh
S av
S CMP
t ed
Ġlá» įng
b ow
ĠJ ur
ĠG W
ĠChalle nger
M ake
ĠTT F
ĠNG Há»
L uk
ang el
x Æ°Æ¡ng
Ġs n
há» ĵn
ĠAnat oly
Ġ Ã©n
b Ã¡t
r un
8 35
j ic
S ev
Ġr ua
ĠRed dit
ĠTang o
e co
ĠBo un
nar umma
6 68
h ampton
thá» ĳng
5 99
n áº¯m
Ġd on
Ġster oid
c áº¥t
ĠB iz
ĠD ing
T en
ĠJ asmine
ĠT iá»ĩm
ĠF le
ĠCh ro
ĠRud iger
... );
VN A
0 95
ĠIn doch
SV H
Ġin d
ĠPolit ico
0 14
ĠU k
ĠS Ãłng
ĠGlor y
ĠCov ax
l áº¥n
ay ama
ĠJos ep
ĠHem sworth
Ġphá» Ŀ
ĠBe an
old s
ĠP ush
Ġgi áº·m
im s
ĠIn t
K o
ay an
ĠTh ani
28 2
T e
hi s
ĠBon ucci
ĠSal e
ĠPhot os
ĠVal lecano
0 23
U r
Ġac count
k iáº¿m
TS A
Ġ38 3
ĠIS IS
Ġnit rat
ĠC Ã²i
t Æ¡n
c s
47 8
c Æ°á»¡ng
ĠDA TC
Ġl Ãªu
Ġk á»ĭt
Ġph ay
in ja
Ch Ã¡o
ok er
c Ãły
al ic
Gi Ã¢y
CI EM
er co
O cean
orks hop
Ġbá» ¥t
TC HQ
R es
av ier
we ek
Ġr áº£o
ĠAm ir
ĠL iá»ģn
ĠVinac a
ĠScar lett
BS T
Ġkhu i
ĠThan os
ĠâĢľ âĢ¦
ĠFran Ã§ois
ĠV ital
ĠHo b
and o
m ong
ĠB ody
em ber
Ġcarot en
há» įa
ĠTá» ¥
th ang
Ġk iáº¿t
ab o
á»¦ ng
Ġnh e
li u
ĠBr ist
D IC
ĠM IT
ĠP Äĥh
ĠAB Bank
b el
ĠKh au
co c
Äĳ á»Ŀi
ran a
B Ãºp
ĠNG UYÃĬN
Ġma xi
k Ã©m
ĠD Æ¯ÆłNG
ĠNav y
ĠR ui
ĠBlack burn
å ħ
us ha
ĠIntellig ence
0 48
ĠBr is
78 7
nik ov
ĠSanta Fe
ĠCL IP
T iá»ĩm
m ic
ĠR OM
Ġrub ella
ĠH AI
ÄĲ em
ĠBak r
Que en
B ÄĲT
ĠF SB
ĠDá»ĭ u
ĠN Ãºt
L iveshow
ĠThÃ ª
ĠBH TG
Ġá» į
and om
Ġngh áº¿ch
36 7
Ġ19 06
ĠZen fone
Ġrá» ıi
Ng uyá»ĩt
ĠSt ade
ill ing
38 2
Ġ4 28
ĠGor illa
ĠNun ez
D Ã¡ng
ĠB ert
ĠSam dech
ĠNg áº¯m
ĠRe ading
33 9
ol s
L amb
Äĳ Ã¬nh
Ġ80 2
qu et
ĠV W
ĠÄĲá» Ŀn
ĠGi braltar
ĠT ad
ov ina
Äĳ á»ĩ
ĠW ake
x ia
Ġr ÃŃu
25 7
ĠHamps hire
Ġx uyáº¿t
t est
za j
ĠAtt ap
00 00
S X
CL IP
ĠK ei
ĠMov ie
Tr á»ĳn
Ġná» ¥c
ĠMad ison
ĠÄĲ O
ĠBio NTech
Tr á»Ļn
46 9
ĠQu anh
26 1
ĠPet e
V B
x áº»
ĠMag azine
ad eh
car ot
P at
li o
ĠLou ise
ĠS uri
Ġá» ¨
ĠSam ba
ÄĲ am
Ġb enz
ĠT iá»ħn
Ġr á»¯a
ĠU rus
ĠMetro pole
ĠHer bal
ĠWS J
Ġ39 1
Ġpoly phenol
0 19
S i
s is
s áº¿p
Ġfin tech
ĠK p
ĠX T
ĠP ure
Ġchá» ı
ĠJ D
h ack
ĠC ra
ĠI mm
Ġf ax
ĠL ol
ĠG im
Ġthá»§ a
29 4
ĠVer izon
ers field
ĠSad dam
7 85
ĠDo k
ĠGo jek
ĠJ W
ch am
BV CB
V ay
ĠGu o
ĠTae yeon
ĠCel ine
B ur
iÃª c
Ġngu á»Ŀi
W ar
tr Ãºng
Ġ47 4
ĠArd ern
Cro atia
ĠPs aki
z awa
ĠH ist
ĠJ ota
Ġl iá»ĩm
M áº¯c
3 37
ĠÄĳ iáº¿ng
Ġb áº±m
ĠC ec
ĠShi eld
ĠT áº¤N
eb y
erm ont
Br it
ĠAl ain
ron es
i os
Ca fe
g á»ĳc
H CV
ch on
t um
ĠÄĲ áºłI
ated o
B or
Ġk id
ĠLyn k
ĠBeat les
ĠP PC
DNN N
r ong
M ur
d áº¡ng
Ng hÃ
ĠW ai
ĠÄĳ áº£nh
F actor
19 57
34 1
ĠCS KA
ĠNorm andy
st a
ĠLau t
s ing
ib u
ĠEconom ist
ĠSoft Bank
c en
m á»įc
ĠPh anh
25 1
ĠDI FF
34 4
ĠJun cker
ĠDeng ue
ĠF U
36 9
ĠSav ann
ĠTU áº¤N
L áº¯p
Äĳ Ã¡m
ho e
» Ľc
á »Ľc
ĠS ÆłN
Ġy ear
s áºµn
Tal iban
ĠJu ergen
L ib
ĠBa ham
Ġtr Æ°á»Ŀn
Ġb ra
ĠNam ibia
ĠN á»Ļp
ĠVi p
ĠHá» ĮC
oy e
ĠVKSND TC
nh Ã¡i
or es
all on
ÄĲ L
ĠShim bun
Bá» Ŀ
BL ÄĲTBXH
Ñ ĥ
ĠBr emen
ĠDomin ica
ĠG AP
dr ess
ĠEdu ardo
ĠLig t
Th áºŃp
Ġ19 01
ĠTTC N
H M
ĠH IMARS
ĠLuc y
in ol
Ġ4 29
Ġt oáº¡i
Ġ8 90
ĠSch meichel
Ġp od
ard s
Ġr Ã¢y
ĠNhá» ĩn
y ar
Ġpoly mer
ĠFA O
ĠW ick
ĠRecord s
l it
19 31
T Ã´ng
ĠMal colm
] ,
atch er
3 11
on n
ĠDal ot
6 95
w anda
ĠD inamo
ch áºŃm
th eon
S hop
an ne
ĠP Æ°h
ID O
Ġnh Äĥm
ĠT á»³
ÄĲ iá»ĩp
ĠY O
ĠPer isic
30 3
ĠhÃ ¹a
ĠAg rico
V er
h Æ¡i
Ġt ele
L áº¡
Ġd ep
8 46
ĠCal der
c ore
ĠD Ã¡ng
t ier
uk u
ĠCer ezo
Ġm ad
Nh áº¥p
ĠEVNN PC
ĠA mp
Ġk e
ĠR asmus
ĠI NT
ĠSteph anie
40 2
ĠBo ut
mand u
Ġ38 1
ĠSe ason
ĠM ou
ra j
E I
Ġm otor
al on
tr Ã¡nh
ĠSew ol
m á»ķ
ĠOpen AI
9 75
yr i
H I
Ġmac ro
H Ãłi
L ady
ĠV EAM
ĠAj in
ĠN ash
ĠG Ã¡nh
ĠAr g
Ġ39 2
65 8
ĠCl aud
6 99
t áº§ng
eb r
ĠIl bo
ĠCons ult
s ak
ĠK C
ĠG ay
á»ŀ NG
ĠSuper man
ĠHar a
er al
UN ICEF
ĠCout ure
nguy en
H áº³n
ĠCol ogne
ÄĲ C
Äĳ Ã³n
Ġ47 7
ĠDef ender
ĠPark son
3 38
al ong
ĠParad ise
iden se
Ġ7 99
C ong
ĠP ing
ĠMan ulife
28 1
ĠUr al
ĠKD H
0 68
cheng ladbach
0 27
y stem
ĠSumit omo
Ġarab ica
PhÃ ¹ng
ĠCom mer
Ġb lu
ol ski
l á»Ńa
Chá»ĭ u
ĠDav os
c ook
37 7
GD TX
ĠAn im
ĠGu ai
iÃª á»¥
ĠG BP
k iá»ĥu
car bon
ĠNG ÃĢY
ĠMÃ© xico
ĠB eth
im im
j ab
Ġf estival
ĠMau rit
0 88
ĠAv atar
c á»Ĺ
Tr áº¡ng
Ch áº£
ĠDa ewoo
ĠBur ke
ĠcÃ ¹m
ĠL ONG
ĠSnap chat
Ġdá»¥ i
57 8
O B
34 3
ou lib
ĠOr leans
Ġbik er
tr áº¡m
ĠLin ux
ĠAff leck
4 12
Ġx ÃŃnh
ĠTas co
Ġtá»§ a
ĠBos ch
x áº¿
X áº£
x Ã©
ĠAs ahi
ĠJust ice
G W
G Ã¡nh
H á»ĵn
T áº©y
ung e
ĠP TC
ĠO N
Tok yo
p hÃ³ng
ĠTh áº¥u
ĠDo uma
ĠInstit ute
ĠBaza ar
ĠCA X
Ġ39 6
b áº»
w all
3 23
H Ãło
ĠCommun ic
há» ıi
Ġd ÃŃu
te en
chÃŃ n
Lon don
ĠV SD
ast as
art ment
istan t
Am azon
ĠVi ber
D is
ĠW a
ome u
ae a
N Ãły
n Ã³
Ġc Æ°á»Ŀm
ĠV FA
Ġ37 4
ĠN áº¿p
ĠD w
hel m
l Æ¡
ĠKh ay
7 43
oton in
Ġngá» įng
om an
ft ar
Ġch Æ¡
0 37
Ġv áº¡c
Ġr ai
ĠTheo d
KS S
ĠWinds or
ĠR Ã¢u
ĠChá»ĭ u
ĠÄĲV HD
4 88
áº¿ nh
ĠPh Ãł
Gi Ãł
GV X
Ġâ ĨĴ
B OT
Äĳ áº£
ĠHu dd
ĠTw in
0 17
B ox
47 9
M aria
ĠA IA
d áº§u
oulib aly
Ġnh iÃªÃ¹
W EF
ĠVes ak
ĠL aser
ĠSand y
U E
ĠSh inh
ĠC ost
ĠI ly
Ġ34 4
ĠMiss osology
or ter
P en
ĠFau ci
Ġgiai tri
ĠQ B
ol id
Iá»Ĥ U
ĠG aul
ĠF ig
ĠNic ola
ĠAjin omoto
II B
ĠFab rizio
ashi ma
T ik
5 15
Ġs Ãºy
ĠW ing
L ago
ĠM á»ĳc
ĠVE TC
Ġh Ã¡c
ĠJ ud
ĠOla f
ĠP rab
hn t
ĠSEA L
TU á»ĶI
eb ec
ĠCo urt
ĠRob bie
ĠMan o
ĠCo ast
33 2
ĠD ry
Ġngo Ã¡y
ĠR osa
Sol skjaer
HÄĲ BA
ho d
29 1
ĠH I
ĠSm ile
J ang
M áº¡c
ie c
+ +
ĠCA HN
TB T
ĠGuz man
ĠTH VL
Ġru á»ĵng
ĠGab on
ĠBaham as
6 88
ch ard
Viet jet
I brahim
Ġan alog
BTT TT
Ġn Å©ng
ub b
ĠNG UY
r Æ¡i
bao v
ĠS tre
35 7
z hou
ab ook
s tream
ĠWi jn
s áºŃp
aph aco
ar azzi
os lav
Ch amp
KH ÃĶNG
ĠB am
ĠP izza
yan sk
ĠTH T
ora emon
s hop
ĠZen it
to ck
ĠQN CN
ĠT iá»ĩc
Ġ4 27
ID I
ĠWest minster
ĠP D
ĠQ BV
75 5
33 1
ay ak
ĠO g
ĠFran z
3 18
8 55
ĠGiorg io
Ġk en
ĠTh áº§u
est one
ĠhÃ ºp
I EA
Victor ia
ĠO per
ngh iÃªm
ĠKath y
06 3
47 7
PC TT
ĠL ens
agr eb
Äĳ e
37 6
0 29
h Ã¡t
im Äĥng
ĠAmb ros
ĠT ut
ĠX ing
les brough
ĠND VN
ĠP Há»
ĠX SMN
34 2
ĠHe ather
ĠSol o
ĠÃĲ iá»ģu
ĠChi ron
H iáº¿m
25 9
ĠB oss
Ġsá» ĵi
P e
ĠAr e
á»² NH
UBCK NN
ĠP ear
ĠS ek
ĠN I
ĠL ist
PV PHC
Ġv áº¡i
Nh iá»ħm
» Ľm
á »Ľm
Ġ4 26
ĠPul isic
tr ak
Ġ Âł
da h
ĠCle ver
ĠIntercon tinental
im co
ĠViet Gap
ĠG et
em in
nghá» ĭ
ico gi
ĠIndustr y
r ess
Ch áº¡m
ĠOs asuna
int age
ng áºŃm
0 46
ĠC raw
5 12
t us
7 45
phÃ ©p
H áº¯n
Ãģ NG
F ri
Ġcort isol
36 2
ĠWin nie
ĠRai ola
3 29
d ge
Ġ5 77
ĠL ÃŃ
ĠY outh
ĠLy bia
t áº¯c
v on
ĠWijn aldum
Kho ang
5 85
ĠSil k
ĠB IC
F l
ya f
ĠCT D
0 43
3 28
D TTS
T ui
ĠCay enne
S áº¿p
Ġr im
ĠD ÃĤN
ĠX C
thoi baov
thoibaov hnt
Ġ ..
. ",
ĠOp tim
ĠNg áº£i
Sport s
Ġdanc esport
Ġkhu a
27 1
ĠValent ino
Ġ5 38
ez ia
6 65
Ġt w
ek a
b uri
ĠCar a
H el
Ġ4 23
NS A
3 26
ĠZ ak
S erg
Ġn á»ĭt
Ġph osph
ĠDan ilo
Len ovo
Kh Æ¡i
ĠBrug ge
ĠVin fast
3 17
ĠP TSC
ĠN is
ĠB Æ°á»Ľu
ĠHosp ital
R AM
ĠR apper
34 9
ĠSh akira
ĠZiy ech
45 2
19 25
ÄĲá» §
j ad
ĠAN ÄĲT
ĠR Ã¡ng
Ġr ÃŃch
ly cer
5 65
ĠK ung
VP Bank
Ġt Ã¨
au gh
T iá»ĩc
Ġm Ã³t
th áºŃm
ĠZ agreb
ĠK es
' m
G CN
p atch
ĠHá» §y
M AT
F ox
ĠR á»Ŀi
ĠLor enzo
ĠVer ma
ĠL un
Nh Æ¡n
60 8
ĠPh ao
44 3
ĠSil v
ĠTr Ã´m
ĠTá» ĩ
me imim
Cham berlain
M Æ¡
Ġ18 91
Ġami Äĥng
tr um
t Ãłng
80 4
ĠEdin burgh
ĠAn iston
aster n
Ġser um
ĠK ram
Ġ47 6
s te
Ġnh Ã³
thi ng
ĠM L
ĠA CC
Ġt iá»ħu
Ġr Ã¡m
ĠTh Ãłng
37 9
ĠM INI
ĠS qua
ĠDol by
Clau de
d n
aut iful
Ġ68 9
ĠArt ist
6 55
ĠB QP
ĠRod ong
78 9
Ġsá» ģn
ĠAle ksandr
Ġu á»Ļt
ĠT á»Ļ
v at
ĠArch it
Ġv al
ĠKn ow
Ġ47 2
05 2
ĠTB NN
67 8
iy asu
S ec
Äĳ á»įc
ĠPA K
ĠFab inho
H appy
c ell
Tr Äĥm
ĠCI EM
ĠK oz
Ġto áº¡c
45 9
ĠAS US
ĠBe er
ĠN iu
ĠB ua
l Ã£i
60 5
ĠGlas gow
Th áºŃn
Ġ? ??
yc le
m ont
K GVX
ĠC IT
ĠV Ã¢u
ĠÄĲT LA
ĠÄĲS VN
eym im
Ġ18 95
8 28
ĠMar qu
35 2
3 16
o e
ĠCas ino
Sh ark
ĠFlick r
: -
Ġtr ue
ĠT erm
Äĳ áº»
ard in
Ġd etox
Äĳ á»«ng
nh iá»ĩt
ĠJ ia
ĠD ut
Ġn eon
Ch en
35 9
Lou is
3 24
n Ã©t
35 8
ĠEx cel
Th áº¥u
ĠI HS
Lá» Ľn
ĠCas a
th ep
G áº¥u
ĠB áº¢O
ĠGi r
ĠSak ura
ĠPr ed
38 4
oz nia
ĠS ex
ĠThu Ãª
qui ao
ign o
ĠT usk
kh áº¯c
ĠPhilip s
ĠkhÃ ªu
ĠVir gil
B Æ°á»Łi
Ġp ass
und s
ĠMar x
ĠDon narumma
Ã© on
ĠDipl omat
Ġca cao
49 7
ĠE ven
Ġ19 02
60 3
ĠT ap
Ġr áº¯p
ĠP ublic
40 1
ĠHaw king
ah ara
ip es
ĠKN TC
. âĢĿ.
s ol
Ġs un
ĠKh ar
ĠDel oit
ĠHor izon
ÄĲ ÄĲ
An ton
ĠK GB
ĠDT LCP
ĠTá» Ľ
30 6
ĠCo x
3 27
ĠPV B
omb ie
ard i
khá» ķ
ĠJ as
ĠAT R
ĠV Ã¡y
ob yl
46 8
u tra
ĠPer th
Kho e
ĠDeloit te
ĠM omo
du ce
Ġl Ã©m
ĠKath mandu
7 15
S tyle
m á»ı
ĠAlej andro
6 45
ĠMal acca
G an
ĠS áº¡ch
Ġfun ction
19 58
l uigi
ĠT aw
ĠJ ian
ChÃ ¨
od om
Ġ43 3
Br exit
ĠC i
U NDP
39 2
ver ter
l ut
ier re
05 6
ĠS eg
Ġr ing
FA O
he el
U FO
ĠMon de
Ã ¸
eo k
Ng á»¡
ĠIC U
Ġ4 24
K á»ĭp
Ġi S
06 9
ĠV err
Ġ4 46
op er
ĠVN N
ĠVid ic
ĠL I
M Æ°á»Ŀng
D y
Ġban k
ĠHa ftar
ab aya
ĠMans our
ÃĶ I
ĠN er
Ġph áº©n
ĠH Ãºt
ĠGul en
ĠRim ario
ĠG MP
ĠBright Side
Ġth inh
ĠNav ara
ĠPan orama
7 95
p d
ĠE M
Fed erer
b ai
áº½ m
thá» ©c
ĠCin ema
å ®
ĠB Ãºa
ĠA pr
ĠF iat
ĠNA Y
f ar
uk o
Ġ8 55
Ġ19 04
k hÃŃ
Ġv ani
Ġng Ã¡p
ĠN LG
ĠU R
th Æ°
app a
tá» ī
ĠR oth
Tho áº¡t
ĠH ÃĻNG
ĠI PP
ic ial
ĠHerbal ife
Ġ4 38
V y
ĠB Ã´n
» ®
Ġx Ãºng
ĠC ip
du ong
d ez
ch lor
Ġ40 7
Ġcaffe in
m or
ĠR hein
oo ter
ess en
Ġl Ã¨
ĠP ug
bi j
ĠMay er
j en
A dam
ĠH z
ĠHo áº£ng
ĠLu b
ĠSh en
Ġd emo
ĠSau l
ut oday
r ung
5 35
8 45
ph ar
ĠPr ada
47 2
og n
ĠL E
ĠNim itz
X Æ°a
ı n
Ġ55 1
ĠGeorg ina
3 34
or ghini
ĠPan am
ĠStein meier
0 26
ĠD et
M ah
LÄĲ TT
ĠCA R
ĠJuli us
âĢ¦ ",
ĠSch l
f ess
I BVCB
BV SC
M ed
ĠD P
ĠSt ark
lu Ã´n
ĠBur berry
ĠÄĲá» ĴNG
K ey
up h
N áº¥u
ĠSamp doria
ĠB ellerin
0 32
v Æ°á»Ŀn
ĠFi ji
TC N
se in
od ie
ĠFlam ingo
Ġt ip
For ce
Ġnh Ãº
30 7
Ġ4 36
Chu á»Ļt
et i
ĠCur acao
ĠEuro window
Ġn áº¡m
en ez
ĠBin ance
D ig
ĠG omes
44 2
ĠN CKH
ĠSe on
b Ã²
3 13
ĠE ther
to um
ĠK TM
ĠPh un
Há»Ĺ n
0 38
ĠAr ts
tr áº£m
du oc
Ġ38 7
Kh uya
ĠP iano
Ġ39 4
ĠTÃŃ m
ĠtÃŃ p
ĠMcK in
y ev
Ġgiá» ¥a
ĠQ LÄĲ
D áº§n
ĠP uy
ĠR á»ĳt
ĠÄĳá» įt
ĠChrist ensen
ĠS ac
te ga
ol on
ĠM á»ĵ
CCC D
but amol
ĠÄĲ iá»ĩu
ĠR wanda
K P
ĠS iv
Ch an
ĠLá» ĬCH
ĠHo ff
ord an
c ai
ĠThib aut
ĠÄĲT NÄĲ
ÃĴ A
b ac
34 8
0 77
ĠI taewon
is ak
70 5
Is lam
ĠPan etta
ĠBeck er
ĠBris bane
ĠP Ã²
ĠBis hop
Ġt uá»ĳc
ĠB ion
8 15
R ap
ĠKalas hnikov
Ġ4 48
th áº±ng
Le on
Ġ(? ).
Ġtv N
May bach
Ġth áº£ng
Ãģ i
LÃªn in
am u
ĠS ov
ĠLi ang
M á»ı
Ġd evel
98 3
ÃĶ M
á »®
M Äĥng
ĠC Ãĵ
ĠV US
ĠF itz
Ġ18 99
n ight
9 19
ĠHá» ħ
[ [
ĠK is
40 6
39 8
44 4
49 8
Äĳ áº§y
37 2
Ġ over
ĠM á»¡
bach ev
ĠS ÃŃnh
ĠChÃ ¬a
ovan ni
ĠBeyon cÃ©
ĠK FC
CQ ÄĲT
Ġnh á»ĳn
ĠMaria h
Ġr áº±n
ĠAcc ess
Ġd áºŃt
Ġph áº©y
Lamb orghini
f am
5 24
Ġx Ã©p
ĠL áº£i
v tv
ĠLo han
iz a
38 7
ThÃ ¢m
c Æ°a
ĠHm eymim
R á»ĵng
ĠT au
ud an
ĠFl appy
ĠL iÃªng
h ard
ĠS AG
ĠK atherine
ĠR atch
ĠZ ircon
Ġm áº¡p
05 4
ĠLev y
á»ĭ u
ĠthÃ ¢y
ĠV MS
ton a
TT N
Ġr á»ĳc
ĠChe ck
ĠAr amco
5 29
Ġn iá»ģng
ĠEl vis
ĠRun way
9 25
0 21
Ġd an
Ġly cop
Ġ[ +
Ġph áº§m
ĠC ow
ĠF X
ĠBart omeu
60 9
ĠCB NV
) ?
est an
Ġ43 1
An dr
ĠMai ne
N M
Ã ģm
ĠF iesta
39 7
El on
ĠRet ina
B XH
j ee
Ġr ia
ĠB á»¥t
ĠZ um
ĠZen Fone
ĠSam antha
Ng á»±a
ĠHuff ington
W TI
Tr inh
Ġ19 07
ĠNav er
ĠnhÅ© n
ĠG os
ĠIm age
Ġh em
ĠJu do
ĠAd obe
or ov
ĠJ ill
ĠWall ace
ĠMallor ca
Ġp iston
ec tin
ĠQu ebec
od i
ĠMin dan
5 23
om bia
ĠMob i
Ġsá»± c
S Äĥn
ch áº£o
5 47
ĠTIáº¾ N
7 37
Ġkh áº£i
ĠK iá»ĥng
ĠEn zo
ĠHotel s
In tel
ĠMindan ao
Ġas pirin
ĠD ag
ĠE B
N at
ĠN akhon
Ġ6 45
B Æ¡
ĠHit achi
ĠB ain
Ġ45 2
ĠRah man
3 14
K Ã¨m
Ġs Ã¡m
c or
u xe
ĠV era
Ġn Ãª
ol and
ĠRo om
Ġelec tron
G olo
t á»Ľi
36 4
ĠKle in
m ot
hi c
Jess ica
s chool
lá» ¡
Ġ6 66
ĠR ennes
po und
ET RO
Ġsá» Ľ
B á»±c
Ġb áº¥u
Ġ14 00
ff er
ĠO F
Ġngh Ãłnh
las ma
ĠP uka
ĠSer ge
Ġpar acetamol
N ap
Ġbá»ī u
7 47
t ent
ĠBor ed
Ġjump suit
z in
Ġv intage
Ġkáº» ng
ĠEl ena
NhÃ £n
ĠI CTnews
ĠAv iation
Chá» Ĺ
Bo as
Ġbot ulinum
w eb
ĠP yo
ĠR ita
Ġs Å©ng
food s
6 15
Vietin bank
ĠT Ã¡n
ĠÃ ¨o
t uyá»ĥn
ĠChang i
ub o
ĠNhÃ ´m
ĠMcCon nell
c ac
40 9
ĠNav ig
vis or
ĠA us
ĠG w
Ġskin ny
ĠSand ra
h un
sh in
k Ãªnh
ĠP ung
09 6
Sh in
ĠB D
ĠLe c
kh iáº¿n
ĠDia s
58 7
Ġ39 3
ĠJoy ce
im art
k Ã©p
et egui
y un
cul es
P l
ĠÄĳ Äĥm
ĠRichard son
Ġ19 03
Ġnicot ine
phyll um
ĠCD U
Ġcáº£ o
ChÃ ¬a
29 7
onia c
88 9
60 4
ĠKen neth
ĠSc an
á»Ĳ ng
§ n
ĠM oo
ĠS ut
ĠVB QPPL
Ã¨ ne
Q N
ĠBei jing
ĠX E
ic ol
ĠSh adow
ĠÄĲ á»±c
ĠPh om
ĠCl ara
ÄĲ en
ĠPh el
Ġtho ang
ĠPH ÃļC
ĠNH áº¬T
Ġ4 21
40 8
Ġcan o
ĠAm a
ĠÄĲS Q
ĠM ab
Ġlo i
ĠTh rones
ĠSp encer
ĠHV G
Ġtr áº±n
ro ws
ĠV ay
b Æ¡m
05 8
S abeco
áº ¨m
ĠVin c
C Æ°á»Ľi
ĠHá»Ĵ I
ĠJanu zaj
Prem ier
Ġâī ¥
ĠBrist ol
ĠE qu
aw are
h áº§u
ĠV az
97 6
Gl obal
Ġb Ãµm
Ġkh em
b uá»ķi
07 9
L Äĥng
id ad
Ġmá» £
phunu vietnam
Ġw ushu
ĠTheod ore
Ġ4 49
ad ar
ĠEdward s
ĠU áº©n
ĠMáº¹ o
t Ãłn
v áº¡ch
35 4
Ġv iá»ĥn
B Ã¡
ĠVá» ļI
V Æ°á»Ľng
ĠR est
rai th
Ġ47 9
ĠFerr er
ĠBib ica
V á»¡
k ir
yo ut
ĠPet rol
ĠÃĲ iá»ĩn
7 68
A ct
ĠMartin o
ap s
F ab
t ao
Ġ4 17
Ġ5 28
ÄĲá» £i
ĠNishi k
6 85
ĠK ier
Ī NH
ĠNh áº¹
ĠTh under
ĠAg ain
az aki
05 7
VAM C
A sh
S ha
ĠK ali
ĠP API
ĠNg on
qu en
ĠTh al
Ġ Æ¯á»Ľp
35 3
ĠKore an
ĠNat alia
ĠJo ker
ĠH ep
Ġf air
ĠAki hito
S aint
g ne
Ġb iá»ģn
ĠAil en
T á»ĳ
chá» Ŀ
,âĢ¦ )
ĠN ed
Ġdi ez
ĠMan bij
ann el
Ġl áº¹t
ĠG wang
ĠVin am
ij der
Tr áº¯ng
ĠFit ness
35 1
8 65
Ġchu n
S ung
Ġ45 4
ĠÄĳÃ¢ Ã¹
Ġ7 000
c ial
4 22
ã ħ
ĠSin ovac
ĠSW IFT
ĠPV comBank
ĠVR G
T áº£i
ĠÄĳ Æ°á»Ľc
IR GC
O SCE
Ġk ey
ĠAug ust
A qu
ĠV im
Th uá»Ļc
áºł NG
09 4
u co
Ġ46 2
ĠW ah
ĠRe c
Ġcos play
05 3
N O
4 11
M iáº¿ng
S ARS
h au
ang er
ĠN P
ĠB ANK
Ġ18 98
m obile
6 36
0 98
M atic
Ġc all
39 3
ĠP Ã¬
ĠCon tainer
Ibrahim ovic
Ġb aux
9 11
uss a
Chev rolet
37 4
ĠTrans fer
ĠTit anium
C en
l áº¡nh
di en
ĠColom bo
ĠC un
C y
Tr ai
9 65
ĠTr uss
SO HR
ĠBLTT HS
ao n
Ġ39 7
ÄĲV O
ĠNik ki
aw esi
ĠVal ery
ĠNass r
ic er
k ova
ĠTh iÃªu
or ed
80 2
ĠRad ar
áº¤ P
iz ed
ĠSign ature
ĠG ermain
0 49
B oy
46 2
Ġser otonin
ĠB la
fish co
l ana
ĠPr ov
ĠCap ello
ĠVD B
47 3
ĠEthan ol
48 9
Ġb áº¥n
ĠM ist
thu áº¿
G E
ap t
az i
EX O
ĠAlexand ra
ĠClar ke
r á»ĵng
ĠA ND
ĠNh Æ°á»Ŀng
ero x
H V
ĠO NE
Ġ18 90
ĠEx change
Ġ4 34
ĠChern obyl
tr an
ĠV ista
ĠPlat form
Ġchá» ħ
ĠKhu Ã´ng
N or
Ġnh Ãłi
gr ade
ĠhÃ² i
Ġc lin
Ġtr áº©y
ĠM Ã¡ch
ĠphÃª n
l und
ĠMont ana
uy u
ĠL iá»ģu
ĠLav ie
á»ĳ k
05 9
ĠÃª kip
g iÃª
ĠAn ad
ĠMu ammar
ĠS ent
ĠG epard
ĠCH F
Ġvá» ĳi
ĠC Æ°á»¡ng
m áº¡ng
Ġvacc in
0 33
ĠTRá» ĮNG
ĠKh iÃªu
Æ¯ á»ŀNG
Ġcard igan
la w
Ġtrá»į i
ĠShar if
Af ghanistan
47 6
ĠTr aphaco
st atic
ĠH TS
49 6
X PVPHC
V IB
ĠNK G
% âĢĿ,
v ette
th Ã¡ch
Ġ60 1
ffe nheim
sp ace
USA ID
os port
S w
ĠEl sa
50 8
ÃĴ O
l Ã²ng
Ĥ N
ĠdÃ¹ m
ĠC U
Ġ8 45
ĠRos neft
Mil an
Ġch iá»ģn
ev ic
ĠU T
ĠT os
ĠB áº¥y
ĠStr as
R od
S PC
Bao dautu
Nhu á»ĩ
T eam
ĠMun do
60 1
AF I
Ġc áº¡ch
ĠS áº§u
65 6
E rik
ĠY ev
Ġsand wich
ĠAd ren
r ica
Ġ45 1
ĠÄĲ KDT
ĠChe ong
j c
88 5
ĠMel issa
ro bi
ph am
4 17
k ham
58 6
Æł n
lu an
ĠGreg ory
chá» Ĺ
ĠBen igno
ts ov
ĠFish er
ĠTT K
ĠCl ay
ĠDab aco
ĠVN S
ĠReb ecca
ĠB Ã¹ng
th ia
ig roup
ĠBern ie
ĠTr oll
en er
ĠPT DT
E p
ĠKe ita
N oo
re ira
ad in
ĠE OS
Ã¡ s
ĠSul awesi
Ġlim ousine
und i
ĠÄĲK XT
ĠF av
ank o
man ia
48 7
ii i
Ġ8 35
ot us
ill us
Hung ary
M usic
US S
Po int
ĠTh áº£
55 9
ĠKind le
57 6
ĠDes ire
chÃ ¹a
ĠSpr int
ac on
Ġnháº¹ m
ĠBoris ov
Ġt alk
ĠT ym
ĠsÆ¡ mi
ĠTh oan
ov al
Ph Ã¡n
X SMN
» ļt
á »ļt
ĠRy u
N i
Ġc ell
Äĳ Ã³i
ph at
ib ol
ĠBl ood
Ġlá»Ł m
Ġng Æ°u
ĠDavid son
ĠCarr oll
ĠÄĳá»ĵ m
VN ÄĲ
Ġ60 4
Ġkhá» ©a
ĠGor bachev
ĠL Æ°á»£m
57 9
7 41
L isa
M Ã¹ng
h ak
li ffe
T ype
ĠE RP
des ivir
S IM
v re
ĠB Ã¡m
Ġ45 3
07 2
S isi
z yn
art z
ĠG ue
ou ter
ĠSab ah
Ġ60 5
99 8
ĠVI ÃĬN
ĠsÃ´ cÃ´la
áº º
ĠF ro
ĠAN ND
ĠLu la
Gi áºŃt
Uy Ãªn
c ity
Ġ46 3
Ã Ĺ
ĠT EU
am ac
ĠTá» ¥i
Ġ48 6
ĠTho áº¡t
ĠL ives
ĠbÃ¬ u
5 68
ĠN oah
ip ras
ĠPal ermo
06 2
ĠTCC N
South ampton
ĠV od
T esla
Ġ45 7
Ġ44 1
ĠSup ran
ĠOx lade
zh al
P ass
Ġ44 2
ĠFeder ico
ĠI da
as an
qu id
fi q
ĠW ho
tu al
ust om
g al
Ġed ge
m Ã¡i
ĠL icogi
kh Ã¡
ĠWolver hampton
n ier
p sey
ĠTr áº§u
ĠHy ori
ĠFPT S
tr áº£i
ĠQ T
ĠKienlong bank
ĠRho des
Amer ican
h om
L iá»ĩt
Ġo xi
Ġ57 9
ĠC isco
Thu áºŃt
ĠHero es
b Æ¡i
4 14
Ġá» «
Ġtu áº¿
ac er
Äĳ inh
Ġkh áº£n
5 88
ÄĲ u
ĠGi ll
d uy
Ġ overs
Ġ5 13
50 2
Ġl ia
ĠL NST
b et
ĠdÃ² m
ĠSel ecao
ĠS Ã¬nh
8 95
ĠM ev
97 9
ĠLop etegui
h al
eng en
ĠKang aroo
ĠN SDLÄĲ
48 6
ĠSe pp
Ġxá»ĩ ch
od ar
ĠWin d
r Æ¡
ĠTr á»¯
ĠCT R
ĠLog an
c uá»ĳn
Ġl Ãº
let cher
ĠO cc
ĠCan celo
thÃ ªm
ĠEs c
4 16
P oster
tr ip
ĠPick ford
ĠG LS
ĠT ir
ĠMi rae
Ste ve
J im
S UV
k W
ĠClin ic
0 34
ĠNg Æ°á»¡ng
Sp ace
Â º
ĠGiá» įt
ĠG ut
ĠHo Ãł
P MU
68 6
sh ev
und erb
am ura
ĠW oznia
ĠMah ar
36 3
V CSC
L in
ĠÄĥ m
Col ombia
ĠRa ff
ak ed
ĠEuro Cham
Ġkhu Ã¢y
id al
80 5
ĠDel uxe
ĠG TB
as co
ĠF lex
V iá»ħn
Tr áº§m
ĠBarb ie
c end
68 1
ĠWal sh
ĠLap orta
5 13
ĠFacebook er
ĠLab s
Ġqu Æ¡
E ng
ĠO sen
ĠBai ley
Ġc it
ha zi
ĠÄĲB VN
ĠLa hm
CA F
ent ine
sh are
Ì ģ
ĠX áº¡
Ġbu r
ad ezi
45 1
07 6
ĠÄĲ ÃĮNH
ĠTT XD
ĠW ant
S uá»ĳi
ĠPlay er
ĠthÃ ²ng
Ġw in
Ġ45 9
ĠK K
ĠAld er
5 22
Ġ5 23
lu or
Ġi M
ĠYuan ta
ĠAdvent ure
ĠL C
Qu Ã£ng
ĠSen do
ĠBer ry
ĠGustav o
ĠPVO IL
L es
l áº§y
ĠTan aka
ĠGi Ãłnh
SN SD
ca fe
0 66
ĠP ah
gi am
Ġká»ĩ ch
Ġt áº±n
Ġá» Ĵ
ĠK TTT
49 1
ĠPar am
og lob
Ġá» Ľ
Ġ5 18
Ġ9 55
Ġ44 4
ĠAp ax
ĠTour ist
46 7
ĠSupran ational
s han
ĠBrook s
ÄĲ HÄĲ
ĠChi ba
77 6
F uture
ĠZ ap
ĠX á»Ķ
ĠE ps
ad os
aren ka
ĠAc tion
OR T
ĠT áº¾
Ġw ork
Ġa er
Ġkhu Ã¢ng
46 6
ĠBu zz
ĠGiÃª su
ĠHudd ersfield
ĠC e
ĠQ NK
ĠMidd lesbrough
t own
ĠV CI
Ġ icon
ĠM Å©
60 2
G á»Ĺ
m ob
ÄĲ D
SG K
ĠA WD
ĠBank s
fol k
ĠB á»¥i
ng á»įt
Ġ50 7
L Ãºa
Cap ita
ĠAndrew s
19 49
ĠBh um
r il
Ġp art
ĠW yn
UYá» Ĩ
ĠTrav is
ĠCath ay
Ġthu Ã´n
Ġ ang
ĠPod olski
B rien
ĠP Ã³
Ġ10 22
T ag
ĠN ÄĤM
4 26
ar te
n ang
Tr Äĥn
Ġvá» £i
ĠQuÃ½ t
LÄĲ BÄĲ
ĠARM Y
Ġvi et
Ġ39 8
x oay
Ġtáº¿ u
or ph
ĠKr ug
O ppo
ĠV oy
ĠM ud
Ġfly cam
- ...
ĠcÃ ¢
ĠN Ã³c
ĠSá»ĳ p
N Ãło
ar lison
Ġpap arazzi
bn b
H ANOI
ĠBar k
4 38
ĠCon st
ĠM ash
ĠA TC
ĠDT NN
ĠM s
08 3
ĠPort land
J in
Ġ16 00
ĠKit ty
ak is
ĠDel aware
ĠF ey
ĠVi king
Ġm áº©y
c oi
ĠK ra
Bo eing
ĠT av
ĠTh uy
Mo ham
ek i
" >
Ġ46 9
f th
Ġngh iÃªp
gen y
Ġr Ã¡y
ov ern
ĠSin mun
09 3
Ã³ w
), âĢ¦
ear e
Ġ6 12
og y
oc yan
ĠPac quiao
ĠQu Ã¡i
06 4
4 28
F PA
ĠCalder on
ĠR abiot
ĠÄĳÃ º
ĠLu cky
ĠRam s
B Ãª
Ġ6 99
ĠCr eta
48 2
ĠDig i
ĠVH C
ĠTs ipras
? '.
Ġrem ix
ĠT atar
c orp
Ġ av
ĠJ VC
od ium
ĠÄĲÃ´ la
ĠSev er
ĠJac obs
ĠWow y
do or
dy ch
ĠQ UY
ver ev
37 1
ĠVit aly
ĠI b
ĠT TT
ĠM ok
en ig
Con tinental
PC A
ĠHum an
ĠP ico
08 6
ĠA in
ĠStr ange
ĠFr aser
ĠViss ai
, .
ĠE asy
ĠAssoc iat
Ġin vest
ant ine
chÃ ´n
Fan page
H ow
ĠV CPMC
Ãĵ A
07 8
ĠLenn on
40 3
ĠMin o
N ik
w C
ĠAv ia
4 36
ĠIR GC
ĠBox ing
Ġ48 2
ĠR Ã©
iv ar
F SA
chÃ ¬m
Ġnh á»ĳ
ĠGl obe
ĠAz z
6 35
Ġp Æ¡
67 9
4 23
Ġdown load
ĠGr ad
ĠQL HC
ĠAv anza
ĠAss istant
ĠAn s
ĠKhark iv
ĠReyn olds
an an
ĠAs ilidae
CH I
lá» ĩnh
4 33
u h
zeg ovina
ĠPV TM
at ur
rad or
ĠS ÄĲT
ĠTD H
60 7
19 56
ĠVerr atti
ĠB ots
45 4
! )
w ai
ĠEs ports
ĠHann ah
ĠT ing
el ift
ĠU ran
ÄĲ Äĥk
ĠI EA
ĠWil helm
7 88
Sel ena
Z ero
n ip
Ġser ver
Ġ7 68
ĠGul f
ĠM á»ĭ
ĠH ÃĶM
ĠK IS
ĠKH ÃģNH
B á»ĥ
di um
ĠAt om
ĠTr op
50 6
ah ce
ĠGu us
Ġcu á»Ļi
ĠEss ex
v ang
ĠKid man
9 85
it en
T á»ĭnh
Ļ n
Ġd iÃªn
Ġ54 3
T Há»
d uyÃªn
ĠL áº·p
ĠthÃ £i
Ã½ ch
66 9
ChÃŃ n
c Ãłi
v iÃªm
Ġm ore
ĠC Æ°á»Ľi
Br uno
os in
D J
ĠF is
ĠVina food
ĠPau la
0 42
ĠAdri ano
B Ã¬a
ul idae
r ar
ĠEver y
ĠV iá»ģng
HO ÃĢNG
ĠAmaz ing
. âĢľ
Ġn ig
ĠB IM
Ġshort s
ĠH á»ĳi
ĠGi s
4 48
ĠN ia
Ġ9 25
tr Ãł
io id
ĠCur tis
Ã´ c
ĠD estin
ac io
ĠÂ «
L ine
ĠN Ãły
H Ã³c
g Æ°Æ¡ng
Luk aku
áº ¨n
ĠHen rique
Ġmá»Ł n
ĠPar c
Ġ48 3
ĠVNA H
ĠPol o
Fran k
U ber
X Ã´n
ĠSar s
nh áº¯m
Ġv logger
od er
d at
ĠG Ã¬n
lo h
DX Y
5 36
ĠDem psey
V F
ĠQuy nh
46 3
ĠOp rah
C are
Ġhat trick
ĠR ashi
88 6
ĠDub lin
ng oisao
ĠRu á»Ļng
b áº¡o
uy ff
ĠSt ella
ĠC ry
ĠG ym
ĠI con
ant ile
ĠÃĲ á»ĥ
ĠV X
Tr Äĥng
Ġco un
ub l
ĠE ra
Ġcá»¥ p
t iÃªm
Ġl act
% âĢĿ.
C á»ı
6 18
ÄĲ ua
Ġ8 99
ĠKel vin
ĠTe er
hi zer
ro c
ĠTH VN
ĠKhá» ī
tu Ã½t
ro ck
z u
ĠKy aw
ĠChrys ler
o cha
qu á»¹
ĠDis patch
ĠE lyse
d á»įa
ĠSc reen
ĠPol yp
ĠVN VC
ĠT orn
ĠTR ANG
ors et
Iáº¾ U
apor te
ĠA kh
Ġ60 3
ĠPle i
0 31
08 4
ush el
u tr
ĠM áº¯c
ĠTP L
Ġal umin
Ġse quin
C TT
75 2
Ng á»Ļ
Ġ48 9
ĠSher man
R ub
ĠThÃ ªu
ĠD ÄĲ
ur in
Ġac et
l op
u j
ĠGi ovanni
ĠCh Ãłi
ev es
E co
Ch oi
ĠV M
ter ia
ĠVietnam obile
ĠO ur
ĠEconom ic
,âĢ¦ .
ĠCh Ã¡o
ĠSub oi
ĠÃĵ c
I RE
ĠR ÃŃ
Ġ56 8
ĠHut ch
Ġngo Ã¨o
t ens
r ine
t á»ĳc
ĠFri es
Ġm áº«m
c il
Ġ ul
Ġ6 65
ĠCarne gie
5 16
Ġm Ã¡o
55 6
ĠDar ren
Ġcomp act
ĠMerc antile
L NG
ĠKh áº¯p
ĠYout uber
Vol kswagen
C á»§ng
ĠCh áº¡m
Phá» Ł
ĠV Ã¢y
y to
oid es
. /
ĠShar ma
l Æ°á»Ľt
r est
t Ãº
19 51
I l
Ĳ I
ĠKhÃ ´
I r
LC L
Ġ9 15
Ġ46 4
ĠAle k
Q C
ĠMal ik
48 3
V áº£i
ĠTh ings
ĠVert u
7 67
ab ae
Ġ(?! ).
4 29
ĠNg oáº¡n
ac ey
thu áºŃn
ĠLuk as
K az
ĠL áº§m
ĠM iáº¿ng
M á»ĩt
Ġ47 8
ĠKing dom
ĠDH G
6 11
m á»ĵi
Ġ18 96
ĠP te
ick i
ĠCa esar
ĠEven ing
ipp o
ĠHer cules
ĠOr tega
och oi
G ab
Ġk ayak
kh iÃªu
0 97
50 3
ĠSoy uz
ĠSu gar
ĠAd vanced
%) ...
4 18
ĠTr ee
Bill board
ĠGaul le
ĠGiá» ĳc
EM A
if lor
ĠCT XH
apl ua
ĠZa ha
B ale
ĠMau rizio
Ġ9 46
AR A
4 37
B Ã¹
B áº¯n
ĠD á»ģn
ach t
4 34
Ġ50 6
ĠVietnam Plus
l á»Ļc
ĠD ro
ass emia
ĠCoo p
ĠG EX
ĠNS W
Be ck
Ġá»Ķ n
b Ã¡m
ĠAgu il
esp eare
j ay
66 1
ĠPui g
ĠRamir es
ĠK ass
ĠAv enue
ĠMina j
V áº¯ng
ĠG ui
ĠCP P
Ġcu á»Ĺm
06 1
ann on
K en
ĠTh inh
li ve
ĠShi p
B QP
T áº§n
g áº¡o
Ġ65 5
Seo ul
H ope
inh os
ĠViet Times
dr ama
Ġkil Ã´m
ĠLanc et
ĠH ack
ĠR icky
ĠCro w
ĠRay theon
ĠLight hizer
ĠAlexand ria
ĠL LC
ter dam
ĠAT K
ĠDiv ision
ĠQu ao
You T
ĠHar m
ĠNova World
N eo
ĠResiden ces
ĠSne ijder
5 66
ĠK M
ent or
out i
ĠB ard
ĠWes ley
ĠDarm ian
ĠS ep
ĠK ag
ĠD áº¡ng
ĠMer r
ĠSe ine
q lo
ä º
ĠM á»¥
ĠTak eshi
ĠPanam era
0 44
R F
ĠBrem bo
P ierre
ĠN Ãªu
ĠBe h
him i
ug in
K O
ĠG X
am endi
amp lus
ĠGall ery
ĠShinh an
z ar
ĠM TP
46 4
Gi Ãłu
Ġworld ometers
ĠLer oy
ĠBarc lay
40 7
ĠR ott
BV ÄĲK
And re
t áº¯m
Ġnh Ãłnh
0 47
c áº©u
ĠTÆ¯ LÄĲTT
elli er
5 38
Ġth áº©n
HO NG
ĠW ealth
und e
n it
Ġng oi
ĠnghÃ ©t
ĠChild ren
Ġ7 49
ĠcÃ³ t
ĠA lo
ĠVá» ¤
9 45
ĠÃģ N
85 8
I NG
h ui
m ax
ĠB izLIVE
c áº¡nh
ĠM Ã£nh
Ġst ent
M INH
50 9
07 3
36 1
5 28
ier e
L ang
unt down
ĠhÃª n
ĠSP DR
ĠN Ã£o
ĠW ings
and an
45 3
ĠAttap eu
ang o
98 9
as is
ÃĶ m
88 2
Ġáº¢ ng
Tw itter
ĠTart us
ĠB YD
Ġb ua
0 39
tá» Ŀ
Lá» £n
Ġch erry
ĠE t
47 1
» ª
ĠP ong
op us
90 5
id is
ĠcÅ© i
ĠMau ro
u es
se ong
k ut
ĠD ier
ĠtÃŃ u
", ...
ĠT amp
on ium
ĠTá» ª
ĠMor i
T i
Ġr iu
O m
Ġchá»Ł m
ĠP ont
50 7
ĠÃĲ áº¿n
ĠColl agen
MA X
fth ansa
Ġtrend ing
R en
Ġf t
ĠJohn athan
ĠHe idi
erb ahce
aton in
t iti
an ova
áº¤ u
ĠLen o
ĠQu oc
A p
ser ies
Ġr Æ°á»Ŀng
ĠM ish
Bel arus
oz in
C ab
Ġv áº¡ng
ĠV GC
55 8
SN A
ob or
ĠRep ublic
0 67
ĠVal er
ĠAC E
aglia ri
ĠNor u
Ġlaz y
e ID
ÄĲ Ã²i
ass ic
ĠC Æ¯á»ľNG
ĠH ANOI
ĠTrans it
dr ado
ĠSaf ety
T ee
Ġs ax
ĠKho Ã¡t
Su arez
i OS
m ag
Av engers
b ase
Ġhá» Ľp
Ġqu Ã¡ch
Ġf re
ĠÃļ y
os is
ĠLink ed
A le
b re
u olo
ĠC hÃ³ng
ĠB att
ĠKh ab
ĠZ or
ĠStras bourg
ĠSo Ã¡i
8 12
4 32
ĠMr s
Ġn eu
K DC
ĠL iá»ħn
ĠL áº¯ng
ĠLe go
ĠKur il
ĠSher aton
Ġcar b
Ġchá» ¥m
ĠB rio
ĠQLÄĲ B
5 67
Ġqu áº¯p
ĠTr Ã¡t
Ġ50 3
ĠSo f
ĠLaut aro
Ġgi Ã²i
D Ã£y
ir m
An na
ĠDen ver
w est
78 6
chÃ ª
thÃ ¢m
ĠNgá»į a
ĠGood ison
am on
ĠCN A
ĠWin frey
07 1
09 2
V Ã³c
r Ã¢u
ĠV et
ĠBion ic
ok i
ĠSal monella
ĠCN RP
Ġhot boy
C á»±c
Ð ²
46 1
Ġ46 6
ĠDra ke
amac are
ĠCh um
Ġ0 69
50 4
ĠGab bana
ĠNass er
P a
ĠMet hamphetamine
ĠCSÄĲ TTP
Ġx á»ķi
c Ãłnh
ĠVÃµ ng
ĠTw ice
tr Ã¡ch
ĠLam bert
ĠC EP
ĠG á»ĵm
ĠX TTM
ĠM á»ĩt
M Ã¡u
ĠTam il
J am
á »ª
ĠT aro
ĠHÃĲ ND
Ġthu á»Ļm
v Æ°Æ¡ng
ĠB aku
ĠS oÃłi
v á»ı
ĠF ors
ĠBT L
Ġlá» ķng
ĠJ SC
Ġpen thouse
Ġbio gas
Ġ order
ĠDel e
ĠOto fun
Ġk iáº¿ng
along korn
ĠN B
Ġ8 65
ĠNag oya
F N
ĠP is
MK I
Mar tin
Ġng Ã¡ng
ĠE in
08 9
55 1
ĠInvestment s
6 67
C ERT
ore a
Ġ54 2
W ay
ĠHo Ã¡n
ĠV ero
Ġ18 97
G irl
g Ã³c
ĠHM TN
ĠS AP
4 19
ĠN Ã¢u
ĠNor folk
aug rana
H oan
ĠAr iel
f on
s im
ĠS ÃŃn
amin o
ĠBo urg
ĠSt op
ĠThÃ ¹ng
KH Q
ĠNishik ori
ĠXX II
Ġh er
Ġ56 7
, ....
g un
EVN N
ĠSoc iety
ĠMar quez
ĠThe er
X Æ°á»Łng
m áº£nh
ĠP iet
US B
us to
05 1
77 9
áºł O
5 26
Th s
ĠSan aa
68 9
5 11
Ġ6 22
ĠCon ference
Ġphen ol
ĠOt amendi
ĠL K
08 7
ĠE astern
ap ro
á¸ ħ
kh uyáº¿n
ĠSch engen
ĠJup iter
ĠAnn ie
ĠMo ong
ĠSp yder
ĠVer ona
Geor ge
ĠC od
T ung
Ġ6 49
ay ga
mark t
ĠFly ing
Ġph one
ol ari
th on
' !
Äĳ an
60 6
ĠSal a
ĠShib uya
Ġr áº¡o
KhÃ ´i
ĠSim one
ĠSD ÄĲ
ĠNA FTA
ĠÄĲ Ãłnh
ĠSal is
67 3
ĠSign al
ch áº¥p
CN VC
ĠPr otein
ĠAt tr
ĠMartin elli
ĠID ICO
ras ka
ĠIS I
4 27
az iz
Äĳ uá»ķi
ĠÄĲ Ã²
ĠG Äĥng
ĠN Ãªm
Ġ5 22
âĢ¦ ?
Ãį CH
ĠKara chi
4 47
Ġ55 8
Mo on
7 92
ĠP yr
ĠSic ily
G O
c oli
ĠT ito
ĠJ ew
ĠCr uyff
l Ã³t
ĠM IL
sen d
95 9
l ÃŃnh
ĠL N
B ad
j as
val ho
v ice
Th iá»ģn
Ġ25 00
ĠThi em
Ġ49 6
ÄĲ á»ĳt
ĠCo en
o ji
Lu is
ĠBer dych
ĠWal k
58 4
ab uri
ĠMay bank
Ġv iÃªc
iz zie
. ).
9 15
Ġ44 3
ĠSon ata
Ġtu lip
M Å©
Th ang
ĠR overs
oc al
ĠPVF CCo
Ġ55 2
90 9
8 68
Ãį NH
ĠR Ã¬
ĠFant asy
ĠC Ã´i
ĠB ÃģO
ĠB end
ĠSp O
ĠN iÃªm
ai de
ĠP eg
M áº£ng
V u
am ar
ĠGyeong gi
ĠHo j
7 16
ĠHá» ¢
ĠOd ys
ĠT CÄĲ
il ey
O unce
n est
6 12
ĠL Æ¡
Äĳ u
ro y
ĠNic ol
ĠAnn an
ĠAnad olu
ĠT ien
ĠTh underb
ĠRoll ing
ĠMis ter
ĠK ill
ĠTB T
Rich ard
ĠDara a
ĠJo ur
MAT IC
5 17
B ol
ĠBK AV
ĠHu á»ĵi
Ġm áº§n
ĠPor ter
ĠSir te
4 49
ad es
H CT
J CPOA
ĠB ik
ans om
ĠHer bert
ĠMedic ine
J i
m Ãły
ĠD E
mu da
ĠMain z
ĠC á»Ļp
Ġ5 88
tr ans
ĠPhilip ines
ĠOrig in
ĠÄĲ ai
ĠJ T
ing en
ĠBar nes
ĠBots wana
8 26
99 6
ĠTong a
b t
), ...
ĠT IM
ĠSun ak
at ov
carot ene
5 98
er man
Ġá» Ľi
Ġch áº¡ch
red o
8 23
Ġ60 9
ĠP J
Ch Äĥn
ĠBL DS
v iv
ĠK ant
K CB
ĠBH D
Ġco in
57 1
ĠStr auss
ĠBorn eo
ĺ T
ĠD ew
b ler
75 6
47 4
Z idane
ĠR NA
ph Æ°á»£t
c ay
Ġd á»Ļng
AD E
ĠR Q
ĠPH ÃģT
ĠShar on
Ġd áº·c
9 35
ĠS edan
tin son
J ordan
Ġph ablet
ĠN ever
ĠFus ion
6 22
48 1
L ab
Ġ6 24
ĠBel le
ĠS oth
ĠNeur optera
V ir
ĠH ÃĴA
our ce
ĠCle an
C at
W ang
%) âĢ¦
ĠHol iday
ĠPre ah
G am
ĠPCCC R
67 6
Jo e
4 13
ĠDO HC
j ae
38 1
ĠAz iz
Y u
Ġlu á»Ļm
Ġw id
80 8
ĠS ylv
ĠLÄĲBÄĲ VN
Ġ49 8
RO M
v Æ¡
Ġl Ã³i
Ġ7 19
lin an
Ġlycop ene
art ney
Ġring git
Ġr am
ĠOs ius
R M
NT D
ĠGl enn
ĠUP U
ĠFal ko
7 19
Ġnh iáº¿c
ĠAir line
ĠMax well
c ess
L N
L ogo
ĠZ verev
ric ia
ĠÄĲ áº§y
il er
70 7
ĠCraw ford
G hen
LA C
ĠKin zhal
Ġ57 8
k at
ĠPr ado
6 24
G on
r Ã´n
Ġ %,
ĠCK II
c Ãµng
ty n
ĠE ff
ĠSc andal
ĠFran ck
iar ds
Yo ung
ĠVI X
nh ÃŃ
ĠC oach
ĠCH á»¦
ĠMAC D
Ġl Ãºm
ry n
L H
ĠSp art
ĠNa cho
49 2
Ġban d
ÄĲ iá»ģn
Ġbá» ĩn
ank ham
Ġnhá»Ł n
Ġcar o
ato xin
or ity
tp ellier
tr á»¥c
Ġ43 9
07 4
85 2
Ġ00 1
ĠRog ozin
ĠEVN GENCO
ĠAmb ani
Ġhá» ¡i
EA S
Ġ46 1
Rad ar
j p
ĠPH AN
ĠN ung
L ind
Ġ7 15
Ġv áº³ng
ĠT Y
s iáº¿t
ĠM SI
ĠR AT
Ġ50 9
Ġdi g
ĠInf antino
Ġ6 68
Ġbus iness
b á»ĵi
69 6
5 32
D ai
Ġ5 37
ĠTá» ¥c
Ġnh Ã¨m
art ner
08 1
r áº»
Ġt el
ĠL aporte
59 4
N á»ĳt
ĠCh eon
ern a
ĠBhum ibol
ĠB oo
45 7
ĠT ip
ĠK ens
ĠD rop
ĠPr enn
ou ane
Ġ5 17
ĠCÃ³ i
kg round
T ak
ĠA uth
ĠAn ast
Ġ6 16
ĠGian luigi
ĠM áº¥u
ĠG MS
ĠDai mler
á»Ĳ NG
ĠS IP
do x
ĠAd olf
Iá»Ĩ M
ĠSay yaf
ĠH ano
4 46
ĠN oda
Ġg oogle
19 40
áº¬ U
ĠNor odom
Ġg áº«u
Ġr eg
ĠZ ub
chá» ©
79 3
Ġb Ã²n
ĠDá» ©a
Ġg á»Ļc
ĠÄĲ ao
55 7
Ġso áº¡ng
ĠRe f
75 9
ĠSapp hire
Ġb ill
ĠSE K
Nh o
Ġbo ot
ĠCh Ã¡
Ġ6 35
ĠAm ata
Ġchá» ıng
Ġ18 80
ĠThe in
ĠF letcher
ĠBer muda
Champ ions
c Ãłng
w ide
ĠM ign
ĠK G
th Æ°á»Łng
Ġ46 7
ĠH Ã©
ĠU sh
ĠRe id
ĠSon adezi
E IC
ĠDynam o
V áº½
ĠWan bi
ĠK ul
F SB
Ġ49 2
Ġm ash
6 28
ĠN CS
ĠTr ent
ĠSp ice
ĠKar zai
09 1
88 1
Die go
and in
THA AD
s áº¯c
Ġp age
ĠDragon s
C á»Ĺ
Ġthá» ĳc
ĠKar ate
l á»¥c
os n
8 48
Ġn á»±ng
ĠKh uyáº¿t
ĠLen ingrad
ĠGuai do
Ġg á»Ļt
Tr Ã²n
b ung
ĠErn st
ĠGelex imco
Ġ5 16
ĠGand hi
Ġ7 43
CM T
ĠMel o
ĠNá» ĺI
x tin
á»® NG
Ġ48 1
Ġrá»ĩ p
y ot
ng á»įn
ĠErik sson
abae idae
ĠChurch ill
6 34
ĠAir bnb
ĠAm way
ĠEVN HCMC
Ġ78 9
GH B
Ġng Ã¡i
55 2
F o
Ġb ob
ĠM AMA
Ġrá» ģn
ĠCA C
ĠTak ashi
ĠJab hat
ĠTr ipp
ĠBQL DA
49 4
77 8
ĠYoshi da
ag n
7 23
ĠL ik
Ġ5 44
ill es
ĠBent ayga
4 24
c liffe
Ng Ã¢m
c ut
ĠD oraemon
ĠPat tinson
MD B
Ġtru á»ĵng
thÃ º
ĠOs set
oph y
ĠAx el
te p
ĠWe iss
? )
gi Ãłnh
a ar
ĠFar s
ĠB áºŃc
ac ty
ĠI pad
b ard
19 42
ĠÄĲ Iá»ĤM
n amplus
Ġth Æ°á»£c
ĠV á»ĭt
Ġin stagram
ĠÄĲá»ģ u
Ġgi áºŃp
qu Ã¡n
ĠT eng
ĠB attle
ob acter
ĠOl ga
c áºŃp
allad olid
x Ã¬
ĠAz arenka
ĠRot terdam
on ment
ĠSu thep
tr uong
Ġ18 89
Ġt er
Ġv Ãª
ĠG TN
ĠGi uli
D ep
ĠA CT
ĠTá»ķ n
Ġbaux ite
c ovid
ĠCh ron
ĠMach ine
ĠW A
ĠSer gi
ĠNutr ition
g áº¯n
r Äĥng
ĠD áºŃt
75 1
ĠBut ler
65 3
ĠUm titi
ĠR SI
ĠIt ar
ĠK rak
ĠCon d
ĠJ ude
n eo
Ġ56 3
ĠAce cook
C er
berl ake
Ġ5 39
us c
90 8
Chi le
5 62
ĠMev lut
ĠB CA
qu er
ky un
Ġ é
ĠY ao
ĠWell ington
L áº¥p
B uá»Ļc
b á»ĵ
ĠC ed
Ġ5 26
kel ey
8 64
9 27
DP R
ĠK eng
44 1
ĠN olan
ĠÄĲ X
ĠR ung
Ġrup iah
ĠSan to
ĠYel low
5 49
F ar
Ġx imÄĥng
ĠT ite
VN N
µ ng
ĠLim ousine
b Ãºp
Ġv v
ĠS ess
Ġmet averse
ig ne
Sc ript
9 26
ĠGV R
ĠFre edom
ĠP hÃ´ng
ĠPar tey
ĠDu o
6 42
ĠOsset ia
Mid u
ĠkilÃ´m Ã©t
Ġh áºŃm
Ġkh áº¥p
h inh
ĠB X
os ia
ĠUn ic
A li
ĠE z
ĠOl imp
ĠT YT
m á»Ŀi
Ġ5 48
Ġkho m
ĠSh ear
aw ay
ĠKH TN
7 27
D ay
Ġ55 6
ÄĲá»ģ u
ĠSur abaya
nh áº¯c
uy nh
ĠV ega
or ie
ĠJeff erson
ĠClau de
Ġ5 24
ĠMil ano
ant as
ĠVI T
Ġ5 21
PhÃ ©p
c hÃ³
Ġp pi
ĠC inc
ĠK iá»ĩu
ĠBened ict
ĠKier an
ĠK á
IG A
K evin
ĠPar ma
ĠAP S
qui pe
5 33
ph ao
Cl ub
Iá»Ĩ T
ĠBel grade
ĠLok i
ĠSw itch
ĠSa ab
all ana
Ġ48 7
70 8
ĠPK K
d Ã¡m
ĠHo ffenheim
ĠOlympic s
E IA
ĠGam uda
T á»ĳng
ĠT áº±ng
lo y
ĠKá »
d ison
Ġr Æ°á»Łi
ĠTim berlake
67 2
Kh Ã¡ng
bu Ã´ng
4 39
ngh iÃªn
d Ãłn
ĠHak im
I O
Nh áº£y
S pe
ĠN ing
Ġt Æ°á»£c
ĠY eol
ĠLu fthansa
ĠEVN CPC
Ġ5 11
K ang
ĠT ec
ĠWid ow
on ym
ĠW ander
Ġ56 1
Ġmod e
ĠShak espeare
K ai
Ġs lot
ĠS Ã¡i
its ch
Tr a
ĠCh art
7 26
thu Ãª
th Ã¡i
ĠMin ne
ĠSte p
ĠKy ushu
on ie
5 18
D U
n ow
Ġb et
Ġ5 19
78 3
Ġox it
5 48
Ġr Ãºm
Ġ18 85
ĠthÃŃ t
ĠX Ã¡ng
oss ible
ĠU ly
ĠNeb raska
E le
ch Äĥn
ĠHel io
ĠX Ã¡m
66 2
Ġsho ck
6 14
X oÃłi
c Æ°
Ã´ l
ĠQu inn
ĠCarr ie
ĠKav kaz
5 37
79 1
4 31
Y O
ĠCh es
ĠMat hieu
ul ith
ĠV Ã¡n
7 22
ĠX oa
ĠJav elin
ÄĲ ÃŃch
5 14
l á»ĩch
ĠC andy
IN F
ĠNick i
Ġcent imet
Ġcarot ene
ĠVaz quez
5 44
69 2
ĠL NA
ov ka
ĠÄĲK KD
Ġl áº¡n
ĠS áº¿p
ĠCS KV
ĠBroad way
ĠFred erick
Ġp ower
ĠR oc
ĠBran son
r el
Ġ6 85
Nap oli
E up
Ġthá» įc
ĠP ast
ĠP DF
49 3
m atch
ĠL áº£
ĠKy u
ub ai
ĠAn andi
ĠUni qlo
q iri
Ġtrá» Ľn
H áº¡m
Ġvá» Ŀn
Ġ8 12
ĠPr att
ĠSw e
ĠGib son
ĠS Ã¡p
ĠPhillip ines
f all
Tik Tok
s Æ°
Tr Ã¢u
ĠVin school
up ta
Ġ60 2
ĠSc al
ĠPul ga
ĠBag gio
Ġ56 2
ĠRock et
Ġto ken
há»Ĺ n
L LVT
ĠB Ã¬
an na
ĠDj ib
ĠRam adi
M á»Ļ
ĠH Iá»ĤM
ĠS atra
ĠS old
ĠK ut
ÄĲ SCT
Ġthá»¥ y
Ġ04 37
ĠHF NC
ĠP Y
ĠMa ha
ĠPok emon
Ġ70 5
P D
ĠN X
ĠHyun A
ĠEurope an
ĠR uiz
ĠF ight
ĠCua drado
ch iáº¿u
Ġol ive
am y
ĠCr es
D ong
stad t
IN ee
ĠRich arlison
ģ u
Sc andal
th ao
ĠcÃ² m
55 3
6 16
ĠM ine
) )
ĠCá»¥ t
ĠBl as
ĠOsp rey
K Ãªu
Ġs l
Hy un
ĠPepsi Co
Ġmá» Ľm
ap ur
ĠCO D
ĠRos en
cu á»ĵng
W ork
ĠAm i
Ġ6 21
ĠVÃĢ NG
Ġp lus
ĠTr Ã¹m
ĠPuy ol
o xy
ĠGD KHQ
ank e
6 26
ĠD ic
Ġsne akers
ĠchÃ² e
Ġ ob
tr end
Ġ55 3
B áº¯p
Ġ5 32
áº¾ ch
ĠJohannes burg
Ġn aked
ann ing
ĠK oo
s Ãºng
n áº¥m
Ġ18 60
ĠBr enn
ĠÄĳ áº«y
ĠV og
ĠNgh iá»ĩm
ĠManag er
7 44
Ġ ]
ĠP ow
ĠkÃŃ t
ID IA
ĠCul linan
r á»ĳc
ĠN ah
ro ugh
ĠTr uman
70 4
ĠNg an
D en
Ġg ÃŃ
Ġtur bine
Ġr outer
ĠS MC
ĠX avier
ĠF OR
at it
ĠMan n
5 000
O COP
Cal ifornia
Je ff
Ġl ife
ĠM Iá»ĢN
h ao
ĠS AS
ĠG ak
ĠMar iano
tp lus
ĠSe ed
68 3
ĠN d
br ink
t áº¡
or ial
khá» ī
r n
B LACKPINK
D Ã¢u
ĠN aw
... '
Ġ58 9
ĠMign olet
5 27
ĠSk r
ĠJai sh
ng ang
ar ev
ĠCar valho
Th ung
ash tra
ĠPom ina
ĠS CO
7 69
Yo nhap
IRE CT
Ġl Ã¹
ĠR av
Ġngo e
yn ch
n á»Ł
ĠFor ester
X Ã¢m
Ra f
b á»Łi
Ġ ì
ĠCit igroup
C all
ĠS Äĥn
re g
ĠJo int
ĠInn ovation
t al
8 38
M Ã¬
ĠL ines
Ġbá» §n
ff in
ĠRasmus sen
ĠN áº·ng
78 4
e ong
ĠHCM C
68 7
m ina
ĠM áº©y
B VN
Ġph ar
ĠSam ar
ĠTD DC
áº» n
ĠBrand on
ĠDjib outi
ÄĲ P
tr áº§n
ax im
ĠhÃº i
Ġdec al
M Ã¡
c ade
ch ay
5 61
ĠXi ang
Â ®
S áº£i
Em ma
ce ph
d á»¥
áº ª
Ġp lat
6 39
ĠFriend s
k ay
ĠP im
ĠTh uÃ¢n
ĠL Ã¨o
em dep
ĠK od
ĠT ell
N hi
Ġr Ä©
ĠBu ilding
lo áº¡n
Ġweb cam
65 7
ĠDec lan
6 33
T á»¥i
Äĳ Ã¨
Ġ5 49
Ġfran c
ĠH Ã¡
ĠLil ly
ĠSavann akhet
8 66
ĠTr ev
ch ua
ĠI FA
ĠAssoc iation
ĠGriff ith
5 31
Ġs áºŃy
Ġ8 000
ĠCan xi
Ġ49 3
ĠRub io
Pal estine
ĠT Ãłm
ĠClo oney
ĠIndustr ial
S k
ĠÄĲ TCK
er p
ĠCollec tion
KT NN
Ġclin ker
aplua tplus
Ġm Ãµ
ĠL á»³
Ġphá»ķ ng
75 3
ĠCS TT
ĠMB Bank
Ġlá»ģ nh
Ġ48 4
ĠDQ TV
I ON
S oc
77 2
Phun utoday
Ġ8 68
ĠPal mer
Ġson ar
6 19
Com merce
Ġsáº© m
ĠA is
ĠUn it
ĠGib bs
ĠSqua d
tr abook
UYá» ĤN
egg ing
R á»Ļ
ĠS v
ĠHu ay
Äĳá» ģn
7 13
39 1
ĠSag na
Y ang
ĠE T
Ġtr Ã¡p
ĠBlo g
Ġj udo
8 33
m áº·n
ch art
lo un
ĠEx tr
ĠRai der
ĠOlympia kos
Ġp rop
Ġx Drive
ĠL al
ey a
ep o
we ir
Ġpl ut
N ob
r áº¯k
Ġk etamine
ĠCh ow
ĠMon ter
ĠHe avy
R yan
Ġbu t
ĠNH áº¤T
h and
Ġ5 27
ade co
59 3
7 14
in us
ĠFranc esco
ĠM Æ°Æ¡ng
ĠS ue
Ġcap tion
ĠL DL
en ing
tr and
ĠVIC EM
ĠAur ora
y at
ĠTab let
ĠK IM
t Æ°á»£ng
ĠK ook
ĠG amb
5 64
ini que
ĠNews week
98 2
78 1
ĠN emo
ĠTá» ĪNH
ĠSP D
ĠN antes
ĠP RO
70 9
95 6
95 97
d Ã¢y
ĠV ad
ĠÄĲ ÃĢ
ĠAlex a
ĠHerm Ã¨s
ĠAlli ance
CB CS
F AT
... ?
ĠCS M
Ġo zone
Ġhip hop
Ġ( *)
Ġ57 1
ĠVar iety
ĠGian ni
ĠL aptop
Ã©m on
g ye
s ex
ĠMet al
ĠTh áº¯p
ĠBul ava
Ġm á»ĭch
ĠWin ston
ĠV á»«ng
id ong
67 4
san ne
5 39
v elle
Ġ6 28
ĠF light
ĠVN eID
75 8
Em erick
ĠAt kinson
ĠBor rell
g ether
5 43
s al
Ġb áº¥c
ĠKey s
5 34
B ab
Ġf andom
58 9
5 21
6 13
v á»ĩ
ig lycer
ĠFries land
ĠHam ad
cá» §
ĠTO ÃĢN
ĠWW F
ĠTorn ado
6 38
há» ĵng
co urt
ĠZ al
ĠKam al
ĠM AS
ĠDo osan
ĠRob o
HD Bank
57 2
Ġgi áº¯c
Ġdá» Ľp
Ġ21 00
TM ÄĲT
68 2
Ġ69 1
ĠJac qu
? ).
Ġp ic
Ġ6 18
65 2
TR á
ĠKer ala
TRá »
g á»¡
Ġf ood
ĠMar g
75 7
,... )
ĠK ick
Ch áº·n
Ġtra ding
V ÃĢO
ĠH orn
ĠPhá» ī
o fi
ĠT ac
ĠPay ne
V M
ĠS iso
88 4
Ġ58 6
ĠPriv ate
p at
ess age
ĠRO E
y ama
E SA
CH DCND
em ic
ĠF est
amb oo
Han oi
ho Ãłnh
ĠS ail
ĠNg Ã¡t
ĠX NC
ĠOx fam
o en
77 3
n n
ĠMil os
Ġ0437 9597
Ġ04379597 83
P ac
x en
ĠB ike
ĠAless andro
ĠMo ussa
ĠSoth eby
7 66
n iá»ģm
ĠTá» ¥y
ĠPap er
Ġth Å©ng
ĠFen erbahce
8 29
t uc
te e
thu ong
ĠIndoch ina
Ġ5 14
inn ati
Ġdig ital
ĠB Æ°ng
ĠLe vi
88 7
' âĢ¦
s Ãłn
ĠR ight
ul li
5 19
ĠI gn
ĠTom ato
ĠPH áº¢N
ĠPay et
9 55
Ġcur cumin
ĠJ ob
up p
jar at
U Ã´ng
79 4
Benz ema
ĠMoz art
z el
ĠG ogh
19 43
4 21
J an
Qu Ãªn
id ge
ĠMu á»Ļi
K iá»ĩn
it as
ĠCar ab
ĠPH ÃĴNG
Ġpo und
Whi te
o phone
s oo
ĠOn ana
t ica
Scar abaeidae
Ġr etro
---------------- ----------------
ĠGoet he
ĠT ier
9 22
Q E
7 28
65 9
ĠÄĳ Ãªn
Ġg áº¡n
ĠV á»įt
ĠM ecca
ĠF MC
ĠTV C
ĠSu le
Show biz
ĠDe ath
ĠB astian
Äĳ Æ¡
69 4
vez da
0 41
h ur
ĠChi ng
A EC
R ashford
ĠPo tro
bu ild
ng Ãłn
Ġp y
ĠE SG
80 6
7 33
B Æ°u
M Ã£n
ĠRup ert
ĠEug ene
58 3
ĠMcC artney
ĠM ie
th áº¥y
58 2
b Ã³p
r á»Ļng
ĠTH ÃĶNG
yp t
Ġt Ã©m
Ġm áº¥p
ĠSc ient
Tr iáº¿t
9 38
t ions
Ġan th
ĠE ibar
bo und
Sal ah
5 63
ng Æ°á»£c
ĠV Ã´i
77 1
ĠWe instein
ĠCu omo
ĠC MT
ĠP á»Ŀ
ĠPro duce
Ġ59 2
Ha aland
Ġsá» Ŀn
ĠCh ain
ĠGu ide
ĠLlor ente
ph áº¡m
Ġ75 5
ĠV os
Ġ14 40
m uá»ĳi
ĠMat eo
ris es
Ġl ight
ĠM ez
ÄĲ Ä©a
ĠTS KH
ĠOr ban
Ġ18 94
ĠAn war
ĠK and
65 4
6 27
ĠH ed
ĠP wC
á»£ c
ĠKhá» Ń
ĠSc olari
ĠAx it
Thá» į
ĠLu ca
eg y
Ch Ã¡n
ĠSe ul
ĠLÃĢ M
8 13
ĠInter Continental
ĠM ona
ĠI JC
ĠO A
ĠMarqu inhos
Ġ7 75
ian s
ashi r
19 29
5 69
6 29
ĠSa ad
ĠL ÃĿ
ĠD BS
ĠMar ino
In d
ĠCor vette
ĠPatt aya
m athan
y er
Chá» «ng
85 9
ond e
S Ã¢u
Ġtá»¥ m
ĠSe in
ĠLau n
kh ung
Ġxá»ķ m
ĠDef ence
ĠB utter
Y S
c lip
r ates
ĠDh aka
ĠVi va
ĠCor rea
ĠDal at
6 37
7 12
Th aco
ĠAD MM
9 68
Ġm al
ĠFren ch
ĠCh amb
ĠW ushu
97 1
L iá»ģu
k un
Ġ6 26
ĠJ usta
ĠCarl sberg
vir onment
Ġtur bo
ĠOb amacare
ĠYas uk
tr ib
Ġng á»Ļp
ĠFin al
og on
P rin
Ġ7 67
ĠSh eng
Ġproduc er
Ġmá» įn
ĠSon ic
ĠCl ement
ĠMinne apolis
8 18
N ÄĲT
ĠD ÃŃ
mp ho
Ġ5 36
us an
® U
U M
Ã ķ
Ġmá» Ľn
Ġ9 68
âĢĿ, âĢ¦
ĠO c
ian t
j ir
tu oi
f arm
k ÃŃnh
9 88
G s
ç İ
ĠN iet
Ġdo ll
ĠI CO
ĠMo ura
ass urance
78 2
ĠAct iv
ĠTym oshenko
ĠC TS
ĠTV TU
j om
ĠD as
Ġ5 34
Ġ9 17
Ġ57 2
ĠChil well
ĠKimm ich
ĠKh iá»ĥn
Ġd á»ķi
ĠN á»ĵng
ik tas
ĠTCC T
V á»īa
ĠM net
ĠL ori
Ã© rie
ĠAnaly tics
Ġ7 27
85 6
ĠLan cer
80 9
ĠF ont
al ur
ĠFranc es
ĠDr ew
Ġn á»ĭu
ĠWhit more
ĠX Z
ĠAr mani
ĠÄĲH SP
85 3
ĠTour ism
Ġmark et
C el
ĠAc id
Tr á»¥c
Ġbe auty
ĠG Ãµ
car az
ym astic
ĠPic asso
ĠCommun ity
áº¢ M
it ano
tr Äĥm
ĠGI áº¢I
Ġb áºµm
ch io
gi áº£ng
ĠPag ani
ĠTheer athon
B Ã¹ng
ĠA MC
CS IS
ĠMahar ashtra
ĠC uc
ĠTr am
ar an
ĠI to
gi Æ°á»Ŀng
58 1
us o
ĠcÅ© n
55 4
ĠTai wan
ÃĶ N
ĠNo ong
ĠLad akh
ĠN BB
ĠC agliari
ĠNg oc
tim ore
Ġmel anin
ĠQu Ã©t
ro gen
ak ashvili
fl are
ĠErnest o
Ġ Ã£
ĠV alladolid
il us
Hot girl
ĠGi z
ĠI f
7 17
A k
Ġ6 23
ĠCar les
uc le
ĠKir in
ĠN ess
%. /.
ĠMal awi
y Ãªn
tron ic
6 48
nh Ã¡
ĠCh eol
ĠCom an
KTT V
ĠU SN
ĠK R
ĠGran it
ĠF a
ĠAd dress
As us
ĠBuffalo es
hi ko
ond ers
J on
N ig
ĠBL GÄĲ
g Ã´
66 4
ĠKid o
ĠThá» Ŀ
ĠRe z
ĠTM Z
Bong da
ĠMob il
NV CC
ans ai
ĠGall ardo
ĠEdo uard
Ì £
Ġkh áº£nh
ĠD LG
ĠCh ak
ot ech
Ġdel lo
h iá»ĥu
Ġl ist
Ġch au
Tu á»ĩ
hing ya
ĠS Ã²
ĠNik on
ĠSilv io
ĠS ank
ĠR PG
ut inho
M á
ĠVF S
Ġh ong
ĠÄĲ D
er d
Ġ7 12
ĠTH áº¾
Ġn inja
in sky
ĠSpr ings
Má »
B aby
s at
ĠB ase
omb oy
ĠSle ep
ap i
ĠPC X
hÃ ´m
Ġdr iver
m outh
Ġ8 85
ĠUl san
ĠYam aguchi
9 48
ĠSiso ulith
5 42
N CT
Ġtr áº¡c
W at
ĠvÃ© o
ĠPrinc eton
ĠOsen i
ĠCh Æ¡
L az
R Ã¹ng
ĠS OM
Ġ0 43
ĠNhÃ ¹n
ĠGar ner
r ang
ĠU RC
ck e
ĠPun jab
Os car
S top
ĠLu z
Ġorgan ic
ĠR ace
ĠH ew
ĠK itch
Ġtu áº¥n
ĠF ang
Ġal pha
98 4
TH U
Ġr á»įc
ru á»Ļt
ian us
ĠE tern
Ġblue chips
Ġá» Ŀ
E PA
Ġn e
Ġho áº¯c
ĠCr ew
Ġmel atonin
ie f
5 41
8 14
t et
ch ina
ĠE BD
8 43
ĠT ax
ĠE y
ĠW ear
her ini
ĠKL F
s tyle
ĠL allana
ĠX Ã¢m
ist or
Ġrem ake
Ġ6 13
Bo ost
ĠB od
ĠPhel ps
Ġx áº¹t
eno ord
Serg io
M ail
s á»Ľm
ĠCham berlain
7 46
ĠE R
ĠTrá» «ng
ĠAf ter
ĠScud etto
8 22
Ġvi rÃºt
19 52
ĠNH A
ĠMer tes
l Ä©nh
ĠW C
ĠSal es
ĠLo ch
A udio
ĠS is
th Äĥng
ĠCorn ell
S at
ĠGP Bank
Ġpro g
ĠFe ed
ĠT SC
g at
ĠÄĳá»ĭ u
ĠSh ia
ĠSam ir
EP S
ĠP TT
Ġto Ãł
ĠNai robi
thÃ ºc
ĠBle us
ĠSass uolo
5 97
ĠY er
se gg
8 61
Ġ18 88
Ġba zan
ĠArt uro
I oT
R h
ĠI ND
ĠRo hingya
ĠKon o
up co
ĠFore ver
ĠT áº©y
ĠV áº¯ng
ĠX áº©m
ĠXS MB
ĠThong loun
ĠH áº¥p
ĠK OL
XH TT
Ġnh áº»m
ĠP uma
ĠPin to
Sev illa
ĠR Ã´m
Alex ander
Ġl ear
Ġd eal
BH TN
Ġb est
ĠP ull
ĠEs cape
ĠCort ex
ĠDrag hi
l ook
Th ao
ast ar
ĠDun can
ram bler
ĠKl aus
Ġhe ad
S y
ri ft
8 72
Roll s
os us
ĠCol d
8 77
ĠLeon id
ĠLinked In
ĠCinc innati
ĠMertes acker
S ant
ĠVi eira
80 1
d Æ°
ĠV Ã²m
app hire
ĠCir cle
ĠH SDT
ĠAl aves
Ġhydro gen
s port
il ov
UP CoM
ĠS ushi
ĠSalis bury
ĠLe p
th Æ¡
ĠMiss ion
Hen ry
ĠPenn y
o Ã³c
ĠS EC
ĠKh Æ¡i
ĠBer keley
l Ã©p
f ran
ĠF ARC
ĠMal ay
m od
M Ã¡ch
Ġth Ãło
ĠC um
Ġhu Ã½ch
Thu á»Ł
ĠNhá» ©t
L ÃĬ
ĠG Q
ĠGS X
C rystal
L og
d ich
w ings
ĠRe ports
ĠCu á»Ļi
g ard
ID A
26 43
Ġno Ã£n
ia d
ĠRep orter
oglob in
6 44
Ñ ı
Ġtr Ã¹n
ĠR enzi
Ġ57 6
ĠCher yl
ĠHá»¢ P
q q
A sp
ĠW itch
ĠSam i
ĠGT ÄĲB
ĠKhÃ³ c
k ÃŃn
ĠK etamine
ĠAdel aide
8 67
Ġn áº©y
ĠC TC
ĠM PC
ĠTRá» °C
r oo
ĠLa h
ara j
85 7
V CK
m Ã¹
ĠVas ily
Ġp al
ĠT elles
Ph iáº¿u
Ġnghá»ī m
Ġ80 8
5 46
V FA
ĠS Ã¡c
Ġ8 25
Ġ67 2
PA Y
L Ã£ng
ĠD anc
NH TM
ĠID F
ĠMog herini
7 36
S Ãºp
x Ã´ng
Ġr Ã¡i
Ġ55 7
57 3
19 39
ell ar
ĠS ato
ĠA CM
8 11
T ASS
Ġt Ã¢u
Ġpod cast
ĠN Æ¡
ĠH uá»ĳng
Ġi Mac
ais al
l um
ĠGun ners
ĠBeng hazi
Ġc rom
há» ¯u
ĠL od
ĠPhot oshop
ĠAdren o
M BS
ĠHan wha
Ġa f
59 1
ĠOrgan ic
ĠMusta fa
enig segg
ĠT Ãļ
tr ÃŃ
6 21
IA C
ĠHá» Ŀ
70 6
ĠThu á»Ł
ĠDream liner
Ġ6 48
ph yl
Ġac ry
ine jad
Ġitem s
John son
ĠMill enn
ĠPer se
ĠDep ot
6 98
Ġ0 28
ag in
ĠIs s
ng áº§u
ul es
ev e
90 2
ĠV Ã³c
Z Y
ĠH Ã¡ch
ÄĲ Ã²n
ĠVP HC
ĠTrao re
A rab
Ho áº£ng
ĠPe ace
Al pes
ĠBun mathan
Sm ith
R og
ĠD idi
ĠAn bar
67 1
Ġb Ãµ
ĠP Ãªnh
áº¹ m
ĠTH áº¢O
ud in
ĠKr iten
ĠMon tpellier
th en
ĠK et
ua tu
ĠRashi d
8 16
le an
eh r
ĠAlber ta
ĠArt emis
XS MB
6 46
ĠL uá»Ļc
9 21
l iá»ĩu
ak ing
ien ces
PM G
ĠPhÃ ©p
eg ger
Ġsec ond
ĠAmbros io
ĠL ÃĤM
ĠhÃ£ o
Äĳ áº¿
Ġ49 7
ĠBian fishco
8 44
ĠAn ti
antan amo
ĠSing er
El ly
way ne
Ġá»¨ c
6 32
Ġv áº¥y
77 4
s á»¯a
was upco
8 21
g re
ĠF lo
ĠJack ie
ĠTHá» ¦
z hi
ĠP CB
ND A
ĠHO A
qui rer
ĠLeg acy
ĠHist ory
B TP
K lopp
ĠA IIB
or f
ek king
indh oven
H L
n is
90 7
ĠSw ee
Ġ56 9
ĠTO W
Ġtra ck
Ġkh Äĥm
ĠÄĲo Ã¡n
uk h
R B
Ġb ida
ĠD oo
ĠF T
Ġ80 5
ĠPetr ovic
ĠN TT
7 97
Ġn m
ĠZ ac
ÃĲ á»ĥ
im il
ĠLov ren
ĠO ch
IS E
O OC
ĠÄĳ áº·ng
tr ict
Ġ(!? ).
7 48
B log
ĠH AN
ansom ware
5 92
ĠQu Ãªn
VD SC
T á»¥c
ĠY ass
ĠNest le
Ġam oniac
8 36
Gi Ãłn
CC P
95 4
X á»ķ
ig en
ĠAl icia
ĠDong ABank
Ġv áº±ng
ĠK oulibaly
59 6
eb i
7 18
C omp
ĠNGH Iá»ĨP
ĠJ ed
ĠJo hor
ĠKriten brink
6 23
L ep
âĢ¦ âĢĿ-
ĠKan agawa
s Ã¡ch
ĠZ ach
Ġw orkshop
ĠIll ustr
7 98
9 36
c et
ĠBl augrana
ĠCH ÃĤU
b Ã¡u
ĠÄĲ MST
th Ã¡o
há» ¥t
Ġch iá»ĥu
au se
nh Æ°á»Ŀng
ĠP ant
Ġ70 1
un ch
ĠDo uble
ĠTo w
ĠKar ab
89 6
Ġkil omet
Ġrá»ĩ u
ĠBark ley
c á»ı
ĠM um
99 1
ĠCol eman
ĠDA X
v Ã²i
or row
Ġ7 69
Ġrá» ©a
ĠOptim us
ĠM aver
ĠCH DC
ĠNghÃ ¨n
ĠKey lor
V SD
rah man
ĠOdys sey
6 43
H az
ĠFlow er
C F
ĠTh áº¥p
Ġ6 88
Ġláº¹ m
B á»ĳc
iv en
Ġ55 4
Ġtá»ħ nh
ĠRichard s
Ġh uyá»ħn
ĠV IDEO
ĠKh uá»ķi
68 4
Ġsp ec
ĠJoa quin
8 37
nh á»Ľ
Ġs áº¿u
ĠE indhoven
B á»¥i
ĠSai f
ĠthÃº y
Ho Ã£n
W E
ĠÄĳ Ä©nh
85 1
ĠSar mat
á»Ŀ ng
ĠDow ney
ĠV iÃªt
ĠDVC TT
up le
kh Äĥm
97 2
ĠD CM
ĠR Ã¨n
Ġbá»Ŀ m
ĠE XP
Ġ18 86
ÃĶ n
1100 2643
Ġngá» Ĺ
ĠPan mun
Ġph áº¥p
ĠKS V
ĠAttr age
ĠS Ãł
ĠGeo ff
11002643 148
hÃ ²n
ĠTr ack
ĠSa akashvili
ĠÄĳÃ³ t
ĠD U
Ġ0 16
ĠGD MN
ĠNat asha
D ream
I OC
ĠFO B
85 4
ĠAp idae
m Æ¡
v irus
Ġb asa
âĢĻ ).
tr Ã³i
truc tion
ĠKim ber
ĠAd mir
ĠPS SI
Mob iFone
8 69
y x
ĠCamb odia
O K
av ong
ĠCam illa
Ġváº» o
ĠRock er
8 78
S CB
ĠP Ãº
hn y
ĠHos sein
ĠHar poon
ĠGh osn
gi os
Ġn iken
ĠSch umer
C II
ĠMar a
ĠCN QSDÄĲ
ĠM iá»ĩng
ĠGu antanamo
U ni
f ighter
r Ãło
ĠRup ee
Ġsax ophone
s áº¯p
ĠUl tim
Ġad min
K rist
ĠSil at
ĠDynam ics
b lade
it aine
ĠHy att
80 7
Ġg ra
ÄĲ áº¿
Ġph Æ¡
Vin ac
n Ãºp
LHP N
c á»Ļt
Ġsá» §
ĠJ LL
ĠÄĲ eo
ĠSel f
F lor
Ġ6 29
ĠBurn s
r inh
ĠÄĲ áºłT
.. ...
O H
ĠS ave
ĠTh atcher
ur us
X uá»ĳng
le en
Ġform aldehyde
un ion
ĠÃĲ Ãł
ĠFor um
k Ã¨m
ĠB F
le cht
ĠBN EWS
ĠBold sky
ĠMar iana
ĠDown ing
ĠMit r
Ġ5 29
Ġ9 23
ĠGal il
7 64
ĠMich ele
ĠD GC
tr inh
ĠKrug er
Ġ ....
ĠRod ri
6 41
ĠF resh
ĠH MD
ĠUp CoM
ĠhÆ¡ p
ĠVia gra
t ia
ĠC CV
7 49
Ġ6 67
Ġ49 4
ĠGod zilla
ĠPerf ect
Ġxu Ãª
ĠPat ricia
Ġ9 35
ĠW heel
uf act
Ġr ebo
ĠM ord
GT GT
ĠCarn aval
ĠRe eves
se ca
ĠGil bert
Gar eth
ĠS yl
chá» ¥c
ill ar
ĠD DR
ĠNH ÃĢ
tic idae
9 32
l ash
88 3
r á»ĳi
97 3
Ġgi Ã¨m
ch áºŃu
es ol
ĠBr aun
70 3
66 3
S XD
ĠB VN
ĠDN BH
ĠE f
B K
ĠB PC
ĠCÄĲ M
ĠSal ticidae
Ġ5 31
ĠFA A
Ġphá»¥ t
ĠHam mond
ĠH TM
PT V
Ġd Ãµng
ĠS it
v ip
Ġng áº¡nh
h Ãłi
ĠBV CC
ĠAlm az
ol ot
ĠP MU
at ol
Äĳá» ©t
ĠBrid g
ĠG TC
ĠG NA
ĠSai d
ĠJ F
Äĳ áº£ng
ĠSo ur
ĠNV IDIA
ĠSha qiri
k iÃªn
p as
im oto
ĠO ct
ĠN iz
ĠQ ass
ĠKh un
ĠPol icy
ers hip
99 3
ĠNem tsov
ĠWanna Cry
75 4
ĠAud rey
al ore
ap at
ĠTN R
ĠP egas
ĠMic ron
hÃ ´n
65 1
ĠGÄĲ KT
C á»§a
ĠS uchin
ĠBal timore
80 3
ĠSal im
G ood
99 7
D á»¥ng
ĠA ly
Ġ49 1
John ny
ĠN ac
ĠV OA
ĠA LC
Inter national
ĠPed ri
W orks
r ao
Ġp lasma
ĠTB KTSG
ĠLog o
8 24
ĠFren kie
y usha
ĠPH ÃģP
ĠS ain
er re
om ics
ĠHy p
A DIZ
E v
há» ĳt
Ng á»¯
ĠDirect ion
Wal ter
' -
Ġ80 1
ĠCat fish
rÃ´ in
ic le
ĠB áº®C
ĠX Ã´i
ĠCar ney
Ġ6 39
ĠGr im
Ġmac OS
Ġt ong
ĠI ber
ĠAr i
ĠMaster card
d t
Ġc re
k ol
Ġ ot
ĠthÃ ¢
ĠPh iá»ĩt
our ces
ĠHer man
Ġhu á»ģ
8 49
9 39
ĠÄĲ G
ir s
Q A
ĠN E
ĠSt inger
Ġr Ãºc
ÄĲ á»ĭch
ĠRos ie
Ġáº¤ u
ĠDT QG
vert ible
ĠL ada
Ġ }
lip op
iv ing
Æ¯ A
6 47
B Äĥn
S ex
Ġbu á»Ļt
B at
VN O
8 42
ĠQu en
D iva
Q uyÃªn
r áº¯n
Ġ18 70
ul k
thá» Ł
ħ nh
Ġcá»Ļ p
Ġ Ã©m
ĠU C
ĠR áº¯c
70 1
c hÃ³ng
ĠIr ma
ĠcÃ ¹a
ĠPr ig
ĠS áº¯n
qu áºŃy
9 77
ĠOb lak
onym ous
ĠVang a
nab ry
Ġ econ
Ġm idi
ĠLL TP
Ī Ĵ
eop atra
ĠVietJet Air
ĠX abi
qu ar
ĠSt ation
ĠAf rica
Dá»± ng
7 34
K i
K YC
un ter
95 1
An t
As ian
ĠAnast asia
6 31
Ġro ad
ĠMoh d
ĠKrasn odar
ĠPrinc es
S Æ°Æ¡ng
Ġ57 3
ĠM ON
ĠTr á»ĳn
ï ¼
hÃ ¢m
ĠB enn
Ġ7 35
ĠSe ag
ch ao
aw att
C p
Ġt it
ĠMoto GP
Ġtr Ã¡c
ĠD MC
ĠNar u
ĠMH B
ĠNou vo
Ġl egging
Ġt iá»ĩp
ĠCP C
ĠASIA N
fri end
Ġ56 4
Ġ00 11002643148
ģ nh
ĠV icky
ÄĲ eo
ĠChá» ©a
m il
ĠPred ator
8 98
h old
ĠB ose
ĠY on
Ġc lor
ĠAm in
ĠKw ak
9 64
wi jk
M Ãºa
t uyen
B ec
T áº¯t
is es
st ay
yl ene
Ġst icker
r uz
ĠÄĳ ung
Ġchá» į
ĠM im
ĠVND IRECT
ĠLyn n
ĠD ua
oz hin
els mann
B ev
d ad
ĠAsh raf
O h
ĠGi Ãłn
ĠMan or
Ġ60 8
ĠL á»±
om ing
ov ax
Ġh áºŃp
ĠMc Queen
Vin alines
ĠCard i
ĠLud wig
8 27
97 4
ĠShe eran
ĠRag lai
ĠNam e
ĠÃĲ á»ĭnh
9 29
Ġd iÃªu
7 38
L as
N á»ĵi
i am
m Ã¡
ĠL Iá»ĨU
is mo
th us
Ġcoc ain
7 31
g ay
qu áº£ng
ĠArn ault
ĠQ ing
ĠK rai
90 6
9 17
h Ãłm
Äĳ ua
ĠFed Ex
burg er
y eol
¤ P
S AT
t Ã¡o
Ġl Ã©t
Ġcho áº¡c
ĠChá» Ľ
ĠY in
ter idaceae
ĠTHá» ¨C
ĠFon seca
ot in
s á»©
Ġt Ã©c
ĠRott en
H áº¥p
ĠH á»ģ
onex port
N ot
ĠH Y
ĠTV QH
Tru idense
w alt
P CTN
Ġtr áº£m
Ġ9 000
ches lav
ĠElli ott
8 39
ĠK ÃŃp
ĠTR A
B LV
Ġkho áº»
it te
ĠmÆ¡ ÃŃ
eng e
ĠEd ison
ĠMac an
D Æ°á»¡ng
V SA
ĠM áº§u
ĠP rak
ĠJ AS
Ġsup port
ĠD ial
ĠGot ze
L uyá»ĩn
T áº¯c
AR M
ĠGu jarat
F orm
Ġb Ãºng
ĠH B
ĠU I
Ġs Ã£i
ĠÄĲ TTP
Ġ9 21
cos mos
ĠLor enz
m á»Ľ
ĠTh ree
bor g
ĠVerma elen
Ķ NG
ĠHá» ®U
ĠHan sen
ĠZ i
ĠSp iel
jan ic
D er
ĠH ern
ĠP HONG
Ġlo ok
ĠO w
cas us
ĠLu á»ĵng
ĠIn tr
69 3
ĠCommunic ations
o ot
Ġráº» o
ĠS YM
Qu en
L amp
ĠG GHB
ad am
ĠDo dge
ĠKur z
ĠGL E
7 11
ol ina
ver se
ĠLeon ard
ĠYasuk uni
B Æ¡i
ar est
ĠViet bank
79 6
ĠRock y
tr Ã¢u
8 34
9 18
ĠS INH
and ie
Äĳ eo
CC HC
x uyÃªn
uct ose
um man
ĠBo om
SM E
ĠAk bar
ĠPung gye
ĠBarclay s
ĠI CA
tr á»įc
ĠLag er
ĠMey er
ĠÄĳ áº«n
in z
ĠDra x
ĠTransfer markt
ĠNh im
ĠSch ul
ĠS Ã³t
ĠPhÃ ´
Ġ13 00
90 3
ĠVÃŃ a
nghÃ ¨o
obor onexport
7 62
B ai
V á»¯ng
ĠD rian
v ath
ĠT eg
gi Ãłu
ĠMin ut
9 24
9 49
Äĳ d
P seud
Ġc er
Ġly mpho
L P
T iá»ĩn
ĠT ivi
ĠB har
ĠTh eron
ĠL TT
9 14
ĠC Æ°u
EC ON
ĠB áº¥m
ÄĲ BP
ĠÄĲV HC
ke e
fe ed
ngh iá»ĩp
M á»¥n
Ġm usic
ĠComp et
8 32
8 62
ap ak
Ġ05 2
Do Ã£n
ĠS áº»
Ġdes ktop
Ġ9 19
ab it
ES S
ĠB ui
ĠK ute
ĠO PCW
e an
Ã¨ re
ĠSh ev
Ng áºŃp
Ph u
ĠVan uatu
ĠFol ey
" "
os it
ĠLLVT ND
qu el
Val encia
Ġkhá» ±ng
ĠX áº£
ĠB ebe
er ald
ĠThay er
onn aise
á»Ĳ I
ĠM á»³
ĠBer trand
ĠTripp ier
ĠDav ao
liz e
SK ÄĲS
9 34
ĠT hÃŃnh
Th áº¥m
gi eo
ĠAnd riy
Z F
t áº¿
ĠTr izzie
ĠR D
ĠAl caraz
O D
ĠN es
Ġchá» įt
Ġ18 83
Ġd áº¡c
ĠC iti
ĠCiv il
9 12
ĠÄĲ áº¯p
ĠP encak
ĠD ot
ĠKep ler
ĠV ul
ish u
Ġpl ug
T á»ĵn
do g
ĠTr ident
Ġphá» Ľ
ĠW I
ĠPG Bank
Ġdanc er
9 43
Kh Äĥn
BL HS
ĠDer ek
ĠDH L
t á»ĳng
Ġv anh
Tr eo
ĠTM DV
ĠT CP
is ch
K II
THA NH
y te
Ġ7 45
it our
Ġf e
ĠMem orial
ĠGl en
ts in
ĠBol lywood
ling ton
PM I
ĠRá» ©a
Ġfac elift
C ai
s ik
ĠR ank
Ġláº½ n
ĠVal entina
S um
ĠD RC
TH K
ĠTh orn
Ġkar ate
ĠâĢ¦ .
Z A
d ap
ĠL Ã©
h iáº¿p
l á»ĳi
ĠLe h
ĠPhone Arena
ĠM ell
chu á»ĵng
nh áº§m
ĠSteph an
Ġl Ãºi
ro i
ĠÃĲ B
ĠPan ig
ĠLar son
h iáº¿n
ĠL Ã´ng
ĠFront ier
ĠK áº¹o
em berg
abal eta
ĠEl is
ĠBud d
ĠM ÃĢN
9 37
]] ,
9 42
ĠS TO
eth oven
h Æ°á»Łng
Ġx á»ĭ
ĠQ as
Ġsai d
?? ?
TM T
7 32
tr iá»ĥn
ÄĲHÄĲ CÄĲ
ĠC áº¯m
Ġnhá» ¥t
ĠBr itt
ĠZo uma
Inf ographic
C Ã²
b áºŃc
Ġt omboy
Ġ8 75
k han
ĠSer ver
T ia
Y PG
ĠHo st
b ian
am ic
as ek
!! !!
o ung
nh áº¥n
Äĥ t
ĠS ven
ad ole
Ġz ero
8 73
H Æ¡i
PV F
Ġnh Ã´ng
Ã¢n ia
Ġr Ã³c
ech an
Ġf ace
ĠCA N
95 3
ĠMD MA
zyn ski
8 17
Ġg uá»Ļc
19 11
ĠhÃ´ á»ĭ
ĠSc orp
Ġdo p
Ġso l
ĠAl p
Ġ67 3
70 2
ĠRo h
tr á»©ng
ite ch
[...]
