#version: 0.2
á »
á º
Ġ t
n g
Ġ c
Ġ Ä
ĠÄ ĳ
n h
Ã ł
Ġ v
Æ °
h á»
Ã ¡
i á»
Ġ l
Ġt r
Ġ k
Æ° á»
h Ã
Ġ b
Ġ s
áº ¿
Ġ m
áº ¡
Ġ nh
ĠÄĳ á»
Ġ h
Ġt h
Ġ n
áº £
Ġ d
Ġ g
Ã ª
Ġ ng
iá» ĩ
Ġ p
Ġc h
Ġ T
Ã¡ c
Ġc Ã
áº ¥
Ġt á»
Ġv á»
´ ng
Ãª n
Ġv Ãł
Ġc á»
Ã ¢
Æ ¡
u y
á» Ļ
Ġt há»
Ġk h
Ġ q
áº Ń
Ġg i
áº §
Ġp h
Ġ há»
Ä ĥ
á» ĳ
Æ°á» Ŀ
Ġ N
ĠÄĳ Ã
Ġ x
i áº¿
Ġ C
Ľ i
Ġq u
a n
Æ°á» £
Ġcá» §
Ġc Ã¡c
Ġcá»§ a
o ng
Ġl Ãł
áº¡ i
Ġc há»
Ġ r
áº¥ t
Ġ H
ĠcÃ ³
Ã ¬
á» ±
c h
Ã¢ n
iá» ģ
iá»ĩ n
á» ĭ
Ġ B
Æ°á»£ c
Ġ 1
Ġtr ong
i Ãªn
hÃ ´ng
Ãł y
á» Ł
Ġ 2
ĠÄĳ Æ°á»£c
áº ¯
iá» ĥ
Ãł nh
i nh
ĠÄ Ĳ
Æ° Æ¡
Æ°á» Ľ
uy á»
Ġvá» Ľi
Ġ V
Æ°Æ¡ ng
hÃ Ń
Ġch o
ĠÄĳá» Ļ
Æ°á»Ŀ ng
Ã ´
iá»ģ u
o Ãł
a nh
áº§ u
Æ°á»Ŀ i
a o
á»Ļ t
áº§ n
a m
ĠÄĳÃ £
Ã¬ nh
Ġn Äĥ
© c
a i
Ġ L
Ã ³
á» ¯
Ġng Æ°á»Ŀi
áºŃ n
Ġ M
áº£ i
Ġm á»Ļt
áº ·
áº£ n
a ng
© ng
a y
u ng
áº¿ n
Æ°á»Ľ c
ĵ ng
Ġm á»
Ã ´ng
Ã Ń
Ġ (
â Ģ
Ġ P
Ġk hÃ´ng
ĠcÃ ´ng
Ġ hÃ
Ã¡ t
Ġ S
áº¿ t
Ġl á»
ĠÄĳá» ĭ
ĠT r
ĠnÄĥ m
Ã £
± c
Ġs á»ĳ
ĠT h
Ġng h
iáº¿ n
Ġhá» į
Ã¢ y
Ã¡ n
i n
ĠÄĳá» ĥ
o n
u á»ĳ
Ġtá» «
Ġp há»
iá»ĩ t
Ŀ i
Ġt áº¡i
Æ¡ n
ĠÄĳÃ ³
ĠN g
¥ c
Ġp hÃ
Ã ½
Ġ K
¹ ng
ĠÄĳ áº¿n
á»¯ ng
á» ķ
Ġnh Æ°
Ġnh á»¯ng
Ġvá» ģ
e o
Ãł ng
oÃł n
ĠÄĳá»Ļ ng
Ã¡ o
Ġ á»Ł
Ġt hÃ
Ã¡ ng
áºŃ p
Ġ2 0
Ġh o
áºŃ t
Ġn Ãły
a u
áº ©
Ġ Q
Ġ A
Ġth u
Ã º
ĠÄĳá» ĵng
Ġh iá»ĩn
Ġkh i
i Ãª
ĠÄĳ áº§u
Äĥ ng
Ġthá» ĥ
Ġd á»
Ġs áº
Ġg iá»
iáº¿ t
iá»ĩ c
Ġc hÃŃ
ĠvÃł o
iá»ĩ u
Ġtr Ãªn
á»ĭ ch
Ġ G
Ġ D
Å ©ng
Ġr a
áº¡ t
áº¡ n
Ġth Ãłnh
Ġhá» Ļ
Ġtr á»
Ġng Ãły
Äĥ n
ĳ i
iá»ĥ m
áº ±
0 0
Ġv iá»ĩc
áº£ ng
Ġd o
Ġb á»
áº¡ o
Ġnh iá»ģu
ī nh
Ġd á»±
Æ°á»£ ng
Ġs á»
áº¥ p
Ãł i
e r
ĠÄĳá»ĭ nh
Ġqu an
² ng
iá»ĥ n
ĠN am
Ã¡c h
áº£ o
Ġc áº£
á» ĵ
Ã¡ i
Ġ 3
Ġc Å©ng
Ġs á»±
Ä Ĳ
Ġthá» ±c
ģ n
Ġngh iá»ĩ
Ã´ i
Ġhá»į c
Ġnh Ãł
Ġgi a
Ġsáº ½
áº «
Ġnh Ã¢n
áº¯ c
Ã¡ p
Ġc hÃ
á»± c
Ä ©
Ġd Ã¢n
Ġb á»ĭ
á»Ļ c
ĠlÃł m
Ġph Ã¡t
Ġn Æ°á»Ľc
Ġc Æ¡
uy Ãªn
¬ nh
ĠchÃŃ nh
Ġthá» Ŀi
e n
Ġq uy
Ġgi Ã¡
ħ n
Ġt iáº¿
Ġ -
á»Ļ i
ĳ ng
u áº¥t
£ p
Ġhá»Ļ i
a r
Ġh Ãłng
Ġtr Æ°á»Ŀng
Æ°á» Ł
Ġt ÃŃ
Æ°á»Ł ng
áº¥ n
uyá» ĩ
ĠV iá»ĩt
Ġt áº¿
Ġkh o
Ġhá» £p
ĥ n
Æ° a
Ã¢ m
Ġh Æ¡n
Ġtá» īnh
Ġl áº¡i
Ġ á»
Ġk á»
Ġchá» ī
áº± ng
Ġtá» ķ
i a
Ã ©
Ġt hÃ´ng
Ġs áº£n
Ġng há»
Ġ âĢ
Ġh Ãłnh
Ġd á»ĭch
Ġnh áº¥t
¢ n
Ġ y
Ġv iÃªn
Ãł n
Ġc ao
Ãł o
Ġvá» ¥
Ã¡ nh
áº« n
Ġchá» ©c
uyá»ĩ n
áº· c
² n
2 0
ĠÄĳá» ģ
¥ ng
ĠÄĳ iá»ģu
Ġt Äĥng
ĩ nh
áº£ m
Ġnghiá»ĩ p
áº¥ y
uyá» ģn
Ġth eo
Ã ¹ng
Ġ U
h i
áº¡ nh
Ġt Ã¡c
oÃł i
Ġs inh
uá»ĳ c
Ġtr iá»ĥn
Ġnh áºŃn
Ġx uáº¥t
Ġph áº£i
hÃ ³
Ġtiáº¿ p
Ġdá» ¥ng
áº· t
Ġx Ã£
Ġmá» Ľi
iá»ģ n
iÃª u
á»ĳ c
Ġtr Ã¬nh
âĢ Ŀ
Ġth Ã¡ng
a l
Ġb á»Ļ
ĠT há»
Ġs au
Ġqu a
ĠN h
ĠhÃ ¬nh
ĠÄĳá» ĳi
Ġc áº¥p
ĠÄĳ ang
Ġl Ã½
áº¥ u
Ġl Æ°á»£ng
á»ķ i
Ġk áº¿t
1 9
ĠÄĳá»ĭ a
Ã ¹
Ġt Æ°
ĠÄĳ iá»ĥm
e m
Ġ 4
Ġ 5
Ġthá» ĭ
Ġ20 2
ĠcÃ ²n
áº¯ t
ĠcÃ ¹ng
áº¡ ng
Ġk há»
iá»ĥ u
ĠP h
Ġ Ã´ng
į ng
Ġtá» ĳ
ĠQ uá»ĳc
Ġl á»±c
Ġk inh
Ġ "
Ġchá» §
e s
uyá» ĥn
ĠâĢ ľ
Ġdo anh
áº¡ m
Ġb iáº¿t
Ġc áº§u
i d
Ġ an
Ġl u
Ġm Ãł
ĠcÃ¡c h
Æ°á»Ľ ng
Ġn Ã³
o r
Ġlá» Ľ
ĠQ u
Ġt oÃłn
Ġph Æ°Æ¡ng
ĠnÄĥ ng
Ġt in
Ġc on
o áº¡i
Ġt u
ĠC Ã´ng
Æ¡ i
Ġgi áº£i
Ġb áº£o
Ġtr Æ°á»Ľc
áº ¹
T r
ĠÄĳ i
ĠphÃ ²ng
u á»Ļc
Ġbá» ĩnh
áº© m
Ġ Ã¡n
Ġkh u
áº »
Ã´ n
º ng
Ġsá» Ń
Ġth áº¿
áº¡ ch
T h
ĠnhÆ° ng
ĠG i
iá»ĩ m
iá» ħn
ĠTr ung
Ġqu á»ĳc
á» Ń
ĠÄĲ á»
Ã ²
Ġt áº¡o
. .
Ġqu áº£
i m
Ġvá» ĭ
Ġ R
Ġt Ã¢m
Ġho áº¡t
á» į
Ġ1 9
Ġt Ã¬nh
áº£ nh
Ġl Ãªn
Ġb Ã¡o
ĠÄĳ Æ°á»Ŀng
Ġn ay
Ġ 6
Ġgi an
Ġs o
Ġr áº¥t
Ġt áºŃp
Ġph Ã¡p
e l
Ġthá» §
ĠÄĳ áº¡o
áº¿ u
ĠÄĳ áº¡i
u a
ĠC h
Ġt iÃªu
Å ©
Ġtr á»ĭ
ĠhÃ ³
Ġgi ao
Ġn Ãªn
á»ĳ i
Ġgiá» ¯
Ãª u
ĠhÃ³ a
Ġk hÃ³
Ġkh Ã¡c
ĠH Ãł
Ġquy áº¿t
Ġlá»Ľ n
ĠB á»Ļ
Ġt Ã´i
Ġx e
« a
Ġtá» ¥c
Ġtá» ±
Ġph áº§n
Ġb áº£n
N g
Ġkh ai
á» ¹
ĠÄĳá» ķ
Ġh iá»ĩu
ĠthÃ ¬
Ġ X
Ġtá» ·
) ,
Ġgiá» Ľi
Ġthá» ĳng
Ġl iÃªn
Ġc uá»Ļc
Äĥ m
ĠT P
Ġm Ã¬nh
Ġvá» ±c
áº¯ ng
Ġdá»± ng
Ġt iá»ģn
Ġgi áº£m
Ġtá» Ľi
Ġt Ãłi
Ġ F
ĠC há»
Ġs á»Ł
Ġc áº§n
Ġtr ung
Ã¡ y
iÃª m
Ġ I
£ i
Ġphá» ĳ
Ġth am
a t
Ġv áº«n
Ġ Ã
Ġn á»
Ġp hÃŃ
Ġh uyá»ĩn
Ġm áº¡nh
Ġtr iá»ĩu
Ġtrá» įng
Ġth i
ĠÄĳ Ã¢y
i s
Æ° u
uyá» ħn
Ãº c
³ ng
iáº¿ u
Ġph áº©m
Ġtr á»Ł
Ã ²ng
Ġthá» ©c
Ġhá» ĩ
20 2
ĠtÃŃ nh
Ġtrá» £
Ġv Ã¬
Ġnh iá»ĩm
Ġ 7
Ġx Ã¢y
ĠÄĳá»Ļ i
Ġd iá»ħn
Ġh ai
Ġn á»¯
e t
ĠNg uyá»ħn
¢ u
ĠtÃŃ ch
áº¡ c
uy áº¿n
ĠC hÃŃ
ĠÄĳá»ķ i
Ġch uyá»ĥn
Ġcá» ©
Ġ Ã½
Ġl áº§n
á»ĵ n
Ġ áº£nh
Ġ Y
áº© n
ĠÄĳ iá»ĩn
Ġth Æ°á»Ŀng
Ġch áº¥t
ĠÄĳ áº¥t
Ġnh iÃªn
N D
Ġb áº±ng
o v
Ġt y
Ġm áº·t
Ġká» ³
ĠÄĳ Æ¡n
Ġc a
Ġthá» ©
ĠnÃ³ i
Ġ anh
Ġkh Ã¡ch
Ġb Ãłn
u s
Ġr áº±ng
Ġtr a
º c
ĠÄĳ oÃłn
Ġb áº¡n
Ã© t
i t
Ġá» ©ng
Ĺ i
Ġs Ã¡ch
Ġth Æ°Æ¡ng
áº¯ n
Ġtr Æ°á»Łng
ĠÄĳ áº¥u
) .
i c
Ġl Ã£
Ã¡ m
u á»ĵn
Ġch iáº¿n
Ã µ
Ġ 8
Ġtá»ĳ t
ĠÄĳ o
Ġsá»ĳ ng
ĠK h
Ġmá» ©c
Ãº p
Ġb Ã¡n
Ġch áº¿
o l
Ġ1 0
Ġt iÃªn
Ġnghá» ĭ
Ġk iá»ĥm
Ġtu á»ķi
ĠN á»Ļi
Ã¢ u
áºŃ u
Ġch Æ°a
Ġb an
00 0
Ġk iáº¿n
Ġth áº¥y
Ġb iá»ĩt
áº ¢
Ġv Äĥn
Ġ E
Ġ 9
Ġy Ãªu
Ġnh á»
« ng
Ġh oÃłn
ĠÄĳ áº¡t
Ġq uyá»ģn
Ġthu á»Ļc
ĠM á»¹
Th eo
Ġth iáº¿t
Ã³ ng
Ġchá» ĳng
Ġg áº§n
Ġs Ä©
Ġd iá»ĩn
Ġcá» Ń
Ġgi Ãºp
Ġhá» ĵ
ĠV Äĥn
a s
Ġhá» Ĺ
Ġphá» ¥c
Ġv i
Ġl á»ĭch
Ġkho áº£ng
ĠP hÃ
o m
Ġtr uyá»ģn
Ġb iáº¿n
a c
Ġh Æ°á»Ľng
Ġl áºŃp
Ġch u
áº¢ nh
Ġtá» ĭ
áº± m
ı i
ĠA nh
Ġv áºŃt
Ġcáº£ nh
Ġg Ã³
Ġl oáº¡i
Ġs Ã¡t
áº§ m
áºŃ y
Ġng Ãłnh
Ġtá»ĭ ch
§ y
Ġqu Ã¡
ĠchÃ ºng
Ġnghá» ĩ
Ġb iá»ĥu
Ġk áº¿
Ġho áº·c
ĠÄĳ áº£m
Ġqu Ã¢n
Ġho áº¡ch
Ġd áº«n
ĠÄĳ Æ°a
ĠB Ã¬nh
Ġb áº¥t
Ġtr ÃŃ
uá»ĳ i
ĠcÃ ´
ĠÄĳÃ ¬nh
ĠÄĳ Ã¡nh
Ġb á»ĳ
Ġs Ã¡ng
i l
ĠT á»ķ
ª m
Ä© nh
Ġtr áº»
Ġ W
Ġsá» ©c
ĠÄ ĥn
ĠÄĳ áº·c
Ġtr á»±c
Ġng á»
Ġcá»© u
á»Ļ ng
Ġgi Ã¡o
Ġm Ã¡y
Ġ em
Ġh ay
Ġt Æ°á»£ng
Ġlá» £i
Æ° ng
Ġvá» «a
ĠthÃ ªm
¯ ng
Ġb áº¯t
ĠÄĳÃ ´
Ġtr ang
Ġm ua
ĠA n
áº· ng
Ġnh áºŃp
ĠChÃŃ nh
Ġc Ã¡o
ĠÄĳá»ģ u
Ġch i
Ġng uá»ĵn
Ġ J
Ġh áº¡n
Ġv áº¥n
Ġv Ã¹ng
Ġqu áº£n
Ġv áºŃn
ĠChá» §
Æ°á» Ľi
ĠM inh
Ġnghiá»ĩ m
Ġtá»ķ ng
uá»ĳ ng
Ġvá» ĩ
Ġphá» §
r o
B ND
Ġkh iáº¿n
Ġtr áºŃn
Ġchá» ĭ
Ġn Ãło
Ġng oÃłi
Ġb Ã¬nh
Ġl iá»ĩu
Ġk iá»ĩn
ĠphÃ ¢n
Ġph áº¡m
Ġcáº£ m
áº· p
âĢ ¦
Ġch iáº¿
ĠB an
áº ³ng
uá»ĳ n
ov id
Ġtá» Ń
Ġc Ã¡
Ġv iá»ĩn
Ġtá»« ng
Ġt iáº¿n
Ġl o
Ġh uy
Ġk hÃŃ
Ġd u
Ġg Ã¢y
Ġn Æ¡i
º t
ĠTh anh
.. .
Ġgiá»¯ a
ĠC ovid
Ġm ang
Ġ202 2
ĠTr ong
Ġch uyÃªn
Ġngh Ä©
á»ĵ m
á»ĵ i
Ġkh Äĥn
Æ°á»£ t
Ġgiá» Ŀ
Ġkho a
Ġcá» ķ
Ġmá» ¥c
Tr ong
Ġt hÃŃ
Ġ O
Ġchá» ©ng
Ġn á»Ļi
Ġx Ã©t
Ġh Æ°á»Łng
Ãł u
Ġch ia
Ġch ung
į n
Ã¢ ng
ĠhÃ ´
ĠU BND
Ã² a
Ġ1 2
Ġm Ã´
Ġv áºŃy
áº£ y
Ġx á»Ń
Ġg á»ĵm
áº© u
Ġc ung
Ġb Ãł
Ġ20 1
Ã¬ m
ĠthÃ ¢n
Ġd Ã¹ng
Ġcá» Ļ
Ġlu áºŃt
ĠÄĳo áº¡n
Ġt o
Ġr á»
u n
C M
ĠH á»Ļi
© p
Ġ ÃŃ
ĳ n
Ã³ m
Ġg hi
ĠB áº¯c
Ġb ao
Ġng uyÃªn
Ġphá» ¥
áº© y
ĠÄĲ áº¡i
ĠT á»
oÃł ng
Ġd Ãłi
Ġch Æ°Æ¡ng
Ġnh au
Ġl ao
Ġt Ã¬m
Ġb Ãªn
o a
áº§ y
ĠgÃ³ p
Ġx Ã¡c
Ġm áº¡ng
Ġkh áº©u
á»Ł i
Ġ áº¢nh
u r
Ġb Ã³ng
ĠÄĳá» ĳ
ĠTh Ãłnh
Ġt a
Ġk Ã½
Ġm á»Ł
Ġ 0
a g
Ġth ay
Ġth anh
Ġl oÃłi
Ġvá» ĳn
Ġt uyáº¿n
Ġthu áºŃt
Ġm inh
Ġc uá»ĳi
S D
Ġá» §y
I D
t r
ĠÄĲ áº£ng
ĠÄĳá» §
áº¹ p
t h
l e
á» ĵng
á»ĭ p
ĠÄĲá» ©c
Ġ1 8
áº¥ m
o s
Ġn Ã¢ng
Ġtá» Ļ
Ġ202 1
Ġnh anh
Ķ ng
Ġchu áº©n
Ġphá» ĳi
Ġ1 1
ĠH áº£i
ĠlÃ£ nh
Ġcá» ĳ
iÃª ng
Ġtiáº¿ ng
Ġt Ãªn
Ġm uá»ĳn
áº ½
Ġcá» ±c
áº¯ p
Ġmá» į
a d
Ġt Æ°Æ¡ng
ĠâĢ ĵ
Ġtr anh
Ġ1 5
Ġh áº¿t
Ġd anh
ĠThá» ĭ
t er
Ġg áº·p
ĠC O
Ã³ c
Ġt ay
Ġm Ã¹
Ġsáº »
ĠphÃŃ a
Ġy áº¿u
áº¯ m
áº« u
ĠÄĳ áº©y
Ġth Æ°
Ġcá»Ļ ng
Ġn Ã´ng
Ġt iáº¿t
á» ³
Ġb iá»ĥn
Ġ '
Ġso Ã¡t
Ġchá» įn
Ġph ong
Ġt Æ°á»Ľng
Ġt uyá»ĥn
ĠC hÃ
Ġnh Ã³m
Ġmá»į i
ĠU SD
Ġkh áº£
Ġmá» Ĺi
Ġng Ã¢n
" .
C h
V ID
N h
Ġ Ã¡p
Ġm áº¹
ĠTá»ķ ng
á» Ľi
i ng
ĠCO VID
Ġg á»į
Ġb á»Łi
ĠÄĳ áº·t
Ġdá» ¥c
Ġc áº¡nh
Ġbá» ı
áº¡ y
ĠP hÃ³
Ġnh u
e d
ĠS Æ¡n
1 0
u m
ĠT uy
Ġlá» ĩ
ĠÄĲá» ĵng
ĠNh Ãł
Ġb ay
C Ã¡c
Ġs áº¯c
Ġr Ãµ
in e
o t
Ġt inh
Æ°á» ¡
Ġg Ã¬
ĠÄĲ Ã´ng
âĢĿ .
ĠNg a
Ġr á»Ļng
Ġnh áº±m
ĠÄĳÃ³ ng
iá»ĩ p
H CM
u á»ķi
á»į c
Ġh áºŃu
Ġhá»ĵ i
Ġlá» Ŀi
ĠD Æ°Æ¡ng
u Ã¢n
Ġl Æ°u
ĠÄĳ Äĥng
Ġt iÃªm
Ġd ung
Ġho a
Ġgi áº£
ĠÄĳá»ĳ c
ĠÄĳ áº¹p
áºŃ m
Ġlu Ã´n
Ġs Ã¢n
Ġtr áº¡ng
Ġcá»Ń a
Ġn áº¿u
ĠNg há»
âĢĿ ,
an d
ĠH á»ĵ
ĠThá» §
Ã ¨
ĠT Ã¢y
Ġnhá» ı
T há»
Æ°á»¡ ng
Ġ20 0
ĠÄĳá» Ŀi
Ġs uáº¥t
ĠTh Ã¡i
Ġká» ĥ
ĠthÃ ´
Ġx em
n e
Ġc Ã¡n
Ġ3 0
ĠÄĳ Ã¡
Ġph im
Ġk Ã©
ĠmÃ¹ a
ĠÄĳá» ĵ
Ġm áº¯c
ĠC Ã¡c
¯ u
ĠnghÄ© a
Ġl Ãºc
Ġgá»į i
ı a
a e
ĠH oÃłng
Ġná» ģn
Ġk ÃŃ
" ,
Ġth áº§n
Ġtu áº§n
há» ¯ng
iá» ħ
Ã¡ u
Ġb á»ķ
o p
¢ y
Ġs ang
Ġng ay
Ġká» ¹
l i
Ġth áº¯ng
Ġd Ã¹
Ġtr Ã²
Ġtá» ĳi
Ġs ao
ĠcÃ ¢y
ĠvÃł ng
Ġch Æ¡i
ĠS á»Ł
ĠthÃŃ ch
Ġb Ãłi
Ġc Æ°á»Ŀng
Ġhá» ¯u
Ġtr Ã¡ch
Ġd Æ°á»Ľi
ĠGi ang
Ġv ai
ĠL ong
Ġv Ã´
a p
Ġk hÃ
Ġlu áºŃn
áº¡ p
Ġm áº¥t
Ġm áº«u
ĠphÃ ©p
ĠÄĳÃ ºng
Ġtr Ã¡i
Ġchiáº¿ c
Ġqu áºŃn
Ġd i
¦ y
ı e
Ġkhá» ıe
Ġx áº£y
Ġv Ã²ng
Ġl Ä©nh
ĠÄĳ a
Ġth iá»ĩn
Ġc Ãłng
Ġcá» ¥
Ġph iáº¿u
ĠL an
ĠhÃ ²
ĠL Ãª
ĠQu áº£ng
Ġl áº¥y
Ġt áº£i
ĠÃŃ t
Ł i
Ġn á»ķi
Ġtr áº£
Ġkho áº£n
Ġc Æ°
ĠH Ã²a
áº¿ p
a k
Ġngh iÃªn
Ġ1 6
ĠC á»
Ġgi ai
Ġd áº§u
Ġng hÃ
Ġr iÃªng
ĠTr áº§n
ĠÃ ģ
Ġch iá»ģu
ĠÄĳ Ã¡ng
202 1
Ġm áº¯t
iá»ħ m
Ġ202 3
Ġph iÃªn
Ġm Æ°a
P h
T T
Ġng uy
© a
Ġt uyÃªn
ĠgiÃ¡ m
ĠchÃ ¢u
Ġá» ¦y
Ġvá» įng
Ãª m
u p
Ġm Ã´i
iáº¿ m
į c
Ġ1 4
ĠthÃ ºc
Ġká» ·
Ġt Ãłu
Ġt áº¥t
Ġl y
Ġtr ao
Ġ Æ°Æ¡ng
ĠchÃ º
i r
Ġth áº¥p
Ġx uá»ĳng
Ãº t
Ġr á»ĵi
ĠhÃ´ m
202 2
Ġt áº¥n
Ġthu áºŃn
u áº¥n
Ġtr Ã¬
Ġs Æ¡
ĠphÃ ¹
Ġ1 3
ĠÄĳÃ ´ng
Ġch uyá»ĩn
ĠTh u
ĠTr Æ°á»Ŀng
ĠÄĳ áº§y
Ġth iáº¿u
1 2
Ġlá» ħ
uy áº¿t
Ġnh iá»ħm
á»± a
Ġm áº¡i
hÃ ¢n
ĠL iÃªn
Ġd uy
ĠhÃ² a
1 1
Ng Ãły
Ġná»¯ a
Ġb a
Ġ á»ķ
ĠS au
Ġt áº£
Ġchá» ĵng
ĠÄĳ áº£o
Ä ĳ
Ġlá»Ľ p
Ġt iá»ĩn
ĠmÃł u
Ġkhá» Łi
Ã£ i
Ġngh iÃªm
ĠH oa
Ġl á»Ļ
Ġph Æ°á»Ŀng
Ġn am
ĠcÃ ¢u
Ġv Æ°á»£t
Ġtr Ãº
Ġm Ã´n
Ġ1 7
Ġ Ã´
Ġchá» ¯
i g
Ġn áº¡n
ĠNh áºŃt
Ã ²n
Ġn iÃªn
ĠPhÃ º
iá»ģ m
r a
ĠL u
Ľ m
Ã£ n
Ġt Æ°á»Łng
Ġph áº£n
Ġto Ã¡n
Ġg á»
ĠN inh
Ġqu Ã½
Ġvá» £
ĠB á»
o d
Ġnh Ã¬
ĠI n
S au
u Ã´i
Ġng oáº¡i
Ġg Ã¡i
uyá»ĩ t
Ġkhá» ıi
Ġb Æ°á»Ľc
Ġth uá»ĳc
o k
Ġhá»į p
Ġdá» ħ
Ġ f
Ġsá» Ľm
3 0
áº§ ng
á» ĩ
ĠchÃ ¢n
Ġc Ã¡i
á»Ń i
Ã Ķng
ĠÄĳá»Ļ c
Ġh iá»ĥm
Ġhá» ıi
Ġc áº£i
ĠK á»³
Ġh áº¡
e x
ĠÄĳ Ãªm
Ġth áº£o
Ġx uyÃªn
u i
ĠNghá» ĭ
Ġc Äĥn
ĠTh eo
Ġb uá»ķi
Ġchá» īnh
ĠX uÃ¢n
ĠthÃ´ n
Ġx Ãºc
Ġx anh
Ġg á»Ńi
u l
ĠNg á»įc
Ġt áº§ng
Ġph Ã¡
Ġ Ã¢m
Ġl Ã²ng
ĠtÃŃ n
ĠGi Ã¡m
Ġtá»ĳ c
Ġvá» ¯ng
Ġx in
Ġh áº¡ng
Ġnh áº¡c
Ġb Ã©
ĠD o
Ġb iÃªn
r e
i on
G i
ĠnhÃ¬ n
o i
Ãº i
Ãł m
ĠB ÃŃ
ĠB áº£n
âĢ ľ
Ġn á»ĳi
en t
Ġ2 5
Ġ1 00
Ġh iá»ĥu
Ġth o
§ ng
Ġá»ķ n
á»Ń a
ĠhÃ ºt
u t
ĠÄĳá» ©ng
Ġn áº±m
Ġm iá»ģn
T áº¡i
ĠT Ã¢n
Ġ Æ°u
Ġd Ãłnh
ĠhÃ £
Ġk á»ĭp
ĠÃ Ĥ
Ġch áº¥p
Ġch Äĥm
Ġk Ãª
Ġb iá»ĩn
C há»
ĠL e
r ai
Ġd Æ°á»¡ng
Ġs Ã¢u
ĵ n
u e
ĠÄĲ Ã¢y
Ġ2 4
ĠÄĳ Ã¡p
Ġkh Ã¡
Ġtá»Ļ c
á»ĭ nh
Ġn áº·ng
ĠH u
á» Ĺi
Ġt áº·ng
á» ģ
ĠÄĲ iá»ģu
ĠChÃ ¢u
o w
á» ¥
Ġ áº¥y
i v
Ġchiáº¿ m
Tr Æ°á»Ľc
Ã³ n
t e
Ġthu áº¿
M á»Ļt
Ġchá»ĭ u
ĠPhÃ ²ng
ĠkÃ© o
ĠNg uyÃªn
Ġnghá» ī
ĠPh Ã¡p
Ġt Ã´
ĠChá» ī
Ġn uÃ´i
Ġ20 20
Ġth Ã¡i
i e
ĠPh áº¡m
Ġtá»Ļ i
k rai
ĠÄĳ Ãło
Ġx áº¿p
Ġnghá» ģ
Ġ ai
Ġm ong
Ġth Æ°á»Łng
Ġ19 9
Ġx a
a v
p h
Ġt áº¡m
a b
ĠphÃ ª
ĠQu ang
ĠTh Æ°á»Ŀng
T á»
ĠÄĳÃ´ i
Ġnh iá»ĩt
Ġh áº¡i
ac c
Ġphá» ķ
Ã³ a
Ġn inh
ĠÄĳ Ãłn
ĠT H
i k
ĠBá» ĩnh
Ġs ung
Ġtr ai
Ġ2 2
Ġv ui
Ã£ o
Ġph áº¡t
Ġ5 0
ĠlÃ£ i
ĠL oÃłi
krai ne
Ġc áºŃn
Ġth áºŃt
ĠphÃ ºt
Ġb áº§u
Ġ2 3
ĠÄĲ oÃłn
acc ine
Ġl uyá»ĩn
Ġtr áº£i
o c
Ġl Æ°á»£t
Ġ2 1
¨ o
Ġth oáº¡i
Ġl Ã¢u
L V
Ġv iáº¿t
ĠÄĳÃ³ n
Ġd Æ°Æ¡ng
Ġch áº¡y
Ġth Äĥm
5 0
Ġthá»§ y
ĠT áº¿t
i et
Ġkh áº³ng
Ġs Ã´ng
ÄĲ á»
Ġth áº©m
Ġv Å©
© t
P T
Ġv accine
ĠU kraine
Ġ Z
Ġth áº¥t
ĠH á»ĵng
ĠÄĲ Ãł
Ġd Ã²ng
ĠL á»
Ġb áº£ng
Ġtrá» ĵng
Ġgi áº¥y
ĠTá» īnh
ĠH Ãłn
202 3
ĠÃĤ u
ĠP hi
Ġgiá» ĳng
áº· n
£ t
Ġv ay
Ġng Ã´i
ĠvÃł i
Ġl á»±a
e b
Ġt Ã¡i
Ġd áº¡ng
Ġd áº¥u
á»ĳ ng
Ġg áº¯n
Ġná» Ĺ
ĠY Ãªn
Ġtr Ã¡nh
Ġkh áº¯c
ĠÃ Ķng
µ n
ĠphÃ ³ng
e c
ĠLu áºŃt
Ġth Ã¡c
I I
id ae
ar d
Ġb Ã¡c
Ġ Ã¡o
Ġv ong
ĠM á»Ļt
Å© i
Ġc áºŃp
Ġt ai
Ġgi Ãłnh
Ġchá»¯ a
¬ n
Ġth ao
Ġkh Ã¡m
Ġm á»ĳi
Ġc Ã¡nh
Ġk iáº¿m
1 8
es t
N há»¯ng
ĠTá» «
Ġc am
ĠCá» ¥c
Ġl Æ°Æ¡ng
ĠkÃŃ ch
Ġch Ã¡y
Ġngá» Ŀ
is t
Ń a
o b
ÃŃ nh
ĠB áº£o
Ġt áº§m
µ ng
Ġsáº µn
il l
ĠM ar
Ġd a
Ġs Ãłng
ĠPh Æ°Æ¡ng
Ġch uyáº¿n
ĠA r
áº µng
Ġl áº¡c
e w
Ġtr Æ°Æ¡ng
ĠL Ã¢m
Ġtá» ī
T uy
Ġqu Ã¡n
ĠK im
K h
ĠN hÃ¢n
Ġhá»į a
ĠÃŃ ch
Ġ uá»ĳng
Ġx á»
Ġt áº¡p
Ãµ i
ĠN áºµng
ĠÄĳá» ı
ĠV Å©
ĠT Ãłi
Ġb inh
ĠÄĳá»Ļ t
o g
Ġb Ãły
ĠK hi
Ġqu ay
ĠkhÃ³ a
V á»Ľi
¢ m
ĠÄĳ áº£ng
Ġnh áº¥n
Ġt iá»ĥu
ĠnghÃ ¨o
p p
2 3
Ġ2 7
Ġná» £
Ġl Æ°á»£c
Ġd á»¯
ĠC hi
N H
áº ¤
u b
Ġch áº·t
ĵ i
Ġkhá» ĳi
ĠN há»¯ng
t on
ĠNg Æ°á»Ŀi
ĠH ÄĲ
Ġlo áº¡t
V N
Ġn iá»ĩm
ı ng
Ġthá» ¥
Q u
ĠchÃ ³ng
uá»ĳ t
ĠÄĳá» £t
Ġl an
Ġb uá»Ļc
Ġtá» ©c
o u
am p
ĠcÃ ¢n
T V
Ġs Æ°
r i
Ġnhá» Ŀ
ĠL inh
Ġm Ã£
Ng oÃłi
Ġ2 6
l d
% .
ĠTh Æ°Æ¡ng
Ġd áº¡y
Ġs ai
ĠnÃ³ ng
Ġs Ã³c
ĠM ai
Ġs uy
Ġh Ã¡t
ĠKh Ã¡nh
B á»Ļ
Ġnh áº¹
Ġsá»Ń a
Ġtá» ıa
ÄĲ T
el l
Ġ2 8
Ġcá» ¥c
Ġ3 1
Ġch áº¯c
s e
Ġtr áº¥n
Ã¹ i
Ġx Äĥng
Ġ Æ°á»Ľc
ĠNg oÃłi
Ġng uyá»ĩn
ĠH LV
c e
ĠP há»
ĠQu Ã¢n
ĠH Ã³a
ĠT hÃ
Ġ o
Ġtá» ĵn
Ġlá» Ńa
Ġm áº·c
Ġchá»§ ng
Ng Æ°á»Ŀi
Ġqu anh
Ġ áº¥n
Ġqu Ãª
Ġqu Ãł
Ġb á»ĳi
i z
Ġngh i
Ġrá» «ng
Ġt Ãº
ĠhÃ´ n
ĠNh Æ°ng
Ġbá» ģn
C Ã´ng
Ġt Ã¹
Ġ in
ĠM an
ĠTr Æ°á»Łng
Ġlá» ĩnh
ĠN Äĥm
Ġthu Ãª
ĠNg Ãły
on e
Ġkh Ã¡n
Ġtrá» Ŀi
ĠN áº¿u
Ġdá» «ng
ĠB a
ĠlÃł ng
Ġth iÃªn
ĠÄĳá»ĭ ch
Ġtá» ı
Ġd á»ĭp
Ġn Ãªu
ĳ t
Ġm Ã¡u
ĠC up
Ġl iá»ĩt
Ġchá» Ĺ
á»¯ a
ĠA l
Ġngh e
ĠTh áº¿
Ġtrá» ¥
Ġm Ãłn
) ;
H iá»ĩn
Ġthá» Ń
Ġ19 8
Ġm Å©i
Ġl ai
ĠD á»±
Ġx ung
ĠV Ã¬
Ġc áº¥u
Ġkh uyáº¿n
Ġkh áº£o
Ġd Ãµi
Ġng Äĥn
Ġs ong
ĠÄĳÃ Ń
s t
an k
ĠG ia
Ġm a
ĠÄĳ au
1 5
ĠÄĲ á»Ļ
ĠT Ã´i
N Äĥm
Ġch áº¿t
áº¤ n
ĠP ar
ĠT uáº¥n
ĠK inh
Ġs Ã³ng
Ġs iÃªu
ĠÄĲ Ã¬nh
Ġ2 9
Ġn Ãºi
ĠKh u
ĠNg Ã¢n
ĠGi Ã¡o
Ġm Ã³n
Ġphá» ©c
Ġc Å©
Ġ4 0
ĠV Ä©nh
ĠC Æ¡
Ġng Å©
Ġgi Ã³
Ġs áº¯p
ĠR e
ĠH Æ°ng
Ġng áº¯n
Tá» «
ĠT hÃ´ng
ĠNg h
Ġc áº¯t
Ġnhá» Ľ
Ġr Ãºt
Ġx u
Ġv áº¯c
in a
1 7
E A
iáº¿ p
ĠÄĳ ua
ĠV iet
C C
ĠK hÃ´ng
Ġg á»ĳc
Ġs uá»ĳt
Ġm ay
ÄĲá» ĥ
Ġt áº¯c
Ġth áº£i
Ġnh áºŃt
ĠH iá»ĩp
Ġgi Ã¡c
Ġd áº§n
Ġl Ã¡i
ĠS h
ĠÄĲ á»ĭnh
ĠT iáº¿n
Ġn áº¯m
Ġs áº¡ch
V á»ģ
Ġ áº¤n
Ġt áºŃn
or ld
Ġb ang
% ,
á»³ nh
Ġm á»Ļ
Ġkho Ã¡n
ĠV á»Ľi
Ġb áºŃt
ĠC Ã³
Ġk m
ĠT áºŃp
Ġ Ã¡nh
ĠB iÃªn
ag ue
Ġbá» ©c
es s
Ġh áº¥p
ĠhÃ£ ng
Ġqu en
a z
ĠÄĳ Æ°Æ¡ng
ĠphÃ ºc
Ġchá» ©a
ĠThu áºŃn
Ġtr i
ĠV Æ°Æ¡ng
ĠNh a
Ġth áº§u
Ġtr uy
X H
Ġh áº¡t
Ġchá» £
Ġchá» Ŀ
K hi
Ġv áº»
Ġá» §ng
Ġl Ã¡
B Ãªn
Ġl inh
Ġh uáº¥n
ĠN ew
á»ķ ng
ĠÄĳÃŃ ch
Ġch a
Ġqu áº§n
Ġt Ã²a
Ġh Æ°Æ¡ng
ĠB Ãł
Ġm áº½
l y
ĠnghÃ ¬n
Ä© a
b ar
ĠB r
Ġm áºŃt
Ġt Ã´n
áº¯ k
i an
ĠPh Ã¡t
i ch
k g
T Ã´i
K hÃ´ng
ĠH iá»ĩn
t a
Ġb Ã¡nh
Ġb Ãło
N G
áº¹ n
Ġtr Ãło
Ġth Æ¡
Ġl Ã¢y
Ġth áº³ng
ĠH á»
Ġc oi
Ġth áºŃm
1 6
Ġm iá»ħn
ĠT iÃªn
Ġc an
ĠC áº£nh
d on
Ġ &
Ġchá» ĳt
ĠPhÃ ºc
ÄĲ á»ĵng
2 00
Ġlá» ¥c
ĠTh iÃªn
ĠCh Æ°Æ¡ng
Ġt áº£ng
Ġng áº¡i
ĠkhÃ ´
ĠW orld
ĠPh an
ĠÄĲ Ãło
ĠL Ã½
Ġch áºŃm
Ġnh áº¯c
Ġb u
¥ p
Ãº ng
ĠPh ong
Ġtr áº¯ng
Ġg áº¯ng
ĠphÃ ³
or d
ĠL a
C P
Ġnhu áºŃn
Ġgá» ¡
Ġmá» «ng
i f
ĠB Ã¡o
Ġth iá»ĩu
Ġ19 7
Ġk Ã¨
ĠgÃ³ i
er s
o an
ĠTP HCM
Ġd uyá»ĩt
ĠS t
Ġk im
Ġkhá» ķ
Ġth iá»ĩt
Ãº a
Æ°á»Ŀ n
Ġph áºŃn
r y
Ġkh áº©n
Ġch Ã¡u
i o
id eo
ar t
Ġthá» «a
ĠD Ã¢n
Ġd Ã¢y
or e
Ġngá» §
Ġb áº¡i
Ġthá»ĭ t
ĠtÃº y
Ġt iá»ģm
ĠNghá» ĩ
a h
Ġh y
en s
á»Ļ p
ĠH Ã¹ng
Ġh oÃłng
A R
Ġth Ã¡ch
it y
ĠHÄĲ ND
1 4
ĠD Å©ng
Ġ w
Ġcá» ±
¥ t
ĠTr á»
Ġh áº§u
Ġn iá»ģm
Ġchu á»Ĺi
ĠG D
ĠTh e
Ġl iá»ģu
C hÃ
á»Ļ n
r an
Ġb áº¡c
Ġl Æ°á»Ľi
ĠChÃ ºng
ĠN Ã´ng
Ġl Å©
ĠThá» §y
Ġc áº§m
Ġtá» ĩ
ĠÄĳ ai
Ġth iá»ĥu
2 2
ĠV iá»ĩc
Ġn áº¯ng
ÄĲ áº¡i
Ġqu áº£ng
Ġ6 0
ĠV iá»ĩn
ģ m
ĠD u
Ġh iá»ĩp
Ġgi Ãłu
Ġgi Ã¡p
Ġm iÃªu
L B
Ġng á»¯
ĠÄĳo Ã¡n
Ġtá» Ŀ
h t
á»ĭ a
Ġgi Ã£n
Ġth áº§y
Ġr Ãł
d o
ĠTr ang
or t
Ġdá»± a
ĠkhÃ ºc
Ġh áº¡nh
Ġthá» ıa
ĠÄĳá» ¡
ĠC ao
Ġs Ãłn
Ġch áº¯n
Æ°Æ¡ i
ĠT Æ°
ĠPh Æ°á»Ľc
Ġtho Ã¡t
ĠC Ã´
Ġch iáº¿u
k h
Ġqu á»¹
į t
Ġk á»ĭch
ĠÄĲ iá»ĩn
Ġc Ãł
Ġt uyá»ĩt
e v
C Ã³
ĠL Ãło
Ġgi áº£n
al l
ĠQu áº£n
Ġch áº·n
T P
ĠV Ã¢n
ĠthÃ º
Ġtr á»¯
Ġn á»ķ
ĠH Æ°Æ¡ng
ĠkÃ© m
Ġr au
ĠNg oáº¡i
ĠÄĳá» įc
Ġm Æ°u
Chá» §
Ġr u
ĠC áº§n
ĠH y
Ġl á»ĳi
ĠkÃª nh
Ġl áº¡nh
ĠcÃ º
âĢ ĵ
iáº¿ ng
o h
Ġh áº£i
ĠÄĲ áº¿n
ĠÄĳ Ã¢u
ĠB Ãªn
C N
ĠC á»Ļng
C o
Ġd Æ°
Ġr Ã¡c
q u
ĠQ uyáº¿t
§ i
Ġngá» «ng
ĠH uy
Ġkh Ã¡ng
4 5
Ġhuy áº¿t
Ġthu a
b er
ĠÄĳ en
Ġh Æ¡i
Ġph i
ĠT áº¡i
Ġsá» ©
f f
Nh iá»ģu
ÄĲ á»ĳi
ĠB H
1 3
Ġkh en
Ġh Ãłi
Ġn á»Ńa
Ġth áºŃp
Ġ20 19
a x
Ġk iá»ĩm
S N
ĠTH PT
o ok
Ġch áº½
Ġv Ã©
Ġl áº¯ng
ĠD N
Ġthá» ķ
ĠKh oa
Ġrá» Ŀi
Ġr Æ¡i
Ph Ã¡t
ĠÄĲ áº·c
į a
Ġbá» ĵi
Ġt im
ĠhÃ ¨
Ġth uyáº¿t
ai n
Ġtr Æ°ng
s k
ÄĲ Ã¢y
20 20
u c
Ġl áº»
6 0
ĠC LB
ĠV inh
Ġb Ã£o
Ġtr Äĥm
h a
ĠCh iáº¿n
Ġch áº³ng
Ġc áº¥m
Ľ t
u d
Ġng á»ĵi
V iá»ĩc
ĠH á»į
o y
4 0
ĠGi áº£i
un d
Ġm Ã¡i
ĠT T
ĠN Ã³
Ġcá» ©ng
Ġng á»į
ĠC on
ĠÄĲ áº§u
ĠNh iá»ģu
ĠV N
Ġng o
ĠHu áº¿
Ġtr áºŃt
Ġd Ãłng
Ġg Æ°Æ¡ng
2 5
n am
Ġk iá»ĥu
Ġt uy
Ġl iá»ģn
m an
c o
Ġmá» ģm
Ġchá» ¥p
u ch
Ġth Ã¡o
Gi Ã¡
ĠH ai
ĠTr Æ°á»Ľc
ĠL á»Ļc
ĠV Ãµ
Ġr Ãłng
as t
ĠLe ague
i er
Ġg áº¥p
Ġx áº¥u
Ġc áº£ng
v n
C S
² i
ĠB l
ĠÄĲ á»Ļi
Ġn á»Ļp
Ġk Ãªu
Ġph áº¥n
ĠkÃŃ nh
¥ y
i p
Ġr o
e g
T á»ķng
ĠP r
ĠTh Æ¡
Ġs áº¯t
ĠH o
Ġng Æ°á»£c
Ġbá» Ŀ
Ġmá» Ŀi
ĠL ai
ĩ t
N áº¿u
ĠkhÃŃ ch
á» ©c
Ġngá» «a
C á»¥
Ã£ y
Ġt áº¥m
Ġ Æ¡n
Ġ i
Ġtr Ãºc
ĠH CM
ex t
Ġv Æ°á»Ľng
Ġchá» Ł
D o
á»ĳ n
ĠS p
ĠN ai
Ġv ideo
ĠU n
Ġt Æ°Æ¡i
ĠT NH
Ġm áº¡c
ĠhÃ£ y
is s
ac k
Ġb ÃŃ
Ġlá» Ĺi
es ia
ĠTNH H
Ġph a
Ġ7 0
Ġl áº½
Ġm áº¡ch
e p
er a
ĠÄĳ Ãłm
Ã© p
T S
ĠNh Æ°
ĠGi ao
c om
X VN
Co V
Ġb Äĥng
ĠÄĲá» ĥ
ĠÄĳ Ã¡m
AR S
Ġsá»ĳ t
Ġ5 00
Ġth áº»
Ġb Ã¹ng
2 4
Ġt Ã¡
ĠkÃ¨ m
Ġcá»± u
i b
Ġkh áº¯p
Ġh uá»ĳng
Ġdá» ©t
D á»±
Ġb Ã¨
ĠÄĳá» īnh
Ġsá» £
Ġng Ã´n
am es
Ġl áº¡m
er n
Ġkhá» §ng
Æ ¯
ĠÄĳ em
á»¯ u
ĠTh Æ°á»£ng
h an
ĠQ uy
s on
ter n
á» ŀ
u k
Ġl áº«n
ÃŃ t
ĠÄĲ Ãłi
Ġ3 5
S Ã¡ng
ĠÄĳ áº³ng
Ġrá» §i
a ch
H Ãł
Thá» Ŀi
r us
Ġb áº¯c
on t
n Äĥm
Ġg áº¡o
Ġr Ãło
ĠH á»¯u
Ġt Ã³c
ĠD uy
d a
Ġxá» ©
ĠT Ä©nh
ĠS ARS
e y
Ġhá» §y
áºŃ c
ĠThá» Ŀi
don esia
Ã³ t
as s
5 00
Ġch Ãło
T áºŃp
Ġmá» ¹
Ġgi áº£ng
Ġy Ãªn
Ġ201 8
Ġ8 0
ĠÄĳo áº¡t
Tr ung
Ġc áº·p
f t
a w
Ã£ nh
Ġ áº¥m
Ġh Ãło
Ġg h
o ur
Ġtrá» «
ĠB Ã¹i
ĠK áº¿t
ĠC ity
ĠM al
2 1
Ġb áºŃc
s ia
ĠL ao
li p
ĠthÃ ¹
ĠPar k
ĠlÃł n
¨ n
ÄĲ áº¿n
ĠÄĲá» Ĺ
g i
ĠÄĳá» ©c
Ng uá»ĵn
al ia
Ġl Ãºa
Ġkh ung
ĠÄĲ á»ĳi
ac e
Ġdá» ¥
ĠL Æ°Æ¡ng
Ġd Ã¡ng
ĠN hÃ
Ġch áº¡m
Ġph Ã¡n
¹ a
ĠA S
ĠtrÃº ng
ĠC á»ķ
ĠH áºŃu
Ġchá» ©
ĠÄĲ Ã³
ĠTrá» įng
Ġng ang
Ġt Ã¢y
Ġc uá»ĳn
ĠK áº¿
Ġtr Ã¹ng
ChÃ ºng
/ /
ĠÄĳá»ĳ t
P hÃ³
Ġh iáº¿n
ĠM áº·t
S G
ĠCá» ¥
Ġh áº¹n
Ġ19 6
ĠK iá»ĥm
Ġlá» įc
S á»±
Ġv áº¿t
Ġv Æ°á»Ŀn
ĠC Æ°á»Ŀng
Ġb Ã£i
k m
u ro
ĠIn donesia
Ġl Ã¢m
Ġth ai
Ġkh iá»ĥn
ĠTh áº¯ng
ĠlÃł nh
ĠT iá»ģn
A nh
ĠX Ã¢y
Ġh a
at ion
Ġb áº¯n
Ġm Ãª
C Å©ng
Ġc Äĥng
ĠT uyÃªn
C Ã¹ng
T hÃ´ng
in es
ĠV Ãł
3 5
Ġt ext
L ÄĲ
á»ĳ t
ĠÄĳÃ£ i
Ġch áº¥n
Ġthá» Ł
B Ãł
Tr Ãªn
ĠNgh Ä©a
Ġm áº¯n
2 7
y l
Ġchá» ¥c
ĠgÃ³ c
á» ¥c
Ġtá» ¥
ĠÄĲ áº¯k
en d
ĠI I
Ġá» ŀ
Ġhá» ©ng
Ġv inh
Ġx o
ĠThá» ©
8 0
ĠÄĳá» £i
9 9
Ġd Ã´ng
Ġn Ã©t
ĠC amp
Ġd á»ĭ
Ġs áº¯m
ĠTr á»ĭ
Ġ3 00
Ġl áº¡
ĠLá» ħ
ĠhÃ ¢m
Ġ9 0
Ġ áº©n
at a
Ġo f
ĠB ar
ĠchÃ ºc
Ġth uyá»ģn
Ġng áºŃp
ĠTr Æ°Æ¡ng
ĠH áº¡
Ġk áº»
Ġ202 5
Ġkhu Ã´n
ĠÄĳ Ãłi
Ġt Ãºc
Nh Ãł
r id
C O
Ġph Ã¡o
Ġtr áº¡m
Ġth áºŃn
ĠtrÃŃ ch
ĠÄĳÃ ²i
r om
ĠNg Ã´
Ġx ong
Thá» §
2 6
V Ãło
Ã´ m
Ġl áº¯p
ĠÄĳ áºŃu
Ġs á»¯a
Ġt Ã¡n
Ġgi áºŃt
ic k
ĠS ing
C T
ĠÄĳ Ã¡o
ĠC an
Ġlá» «a
Ġc Æ°á»Ľi
ĠchÃ ºt
s en
ĠÄĲ a
âĢ Ļ
Ġmá» ĩnh
m p
Ġg hÃ
Ġch áº¥m
ĠS Ãłi
ĠThá» į
Ġc áºŃu
Ġ al
ĠphÃ º
ĠG iá»
Ġtá»ķ n
Ġs Ãºng
Ġn on
Ġx Ã¢m
us tr
ĠthÃ´ i
ĠtÃ¹ y
an t
ĠM y
Ġn Ãłng
Ġ201 6
Ġv Æ°Æ¡ng
r on
Ch iá»ģu
ĠI s
l ine
ĠG Ã²n
Ġ e
ap ore
2 8
9 0
ĠS á»ĳ
Ġh iáº¿m
am b
Ġvi rus
Ġ ung
Ġt áºŃt
Ġv ua
on al
Ġkhu áº©n
ĠT oÃłn
e z
Ġ4 5
ĠA F
Ġngá»į t
ĠhÃ ¹ng
A T
3 6
ĠC ar
Ġngo Ã¡i
t á»
Ġch áº£y
Ġlá» Ĺ
ĠA s
ĠNh áº¥t
Ġs áº¡n
Ġk iÃªn
e e
Ġ áº©m
ĠÄĲ Æ°á»Ŀng
7 0
Ġ uy
ĠT Ãłu
ĠÄĳÃ ¨n
Ġthá» Ŀ
Ã£ ng
ĠD Ã¹
ĠH Ãłng
Ġt Ãºi
l a
ĠQu Ã½
Ġm ai
Ġhuy nh
ĠG r
ad a
Ã³ i
ĠS á»±
N N
uch ia
Ġtr iá»ĩt
Ġkh áº¥u
p s
Ġg Ãł
K áº¿t
Ġ á»ĳng
ĠA m
ĠL Æ°u
Ġng on
n d
/ .
ĠÄĳá» ©a
ĠTr Ãł
o o
Ġth Æ°á»£ng
ĠM áº¡nh
Ġgiá» ıi
ĠT iá»ĥu
Æ°á»£ u
ĠthÃ ©p
Ġng Æ°á»¡ng
am e
Thá» ©
ĠD i
Ġd inh
ĠÄĲ H
Ġ201 7
ĠÄĳ uá»ķi
2 9
Ġnh Æ°á»£ng
ĠN há»
t t
ĠPh áºŃt
ĠL oan
C B
ÄĲ Æ°á»£c
Ġt iá»ħn
ĠSing apore
er t
u g
ĠÄĳ iá»ĥn
ĠTr uyá»ģn
Ġgá» Ĺ
: //
Ġbu Ã´n
7 5
ĠQu á»³nh
eb ook
Ġm Æ¡
en n
Ġb áº¡o
Ġv iÃªm
ĠC áº§u
iv er
Ġlo áº¡n
Ġv s
Ġcá»Ļ t
o áº£ng
Ġc áº£n
Ġhá» ĵng
ĠQu a
ĠV in
Ġb Ã³
Ġd Ãły
Ġc Æ¡n
Ġtu Ã¢n
Ġr á»ĳi
ĠX Ã£
Ġv ÃŃ
Ġm u
Ġn iÃªm
o ol
b ank
ac ebook
Ġ19 4
á»Ļ m
EA N
ĠT Ã¢m
Ġb á»¯a
Ġm á»ĳc
Ľ p
ĠÄĲ áº·ng
ĠCamp uchia
Æ°á»Ľ p
Ġb Æ°á»Ľ
Ġd ao
Ġm áº¥y
Ġtrá» ¥c
ĠÄĳ e
at e
Ġr Æ°á»£u
Ġ19 5
Ġ3 6
ĠÄĳ áº¿
ĠTr iá»ģu
Ġ201 5
ĠThá» ¥y
Ġ3 2
Ġb áº¡ch
Ġsá» ¹
l Æ°á»£ng
Ġng Ãłn
ĠS a
D Ã¹
ĠG ames
Ġnh Ã¡nh
Ġho áº£ng
ĠT am
Ġ201 0
ÄĲ iá»ģu
oc k
ĠcÆ¡ m
TV T
Ġch Äĥn
Ġn áº¥u
ĠE m
Ġc Æ°á»Ŀi
or k
ic o
ĠC P
Ġdá» įa
g e
Ġb Ã¹
Ġs h
N T
in k
ĠCh u
Ġt ung
Ġd áºŃy
ĠA ustr
Ġgi Ãł
T X
ĠC Ã²n
ĠBH XH
ĠThá» ķ
ĠC Ã¹ng
ĠÄĳ Ãł
ĠT Ã¹ng
Ġtr áº¡i
Ġvá» ¡
Thá» ±c
L á»
ĠE U
ĠThá» ĥ
ĠÄĳ áº¡n
ĠB áº±ng
ĠH á»įc
á» ·
Ġb uá»ĵn
Ġcá»ĳ t
V Ã¬
ay sia
ĠH oÃłn
am in
Ġgh áº¿
ĠHu á»³nh
Ġx áº¿
Ġbá» ¥ng
ĠHá» £p
ĠE l
Ġl Ã´
ĠAS EAN
ĠB Ã¡c
D C
ist an
TT Q
ter s
Ph one
ĠA ir
ĠThá» ±c
ag e
ng Ãły
3 4
Ġb Ã²
Ġcá» Ŀ
Ġth Äĥng
. /.
Ġ Ã©p
ÄĲ áº·c
Ġb Ã¡
se a
Ġt Ãłng
y r
Ġth e
ĠH oÃłi
ĠchÃ ³
ĠQu á»¹
ĠA pp
Ġgi am
Ġd Æ°á»£c
Ġtrá» ©ng
ĠS ong
Ġ20 30
ĠbÆ°á»Ľ m
á» ĥ
ĠNh Ä©
hÃ³ m
Ġm á»±c
m ar
l and
3 1
ĠK iÃªn
Ġm Ã¢y
ĠV Ãło
an s
ĠH áº±ng
it ed
Ġnh i
or n
ĠM ad
ro up
Ġw eb
Æ°Æ¡ n
U BND
ro s
j p
0 1
Ġs Ãºt
Ã¹ a
el sea
Ġtr Ã´ng
Ng ay
3 8
Ġm Ã¡t
ĠÄĲá» ģ
Ġbá»ĳ n
in i
Ġv en
ĠkÃŃ n
t y
hÃŃ nh
Ġy áº¿t
li pp
£ n
ĠÄĳá» Ľi
ĠAustr alia
) :
tern et
ĠS er
ol d
ĠMal aysia
Ġs á»ķ
C H
ĠÃ ļ
es ter
Ġr á»Ńa
Ġcá»§ ng
3 7
ĠGi Ã¡
c há»
ĠP ro
in d
ic a
it e
Ġhá» ıa
ĠÄĳ áºŃm
jp g
Ġgi áº¿t
n a
c a
Ġc lip
Ġg a
A S
ĠNg Ã£i
ĠG TVT
Ġc anh
Ġc Æ°Æ¡ng
o e
H á»Ļi
an a
Ġ3 8
Ġgá»į n
as hi
ĠH ar
o od
ĠthÃ ³
Ġng áº§m
Ġho ang
Ġb Ã¡m
iá»ĩ ng
Ġd e
T C
. "
ĠNh iá»ĩt
Ġtr áº§m
Ġbá» į
Ġm Ã¬
ĠP l
ĠS EA
ĠÄĳá» ģn
ĠlÃ£ m
G iá»
ĠThá» «a
TT XVN
ĠN hi
ĠÄĲ T
v er
s inh
Ġt ang
9 5
Ġná» Ĺi
ĠÄĲ áº¥t
Ġn Ã©
Ġnh Ã£n
ĠC ai
ĠK há»
r am
Ġmá» ı
at h
¹ y
Ġx Æ°Æ¡ng
ĠB á»Łi
Ġhá»Ļ p
Ġi Phone
Ġh áº±ng
ĠTr Ãªn
ĠÄĲ inh
Nh Æ°
ĠTh áº£o
ĠM au
onal do
Ġm iá»ĩng
Ġx uÃ¢n
Ġhá» ģ
Ġ3 4
áº¥ c
x y
ly mp
ĠH uyá»ĩn
M á»Ľi
ĠM TTQ
Ġs Ã´i
Ġxá» ©ng
ĠP V
Ġ on
ĠK hÃ
Q H
Ġm Ã£i
Ġh Æ°
m a
Ġtr á»ĳn
Ġ3 7
Ġnh áº¯n
II I
Ġb áº¿n
H Ã¬nh
ĠC r
Ġqu Ãªn
tr e
id en
ĠV á»¥
ĠThá» ĳng
ĠB ÄĲ
Ã¨ n
Ġqu ang
k e
ĠN á»¯
% ;
ĠÃ Ŀ
ĠT áº¥n
ĠM á»Ĺi
Ġb áº¿p
Ġchá» ĳi
Ġl á»Ł
L iÃªn
Q ua
C Æ¡
Ġx Ã³m
Ġt Ã´ng
ĠUn ited
ĠÄĳá»ĵ n
Ġk ia
C hÃŃnh
' .
b um
Ġnh á»ĭp
ĠB áº¿n
B S
ĠPhi lipp
ra z
ĠÄĳ eo
ÃŃ ch
ĠG u
M áº·c
Ġng Ã£
ap p
Ġl áº¯m
Ġru á»Ļt
ÄĲ V
Ġn Ã£o
ĠTh Æ°
ion s
Ġth Æ°á»Ľc
Ġl a
u ters
ĠT Ãº
on a
Ġtr iá»ģu
ĠV Å©ng
Ġx Æ°a
Ġhá» ©a
Ġs u
t i
L e
ai l
o un
ĠchÃ ¬
Ġt Ã¢n
b ia
3 9
Q ÄĲ
iáº¿ c
H ai
ĠHu á»ĩ
ĠN H
Ġh Ãłm
ĠS an
ĠcÃ £i
ĠD e
Ġph Ã¡i
ĠM U
ĠO lymp
Ġnh Å©ng
Ġt áº¯t
ĠV á»ģ
ĠT áº¥t
Ġs hi
ĠCh elsea
8 8
oh n
ĠÄĲ Äĥng
Ġv Æ°Æ¡n
C on
Ġx inh
Ġ0 1
ĠX V
Ġ ,
Ġvá» ı
ĠÄĲ Ã´
áº ³
Ġ =
ĠF acebook
Ġth ang
áº« y
ĠÄĳ iá»ĩu
Ġhá» ıng
ĠC Ãł
Ġd Ã£
x Ã£
e ch
á»į i
Ġch uyá»ģn
© o
ĠC H
e k
ĠlÃ£ ng
ĠApp le
Ġtr Ãłn
ĠCh ung
ĠViet nam
ĠchÃ ¹a
Ġtr áº§n
á»± u
ĠtÃ´ m
y o
t há»
Ġc Ã¡t
ĠM Ã£
ĠThÃ ¹y
ĠDo anh
Ġv Ä©
Ġm áº¡o
Ġ3 3
Ġt Ã¡ch
ĠthÃ³ i
B an
á»Ń u
op h
Ġlá»ĩ ch
Ġtr á»Ļm
Ã ģ
ĠTh Ã¡p
ĠM Ã´i
ĠQu áºŃn
ĠB iá»ĥn
an i
Ġm áº§m
Ġb Ãª
P hÃ
T ÃŃnh
k hÃ´ng
Ġ201 4
Ġtu á»ĩ
ar a
Ġdá» įc
ĠÄĳ iá»ĩp
7 1
ĠM áº·c
x in
ĠU y
ĠH iáº¿u
hÃŃ a
ĠTr á»ĭnh
ĠAn d
ĠCh amp
Ġnh á»±a
Th Ã¡ng
ĠT im
os t
Ġth áº£m
Ġ201 1
ĠC uá»Ļc
Y T
i es
Ġphá» ıng
Ġ5 5
ĠC Ã¡t
G S
Ã¨ o
Ġ15 0
Ġcam era
Ġ .
6 1
6 5
ĠB áº¡n
Ġkho e
c on
Gi áº£i
l or
ĠQu an
ot a
Ġmá» ıi
Th Ãłnh
ĠT S
Ġd Ã¡m
' ,
Ġng Æ°
e a
ĠS am
iz e
l in
ess i
Ġlá» £n
Ġl ang
le y
ig ht
B C
ĠTh áº¡ch
ng Æ°á»Ŀi
Ġ4 00
Tr Æ°á»Ŀng
Ġgiá» įng
ĠCh Ã¡nh
Ġb á»Ļt
Ġf rom
F A
sen al
Ġmá» ĩt
Ġth an
Ġtho áº£i
Ġch Ãłng
Ġkho Ã¡ng
Ġgá» £i
Ġg an
Ġm uá»ĳi
Ġs áº¡t
ÄĲ á»Ļi
Chá» ī
3 3
raz il
ĠG o
l o
ĠC A
Ġ at
ĠTh Ã¡ng
p ool
Ġto p
ĠB iden
Ġcá» ĳng
ĠThÃ º
t el
Ġkh uyáº¿t
áº³ n
ĠS ch
ra el
ĠÄĳ Ã¡n
t in
ĠNh Æ¡n
8 1
ĠRe uters
ĠmÃ¹ i
Ġs a
Ġx Ã³a
B á»
Ġtiáº¿ c
ĠC áº©m
C Ã²n
B ank
Ġtr Ãł
Ġph áº«u
ĠB N
e al
Ġtr Ã²n
ĠL iÃªu
ĠM a
Ġ6 5
ĠPhá» ¥
i x
Ġcá»ķ ng
ĠC áº£
ĠTh áº¡nh
ĠS o
Ġlá» ıng
v a
S ND
ĠH TX
ĠT Ã²a
ĠthÃ ¹ng
N hÃ¢n
ĠLá» £i
ĠÄĳá» «ng
Ġv Ã¡y
Ġl Æ°ng
iver pool
Ġc Æ°á»Ľp
ÃŃ n
ĠM iss
it amin
Ġ202 4
Ġkh Æ¡i
Ġt ill
1 00
c el
8 5
Ġh tt
ĠRe al
Ġbá» Ľt
ĠC am
ĠÄĳ áºŃp
d i
Ġcá»¥ m
ĠY ork
ĠC N
Ġbá» ģ
ĠNg ay
S á»Ł
ª nh
ĠL áº¯k
T M
N ÄĲ
C Ã´
L á»ĭch
M á»¹
Ġp in
ĠGi áº¥y
ĠT u
ar k
ĠI II
Ġh áº£o
o x
ĠOlymp ic
Ġvá» Ŀi
h uyá»ĩn
e i
Ġná» ģ
ĠR onaldo
ĠC ol
Ġt Æ°á»Ŀng
ĠX Ã´
X S
Ġtá»ĳ n
ĠB áº¡ch
Ġch e
Ġ7 5
Ġg ame
Ġh Æ°u
t or
Kh u
I nd
Ġd Ãłn
ĠL á»ĩ
ĠTH CS
Ġd áº¯t
T in
S á»ĳ
202 5
ĠD á»ĭch
Ġt est
Ġngá» ¥
Ġl Ã¹i
Ġh áº³n
ĠPh áº§n
T iáº¿p
19 9
Ġh áº¹p
C uá»Ļc
Ġtr á»ĳng
ĠT Äĥng
ĠbÃ© o
ĠTr Äĥng
ĠE r
ĠCh áº¥p
ĠB razil
ic e
Ġs Äĥn
N Q
0 5
ĠPhilipp ines
Ġm áº£nh
ĠO m
Ġ áº£o
3 2
Ġm Ã©t
, ...
Ġtho Ã¡i
Ġr áº»
ĠB áº¡c
ĠT Ã¬nh
ĠkhÃ´ i
Ġhá» ĳi
Ġng áº¡ch
ĠS inh
Ġd Ã¢u
Ġt áº¿t
ĠJ ohn
m m
ĠL á»±c
ĠthÆ¡ m
ĠÃļ c
Ġt an
Ġl áº§m
Æ°á»£ n
ĠT á»Ń
4 7
ĠC Ã¡ch
Ġ áº¥p
Ġ201 3
Ġd uyÃªn
I C
ĠX uyÃªn
Ġkh Ã¡t
ĠThá»ĭ nh
Ġd iá»ĩt
Ġr Ã¨n
Ġr Ã£i
ĠIs rael
Ġon line
20 19
¥ i
i um
Ġh eo
th Ã¡ng
Ġthu áº§n
ĠS c
Ġs Ã³t
il e
ĠChamp ions
N am
Ġb om
ĠC T
ĠK H
Ġnh áº£y
Ġr Ã²ng
ĠCan ada
Ġd Ã¢ng
Â ²
ĠTr iá»ĩu
ĠV Ãłng
Ind ex
ĠC l
ĠA d
ĠchÃŃ n
ĠS eo
k y
Ġb Ã¢y
Ġ3 9
ĠkhÃ ¢u
Ġv Ã¢y
Ġ4 8
Nh Æ°ng
y m
Ġtr eo
Ġtr uyá»ĩn
ĠH á»ĩ
Ġv áº¯ng
ol f
ĠS Ã³c
ĠG eo
w w
4 9
Ġf an
Ġtrá» įn
an e
áº¹ t
Ġgi Ã¡n
ĠM os
ĠD ung
4 6
B Ã¡o
ĠC S
Ng há»
ĠÄĲ á»ĭa
ĠgÃ¬ n
ĠB á»ĵ
ĠY o
Ġl Ã´ng
ĠAr senal
ĠkhÃ³ c
ic s
le x
Ġth áº£
Ġtr Æ°a
ĠThÃº y
Ġthu áº«n
er o
Ġ20 00
Ġhá» ķ
t u
ĠL ÄĲ
ĠMad rid
h am
V iá»ĩt
Ġtrá» į
ĠT iáº¿p
ĠÄĳ áº¯t
ĠL H
: (
Ġgi Æ°á»Ŀng
p l
ber g
ont s
Th anh
Ġ Ã¡i
4 8
Ġgi Ã¢y
ĠM us
% /
ĠF C
5 5
A G
ĠH Ãłnh
ĠH ang
Ġv iá»ħn
ĠghÃ ©p
ĠK ar
ĠC o
ĠL iverpool
Ġsh ow
ĠN a
ĠI t
ĠH á»ĵi
ĠK on
al e
ĠM essi
ĠD áº§u
ĠB Ãłi
onts ize
Ã¹ m
ĠÄĳá» Ĺ
Ġo xy
Ġnh iÃªu
C Ã¡ch
ĠP C
ace ae
ĠTh iáº¿t
á» £
g ent
Ġd Æ°á»Ŀng
ĠPh Æ°á»£ng
Ġlá» įt
ĠR om
Ġc áº¥t
ĠR á»ĭa
ĠÄĳ am
ar y
3 00
al o
ĠÄĳ áº¡p
Ġk g
ĠM il
T Ã¬nh
ĠV áºŃn
M T
O S
ĠÄĳ Ä©a
Ġt áº¯m
Ġcá» ı
as h
Ġs Ã¡nh
ĠL Ãºc
ĠD iá»ħn
Ġal bum
Ġv áº½
Ġlá» ĵ
Ġs Ã©t
it h
n er
Chá» ĭ
ĠG roup
ÄĲ oÃłn
Ġtá» įa
Ġch im
Ġb á»ĳc
Ġqu Ã©t
t ain
m art
6 8
Ã½ t
Q T
ĠH uyá»ģn
k a
ĠA i
ĠE d
Ġb Æ¡i
7 7
ens is
ĠTr ÃŃ
Ġv itamin
ĠPr em
Ġ200 8
t Ã´
ĠT ÃŃnh
ĠK r
s h
Ġxá» ī
ĠS u
Ġnh an
ic ron
Ġl ÃŃnh
ĠD áº§n
Ġ201 2
Ġan d
Ġm Ã£n
Ġ Ã¢n
ĠA b
et a
Ġkh uyÃªn
ĠChá» ©ng
Ġkhá»ķ ng
Ġho an
e ar
g iá»
Ġhá» ¥t
ĠF r
ĠT N
Ġkhá» Ľp
ĠI ran
et r
L Ã£nh
Ġ1 20
ĠKh o
ĠT Ã´
ĠS Æ°
t d
ĠÄĲ áº¡o
g o
Ġt Ä©nh
et h
ĠB V
Ġ +
L á»±c
Ġv áº£i
Ġt Æ°á»Ľc
Ġshi ft
ĠA f
Ġv áº¹n
ot t
ĠTr Ã¡i
Ġh áº§m
Ġgi áº¥u
Ġgi áº¥c
te in
Ġso áº¡n
ĠL y
ol l
Ġf ontsize
L Ãł
Ġm m
Le ague
Ġthá» ±
ĠT o
ĠA I
ĠC SG
E C
CC C
ur g
Ġt Ã¡o
Ġth áº¯t
Ġm áº£ng
6 6
ĠTr inh
á» Ĺ
Ġm Ã³c
A n
Ġr Äĥng
Ġtrá» «ng
:( -
in o
ĠCSG T
ĠÄĲ iá»ĥn
ĠH iá»ģn
Bá» ĩnh
E O
Ã¹ n
Ġr áº£i
Ġn Ãºt
Ġcá» ¡
Ġb ia
Ġk iÃªm
ĠÄĲ Æ°á»£c
f ord
ĠNhá» Ŀ
ol a
ar b
ĠNg hi
ĠL iÃªm
ar i
ĠV I
Ġná» ĵng
tá» «
ĠK iá»ģu
Ġd áº¡
ĠTT XVN
ĠL Ã£nh
ĠlÅ© y
h o
ĠX III
iá»ħ u
Ġng Ãµ
Ġ200 7
Ġv Ãµ
gent ina
Ġl á»ĳc
ĠC Ã¡i
Ġb Ã³n
4 4
y a
ĠD el
t o
ia l
Ġv a
Ġth iá»ĩp
Ġs áº¡c
Ġbá»ķ ng
ĠC áº£ng
C V
Ġkho áº£nh
Ġlá» ĵng
ĠCh o
ĠH Ã¡n
Ġng á»Ļ
A M
Ġgi Ãły
Ġsá» ¥t
Ġl eo
m er
ĠÄĲ an
Ġkh iáº¿u
Ġxo ay
ĠNg uá»ĵn
6 7
C hi
Ġngá» £i
en z
Ã Ģ
ĠÄĲ áº¡t
Ġtá»± u
ĠH iá»ĩu
ĠOm icron
Ġm iáº¿ng
ĠTh i
D anh
c t
e ng
T W
Ch ia
ĠJ u
Ġ4 2
ak a
ĠT ok
ĠS al
ĠIn ternet
ĠÄĳ áº¯p
Ġv áº£
Ġ4 7
AT O
Ġtá» §
V á»¥
ĠC al
l ÃŃt
0 2
ĠQ L
ĠH áº¡nh
Ġhá»ĵ n
id e
ĠÃ´ m
Ġch ua
Ġ200 6
Æ¡ m
ĠS Ã´ng
Ġc áº©n
Thá» ĭ
P G
ĠTh iáº¿u
B Ã¬nh
Ġr áº¯n
r is
Ġ9 5
G T
Ġmá» ¡
ĠR ob
B áº¡n
B Æ°á»Ľc
Ġ áº¢
Ġphá»ķ i
Ġho Ã£n
Ġn á»Ł
ĠL áº¡c
ĠB u
6 9
ĠC Å©ng
ĠA g
Ġs t
b o
Ġp ro
ĠAr gentina
Nh áºŃn
áº± n
ĠW il
0 8
ĠGr and
l ad
Ġ4 3
Ġm Ã¢u
hÃŃ ch
ĠM in
, âĢ¦
Ġ á»ĳc
Ġtr Ã´i
al y
ell a
Ġchi p
ĠT op
0 7
ĠT á»±
ĠL áº¡ng
ĠPar is
on d
ĠP al
Ġ0 2
á»ĳ m
ĠPrem ier
Ġs Æ¡n
T hÃ
ĠÄĲ iá»ģn
± ng
c Ã³
t hÃ
tr a
Ġl áº¥n
Ġl áºŃu
ĠR iÃªng
ĠLe e
Ġl ong
ĠÄĲ á»Ļng
ĠH Æ¡n
Ġt Ãłn
Ġkhá» ©
Ġ200 9
6 3
ĠchÃº a
Ã© o
ĠchÃ ¢m
A ND
ĠV i
Ġg Ã¡nh
Ch Æ°Æ¡ng
Ġv áº¥t
Qu áº£ng
Ġng á»±c
l er
ĠT ik
g han
or g
ĠG re
ĠÃ Ĳ
ĠM i
8 9
tr ong
Ġx áº£
Ġdá» įn
Ġch inh
H O
on da
s ite
am a
Ġm Æ°á»£n
Ġnh áº¡y
á» «a
oy ota
ĠF ed
Ġ6 00
ĠNgh iÃªn
0 9
ĠT Ã´ng
x i
. ,
og le
an o
ĠM C
ĠP CCC
ĠChá» ĭ
ĠS un
ĠBH YT
ĠÄĲ á»ĵn
ĠB Ã¡
Ġnh Ãłng
or m
4 00
ĠE uro
an n
% ),
¹ m
Ġc ai
e on
ĠA ng
Ġnh Ã©
Ġl áº¥p
Ġt iá»ĩc
ĠC om
Ġkhá» ĳng
ĠS te
P há»
I A
Ġc o
Ġmá» ĵ
ĠL áº¡t
Ġs Ã¡u
Ġtr á»Ļi
Ġd áºŃp
ĠPhá» ķ
. )
ghan istan
Ġ a
ĠHÄĲ QT
A r
Ġhá»Ĺ n
ĠT w
´ n
Ġtá» ©
Ġ6 7
Ġch iÃªu
tre am
l es
Tr ao
Ġl áº·ng
um p
T á»ķ
ĠÃģ nh
ng ton
ĠB ay
ĠchÃ¬ m
Ġ5 1
Ġ4 9
ĠU td
iv e
o us
Ġg om
Ġ6 8
Ġr Ã©t
ĠT Ã´n
is h
ashi ngton
ĠI V
H oa
ĠM er
% )
ĠM c
Ġx Æ°á»Łng
ĠK iáº¿n
ĠL am
20 18
H LV
m en
Ġdá» ¡
Ġs an
Ġl Æ°á»Ŀng
Ġlu á»ĵng
B N
ĠAf ghanistan
ĠÄĲ B
Ġrá» ¡
ĠTh iá»ĩn
Ġthá» į
7 9
N á»¯
Ġb Ã¬
i i
Ġv ang
Ġc áº¯p
ĠTh áºŃm
ĠD av
Th e
b ao
ar ia
ĠH Ã¬nh
4 2
Ġsá»ĳ c
E D
Ġ u
ub e
T oÃłn
i en
H Ã´m
hi m
ĠTh am
al a
y n
ĠV ÄĲV
ĠY ou
ĠE n
P C
y c
au l
Ã² i
Ġc Æ°á»Ľc
Æ°á»Ľ t
ĠS Ä©
or s
Ġmu á»Ļn
ĠThu áº¿
ĠD anh
ĠÄĳá» ±ng
Ļ i
i us
Ġ5 6
Ġá» ©c
Ľ n
Ġ200 5
Ġ200 4
ut in
Ġnh á»Ł
ĠV F
Ġ6 6
ĠÄĳ áº¥y
Ġch áº©n
ĠW ashington
ĠG l
ĠÄĲ áº¿
ĠS ao
at t
ĠGi Ã³
en a
an ia
ĠM Ã£o
Ġdá» ĵn
A l
Ġd á»ĳc
Ġk Ã¬
m á»Ļt
M á»Ĺi
os e
ĠN ATO
ĠlÃ£ o
b a
ch ester
j a
ĠS áº£n
ĠT um
Ġbá» ¥i
G ia
Ġ5 4
Ng uyá»ħn
V iet
ĠÄĳá» ĩ
Ġt áº§n
ĠO r
Ġe uro
e h
ĠAF P
' s
Ġ5 7
ĠcÃ ºng
Ng uyÃªn
ĠY áº¿n
Ġ4 4
D I
p a
Ġl Æ°á»¡ng
Th am
ĠP SG
Ġtr á»Ļn
Ġchá» «ng
qu áºŃn
ot te
J C
ĠTh Äĥng
Ġ Ã¹n
ĠN hÃ³m
TT g
ĠT ÃŃn
Ġl á»Ļc
8 00
H Æ¡n
ĠÄĳá» ©t
Ġná» Ľi
ĠM ac
ĠM as
T A
O N
Ġhtt ps
ĠÄĳ Ã¢m
Ġv u
ĠÃ´ tÃ´
ĠA lex
ĠM o
0 3
AG L
Ġ4 1
H o
Ġn áº¡p
S I
Ġdá» Ŀi
6 00
Ġkhá» Ń
s ung
i el
Ġtr Ã¢n
X em
Ġs Æ°u
li g
Ġ j
Ġng á»±
Ġv Ã³c
Ġb Ã¡t
ĠH e
ĠÄĳÃ³ i
Ġ4 6
T N
ĠB er
ĠKhá» ĳi
ĠS Ã¡ng
ĠTh Ã¡nh
Ġr áº¡ng
ill a
ĠP er
y p
C ÄĲ
ĠA ra
it ter
ĠQ uyá»ģn
Ġn áº¿p
Ġl Ã¢n
7 8
ĠS ol
Ġc áºŃy
ĠB e
ĠA t
Ġ [
5 1
E S
ĠC Ã¢u
Ġ Ã¡c
Ġngá»į n
Ġ199 0
ĠT R
ĠTr e
- -
ĠM áº¹
ĠNhÃ ¢m
ĠGo ogle
ĠTok yo
Ġx áº¡
Ġbá» įc
Ġm áº·n
Ġph un
I N
ĠNh ung
Ġd ÃŃnh
Ġ5 2
Ġ |
Ã ¼
ur e
ĠC a
ĠV iÃªn
á»ĳ p
ĠK á»¹
Ġlá» ©a
Ġng Æ¡i
ĠBÄĲ S
ĠChÃ º
ĠE x
ĠC áºŃp
P hÃŃa
I V
ĠP utin
ÄĲ áº§u
C K
ĠM Æ°á»Ŀng
ak e
ĠV áºŃy
l et
ation al
o ch
r ist
ĠL on
y s
Ġh ung
E m
Ġc u
at ar
ĠS en
N hÃ³m
ĠH am
Ng h
20 17
o id
ĠchÃ ªnh
Ġ Æ°a
ĠK y
ne y
com bank
ÄĲ Ã³
ĠM od
ÄĲ Ã¡ng
ĠS e
ĠkhÃ ©o
Ġ6 3
ĠKhÃ ª
ĠnÃ© m
Ġth Ã¡p
ĠO anh
ĠBÃŃ ch
Ġ25 0
á»ĭ n
d e
Ġb Ã¡ch
ĠA P
Ġtá»± a
ĠT oyota
4 3
0 6
Ġb áºŃn
ĠO s
ĠGD P
Ġ8 5
Ġng á»±a
Ãº y
CO P
Ġr á»±c
ĠC á»Ńa
Ġl Ãµi
giá» Ŀ
ĠW al
an mar
Ġg Ã£y
ĠCh ar
Ġkho Ã¡c
Ġ /
ĠV TV
ĠvÃł nh
c ar
ĠG al
T uá»ķi
Th u
K T
ĠT Æ°á»Ŀng
Ġgi áºŃn
Th áº¿
Ġn áº¥m
Q G
ĠL Ãł
Ġl Ã²
ĠM ich
ĠÄĳ áº»
Ġ5 9
Ġg áº¯t
D iá»ħn
B P
A N
ĠV H
T ok
ou th
ak h
Ġ9 9
ĠChá» £
N há»
H Ãłng
ĠT hÃ¢n
B ÃŃ
ĠkhÃ ©p
ĠC or
¯ a
á» Ŀi
ĠT AND
ĠB el
ĠViet tel
ĠC á»Ńu
Ġsá» £i
4 1
Ġ5 8
E U
ĠB ang
Ġ ong
en e
Æ°á»Ł i
Ġlo g
ĠLá» ¥c
ĠÄĳ uÃ´i
ĠLon don
ÄĲ iá»ĥm
% ).
Ġb áº¿
Ġlá» ¥t
Ġch áº·ng
Ġcá»ĳ c
v e
ĠB Ã¡i
Ġb Ã´ng
ĠÄĲ iá»ĥm
Ġ Ã¡m
ĠÄĲ Æ¡n
ĠTr áº¡m
ĠT M
ĠAF F
ĠN N
T á»ĳi
5 9
á»į n
Ãº n
Æ°á»¡ i
ec k
Ġ7 2
ĠTh áº§n
ĠH Ã£y
âĢĿ ;
ĠâĢ ĺ
Ġm áº¡n
H á»įc
C L
Ġh Ã¡i
ĠÄĳá»ĵ i
u el
Ġr anh
ĠM or
us t
N hÃ
Ġx á»ķ
ĠV Ã¹ng
ĠC B
ĠK CN
ov a
Ġdá» ĵi
ĠH onda
it co
oun ce
P N
T B
C uá»ĳi
Ġ8 00
ĠtÃŃ m
s p
Ġru á»Ļng
ĠS JC
er m
ĠÄĳ Ã¡y
P hÃ¢n
Ã Ĥ
Ġmá» ķ
g r
Ġ199 9
Ġng áº¡c
ie v
it al
ĠH S
ĠÄĳ áº§m
V Äĥn
Ch iáº¿n
Ġd Ã¢m
ĠX anh
is a
D P
ĠÄĲB QH
Ġ200 1
ĠMan chester
ĠTá» ·
ĠT al
Ġ0 3
Ġtho Ã¡ng
Ġn Æ°á»Ľng
ĠS on
ĠH AGL
iv es
Ġvá» Ļi
j i
cel ona
Ġ Ãºy
iá»ģ ng
ĠkÃ© p
ĠL á»ĭch
ĠL ig
B Ãłi
Ġ200 3
Ġweb site
Ġ Ã´n
ĠU S
ĠV ÃŃ
ĠJ oe
ĠMy anmar
áº ¾
ĠPhÃ ¹ng
Ġth áº¥u
ig h
Ġ18 9
Ġ :
yr ia
ĠhÃ´ i
im e
H Ãłnh
7 00
6 2
Ġng áº¯m
Ġvá»£ t
ĠTr Ã¬
ĠKh ang
ĠL áº¡p
0 4
Æ¯ á»
C áº§n
Ġl Ã´i
ĠPhá» §
Ġ0 9
Ġs Ã¡p
Ġnh áº«n
7 2
ĠthÃ ¢m
ĠM Ã´n
ÄĲ Ãł
ĠB áº¥t
Ġm áº¿n
Ġ7 00
X Ã£
y d
ub a
ir e
ĠTw itter
ĠF ran
ĠG en
Ġng Ãło
ĠÄĲ Ã¡ng
Ġc áº¯m
PT NT
Ġc Ãłi
ing s
ĠF I
m ent
Ġ5 3
t áº¥n
ĠL áºŃp
ĩ n
Ĺ ng
et ro
ĠD uyÃªn
er r
ĠC uá»ĳi
w ard
Ġ200 2
ĠMar k
Ġbu Ã½t
ĠTr ump
ĠT iáº¿ng
ec t
T Äĥng
Ġlá» ¡
ĠM á»¥c
ĠÃģ o
ĠT V
ĠGiá» Ŀ
ĠM on
al i
Ġ9 8
Ġc Æ°á»¡ng
Ġ0 6
Ġk áº¹t
nh am
Nh iá»ĩt
.. ..
ÄĲ á»ĭa
t Äĥng
Ġ0 5
p t
ĠkhÃ³ i
ar e
T Æ°Æ¡ng
ĠH a
ĠS Ã¢n
ĠchÃ ©p
ĠC ung
5 8
Ġthá» £
Ch o
Ġd Ã²
ur a
ĠD on
ĠC ap
an th
ĠV al
Ġx Æ¡
Lá» ħ
ĠO COP
ĠO n
ī a
ĠN G
v ent
ĠM á»Ľi
Ġn áº¡i
K S
q ue
Ġk em
u z
ĠU A
D A
ĠSp ort
ĠP GS
Ġlu Ã¢n
ĠIn d
Ġs ay
tá» īnh
ĠBá» ī
Ġc m
Ġcá» ĵn
Ġm Ãłng
ĠH CV
Ġ \
6 4
Ġm áº»
Ġc arb
Ġn o
B áº£n
ĠK iáº¿m
ĠC EO
ĠT p
Ġngh iá»ĩn
Qu ang
ro w
Ġch ai
Ġmá» ıng
ĠM Ã´ng
20 16
ĠCS ÄĲT
ĠM ed
ĠTr Æ°ng
Ġg ay
and er
ĠH Æ°á»Ľng
ĠTik Tok
ĠSam sung
Ã Ķ
Ġnh áº§m
an c
ĠH iáº¿n
ĠP ol
Ġl Äĥng
ĠT in
Ġvá» Ł
ĠW est
F ast
H áº£i
ĠV P
Ġm Ãºa
ĠD Æ°á»£c
Ġtá» ħ
C áº£nh
Ġt iá»ĩm
ĠM ay
Gi Ã¡m
S t
ist ics
Ġ á»ĵn
P P
ĠNew s
ĠV á»ĭ
Ġdá» ĩt
ĠB en
ĠM V
sk i
. âĢĿ
S E
ÄĲ á»ģ
k o
Ġc áº¡n
Ġn áº£y
ib an
T áº¥t
Th Ã¡i
an ce
ĠN Æ°á»Ľc
ĠH ong
il le
ĠH ag
Ġtr Æ°á»£t
I n
Ġs uá»ĳi
ĠN S
ĠSau di
p r
ĠT Æ°Æ¡ng
s á»Ńa
s u
b iz
c ow
Ġs Æ°Æ¡ng
ĠB o
ĠÃ Ķ
Ġ6 9
ĳ c
L oÃłi
ig n
ch o
Tá» ·
ex ico
ĠB S
thÃ ¹ng
ĠLÄĲ LÄĲ
Ġd á»Ļi
Ġm en
ĠN Äĥng
th eo
otte nham
Ġkh Ã¡nh
ĠIn ter
¨ ng
Ġh iá»ĥn
ar ao
Ġl ÃŃt
ch e
b urg
B áº£o
ĠV áº¡n
kh oáº£ng
ĠT hÃŃch
H C
ĠchÃ ©
U Y
Ġru á»ĵi
ĠB Ã¡ch
ĠBar celona
ĠN or
ĠL i
ĠC Ãºc
Ġdá»ĭ u
ĠÄĳÃ ºc
Ġnh áº¯m
l ines
D Ã¢n
eal and
tain er
Ġchu á»Ļt
ĠV y
ĠT X
Ġin ch
A P
ĠN TM
L Ãłm
ĠV ND
C á»¥c
U SD
NhÃ ¬n
Ġ6 1
´ i
Ġ6 4
ĠM á»Ļc
Ġthá»ĭ nh
áº· m
B á»ĭ
ĠS l
ĠJ e
Th ay
ian o
Ġlá» ģ
in t
Ġ( )
ĠD r
áº« m
at ch
ar s
Ġvá» įt
ĠZ ealand
Ġh uyá»ģn
ĠCT CP
C áº£
ĠTh ay
c k
ĠKh áº¯c
5 2
re y
Ġk iá»ĩt
ĠÄĳÃ´ n
c ol
Ġ6 2
Ġb áº£y
X e
op ter
ĠÃĤ m
ĠS yria
Do anh
ian a
ph one
ĠF PT
ĠT uá»ķi
5 7
ĠAir lines
et t
ac t
á» µ
Ġg olf
8 7
ĠA T
ĠR es
ĠC Æ°Æ¡ng
K H
ĠNh u
Ġm Äĥng
á» ©
Kh oáº£ng
L Ãºc
Ġcon tainer
ĠcÃº p
Ġká» ģ
ĠAng el
Ġqu Ã£ng
ĠTr áº»
ĠS up
ĠCh uyÃªn
L C
Ġ199 7
ul l
Ġth áº¡ch
if orn
Ġh iáº¿u
Nghá» ĩ
al and
Ġho t
ĠN LÄĲ
Ġto ur
Tr áºŃn
ĠK iev
H á»ĩ
w ay
N Ã³i
ĠS ang
ĠMos cow
ĠU B
Ġ199 5
ĠH ol
Ġh áº¡m
Ġd Ã¡n
I á»
o áº¡n
T iá»ģn
Ġth Ã¡nh
ĠÄĲ á»ĳng
L Ã½
K á»ĥ
ĠM exico
ĠJ ack
Ġnhá» ĩn
Ġr Å©
Ġlá»Ļ n
ĠA N
a el
H á»į
Ġd Æ°a
Ġbá»ı ng
Ġcá» įc
Ġkh Ã¡i
Ġch anh
I M
m y
und ai
Ġmá»į c
in s
Ġn á»ĵi
er b
Ġm Ã¨o
G áº§n
ĠMil an
ĠX uáº¥t
Ġr á»Ļn
C a
o om
Ġmá» Ŀ
ĠM ag
Ġv áº¡n
ĠT iÃªu
os a
á» «ng
ut s
ĠPh iÃªn
m l
pp er
o is
iforn ia
8 6
V Ãł
id a
ÄĲ Æ°á»Ŀng
Ġb Ãºt
Ġquy áº¿n
ĠM á»įi
it t
Ġ199 8
N A
t Æ°Æ¡ng
Ã ©c
ov ic
om e
ĠS H
m i
ĠC uba
ĠTuy áº¿t
ĠTr áº¡ch
D Æ°á»Ľi
Ġt Ã²
ĠBl ack
o z
Ġpro tein
§ a
à ¸
Ġnh áº¡t
Ġchu á»Ļng
S h
Å į
Ġb l
ĠÃĤ n
ĠE ver
ĠP H
Ġph u
Ġ202 6
ĠC Ãºp
Ġ11 0
áº¹ o
M B
ĠM Ã¹a
ĠTrá» Ŀi
C Ã¢u
ĠK Ã´ng
ĠPhÃ ¹
ĠFI FA
M C
ĠR ang
P l
ĠG P
Ġ im
ĠTim es
20 15
B a
ĠS á»¹
ĠÄĳ áº¯c
Ġb Æ¡m
K há»
T H
is hi
ĠHÃł m
Ph áº§n
Ġtr Ã¡ng
Ġ9 2
Ġg Å©i
ht t
ĠUy Ãªn
Ġv oi
H oÃłng
Ġh Ãł
Ġb áº¯p
ĠL ou
ĠT ottenham
Ġtá» ¥ng
ĠN Ãªn
ĠDav id
itco in
Ph Æ°Æ¡ng
Ġlu i
ĠCal ifornia
v Ã¹ng
ĠH uÃ¢n
Ġhá»į ng
ĠM ax
ay a
ĠQ R
os s
ĠU N
Ġng áº·t
ĠG Ã²
it a
ĠM áº¡ch
ĠK ong
ĠBar ca
ĠB Ã³ng
Ġkho ai
at er
I S
ers on
Ġkhá» ī
ĠP a
Ġd áº£i
á» ¦y
E R
arao ke
Ġtrá» ħ
at us
Ġm Å©
r en
Qu Ã¡
n et
Gi Ã¡o
ĠTr iá»ĥn
ĠC á»ķng
ĠH áº§u
ĠKh ai
Ġch uá»ĳi
Ġin ternet
ĠE VN
ĠMus k
ĠÄĳÃ ²n
a ff
Nh áºŃt
ĠH an
ĠGeo r
ĠS ai
Ġvu Ã´ng
Æ ł
ĠF or
Ġd Ã£y
Ġ eo
ia t
Ã ¶
T á»Ń
ow er
Ġvá»ĭ nh
Ġv Æ°á»£ng
Ġk araoke
¥ n
ĠQ atar
8 2
7 3
5 4
T Ãłi
ĠC er
Ġ199 2
or a
ĠH ung
B Ã¡c
Ġng Æ°ng
Ġb i
Ġthá» Ńa
ĠLH PN
Ġs iáº¿t
Ġdá» «a
Ġ199 6
Ġso i
ĠTo Ã¡n
k s
C áº§u
Ġtr Ã¹m
7 6
Ġl ives
m e
ĠVin Fast
Ġd Å©ng
ĠAra bia
ĠL Äĥng
ĠÄĳ uá»ĳi
Q S
ĠÄĳ áº¯n
áº ł
Ġl áºŃt
ĠT ech
ig er
Ng a
ar m
Ġx Ã¡
ĠAn ton
li am
5 3
PhÃ ²ng
ĠÄĲ áº£o
ĠYou T
ad e
Ġm áº¯m
D L
Ġg áº¡ch
ul a
Ġ199 1
Ġm Ã³ng
b app
U V
Tá» īnh
ĠN V
us e
L u
S ong
Ġb á»Ļc
Q uy
tern ational
Ġs en
Ġt ia
ĠS iÃªu
ĠNH NN
Ġl Æ¡
n y
Ã Ĭ
it s
D N
ĠDel ta
Ġl áº·p
ĠQu áº¿
w ood
ĠchÃ ¨
Ġ199 3
M an
B A
ĠchÃ ¹m
ĠV ua
ik e
Ġr áº¡p
ĠÄĳá» įng
ĠS outh
B áº£ng
h e
ĠS i
Ġng á»Ļt
Ġ198 0
hi p
Ġl Äĥn
ĠKh oáº£ng
htt ps
ĠM á»©c
M áº·t
g ia
ĠL and
ĠL Ãłm
l ing
Ġn Ã¢u
iz er
f e
Ġkh e
ĠG S
Ġtr áº¯c
el s
Ġng Ã´
202 4
Ġ7 6
bapp e
ĠIn st
ax y
ĠF DI
r ic
ĠS il
Ġs áº§u
Ġho áº¡i
Q uá»ĳc
Ġlog istics
Ġcarb on
ĠM at
Ġq uyá»ĥn
9 00
ĠCh rist
ĠA c
ĠH iá»ĥn
ĠM e
Ġv Ã²
H uyá»ĩn
Ġx ao
us s
Ġ ax
Ġsá» ¥p
ph Æ°á»Ŀng
a j
s eo
g er
ĠC DC
Ġt áº©y
Ġd áº¹p
C Äĥn
N á»Ļi
ĠP et
i y
ĠTu áº§n
ĠÄĲ en
ĠV ol
8 4
Ġtá» ĵi
7 4
n ay
ĠTá» ©
Ġá» Ľt
A I
Ġ199 4
ĠTh om
Ġtá» ĳng
Æ¯ T
is e
ĠT áº¡p
202 6
ĠChÃº a
Ġx Æ°ng
ĠV ic
ww w
ĠC áº¥p
l u
ĠS Ã¡u
Ľ c
áº½ n
M Ã¹a
ĠBay ern
á» ı
Ġg á»ĳi
H á»ĵ
ap h
ĠKh Æ°Æ¡ng
el e
ce ae
ĠchÃ ©o
ĠBu Ã´n
Ã© n
Ġph anh
ĠV en
ĠR áºŃp
ĠÄĲ Ãłm
ĠB al
o ft
Ġvá» īa
ag ram
ĠB á»ĳ
Ġc Ã¡p
Ġm ini
Ġl áºŃn
Ġ Æ¡i
ĠTal iban
Ġs Ãºc
ĠRob ert
ĠC Äĥn
Ġthá»ķ i
Ġn Ã¡t
Ġm á»Ļc
ÃŃ a
P V
ĠM TV
20 14
Ġch Ã¡n
G P
am i
T iáº¿n
Ġbá» ĥ
ĠB ur
ĠBÄĲ BP
Ġph áº¿
R iÃªng
ĠS w
ĠhÃ ²n
ĠÄĳ iá»ģn
S inh
ĠIn ternational
Ġm Æ°á»Ŀi
Ġ Ð
p er
es la
ĠI r
Nhá» Ŀ
g on
Ġc ua
áº» o
Ch uyÃªn
ov er
f izer
Ġp l
ĠÄĳ Ãª
ĠO ld
K SND
Ġx en
V Ã²ng
ot o
Ġ z
ĠD iá»ĩp
ĠD iá»ĩu
ĠcÃ´ n
ĠHy undai
ĠJ o
Ġn Ã²ng
ĠL Ä©nh
5 6
k er
Ä Ĥ
at es
ĠJ ames
Ġng Ã¢m
Ġ7 8
ĠMar t
ov e
a f
Ġtr Äĥng
ĠT en
on y
ĠB áº£y
ĠAr t
Ġd Ãło
ĠÄĲ áºŃu
ĠChÃ ¢n
Ch iáº¿c
M S
ĠX e
ĠK T
ĠKh uyáº¿n
Ġn eo
Ġhá» Ł
r es
ĠKh Ã¡ch
Ġb á»Ļi
Ng Ã¢n
Ġb áº¡
ĠS m
ĠS hi
Ġngh áº½n
Ġkh an
ĠM el
Ġth áº¯n
ĠN iÃªn
ĠTr áº¯ng
Ġm Ã²n
Ġvá»ĭ t
Ġth a
Ġ Ãło
ĠT om
ĠK á»·
ĠN i
ed es
Ġ7 7
d ar
ar us
ĠtÃº ng
y an
ĠQu Ã¡
Ġg en
ro p
z a
ĠL at
ĠT uyáº¿n
Ġlo a
Ġd Ä©
ĠT áº¡
p hÃ
Ġth áº§m
Ġg ai
ch i
Ġs er
ÄĲ Ã£
ĠH i
ĠM ic
ĠW e
ĠC en
8 3
Ġqu Ã¡t
ĠBan k
ĠHar ry
Ġ20 50
Ġx Ã¡ch
v el
ĠcÃº m
Ġc ay
r l
t iáº¿ng
ĠGiá» Ľi
ĠK iá»ĩt
ĠV iáº¿t
Ġ á»ĳm
ĠS á»©c
al is
as e
ÄĲ Ã¡nh
Ġax it
ĠYouT ube
v an
Ġn Ã´n
B áº¥t
Ġ0 4
ĠS tr
ĠO p
ĠTr áº¥n
Ġng Ã³n
Ġc ong
m etr
S áº£n
Ġh i
ĠM un
ĠG ar
Ġk iá»ģm
Ġl ÃŃ
ĠPhÃ ¢n
p ort
Ġs mart
X X
Ġ8 1
Nh áº±m
Ġ197 5
K im
ĠSeo ul
ĠWil liam
ir a
ĠP fizer
o ut
ĠC Ã¡
Ġb áº©n
ern and
B áº¯c
ĠX I
Ġm Ã¢m
Ġrá» ĩt
Ġ7 4
ĠN ov
ĠN et
P A
ĠGeo metr
ĠM bappe
ĠK á»ĥ
Ġk iá»ģu
ĠK hÃŃ
ĠGeometr idae
200 1
Ġt uyáº¿t
9 2
Ġr Ã¡p
ĠGal axy
S c
eg a
T Ã¢n
ĠA z
ĠCh Æ°a
c ast
Ġ3 50
e en
ĠIt aly
Ġh ang
Ġbá» ©t
Ph iÃªn
ĠT á»ĳng
ĠV iá»ħn
Ġnh á»įn
A F
Ġná» ¥
Ġr ao
Ġth áº¥m
an y
Ġ7 1
Ġ18 0
Qu an
m ua
vent us
ĠF ord
ĠÄĲ Ã£
H á»
Ġ0 8
ĠGu ard
ĠL uÃ¢n
ĠPhá» ĳ
ÄĲá» ©c
Ġlives tream
ĠT esla
á» ģn
on ia
X Ã¢y
ĠL á»Ļ
ow n
ĠNhÃ ¬n
th Ãłnh
Ġg Ã¡c
Ġc om
ĠchÃ ª
Ġ198 9
ĠL á»¯
ĠP hÃŃa
ĠR ed
ĠViet combank
uts al
Ġr áº½
Ġch iÃªn
Ġth áº¯c
Ġtr inh
od e
Ġmá» ¥n
ĠInst agram
ĠNg uyá»ĩt
st an
ĠH D
c m
Th iáº¿u
in n
ĠkhÃŃ a
Ġ8 8
ã ĥ
n áº¿u
ĠPh Æ°á»Ŀng
ĠD iÃªn
Ġt Æ°á»Ľi
ĠÄĳÃ ¹a
em a
ĠHá» Ĺ
ĠYo ung
ĠD iá»ħm
ĠVF F
Ġt am
ĠP an
ĠB itcoin
Ġx Ãł
Ġtr Ã¢u
on s
ĠA li
ĠNhÃ £
man n
Ġr ung
ĠQu Ã¡n
Ġs áºŃp
BS CL
uk i
Ġn Æ°Æ¡ng
Ġ13 0
T Ã¡c
Ġh oÃłi
Ġho Ãłnh
ĠTh áº¥t
ĠnÃ© n
Ġngh iÃªng
ĠKh áº£i
ĠB ill
Ġl á»Ļi
ĠLou is
ĠMer c
es h
20 13
Ġho áº¡n
Ġnh o
ĠR am
d u
N X
Ġl Ã©o
em ent
Th Æ°Æ¡ng
Ġt Ã¡m
Ġ7 3
H u
inh o
Ġb ar
ĠQ uyÃªn
Ġx i
ĠL áº§n
Ġm i
ĠHung ary
Ġ7 9
ĠR T
Ġbá» įn
ĠÄĳÃŃ nh
Ġv Ãº
ĠS im
ĠV á»ĭnh
Ġm anh
Ġthá»§ ng
Ġh Æ°á»Ľc
ĠV KSND
Ġch iáº¿t
ĠGre en
ĠNg Ãłnh
Ġs Æ°á»Ŀn
ĠQ U
á»ĭ t
on i
Ġd á»Ł
ĠGi Ã¡p
Ġta xi
ĠV lad
Ġch ay
V á»«a
Ġ ao
s s
Ġk áº½
ĠTr aff
ĠS á»Ń
Thá» ĳng
Ãª nh
Ġph iá»ģn
ĠL im
Ġv áº¡ch
Ġt Ã¡ng
ĠÄĳá»ĩ m
om es
ĠK l
ĠH ay
D u
ĠHo áº¡t
b an
ĠhÃ £i
ain t
M W
ÄĲ Æ¡n
ĠC ÄĲ
Ġ198 8
Ġkho anh
T iá»ĥu
ĠI S
ĠkÃ¨ o
ĠW HO
Ġd á»ĳi
ak i
Ġqu á»µ
ĠU r
hÃ³ a
ĠB Ãłn
k há»
ĠS UV
ĠV Ãłnh
Ġhtt p
Ġm á»Ļng
ĠBr un
ĠTraff ord
Ġ8 9
ĠcÃ´ i
H ÄĲ
ol i
Ä ±
Ġch áºŃt
Ġ197 0
ĠCh a
at ia
Ġx Ã´ng
Ġph Æ¡i
Ġm Ã²
ie w
Ġq uyÃªn
or i
ĠghÃ ©
ĠF l
ĠM Ã¬nh
im ir
Ġsmart phone
er i
Ġl áº·n
aw a
ĠD ai
ĠS Ã¡ch
ĠC ro
ĠTr áºŃn
ĠB ID
Ġg á»Ļp
Ġtá» ıi
Ġhá» ĳ
Ġd áº¡n
ĠH en
Ġr áº¯c
Ġx ÃŃch
ĠNÃ³ i
B áº¯t
b y
Ġ8 6
Ġth iÃªng
Ng Ãłnh
Ġr ob
Ġx Ã´
Ġ0 7
ros oft
ĠP aul
S o
ag en
C DC
Ġtho áº£ng
Ġxo áº¯n
ri bank
Ġx Ã¡m
Ġmá» ĵi
ĠAT GT
ĠTr Ãºc
Ġ9 6
g en
ĠL Æ°á»£ng
ĠN e
ĠR ich
ĠB áº£ng
o ot
Ġcá» Łi
ia ceae
H Ã£y
c Ã¡c
Ġnh a
ĠV an
Ġrá» ĥ
C l
T u
ec a
ĠL iá»ĩt
ĠK m
ĠÄĳ áº¡m
ĠL ang
Ġb áº¥y
Ġ19 45
ĠX i
op s
ĠNg Å©
Ġ8 2
Ho áº¡t
ĠchÃ ´n
ĠC Ã¡n
ĠM u
ĠSh in
iel d
ind ow
Ġgiá» įt
Ã¹ y
K inh
Ġkho an
Ġst art
S C
ĠTr i
ĠG áº§n
Äĳ á»
Ġ am
Tr ang
ĠG old
Ġl Ã¡t
ĠCá» ©
ĠF LC
p age
E M
V ideo
Ġ198 2
ĠT or
Ġngh iá»ĩt
ĠH Ã¨
Ġtr e
onal d
Ġm Ã¡
ĠK áº¡n
Ġng á»įc
ĠT inh
sk y
ag on
Ġ198 6
ĠB ro
ob al
Ġ( +
M á»¥c
ĠR áº¥t
el and
ĠN oc
Ġx Ã´n
ĠH er
ĠCh iáº¿c
G B
T Ã¢y
Ġm Ãły
ĠNg á»į
Ġl á»¯
O T
ĠBel arus
Giá» Ľi
g in
ĠB Äĥng
Th iáº¿t
ĠT á»ĭnh
Ġb Æ°u
ĠM iá»ģn
M inh
ĠGi ai
ĠKh anh
ĠJu ventus
opter a
Ġkh uy
X uáº¥t
us h
Ġg u
ĠÄĲá» ı
ĠB or
Ġd áº¡o
Ġná» ©t
ĠT Ã¡c
z e
Ġth áº¯p
ĠCh áº³ng
ĠH ot
ĠQu á»·
R O
áº» m
ĠNoc tu
V á»ĭ
Ġb áº¥m
C á»±u
ra b
ĠG T
ĠJ on
M áº¹
ĠT ur
Ġ9 3
od y
Ġl áº¯c
ĠNoctu idae
ĠA v
Ġl au
Ġtr iáº¿t
ros s
ĠThu á»Ļt
ĠZ el
o th
Ġph e
ĠD Æ°á»Ľi
Ċ Ċ
Ġthá» ģm
Ġb Æ°á»Łi
Ġnh Æ°á»Ŀng
Ð ¾
ĠPhi m
ĠN Ãºi
Ġng oan
Ġ8 3
Ġ ac
or y
Ġx Ã´i
et ty
K á»³
ĠJ in
20 30
Ð °
V C
Ġt Ã¹ng
ĠP at
ĠQu áº£
Ġrá» ī
Ġn Ã£
ĠT á»ĳi
ĠC op
Ġ9 7
Ġtr Ã¡n
l an
ĠC Æ°
ĠC á»±u
ĠLig a
ĠThÃ ªm
ĠZ h
A D
G D
as il
Ġshow biz
ĠSup er
E P
Ġgi Ã´ng
c i
Kh o
Tr iá»ĥn
d er
ai r
Giá» Ŀ
ĠS á»Ńu
ĠW ar
Ġgi áº·t
Ġ ex
W h
ph a
ĠEr ik
Ġh ao
Kh Ã¡ch
L áº§n
ĠVic tor
ĠM Ãª
l Ãł
Ġth Æ°a
ĠC as
ĠE a
ĠM áº«u
Äĥ k
Ġlu á»Ļc
w e
o f
g h
ĠB ol
ĠVlad imir
ĠBr ent
M á»įi
es el
c ia
ĠP ak
C Ã¡n
ĠNg Ã´i
Ġv an
D á»ĭch
ĠP u
Ġ198 7
Ġm á»ĭn
ĠSt ar
ĠM ob
Ġh áº¡ch
n es
t ic
Ġb Ã³c
Ġbá» Ĺng
A C
Nghá» ĭ
Ch Æ°a
ĠN o
Ġ16 0
Ġkho ang
Ġbá» ī
199 1
Ġch iÃªm
ĠM Å©i
áº¿ ch
ĠV Ã²ng
Ġf or
ĠT el
Ġs et
ĠR ON
V á»£
Ġ9 1
Ġ8 4
á» įng
ch iáº¿m
z y
ĠP au
ĠC CC
er e
ĠBl u
Ġl am
Ġnh ÃŃ
ĠAnd re
ens ky
ĠD is
ĠÄĲ BSCL
p e
ĠchÃ© m
k i
ĠB á»ĭ
M ar
it z
ĠN SND
Ġá» ¨ng
ĠÄĳ an
ĠF lor
ĠNh áºŃn
ĠX II
k va
ĠT ae
az on
g a
' :
s a
ĠÄĲ á»ĵ
t á»©c
ĠO ne
Th Æ°á»£ng
ĠJ ong
ĠMar tin
B r
l av
n at
ĠTh áº§y
G hi
d or
Ġ198 5
ĠKho áº£n
c us
Ġk Ä©
iv al
Ġd áº·n
ĠM ot
ĠÄĳ áº¡c
Ġt áº¡
Phá» ¥
c á»ķ
Ġm Ã¹ng
ĠT ay
Ġg áº·t
ĠGi Ã¡ng
Ġbá» ĵn
Q uÃ¢n
ĠCCC D
ĠV á»ĩ
Ġ8 7
t op
Ġ9 00
ĠL Ãłng
Qu áºŃn
Ġc Ãłnh
ĠPl ay
ĠO ai
ĠV áºŃt
Ġ( -
em b
ĠThom as
ã ģ
ĠJ i
th uá»Ļc
ĠT CN
ĠA p
ĠC ÄĲV
ĠCh áº¥t
ĠÄĳá» ¥ng
ĠÄĳáº¿ m
yc idae
ĠBl oom
Ġch áºŃu
Ġgi eo
if e
ab a
ĠÄĳ áº·n
amb ycidae
ĠPh áº£i
Q uyáº¿t
N Æ°á»Ľc
ĠX Æ°Æ¡ng
ĠCer ambycidae
ĠThÃ ¬n
t hi
f r
ĠMic rosoft
ĠCH QS
ĠC Ã´n
Tr áº§n
c Ã´ng
os hi
Ġ19 60
om a
Ġc Æ°ng
s á»ĳ
Ġng u
ĠhÃ ©
and a
ro id
ĠJ ung
Ch u
ĠÄĳ Ãłnh
ic al
ol e
Ġx Ãło
Ġ12 8
Ġd áº¡i
ĠM á»
Ngh iÃªn
Ġch Äĥng
ĠthÃ¬ a
pr ess
ĠJ er
ĠNhÃ ¬
Ġl Æ°á»¡i
Ġnh áº·t
P him
Ġk áº¹o
| |
Ġrá» §
ĠH Ã£ng
gi áº£m
ĠN at
ĠkhÃ´ n
Ġth Ã¡m
Ġb Ãłng
ĠB i
ĠZ alo
Ġd áº·m
ĠH al
Ġkh ao
B ÄĲ
ĠT Ãªn
ĠH Ã´m
ĠCh uyá»ĥn
Ġc áº¥y
kh o
N S
Ġn áº¯p
Ġr á»ķ
ĠMos kva
Ġchu Ã´ng
re b
Ġbu Ã´ng
Ġ14 0
ĠTr Ã¢m
q ua
ĠV Æ°á»Ŀn
ĠCh inh
ĠChá» ¯
U S
id er
p o
ĠL Ã²
M á»Ŀi
Ġv al
ĠG az
Ġg am
Æ°Æ¡ m
Ġ Â
Ġh áº¯n
ĠAg ribank
Ġr á»Ļ
w a
ĠH Ã¢n
Ġt Ãª
Ġqu áº¡t
ĠFr ank
ĠL in
ĠE V
Ġgá» «ng
ul t
Tr áº£
Ġh iá»ģn
T U
en ce
l l
s ch
Ġ198 4
en eca
ĠK az
ĠK u
H S
á» Ĳ
ĠUA E
is ion
ĠKhá» Łi
Ġs on
Ġn áº¡
Ġph áº³ng
at o
ĠJ un
Ġkhi Ãªm
ur y
Ġs Ã¢m
ra q
Ġcá» į
lig ht
C ar
ht ml
T uyá»ĥn
E FA
k ov
Ġh áº»m
ĠJ enn
Ġcu á»Ļn
¹ i
ĠNS Æ¯T
ĠÄĲ am
AS A
t á»±
ĠT áº§n
ĠEn ter
ĠP le
yl l
ĠMich ael
ac o
ĠZel ensky
L Ãª
Ġh áºŃn
ThÃ ªm
iz en
ry s
ber t
Ġnh iáº¿p
ĠM Ã¹i
Ġrá» ĵng
l Ãłm
Viet nam
Ġx ÃŃ
Ġá» §
ĠA ward
n ik
M Ã´
Ġn á»ĳt
et ing
it an
Ġb áº«y
ĠB ig
Ġ Ãºng
g y
ĠM W
nh Æ°
ĠL os
ĠF ernand
C Ã¢y
Ġh Ãłn
ĠPhá» ¥c
Tr Æ°á»Łng
C Ã¡
ar is
ĠKh áº£
op p
ĠT Ã¡m
Ġ â
Ġká» ī
Äĳ Ã£
ĠR os
it ch
ĠP e
ĠMerc edes
ĠÄĳ iÃªu
ĠW all
Ġtr Ãłng
Ġdi esel
ÄĲ i
Ġg á»ĳm
ĠThá» Ľi
ĠÄĲ Ã´n
20 11
Ġ9 4
ak u
19 81
L ong
d ro
ĠM Æ°á»Ŀi
ĠGl obal
ĠNg á»¯
ĠC á»ĳ
ĠM B
Ġh iáº¿p
D ata
ĠR od
m und
ã Ĥ
ÃŃ p
ES CO
ĠFran c
S á»©c
ĠÄĳ áº¯ng
L Æ°u
Ġkhá» ĳc
ĠB KS
ĠF in
Ġr Ã¡o
ĠS Ã©c
Ġqu áº§y
ĠAs tra
ĠM áº¡c
ĠHa aland
ĠL o
ĠBloom berg
ĠP ost
Ġl Ã¡ng
Ng Ã´i
L A
Ġmá» ī
Ġngá» ¡
ĠN ap
Ġs p
ĠBID V
s ter
Ġv iáº¿ng
ĠV ir
ĠN Æ¡i
ĠC Ã¢y
ĠÄĳÃ ¨o
k in
ĠM Ã¡y
H á»ĵi
ĠphÃ ¬
ol og
Ġem ail
ĠÄĲ Ãłn
¨ m
ĠDo Ã£n
pl ay
L o
cast le
Ġt áº£n
19 61
H áºŃu
Ph ong
9 8
H Æ°á»Ľng
Ġ198 3
Ġ20 45
Ġ Ãª
ĠS T
ĠÄĳá» Ľn
Lu áºŃt
ĠcÃ³ c
Ġx Æ°á»Ľng
20 12
Ġvá» Ľt
Æ¯á» Ľc
19 71
Ġt áº¡ng
á» «
ĠS N
Ġb Ã¡u
U B
ĠPC R
T Ãªn
Ġ11 5
Ġrob ot
ĠI raq
ĠT Ã½
iv ers
ĠchÃ¬ a
ĠM Ã´
ĠU l
ĠAm azon
ĠJohn son
ĠCh iá»ĥu
P EC
v i
-- --
Ġho i
Ġv iá»ĩt
Gi ao
ĠâĢ Ķ
ĠÄĳ áº±ng
ĠNhu áºŃn
t Ãªn
ĠÄĲ i
s au
ĠP T
ĠPak istan
ĠK ing
ĠY Ãªu
ur t
ĠS ar
ĠÄĲ Ã´i
Ġgh en
b e
Z eneca
ĠSh op
Æ ¯u
ĠX S
Ġng áº«u
P hi
g á»ĵm
ĠNh áº¡c
Lá» £i
ĠIt alia
Ġx oa
ĠM Ã£i
Ġ197 9
ĠMar ia
ĠIr eland
Ġn an
e u
D á»ĭp
Ġt Ã³m
Ġkh uáº¥t
indow s
c hÃ
ik u
E L
ĠB TS
ĠÄĲ Äĥk
ĠÃģ i
ĠAl l
Ġ Æ°á»Ľt
Ġgá» ¥c
M A
Ġb Æ¡
il a
Ġc áº¯n
ho áº·c
ĠTh áºŃt
au t
pl us
Ġval ue
ĠÄĳo an
Ġqu Ã¡i
Ġs c
ĠMun ich
w on
ÄĲ á»Ļng
Ġ198 1
ĠT an
PhÃ º
ĠJ ose
Ġg áº§m
ĠB us
ĠH IV
ĠB in
Ġkho Äĥn
V Å©ng
P GS
o ff
ĠCA ND
ÄĲ iá»ĩn
Ð µ
ĠPhá» ¥ng
Ġ )
ĠAN TT
Ġnghá»ĭ ch
ag o
ĠCá» §
ĠV er
Ġl Å©ng
t im
le c
Ġ Ãºt
ĠX Ã¡
B ar
N Ã¢ng
b i
Gi ai
Ġn i
Ġchá» Ń
ĠX in
Äĳ Æ°á»£c
ĠTh iá»ĩu
Ġn áº¥y
ĠC NN
b r
PC R
ĠC áºŃu
ĠÄĳá» ĳn
ĠTM CP
ĠTh áº©m
ĠI m
Ġ 00
ĠCá»¥ m
ĠH NX
ĠCro atia
Ġ12 5
us tin
Ð ¸
c ua
M á»©c
ĠCom p
C ol
Ġl e
Ġchu á»ĵng
Ġ197 2
ai s
ĠKh mer
ĠbÃ© n
ĠI a
ĠHá» ıa
I T
ĠN ik
" ;
ĠG etty
âĢ¦ ,
D T
M Ã¡y
b on
ĠQu Ã¡ch
al d
ĠAstra Zeneca
Ġd ai
ĠT our
Ġnh áºŃu
K iá»ĥm
ĠÄĳ un
Ġv Ã¡n
Ġl Ã¹ng
ĠCh áº¿
Ch uyáº¿n
ĠH oan
ĠChar les
Ġtr Äĥn
ed ia
ĠW hi
Ġn uá»ĳi
ing ham
Ġm Æ°Æ¡i
ĠÃļ t
way s
ĠN ob
ĠSer ie
T hÃŃ
Ġr Ã²
Ã¬ a
ĠI P
ĠB TC
Ġb Äĥn
9 6
ab ri
ĠP ep
ĠT Ã¡o
ĠA k
ĠAnd roid
ĠUN ESCO
ĠLH Q
ĠT D
ic t
Ġm Ãłi
19 31
el le
Ġr Ãªu
ĠM et
ĠB Ã¡t
tr on
ĠCr ist
Ġbu á»ĵng
1 50
V áºŃy
Ġdá» Ĺ
b Ã¬nh
at i
ĠTh an
one y
ĠL áº¡i
W HO
ĠchÃ ¨o
Å Ĥ
ĠT uáº¥t
Ġgi áº¿
20 10
ĠY am
ĠE s
ĠNg Æ°á»£c
ĠM ik
ja er
b in
S Ã¢n
im a
l á»
Ġg iá»ģng
¥ a
ĠA h
Ch ung
ĠM áº«n
Ġv on
Ġx Ã³t
ĠR o
ĠH áº£o
li e
ĠEl on
ĠCh iá»ģu
19 51
thá» ĭ
v es
ĠF A
ĠHá» £i
Ġgi Ã²n
T K
Ġl á»ĳp
19 11
ĠH old
ĠV ideo
ĠB Ãłng
Ġcá» Ĺ
krai na
v en
Ġn et
V áºŃn
ar o
ĠV ang
ĠR ap
ĠTá» Ľi
ĠTh Æ°á»Łng
H iá»ĩp
Chá» ©ng
iver se
Ġtr Æ¡n
T Ãłu
est ine
nh Ãł
ĠS el
Å© a
R áº¥t
ĠCap ital
ÃĬ N
UY á»
Tu áº§n
ĠCh an
ĠK ia
Ġ Ã¢u
Ġv Ã¢n
Q L
ĠM oh
ĠV ill
ĠS aint
Ġl Ãª
Ġv áº·t
ĠD ani
H Ã£ng
Ġv Ä©nh
19 36
ĠS ky
Ġ10 5
Ġthá» īnh
Ġxo Ã¡y
ĠS in
ĠHÄĲ XX
ĠV illa
U kraine
Ġ197 6
ĠbÃ¹ n
ous e
sk jaer
th oid
ĠNgh iÃªm
Ġg Ã£
ĠÄĲ á»ĳc
d en
ĠB áº§u
ĠV u
Ġcu á»ĵng
li an
ÃĶ NG
Ġnh á»Ļn
ri ch
Ġ2 20
Ġb Ãºn
ĠAlex ander
ĠC R
Å© y
thoid ai
Ng á»įc
ĠNew castle
Ġtá» ¥t
9 7
ĠB ul
19 21
ĠS E
H Ãłn
Ġt áº¡c
f ield
Ġl Æ°á»Ľt
Ch uyá»ĩn
% );
Ġch áº£
ĠÄĳ áº¯m
v o
Ġcá» ĳi
og a
thoidai plus
ĠD a
ee k
ĠW indows
9 1
J PG
al k
Ġth on
ĠS ev
ĠmÃ¬ n
ĠD áºŃu
Ġx áº¥p
let ico
Ġh am
ĠF er
z h
ĠS av
Ġm ÃŃa
I áº¾
b rid
od es
i ro
C á»ķ
s il
ĠV ar
ah a
Ġ4 50
TT S
ĠC áº£m
ĠAm er
Ġn Ã´
ĠR á»ĵng
Ch uyá»ĥn
in ae
âĢĿ -
ort mund
y e
Ġ10 8
9 3
ĠU kraina
M Ã¬nh
ĠÄĲá» ģn
ĠS G
Ġ app
H Ã²a
Ġtrá» ĩ
C A
ey mar
ĠD ub
Ġlá» ¥y
v iet
ĠA sia
Ġkhi Ãªu
Ġl Ã³t
t en
ĠBl ue
ĠT ak
ĠghÃ ©t
ĠV Ã´
ĠkÃŃ p
ĠHy un
) âĢ¦
Ġv Ã£
Ġm iá»ĩn
ur i
ern a
A c
ia s
ow ski
Ġr Ã£
tr Ã¡i
Ġ197 8
ĠV áº¥p
ĠH Ã²n
ĠCol om
ĠH Ãło
ĠCh at
ĠS um
ĠS V
i ola
ĠT e
19 01
9 4
ĠS SI
Ġx Ã¡t
ĠAF C
Th áº§y
H y
ĠGeor ge
ĠU EFA
ch er
ĠT Ãło
ĠV áº¥n
ĠUn iverse
Ġ el
ĠBer lin
Ġser ies
B iÃªn
ĠOp en
ĠTá» Ŀ
ĠPal estine
ĠTh o
Ġd Ã©p
Ġchá»Ń i
Ġnhá» ©c
ĠT ai
Ġrá» ¥ng
Th áºŃt
Ġch Æ°ng
ĠB A
ĠN iger
u an
Ġt en
Ġká» µ
ic us
p hi
ĠÄĳÃ ¨
ĠB Æ°u
ĠE ng
ĠT NG
Ġx ay
S á»Ń
ĠCh Æ°
T áº¿t
Ġm an
ĠKr Ã´ng
ĠÄĳá» ±c
Ġf utsal
ĠB Æ°á»Ľc
Ġ197 3
E F
Ġlá» ¥a
ĠTr á»±c
ĠD an
O C
Ġ17 0
Ġ196 8
Ġh Æ°ng
Khá» Łi
ĠAs s
ĠHy e
Ġk it
Ġrá» ħ
18 81
Ġy áº¿n
Ph Ã¡p
h ay
Ġkhuy a
B l
ĠRom a
! !
ĠE reb
Ġr áº¡n
ĠKhu Ãª
ĠP etr
Ã Ŀ
ĠSH B
B áº±ng
tu áº§n
ĠPh Ã¡o
p op
ĠL oáº¡i
B iáº¿n
ĠL au
un n
as er
in c
Ġáº¢ NH
18 71
ĠK ane
ĠEreb idae
18 61
ĠTr Ã¢n
V Å©
ĠCh Äĥm
ÄĲ Ãªm
Äĳ iá»ĥm
er y
ĠM eg
ĠNh Ãłn
ĠB Ã£i
Ġ áº¡
ĠH uáº¥n
tain ment
á»¥ y
ÄĲ Ã´ng
Ġx oÃłi
M á»Ł
ĠÄĲá» «ng
Ã ļ
it ion
ĠM ir
I NH
) ...
ous s
H áº§u
ĠXi ao
ĠK e
T O
th u
ol y
o und
B H
ĠPhi l
uy en
Ġphá» Ł
ĠL ED
Ġ uá»ĳn
ĠB R
d ong
f a
Ġs Æ°ng
áº ¬
Tr uyá»ģn
ĠTT HC
Ġch Æ°
ĠD Ã²ng
k ok
A s
į i
Ph áº¡m
L O
on idae
Ġtrá» įt
j an
ĠD á»
ĠI l
Ng oáº¡i
ĠB ao
av i
Ġqu áº¿
ly wood
200 8
ĠN ic
ĠÄĳ iÃªn
Ġx áº»
Ġch áº£o
ĠN áºŃm
E l
Ð ½
ud i
X Ã©t
ĠKhÃ ´i
ĠA M
Äĳ Æ°á»Ŀng
ĠK i
Ġgi rl
ĠEnter tainment
Ġr á»ĳt
ĠH un
A i
m on
ĠT ex
eo p
ĠK Ã½
Ġ ar
ĠSm ith
Ġc alo
ĠÄĳá» ĳng
nh á»¯ng
ĠD j
Ġs áº¥y
ĠPle iku
et te
ĠX X
ĠAir ways
ĠTr Ãłng
ĠB ec
Ġt áº¥u
ec o
el li
ĠL Ã¢n
ĠFranc is
ĠG er
Ġm ÃŃt
B TC
ĠM ur
at s
Ã³ p
ĠD ortmund
khá» §ng
ĠChÃ ¹a
S iÃªu
ĠB Ã©
S p
K áº¿
Ġgi áº·c
ĠI ch
et s
Ã Į
est ival
Ġg áºŃy
Ġth en
ĠP ort
Ġbá» ĩ
se y
ĠV Ä©
ĠT áº¡o
Ġr Æ°á»Ľc
ne um
ĠLu c
ĠH iá»ĥu
amb oo
Ġnet izen
Hu áº¿
Ġgiáº¿ ng
ĠW on
ĠnghÃ ªnh
en ko
li z
Ġkh ang
ĠH ua
ĠM áº¡ng
col or
om in
ĠSc ot
Ġchá» įc
ĠD inh
B Ãłn
Ġá» ©
Ġr ong
F ile
Ġng áº§n
Ġ Ã¡
V T
ĠSai gon
ĠSer bia
ĠD es
Ġ197 7
ad o
ĠQL TT
r ick
Ġ Æ°á»Ľp
ĠB Ã¡n
Ġcan xi
ĠM az
á»į a
ĠR ai
ĠX Ãª
om el
Ġnh Æ°á»£c
Ġcá» «
ĠB ern
ĠC ast
ĠC os
ĠF re
E T
ou d
ĠSl ov
n ick
Ġv Ã¡ch
ĠUA V
Ġl Ã¡nh
Ġx uÃ´i
ĠAt letico
chá» §
ĠR u
M P
Ġ19 50
ĠS uá»ĳi
ĠH áº¡t
áº ¦
Ġ //
am il
l áº§n
f er
ĠC u
ĠHo SE
ĠLu x
ĠCar l
ab eth
Ġ197 4
ĠG H
w ei
Ġn Ãłn
ĠÄĲ Ãªm
Ġra dar
ester ol
m it
Ġx Ã¬
Ġr Äĥn
ĠthÃ ª
and al
K V
ĠC CB
ĠÄĲ áº±ng
G PT
Ġgi Ãłn
os ter
ĠAngel es
ĠN Ã¢ng
m in
ĠÄĳ inh
ĠVen ez
R E
Ġhy dro
Ġ Ãªm
Ġnh iá»ħu
u x
ĠLu k
OS E
V ÃŃ
uc k
ĠSol skjaer
ĠG iÃªng
ĠC áº£i
Ġth áº¡c
ĠL Æ°
os h
is on
Ġd áº»o
ĠphÃ ´
ĠAward s
av el
Ã Ĳ
ĠC at
th er
ĠhÃ£ m
ĠÄĲ Ã¡
Ġb ong
Ġl á»Ļt
ol ia
D i
Ġngu á»Ļi
ĠS ant
á»Ĺ ng
Ġnh á»ĭ
SN N
Ġl Ã¡ch
ĠT uyá»ģn
ĠCrist iano
ĠEuro pa
Qu Ã½
ĠChu áº©n
ÄĲ áº©y
200 9
áº¿ m
ĠÄĲ V
ÄĲ áº£ng
ĠL ink
F ed
Ġx á»ĭt
Ġqu áºŃt
Ġb Ã´i
ĠTh iÃªm
Ġvá» ©t
ĠV á»£
d r
st al
V iá»ĩn
T op
s an
ĠÄĲ áº©y
om b
ĠTex as
Ġgi Ã²
n o
V A
ĠS mart
ĠD O
ĠWal es
ĠR áº¡ch
Ġsu Ã´n
Kh Ã¡nh
T uyÃªn
ĠcÃ ²i
ĠH aw
ch Æ°a
r m
S V
M áº«u
ĠX IV
Ġsá» ıi
u ay
Tr Ã¡i
ag a
ĠB os
ĠNgh iá»ĩp
Ġngo áº¡n
uch el
ĠJ an
ear ch
ĠT hÃŃ
s o
D Ã²ng
Ġt Æ¡
Ñ Ģ
Ġo an
, âĢĿ
ĠQu áº§n
ĠO k
ĠÄĲ á»Ļc
en o
ĠLe w
ic ester
ĠColom bia
Ġk eo
Ń ng
Ġn ang
B uá»ķi
ĠW eb
g ar
n i
au d
ĠS ud
ĠHol lywood
Ġch eck
akh stan
Tr áº£i
Ġ3 60
H Æ°Æ¡ng
ĠR á»ĵi
Ä ĳi
ĠM á»Ł
áº µn
ĠL Ã´
ĠC áºŃn
Ġmu á»Ĺi
ĠS L
A m
ĠX em
Ġ197 1
uel a
ĠT uyá»ĥn
T I
ÃĤ N
il d
Ġtr au
ĠViet in
ĠVinh omes
ak er
Ġk iÃªng
ĠS oc
ĠL ion
ĠGuard iola
un a
ĠÄĲ á»ķi
Ġl i
X Ã¡c
ĠT á»ĳ
ĠM ont
igh ton
chá» ī
200 7
ouss ier
en se
Ġt em
ĠM ah
eal th
E x
ic an
Ġth iÃªu
ĠL isa
row n
ĠÄĲá» ĩ
BN V
Ġp r
Ġl áº«y
g ov
ĠTr oussier
F TA
ĠCl ub
Ġhá»ķ ng
ĠR h
ĠA ut
ĠLe on
ĠBr asil
Ġ10 1
Ġcho l
Ġngo áº·t
ĠHo áº±ng
Ġshi pper
ĠMoh am
ĠDai ly
Ġs tr
ed a
ĠO PEC
Th Æ°á»Ŀng
ap or
, "
I P
el a
ĠN eymar
Ġng uyá»ĩt
ĠM id
ĠP as
Ġ áº¤
ĠGP MB
N et
Ġm ar
ĠÄĳá» ¥c
C ao
Tá» Ŀ
R e
av er
y st
ĠI M
TV QH
ĠTr á»¥
ĠMod erna
Ġngá» ı
F C
ĠY e
Ġ194 3
v á»Ľi
Ġchol esterol
k ing
W S
ud io
Ġt i
Ġm áº¯ng
ĠbÃ³ p
Ġthá» ¥c
ĠK am
Ġv áº¥p
Ġnh Ã´m
Äĳ áº¡t
un e
ĠV á»«a
ĠTh áº¥y
S B
Iá» Ĩ
v Ãł
Ġh Äĥng
Th iÃªn
ĠPl us
Ġká» ĩ
Ġg áº¥u
ĠÄĲ áº¥u
T Ã¬m
ĠNg á»¥y
ĠPh u
ĠD ay
ĠM Ã³ng
Ġ194 2
ĠÄĲ áº¯c
Ġm áºŃp
V áº¥n
? ".
ĠChÃ ºc
Ġqu áº¥y
ĠG a
r u
ĠHy men
ĠRich ard
ĠT uÃ¢n
op hi
ĠB OT
ĠA C
ĠAb d
Ph áº£i
ĠF ri
um b
ĠD ao
V i
A g
P r
ĠV II
Ġs Ãłnh
w in
Ġmu Ã´n
ĠB Ã¨
ard o
Ġg áº¡t
ĠbÃ¬ a
c Ã¹ng
au s
bo ard
og ba
og an
Ġch Ã¡o
ĠN m
h Æ¡n
ch ain
n á»¯
ĠLá» Ľn
d am
Ġth áº¡o
eo l
ĠÄĳ Å©a
ĠS A
Ġc áº©m
B V
Ġm áº¡
id es
ĠB áº¯t
B á»ĳ
ĠD ie
Ġl iÃªng
ĠÄĳÃ ¹i
ĠK ab
es e
ĠP o
T hi
Ġh Ã¡o
ĠThÃ ºc
ok ovic
ĠCr im
Ġm et
c c
at or
Lá» Ŀi
oa d
2 000
Ġ Å
i or
Ġl en
ĠTh ai
im ex
b all
R onaldo
ĠL es
ĠC ry
et sk
Ġg as
ĠKr em
B á»Łi
ĠD onald
tr al
ĠS n
C áº£m
M U
ĠB amboo
ĠÄĲ iá»ĩp
º p
ÄĲ oáº¡n
ĠM ang
ĠD TTS
ĠCor p
ĠBang kok
Ġ196 7
ĠR i
Ġc ar
F F
av e
ĠVN PT
r g
ĠX á»Ń
ĠNhá» ĭ
Ġ194 4
Ch a
ĠKaz akhstan
Ġ196 9
2 50
r ad
ĠIch neum
T uyáº¿n
ĠVictor ia
_ _
ĠIchneum onidae
Giá» ¯a
ĠB ell
Ġ19 40
... ,
nat aka
ash ford
ĠC á»±c
c ent
ĠZ ing
+ )
l am
ĠKar nataka
V P
Ġlá» į
Ġtr Å©ng
Ġlo go
T iáº¿ng
iv i
Ãµ m
ĠCá» Ŀ
Tr áº»
Äĳ á»ĳi
Ġá» §i
ĠFlor ida
ass age
ĠâĢ ¦
ĠScot land
ĠthÃ ¨m
Ġmu á»Ĺng
" )
ĠHen ry
ĠT er
ĠG R
A pp
ab y
Ġ196 5
ĠN ag
V Ã¹ng
ĠT Ã¹y
O V
Ġt áº£o
ĠL az
ĠW in
ChÃ ¢u
ĠP N
ĠTr Ã¬nh
ĠY ang
org an
ai t
Ġchu i
Ġk Ã¬m
² m
s uc
ĠG ame
Ġv Ã¡c
re am
Æ¯ Æł
Ġhá» ©c
Ġg Ãµ
Ġh it
ĠK an
as on
b Ã¡n
av ir
ĠThá» ¥c
ĠM ol
ĠLig ue
ĠD ong
Ġchá» ¯ng
ĠV GP
Ġho Ã¡
ĠTr áº¡i
s hi
ĠNh o
H en
S ao
ĠT áº¿
ph áº£i
ĠKh Ã¡m
ĠB MW
ill s
ĠD ar
ĠCN TT
ĠAs ton
M N
Ġcho Ã¡ng
kh u
b ach
Ġchá» ĳn
H á»Ĺ
oun t
li x
ĠTH á»
v ille
S ch
E N
Ġ hÃŃ
ĠH Ã³c
Ġph Ã¡c
ĠR áº«y
Ġc Æ°á»£c
ĠI U
á» ¨ng
Æ¯Æł NG
ĠG h
ĠT ÃŃch
ChÃ º
ÄĲá» «ng
Ġnhá» §
ock chain
L Ã¢m
em an
Ġkh iáº¿p
iat is
ĠLe icester
ĠMus ic
Ġ10 3
ing roup
s á»±
Ġf acebook
ĠM ong
Ġ196 3
r ig
Ġcá»« u
V Æ°Æ¡ng
Ġv iá»ģn
ĠT uchel
ĠTNG T
Ġm ic
u ire
V Ä©nh
ĠMed ia
Ġl ung
ĠR oy
ĠK en
C Ã¡i
X uÃ¢n
ÄĤ n
ĠV CK
um a
Ġx Äĥm
Ġs im
ĠFr ed
ĠcÃ ºc
Ġ Æ¯á»Ľc
ÃĮ NH
c Æ¡
ĠK n
ĠTá» µ
ĠT s
Ġm iá»ĩt
Ġ195 4
ĠJ ord
ĠBrun o
Ġd áº¥y
as ter
ĠJon es
ĠCh iÃªu
tr á»«
Ġph ao
ĠM áº§m
our n
Ġkh áº¯t
Ġd Ãª
ĠCh rys
S oi
c Ã²n
ell o
Ġ19 00
g io
ĠYo ut
ĠChat GPT
ä ¸
ĠL ove
Ġc Ã¡m
Ġb Ã£
ng u
ĠB TV
m Ã£
Ġtá» ¥y
Ġch áº£nh
ĠO li
ed an
Ġ Ã³c
ĠAn t
N ew
Ġph iáº¿n
âĢ¦ .
ĠCh uyá»ĩn
ĠB CH
ĠCrim ea
ĠV III
ĠO d
Ġgi ang
m o
Ġt áº¡t
ĠOs car
v est
ĠB inh
ĠP ower
Ã ¤
p há»
Ġ áºŃp
ĠR ock
ĠF estival
ĠK o
ĠR ad
P ad
ĠS M
ag es
M art
ĠAS IA
thá» Ŀi
k ÃŃp
ĠA R
ĠN ASA
Ġn á»Ļ
ĠR y
Pl ot
ĠT Ãł
Ġnh áºŃm
ĠN iÃª
L Ãło
ĠO b
ĠK ÃŃnh
Ġ19 30
Ġl ay
as p
ĠK it
Ġk Wh
Ġd Ã¬
Ġd ang
Ġ10 2
Ġj e
C om
Ġg Ãłng
Ġm Ã¡c
w an
g an
ĠthÃŃ nh
ĠR anh
gi áº£i
N Ã³
ĠM its
ĠÄĳÃ ºp
ĠVenez uela
Ġho Ã¡n
ĠV ina
ĠHymen optera
k hi
ĠB Ã¢y
Ġr ock
200 6
Ġ196 4
op e
ĠC M
av a
Ġl á»Ļng
c u
ĠN SNN
ĠHold ings
ĠT y
Ġsu Ã½t
ois ong
kho ed
Ġd iá»ĩu
ĠOn line
ĠchÃ© n
liz abeth
Ġsá» «ng
ĠIn tel
ĠCh ia
ĠU ng
tre et
h y
khoed oisong
Ġ196 6
c l
Ġqu áº·ng
ĠAn th
Ġt eh
Ġnh Ã£
ĠH el
ĠPhÃ ºt
C á»Ļng
ĠKrem lin
ĠÄ Ĥ
NH NN
ĠEver ton
ĠH O
ĠL NG
ĠL ife
C D
ĠT a
Ġr áº¡ch
ch a
c r
c an
ath on
j et
tr Ãªn
ĠBr ighton
Ġh Ã¡n
ĠLá» Ŀi
z o
Ġ194 1
Ġphá» ¥ng
ĠK ir
Ġ ?
Ġ áº¥u
Há» £p
ĠSport s
Ġ196 2
ĠB at
Ġnh Ã¡t
ĠV Æ°á»£ng
Ġng Ãłng
ĠS ab
Ġn áº£n
ĠJ ae
Ġteh sil
ĠR a
Ġná» ĥ
ĠJ im
PhÃ ºt
et er
ĠW at
Ġbá» ĵ
ap top
B á»©c
ĠTM ÄĲT
te ch
ĠPet er
v ia
m ad
C am
ĠK al
ĠH áº¡m
Ġnhu á»Ļm
Ġnh Ã³c
ĠCar ol
B iá»ĥu
Ġng áº¥t
ĠP i
d uc
Ġfan page
Ġh u
ÄĲ Ãºng
T á»±
ĠT Ã¬m
Ġr es
Ġm á»ĳt
Ġsá» į
c ert
Ġkh iáº¿m
ub ishi
ĠMob ile
Ġm od
ie u
Ġtá»ĳ p
ĠJ ac
Ġ11 6
ĠI d
Äĳ áº¡i
Ġb áº©m
U N
m at
us ta
ĠP ogba
ĠS á»
200 5
Ġx Ãłi
ur n
ĠK iatis
L a
Ġná» ©c
t ok
ĠCh ang
d in
amp ton
ot e
Ġv un
ĠbÃª nh
Ġg á»Ļi
ĠA th
ĠTo áº£n
Ġt e
Ġg l
Ġl iá»ħu
ĠS and
Ġth oa
Kh ai
ĠS ir
Ġra pper
ĠTr Ã£i
al an
Ġs áº¥u
Ġngá» ©a
Ġ202 7
Ġb ody
tr i
ĠV ingroup
ĠB on
ĠA j
ĠAr c
ĠVH TT
ĠJe an
c á»
Ġg áºŃp
ĠTu á»ĩ
en c
b aba
h ai
ĠD ig
ĠLion el
Ġb áº¡t
D r
Ġs ub
Ġb y
Tá» «ng
Ġ1 000
ĠBr it
ĠvÃł n
our g
ĠDub ai
âĢĿ âĢ¦
ĠO le
Ġ( "
suc khoedoisong
ĠCN CH
A nd
ĠB y
ĠE v
ĠphÃŃ m
od a
ĠL áº§u
ĠIn f
ĠL Ã£o
Ġlá» µ
ĠI X
Ġ11 7
r ia
ĠNV CC
b ek
B G
ĠD Æ°
ĠH OSE
Ġtr o
ow ell
Ġ is
C á»Ń
Ġ Ãł
Ġkh inh
CC I
B enz
ĠTh áº¡c
ĠBá» Ŀ
ĠMar c
ĠC D
ĠC anh
ĠR ashford
ĠC á»ĳc
ĠS P
ĠThá» ıa
Ġ24 0
ĠO l
Ġl áº©n
Ġt áº¥p
ep t
Y Ãªu
ĠAs ian
ĠL Ã¢u
áº ®
ĠF err
Ġ194 6
ĠD Ä©nh
Ġ Ã¡ch
ĠS om
Ġt Ãł
Ġbá» įt
ĠPhá» ĳi
r it
ton e
I m
ĠPh Ã¡i
Ġx áº¯n
ĠTh y
g u
ĠLá» ĩnh
ĠYo on
ĠASIA D
Th áºŃm
Ð¾ Ð
Ġng Ãłi
ed s
f lix
Ġnh á»ĵi
n Ã³ng
R A
s iÃªu
ĠB und
ķ i
ĠÄĤ n
in ess
Ġ #
S Æ¡n
ĠhÃ ©t
ĠInd ex
ua t
k inh
b es
Ã ĵ
ĠR ec
x e
ĠÄĲ Ã¡nh
z i
ĠR Ãªu
ĠT Æ°á»Ľng
ĠC á»Ń
Tr á»Ł
D á»¯
thá» ©
C LB
en ia
Ġstart up
ĠL av
X in
ĠHua wei
ine z
ĠE lizabeth
Ġg áº§y
Ġ12 3
Ġ11 2
H oÃłn
Ġm assage
Ġ17 5
F O
ĠS ri
h iá»ĩn
ĠKh Ã¡i
Ġth iá»ģn
E V
Ġb áº©y
Ġch en
Ġthá» ı
ĠArt eta
ĠSh ow
ic on
âĢ ¢
Ġl ink
ĠSh ark
ĠN av
Ġpl ay
Â °
Ġ hÃ´ng
ch iáº¿n
ĠD Ä©
olog y
L áº¥y
ĠSu z
ĠD C
g aria
Ġchá» įi
ĠLe g
Ħ N
Ġnh uyá»ħn
ĠU P
ĠTr iáº¿t
ĠT á»ĳt
Ġr Ã¡ch
ĠNob el
Ph an
ĠCh Äĥn
ev in
ĠN Ãł
Ġv Ã©t
ĠDj okovic
ER S
Ñ ģ
P ar
j o
ĠSc ott
d inh
Ġv Ã²i
Ġr áº«y
ĠNor th
Ġv Ã´i
ol or
U A
U NG
ĠÄĳ áº¥m
200 4
m ed
ĠF ir
ĠSer ies
ĠC ross
ĠIn s
± a
Ġgi Ã£
ĠF ar
Ġtá»ī a
Ġm ix
ĠKl opp
ĠF u
> >
in us
* *
TT P
ĠS ec
Ġ11 3
ur es
ĠgÃ³ t
ĠMag uire
N V
ĠAnton io
j e
D R
it ar
Ġb Ãº
C G
ĠCh ina
yp e
ĠT ang
enn is
ik a
C Ãł
Ġm ark
Ġ11 1
ĠG B
Ġn uá»ĳt
B Ã©
ĠMaz da
Ġl áº§y
Th áº¥y
ļ I
ĠT iáº¿t
Ġg Ã¢n
ĠN ord
Ñ Ĥ
ĠF el
u al
ĠVP Bank
ce an
ĠDon etsk
ĠJ am
E X
Ġm Ã´ng
our inho
ĠhÃŃ t
N Ã´ng
ĠGiá» ĳng
F T
M Æ°a
Ġ10 4
ine a
ĠH áº¡ng
ĠM áºŃu
ĠGH PG
ĠNg áº¡n
TP HCM
ĠAli baba
es se
Ġ á»ĳp
Ġbá» «ng
ct ion
ĠÄĳ Ã¡i
ĠDo w
at um
yd ney
Ġr ang
ĠTN CS
Ġm Æ°Æ¡ng
K L
c p
us hi
Ġ11 4
ĠÄĳ u
å ¤
ĠChi le
ĠNg Ã£
l as
ĠD y
19 45
ue z
phÃ ºt
ĠLat inh
ĠR ub
ĠU z
M Ãłn
Ġt Ã¡t
ĠX Ã©t
ĠvÃ² m
ĠAnton y
Ġn Ãªm
ĠmÃ£ nh
ĠHá» ©a
ĠPal ace
V in
ĠT Æ°á»Łng
Ã §
Ġqu á»·
H á»ĵng
L oáº¡i
Å «
ĠSim on
ĠD iá»ĩc
ĠAl bum
ĠF an
Ġnh Äĥn
ĠB oe
Ġs áº¯n
ĠF ox
Ġn áº¿n
lig a
ol o
chá» ĳng
Ġs um
ĠSh e
Ġthá» ĳn
ĠS ur
if er
ev er
ak ar
r ov
ĠNg Æ°
oot ball
Ġth ung
oph yll
Ġvi ew
om an
Ġ13 5
ĠSud an
oo th
Ġph áº«n
ÄĲ áº¡o
kh am
3 50
Ã į
Ġl Ã©n
ĠPh áº£
ĠP ot
if t
ĠB enz
ĠMo on
k V
ĠS áº§m
Ġr Ã£nh
ĠAra b
] ]
ĠG I
K hÃ³
ĠM Ãł
C al
ĠnÃ³ n
ĠHo use
Ġchá»ī n
Ġ10 6
v in
il is
ĠM uá»ĳn
v ard
Ġ %
ut nik
r ed
ĠS k
á»ĩ t
Ġ195 8
Ġx Ã¡o
ĠW atch
ĠD al
Ġl Ãºng
K D
ĠK at
ĠG rab
ul in
ĠGi Ãłng
ĠW ang
Ġr Ã¹a
ĠG ard
ÄĲ áº¯k
ÄĲ Ã´i
O L
á» Į
ĠX Ãºc
C áº·p
Ġg r
ĠR ay
um i
Ġnh á»įc
ĠBlu es
ĠTh iá»ģn
ĠÄĳá»ĳ m
há» įc
Ġd el
ĠThá» ©c
ĠSil va
T iÃªu
S A
ĠS ung
Ġch Æ°á»Ľng
ĠA le
ĠLan ka
ĠFernand es
ĠTh ao
ĠJord an
e f
ĠA TM
d á»±
Ġl Æ°á»£n
ĠDani el
Ġi OS
Ġ Æ¯u
ĠGiá» ¯a
tr Æ°á»Ľc
Ġgiá» ¥c
ĠN ay
Ch áº¥t
ĠQ H
ĠNiger ia
ĠKh iÃªm
ĠT CT
Ġm ac
Ġl Ãºn
ĠG V
ĠJe ff
end y
ĠKab ul
ĠN ova
ĠGaz a
UYá» ĦN
ad y
Ġ15 5
ĠAl b
g á»įi
ĠG olf
å ħ
ĠH á»ķ
t áº¡i
Ġ19 0
id th
s i
ĠM XH
ĠU p
? "
P ro
Ġm Æ°á»£t
ĠM eta
em en
ĠbÃ¨ n
ĠTD TT
Ġchá» Ľp
ĠL Ã£
ĠB á»į
ĠH ee
Giá» ĳng
ĠYout ube
ĠMart inez
ĠAd am
ation s
ĠPer u
t á»ķng
ĠB as
t ÃŃnh
ĠE lec
R a
Ġth áº±ng
Ġx Ã©
ĠPh a
Ġ it
âĢ¦ )
ĠBul garia
I s
Ġr Ã¡n
ĠGi Ã¢y
ĠB Ã´ng
ĠN ou
Äĳ á»ĵng
ab i
ĠL iá»ħu
ĠNet flix
ĠTh iáº¿n
Ġl Ã¹m
ĠS ydney
cua dor
r ing
Ġc l
ÄĲ á»ĭnh
ĠB oy
ac om
ĠthÃ ²i
ĠN ad
Ġ196 1
L X
ĠC á»ĳng
ĠSal ah
Ġl aptop
ov o
ĠN ar
ĠUn ivers
H iá»ĩu
il on
Ġac id
Ġs Æ°á»Łi
Ġgi Ã¡ng
ĠGi áº£m
Ġch Ã¡nh
ĠD iá»ĩn
F ran
Ġg áº¯m
ĠK SND
H N
ĠM ua
ĠS ub
ĠV n
im b
ĠÄĲ Ãºng
ist a
Ġch uá»ĵn
ĠRes ort
Ġr Æ¡m
es liga
S am
ud e
Ġ195 6
Ch elsea
Ġ áº¿ch
Ġtr Ãªu
ĠCh áº¥n
ĠSan ta
Ġs Æ°á»Ľng
re a
C hÃ¢n
Ġc ent
T Ã²a
ĠF il
ĠEd ward
ĠMod el
Ġl á»±u
ep al
ĠL ib
az er
Ã¨ m
tim es
bek istan
Ġtrá» ĵ
v ar
ĠK ur
ÃĢ NG
Ġrá» Ľt
ĠGHPG VN
Ġr áº£nh
ub l
Ġ Æ°Æ¡m
ĠH Æ°á»Ŀng
ĠchÃ³ t
Ġx áº£o
ĠK ang
ĠRang nick
al s
el d
ĠXiao mi
ĠÄĳ ao
Ġ2 30
I G
ng á»¥
Ġb e
W orld
am ine
ĠS áº¯c
Ġvá» Ĺ
ro und
if ic
os p
á» §
Ġ10 9
ĠH ome
ĠG ran
ĠRes earch
ĠO man
ĠO cean
L S
d ung
T á»Ľi
Kh Ã¡c
Ġb Äĥm
Ġk i
T áº¡o
ik ini
ĠK a
c á»±u
J I
w ang
ĠPhÃ³ ng
id ge
Ġx y
Tr iá»ĩu
h ow
ĠT own
ĠR et
ĠV á»¹
ĠW ill
b l
Ġqu á»³
ÄĲ a
ĠK yo
omel idae
ĠF ab
ĠSL NA
ĠAnth ony
Co M
Ġg Ã²
Ġr un
ĠM ill
ĠTH A
Ġt áº·c
ÄĲ Ãłi
ra ham
b Ãªn
ĠG Ã³i
Ġ10 7
ath er
Ġp ar
ĠÄĲá» Ŀi
B B
ĠW ol
ĠB á»ĵng
ĠChrys omelidae
ĠnÃ³ c
c ao
Ġnh á»ĭn
há» Ļ
ĠG Ã³c
... )
Ġlo Ã£ng
ĠU Ã´ng
ĠI C
Ġ áº¡t
Ch áº³ng
M ua
200 3
ĠFrancis co
Ng hi
H ay
ĠSan cho
M ai
Ġ195 5
M I
ĠX a
1 20
Ġsáº ¹
ĠTech combank
Ġn áº¡o
ri an
ÄĲ B
ĠSt an
ĠH all
ĠNgh e
es us
Ġm au
Ġr Æ°á»¡i
re al
ĠT O
Ġsáº¹ o
ĠR oll
g áº§n
T am
f orm
Ġm ÃŃ
ĠL iá»ĩu
Ġtá» ³
Nh áº¡c
it o
d an
ĠG or
ĠO x
Ġv Äĥng
it hi
R ob
d y
ĠShop ee
Qu áº£
C an
ĠN CT
M al
ĠS Æ¡
n ing
ĠBl ink
ar p
ĠVir gin
ai ne
t s
Ġs e
ĠHo áº·c
gi Ã¡
Ġd Ã¨
O r
ĠMas ter
ak ia
ang e
Ġtr Ã¹
j u
Ġt Äĥm
se ud
Ã© r
EL TS
ĠMac ron
Ġv Ã¹i
ĠT áº£
ĠSp ace
ĠchÃ ²m
Ġs edan
Ġth iá»ģu
men ia
ĠC oun
ors che
e ph
ĠVietin Bank
Ġl anh
Ġnhá» ¥c
C á»©
ĠM ourinho
Ãģ o
m á»Ĺi
Ġ195 9
99 9
ĠG ea
Ġx Ã¹m
Ġcá»¥ t
ĠD iv
ĠMits ubishi
Tr Æ°a
S er
ĠKh a
ĠWhi te
M essi
ĠA y
er c
ĠUB KT
ĠSt ore
v ed
ĠDie go
N áº±m
ĠM ak
Tr á»±c
ĠB XH
Ġt ivi
B I
ĠE cuador
al us
Ġrá» Ĺng
ĠP om
th e
v á»ģ
Ġng Ã²i
ĠQu á»³
Ġd iá»ħu
Ġb o
ĠSG K
b ox
g or
áº¦ N
ĠG AS
Ã² e
Ng Æ°á»£c
ty le
ĠMot or
ĠÄĲ áº§m
ĠSp utnik
og o
T IN
uk a
ĠG abri
" ...
Ġw idth
ĠUz bekistan
ĠH á»Ļ
ĠBill board
C áºŃp
Ġgi áº±ng
ng uyÃªn
Ġs al
Ġg ym
Äĳ áº·c
T R
Ġd iá»ģu
% ...
ĠC Ã¡nh
Ġn Ã¡o
b ra
Ġkáº½ m
Ä ģ
Ġc áº©u
gi ai
Ġ' '
ĠV ÄĲ
lad esh
ĠCA TP
Ġ et
Äĳ á»ĭa
ĠNap oli
ĠBund esliga
Ġi Pad
ĠJ oh
rid ge
Ġrá» Ĺi
ĠBenz ema
w ell
A ID
E VN
h n
ĠÄĲT QG
s á»ĳng
HÄĲ ND
ĠGuard ian
ĠN DT
ĠX u
T Ã¢m
as a
G o
ĠT iá»ĩp
Ġph áºŃt
Ġc or
ĠSuz uki
ĠP el
ĠCP I
ĠT Iáº¾
ĠA CB
áºł I
oc co
ĠL Ã£ng
ĠK ai
Ġh e
ĠNh Æ°á»¡ng
ĠX oÃłi
ĠMi ami
Å Ł
ÄĲá» £t
h ot
and e
H ot
ĠB uá»ķi
ĠGi l
ĠD ev
ÄĲ á»ķi
Ġv áº¯t
ĠW ood
is ia
ĠA D
ĠVN ÄĲ
á» Ŀ
ug uay
Ġho rm
ĠI ELTS
ĠVol od
U á»ĳng
Ġng á»Ńa
ĠN ight
ĠV AR
ĠM Ã¢y
s c
ĠV á»ĳn
ĠC Ã¹
Ġh ack
ĠC ty
ĠF e
Ġcá» Ľ
ĠS treet
Ġhorm one
Ġph iÃªu
ĠBlink en
play er
Im age
Ngh e
f on
Ġnh á»ĳt
K iÃªn
ĠHar ris
P S
ĠC TV
Ġ as
Ġcá»Ļ i
ff e
G AP
Ġ195 7
ĠTr ans
Ġ19 39
ĠRom ania
ĠB iáº¿t
Ġmáº¹ o
Ġw ith
Ph áº£n
ab le
ĠH PG
Ġb ikini
k hÃ³a
Ġ á»ĵ
ÄĲ H
O R
Ġthá» ĳi
ĠC av
ĠT á»ĳc
ir us
Ġmá» ³
K á»·
Ġ ur
ĠTr áº£i
tr Ãº
E r
ĠN X
ĠCen ter
ĠTay lor
ĠP ed
ĠCry stal
ĠUS B
Ġgi áº¥m
ĠG hi
or us
ĠNh iá»ĩm
Ġs Ãło
ĠG han
X á»Ń
ĠL Ã¡
Tr anh
å ®
iss an
Gi áº£m
Ġk iÃªu
Ġ194 7
M Ã³n
ad or
Ġ ...
Ġth áº¯m
Thá» «a
ĠSte ph
N inh
ĠD en
r ay
ĠhÃ³ c
ĠPN J
ĠP enn
C amp
ĠY u
Ġ19 20
ÄĲ K
il y
Ġ13 2
ĠÄĲ áº£m
Ġ Æ°ng
ĠTh oáº¡i
Äĳ áº§u
ĠB ir
al le
ĠW oo
ier re
ĠV CB
ĠL G
ĠCá»© u
ĠÄĲ ak
ĠC áº§m
Ġ5 50
if f
ul ata
ch n
ĠD V
ĠC el
Ġn it
p etro
ĠTh iá»ģu
Ġph Ãłn
S an
ĠMin zy
Ġdá» ©a
ĠB re
B YT
ĠViet Nam
s er
ix el
c z
Ġn Ãłnh
Ġl Ã¬
Ġt áº©u
Ġmark eting
ķ ng
w player
H áº¡
ĠH av
b áº¯t
ĠH á»Ľi
eg al
c al
PhÃ³ ng
r as
áº¾ T
Ġng áº¯t
C lip
Tr Æ°Æ¡ng
M TTQ
ĠAr menia
ĠFor bes
Ġs ex
Ġng áº¡t
ĠT ar
ĠB Ãłu
ĠR AM
Ġl Æ°á»Ŀi
Ã© m
ĠThÃ ´n
ĠL P
ut ter
ĠLuk aku
H uáº¥n
Ġbá» Ľi
ĠV á»
ĠArc ti
Ġ12 6
Ġph Ãł
ch u
ĠCos ta
ĠIm ages
Ġ6 50
ĠCen tral
K CN
f or
ĠArcti inae
Ġd es
ĠF ootball
ĠH igh
ĠS X
ĠM etro
ĠD ia
Ġ2 10
i que
ĠW ars
= "
Ä ĩ
200 2
S áº½
ĠL Ãªn
ĠK ishi
Nh u
ut t
IN K
Ġr Ã³t
K iáº¿n
µ i
M o
ĠDis ney
w ar
ĠViet jet
ĠBang ladesh
Ġn ung
id aceae
ri x
ĠEU RO
ĠW i
ĠR en
ur s
ĠÄĲ oan
Ġngh áº¹n
Nh iá»ĩm
S ing
ĠBr and
ĠK hÃ³a
ĠK Ãªnh
u th
Ch áº¿
and owski
Ġmá» §
ĠN á»ģn
ĠG ates
C ap
ĠÄĳ iá»ģm
H uy
m g
ĠTech n
Ġn a
ĠTá» «ng
ĠT Ãºc
Ġb Ãºp
ĠcÃ µi
Ãģ p
ĠK os
Ġca bin
ĠJose ph
! ".
l en
z one
ĠNg Ãłi
h ar
il ia
Ŀ n
Ġg ram
N Æ¡i
19 75
h ad
Äĳ oáº¡n
R C
ĠLe eds
ĠD Ã¹ng
Ġng áºŃm
au x
ĠIn vest
ĠVÄĲ QG
2 40
Ġk ali
ĠGR DP
ĠChá» ĵng
ĠS uk
or th
et ooth
Ġkh iáº¿t
T F
B Ã¡nh
Chu áº©n
Ġv Ã¡
r at
Ġh áº£
Ġ1 19
ÄĲ Æ°a
ĠP owell
Ġ7 50
ÄĲ áº¥t
V áº«n
ĠS Ã¢m
ĠL Ã¡ng
Ġbá» ĵng
ĠS tream
at in
if y
L Ãłng
Ġ ad
D S
M uá»ĳn
om y
ĠS ak
B áº¿n
ĠK hÃ³
h in
f an
ĠL ind
s in
ĠM ass
h u
Ġ op
ĠNg Ãł
ĠB il
ĠL ab
ĠK evin
Ġcá» ĵng
N C
ĠB om
m ut
ĠUr uguay
ĠS ul
Äĳ Ã¡nh
yl v
ĠT L
ĠB ai
á»į t
ĠF ul
ĠC ang
ĠB iá»ĥu
ĠChrist ian
Ġto an
ĠO h
ĠOs aka
Ġs áº¿p
CN CH
ĠCB CS
ĠPh áº¥n
B á»ĳn
Ġto a
? âĢĿ.
ig an
ĠJack son
up h
' '
ĠF ort
enn a
ĠM en
Ġgiá» ı
ĠM P
acom bank
ĠX á»ķ
ĠT un
T Æ°
¹ n
D Æ°Æ¡ng
ĠBoe ing
ĠX Ã¡c
ĠN epal
L ee
R I
Ġk áº¹p
Thá» ĥ
ĠvÃµ ng
B Ã³ng
Ġsá» įc
UB TVQH
ĠVolod ym
S m
ĠIs land
ĠMar y
ĠUl tra
Ġc oll
Ġ26 0
App le
ĠP in
r ight
Ġngá» ¥c
r et
l ott
M iÃªu
ĠH it
Ġphá» ĵn
r in
ĠB Ã¹
Chá» £
Ġhá»ĩ t
Ġb in
Ġhy brid
Ġh áº¥u
ol as
ĠTá» ģ
ĠPhá»ķ i
R oy
Ġqu áº¥t
ĠN áº¡n
ĠB á»ĳn
Ġy oga
ÄĲá» Ŀi
ĠG áº¡o
ĠCá» ı
Ġkho Ã¡i
Ġch iÃªng
Ġn áº¡t
Ġg ene
M ay
ĠT Æ°á»£ng
á» ¡
tr y
A d
Ġm iáº¿u
ĠV el
w ork
Ġ195 3
Ġr áº§m
ĠAndre w
ĠNG UYá»ĦN
Ġp op
ĠM iáº¿u
ĠC áº·p
ĠkhÃ³ m
l Ã´
ĠL og
n om
Ġgh e
u li
Ġ19 36
ĠNg hÃ
Ġthu á»Ł
ar on
c Ã´
ov ich
ĠH ealth
ĠB T
ĠAlex and
ĠAn n
rg b
Ġo ut
Ġ14 5
ĠL Å©ng
ĠM ao
Ġm ag
ĠD á»¯
ops is
Ġra p
k en
Ġb á»±c
Ġso lo
Tr á»įng
un t
em y
d anh
âĢ Ķ
Æ°á»Ŀ m
Ġ áº£m
if olia
Ġqu Ã¢y
ent al
Ġng Ã¢y
at han
Ġ11 8
m ail
Ġc at
Ġch áº£i
T áº¡m
Ġlo Ã©t
ĠÄĲá» īnh
Ġt ao
ĠHam as
ĠCh en
ĠT áº¡ng
ĠBH TN
Ġd áº¡t
In donesia
Ġs áº£nh
G ÄĲ
ĠN Ãłng
el in
O n
ĠFerr ari
id i
Ġg Äĥng
w ich
Ġm e
ĠR og
Ġje ans
Phá» ĳi
Ġc Ãły
ik i
ĠvÃŃ a
ĠVolodym yr
S ang
N Ãªn
ĠT áº§m
ĠN as
at ic
ĠCh áº¯c
ĠX H
le ft
ĠM Æ¡
ĠL ight
ĠCh áº¡p
ĠB ad
ĠTr áº£ng
gr ay
T iáº¿t
q uy
ĠSlov akia
ĠI D
Ġd Æ°ng
Ġf l
ĠN ev
t iá»ģn
C ung
ÃŃ u
L inh
Ġ uáº¥t
Ġlá» Ńng
Y Ãªn
ĠT ype
ĠF BNV
CM O
ib o
ai i
Ġtu a
T iÃªm
S T
Ġ3 20
.... ....
ĠB L
ĠS at
EU T
ĠL amb
L Æ°á»£ng
ĠP orsche
ĠquÃ½ t
Chá» ĵng
Ġ194 8
es c
ĠNg Ã´n
ir ect
ĠN TK
Ġm áº©n
ĠM ount
ĠB á»Ńu
H áº¡t
Ġ14 4
Ar senal
ĠGi Ã¡c
J ohn
Ġ @
ĠE un
ĠCol le
t ar
ich i
ot ti
Ġvá»¥ n
Ġc uá»ĳng
ĠT C
ĠThu áºŃt
EUT ERS
ĠPhilipp e
M ang
R eal
Ġ194 9
B T
ĠF ood
Ġngh áº¹t
202 7
19 99
Ŀ m
ĠM áºŃt
F I
ĠKh Ã¡ng
ĠV á»įng
ĠB BC
ĠT á»įa
ub er
Ġto Ã¡t
ĠTim or
ĠnhÃł n
oid es
f l
ĠB Ã¡nh
ex us
ĠSon y
ĠDN A
ĠW h
Ġngá» ¥y
ĠH K
Ġan ime
ae a
ĠAmer ica
M Ãłu
th ur
Ġkhu áº¥y
j in
ĠV ai
ĠTr ao
Ġrá» ¥i
ĠH ab
ĠM T
od o
Ģ N
ĠD A
ĠTCT D
Qu á»¹
k el
c uá»Ļc
Ġr Ã¢u
ĠÄĳÃ ²
ĠGD ÄĲT
v is
L Æ°Æ¡ng
ĠThá» ¥
S H
ĠL Ã¡i
O O
Ġch at
Ġphá» ĵng
ĠNg uy
Ġ id
ing er
b ass
S P
oph ouse
ir avir
X u
D Ã¹ng
C ovid
Ġin cr
Ġ {
Khá» ĳi
re en
ĠR af
erb ai
ro om
Ġgu itar
ĠCh ris
ĠW ag
ĠTh áºŃp
ĠMas an
ĠTel eg
Äĳ á»ĥ
fr ac
ĠK id
b áº£n
ĠL ive
Ġ[ [
ÄĲ á»ĵ
Ġ19 38
ĠthÃª u
H ar
L Å©y
Äĳ Æ¡n
Ġm g
á» ©ng
Ġho m
P M
Kh oa
ĠDel hi
Sc ale
ĠM all
LV T
CT CP
ĠP ay
ÄĲT B
ĠW TI
Ð º
ĠR au
ĠMai l
ĠU V
ĠVar ane
erbai jan
en i
b us
ĠE sp
S te
ng há»
is ter
Ġn CoV
ĠDO JI
Kh áº£
Ġ195 2
ĠCr u
ĠP op
ĠD ol
al li
Chá» ĳt
W eb
t is
ĠT Ã³c
ht m
ĠÄĲ á»ķng
V á»ĳn
Ġd er
Ġ å
Ġhá» §
ĠL áº¥y
ĠVietNam Net
ĠW olf
ĠTr Ã¹ng
Ġn á»į
ĠSev illa
ĠGabri el
Ġr áºŃp
F i
ĠCh iá»ģng
ĠC Ãº
ĠAr n
Ġ au
Ġincr ement
ĠK á»ĭch
ĠA ug
ĠH or
ĠM Ãłn
Scale M
ĠGi rl
ĠphÃ ´i
L and
ĠV TC
ĠN an
ĠB ud
Ġqu áº¥n
ĠChampions hip
B u
k ip
ĠM att
ĠAj ax
Ġnh Ã¡i
ed o
ĠD am
Ġ áº
ĠD mit
ro c
ĠTh uá»ĳc
cá» §a
Ġng áº£
ã Ģ
Ġf t
Kh Ã¡m
Col ors
Ġp ol
ĠTim e
ĠS ach
ĠG am
t ai
z ig
ĠF utsal
B NN
! "
v ÃŃ
ap an
Ġs tream
ĠMor occo
V Ã´
ĠCh uyáº¿n
ĠS áº½
ĠCO P
Ġ195 1
Ġres ort
Ġp er
H T
Ġn ilon
ut ure
t á»ķ
ĠGu inea
âĢĿ ...
ĠCh oi
ev a
Ġ28 0
un k
Plot Data
ĠY ong
ĠÃģ p
ĠC X
Ph Æ°á»Ŀng
M ic
tr ic
ĠR Äĥng
chá» ¯
ĠP es
ĠBrun ei
om o
ĠD Ã£
V Æ°á»£t
ĠLu is
ĠQ uáº¥t
em on
ĠP en
ar real
mar k
ater idae
v iew
ĠS C
Ġh anh
ĠC it
ĠC Ãłng
ĠSh er
b it
ik o
ĠXV II
D e
ĠÃ įt
ul us
ce pt
ourn al
ad i
ĠChi c
Ġlá» Ŀ
ĠY ok
ĠO DA
C áºŃu
az a
Ġtr Ãºt
ĠTr avel
Äĳ Ã³ng
ĠE CMO
ĠZ apor
Ġw on
V Ãµ
ĠBlu etooth
ĠO tt
ĠH CB
ĠDr agon
Ġlá» «ng
l og
Ġin s
in idae
V Æ°á»Ŀn
ĠX K
Ġm áºŃn
ĠV AT
ÄĲ ang
Ġ12 2
thá» ±c
el f
2 30
ĠH CÄĲ
ĠBr ad
ĠMá» ļI
Ġg rid
ĠJ os
B Ã£o
d io
Ġr Ã¡t
ĠM A
ĠSouth ampton
Ġnh ai
ĠGen er
t áº¡m
Ġchá» £t
PT PP
ĠIn c
ol la
ĠM Ãłu
Ġtr á»ķ
Qu áº£n
Ġ19 37
ĠB est
e et
ĠB iáº¿n
k á»ĥ
Ĺ ı
ĠCh Ãłm
ĠBrent ford
ĠS oh
ĠP ap
Ġ æ
ĠD ream
ĠLew andowski
Ġs áº£o
ram a
ear l
ĠBur n
em iro
ĠKh erson
D á»±a
ell y
ag h
Ġ3 30
s y
al in
ĠÄĳ áº«m
ĠNX B
Ġb Ãºa
ĠW ay
ĠCop y
ĠD áº¡
ĠF TA
Ġ12 1
est ay
U n
ĠN á»ķi
ĠC y
Ġc Æ°a
C á»Ńa
M Ã´i
ĠÄĳ áºŃy
Ġ27 0
S Ã´ng
ĠK áº»
b u
ÄĲá» Ĺ
Ng Ã´
ear s
bar ra
ĠUP CoM
ĠEx press
Ġstr ess
ra ch
ĠRe g
16 0
Ġvá»ı n
Æ¯á» ľ
Ġ ;
Tr Ãł
Lo áº¡t
Ġgrid color
ĠL en
ĠOlymp ia
ph Ã¡t
ĠB á»ķ
Ġl áº±n
R NA
ek ong
Ġ13 8
AS S
ĠO ut
ĠC z
re e
V ua
Äĳ áº¿n
h Ãłng
Ġch áº±ng
= =
el m
CS XH
e ed
ĠX á»©
ĠMi G
N á»ģn
Ġsh op
c es
n ess
ĠTr Ã¡ch
g rey
as ia
Ġnhá»Ŀ n
Ġbá»ī m
ĠMar i
á» Ĩ
ed it
ĠK iá»ĥu
Tr Ã¬nh
Ġkho Ã¡t
ĠF ED
G C
c ap
Ġl Ã³c
Ġs pa
tr ung
Ġv Ã£n
ĠNov aland
Ġch áº¡p
ĠM áº¯t
Ġv isa
ng h
AT GT
at ri
ir i
Ġtr Ã¨o
ĠC amb
âĢ¦ âĢĿ.
ĠK er
el ia
ĠM Ã©
ĠJ ol
us a
ĠFri ed
ĠR io
ĠBá» ©c
ĠWilliam s
Å ¡
ĠH il
m áº¥t
Æ°Æ¡ u
ĠH ill
Ġmic ro
ĠTr ich
th anh
Ġb áº»
ĠBe au
ĠL Å©y
ĠÂ °
ĠAut o
ĠCom m
ĠKishi da
h oa
light grey
Ġ or
dar kg
darkg rey
1 30
ĠSw ift
akar ta
á» Ķ
n up
ĠGard en
Ġchá» ĩ
tá» ·
ĠAn na
Ġ12 7
K ar
and ro
ĠD ec
st ar
Ġcoll agen
ĠNg Æ°u
M á»ĳi
fon do
ĠÄĳ áº£
ĠS ad
Ġs áº£
B O
Ġthá» ģ
th Æ°á»Ŀng
s fondo
ĠHaw aii
E WS
od on
ud a
Ġr áº±m
om en
Ġ om
ĠÄĲ áº¡
M ac
ĠP ac
Å Ħ
Ġt Ã²i
---- ----
Ã¬ n
LA CK
ĠX Äĥng
ap hi
V I
Ġx ua
ĠVP F
Ġ19 35
ĠcÃº i
Kho áº£nh
l ong
ĠÄĲá» £t
ĠKh áº£o
C á»ĳ
ĠM G
D áº¥u
ĠD áº«u
ĠB ia
ĠAz erbaijan
ĠcÃ ¹
ashi on
ĠN A
Ġhá» ĳt
ĠS z
r ol
Ġdu á»ĩ
Ġ( ;
ĠEl ateridae
ore a
' ),
ar u
ĠGold en
b á»
ien ce
V inh
am ond
ĠTrá» £
ĠchÃ ¨n
man uel
tr ang
Ġ14 1
Ġ13 4
il i
Ã įt
ĠH end
ÄĲ Ã³n
b our
B ook
T hÃ¢n
ĠV IC
Ġma z
ĠB CÄĲ
Äĳ áº¥t
ĠEd ition
Ġn iá»ĩu
ĠB et
ro d
ChÃ ºc
H D
ĠPh Ãłm
Ġxu á»ĵng
O M
L iverpool
L ink
ĠO ff
ĠA G
ĠBus iness
X áº¿p
Ġbá»ĭ t
nup iravir
199 8
ĠYam aha
ĠChic ago
ĠCá» «
Ġbl ockchain
x anh
ĠLa w
Ġcon cert
ĠVal ent
ĠAr m
ĠM Ã³n
7 50
ĠKar l
ĠVHTT DL
ĠV ÃĢ
Ġv áº§y
BH XH
ĠS oo
th áº§n
ĠE st
ÃĢ N
´ m
T oyota
X D
Thá» §y
t hÃ´ng
il idae
Ġc Ãło
rai n
Ãº m
ÄĲ áº£m
ĠChá» ĳng
k ins
Ġá» ıi
ong o
4 50
N SND
ÄĲ Ã³ng
ĠR em
th ay
ĠB akh
n Æ¡i
ol imex
ĠM Ã¨o
Ġv e
in son
l us
ĠSh aw
ĠRoy al
erb y
ĠSch ool
I L
Ġthá» ĳt
V Ãłng
Ġtr end
ch en
j wplayer
ent o
Ġbl og
AD S
ĠG ang
Ġgi un
Ġ up
ĠcÃ ²
ĺ I
âĢ¦ ;
ĠS Æ°Æ¡ng
N iá»ģm
E n
Ġlá»ģ u
ĠD ep
y le
P INK
ĠB rown
ĠchÃ³ i
C áºŃn
Ġn áºŃp
Ġng Ã¡n
Ġ12 4
ĠK itco
ĠM ach
ĠPhá» Ľc
Ġn áº¿m
ĠbÆ°á»Ľ u
ia go
Ġm Ã©p
ĠS acombank
es a
ÄĲá» ©ng
Qu á»·
ĠJ ournal
amil k
ĠG ood
Ã Ļ
ĠL uyá»ĩn
Ġb ung
t inh
C áº¥p
LACK PINK
Ġv áº±n
V ai
ĠM ega
ĠSch ol
ng er
i ed
ved ev
ĠL it
Ð »
ĠAs h
ĠB á»Ļt
Ġtr áº·c
Ġp hÃ´ng
ĠBu ff
Ġng Ã¡ch
M y
ĠE ar
ĠJenn ie
á»Į C
L an
ĠVirgin ia
yst em
Ġ12 9
A NG
as c
ĠSer ge
Ġv áº£y
uc ker
b b
Ġkhá» ĳn
viet nam
ok a
ĠBr idge
Ġ19 34
Ġbá» «a
el i
A ustr
Ġh ero
Ġl aser
S á»ĳng
aul t
ĠVI B
c os
ĠN Ã´
Ġx á»ĳp
Ġl áº§u
ĠX N
ĠRod rig
ut a
ne ct
ĠSt and
ĠTh Ã¡o
ĠVill arreal
ÄĲ Ã´
Ġp en
ĠThÃ ©p
Ġ ob
petro times
ĠTr anh
Ġ16 5
ĠWag ner
ĠKy iv
e nh
ĠR al
m á»¥c
ĠLá» Ĺ
Ġsc andal
as u
ĠT od
Ġs Ã³i
Ġd áº§m
ĠPhi lip
S al
Sing apore
Ġchá» ķi
ĠNg á»±
ĠC ard
ĠTh ung
d ay
z en
Ġng Ã³ng
s tr
am an
ĠGhan a
T ay
or o
Ġ19 29
iz h
B o
ĠV áº«n
Nh áº¯c
ĠCar ib
Ġch Ãł
T D
ĠT i
ĠE ner
NS Æ¯T
Ġc au
amb idae
ĠV ik
ĠW an
ĠC re
ĠS á»ĳng
Ġ Î
H onda
ĠQL DA
ĠÄĲ oáº¡n
ĠViet GAP
t áºŃp
Ġo ff
Ġr ub
org h
ĠCan nes
ĠHar vard
X P
ĠM Ã¡c
Lá» Ľp
Ġit em
} {
Ġk iáº¿p
ĠKh e
chá» ĭ
Ġf lav
ÃĤ Y
ĠXI X
Ġngá» «
v ert
ip zig
Ġm iÃªn
ĠMar vel
199 7
1 10
B Ã¡n
f urt
ÄĲ Ã¡p
ĠH ow
ĠGi áº£ng
thÃ ´n
ĠK Q
ĠK ate
ĠCh Æ¡n
ĠT itan
ori ent
b ang
ĠH U
ĠxÃŃ u
ĠGr am
Ä Ł
ĠPol king
ĠGT GT
ĠM Äĥng
ĠNh iÃªn
ĠL Ã£i
ĠL iz
Ġchá»ĩ ch
Ġn áº§n
am ex
Ġcom bo
ĠDig ital
Ġs il
V Ãłi
ĠE nd
ĠP PP
Ĭ CH
ĠFan page
ĠBakh mut
ĠUS S
ĠJo ong
Ġc al
q ui
ĠSte ve
" :
ĠM Æ°a
Ġs tyle
Ġm áº«n
Ġvá» Ŀ
Ġ15 6
ĠKhÃ ºc
ĠS or
Ġ13 6
id ia
ing ton
ot s
D iá»ĩn
c Æ¡n
ĠL is
b á»Ļ
ĠRang er
u le
ĠCr ambidae
gr ande
ĠHar i
Ġt áº©m
x em
Thá»ĭ t
ĠH P
Ġ13 3
ĠH uyÃªn
VC LÄĲ
ĠT W
ĠKh Ã¡c
ĠL ar
p rom
ĠIn n
ĠV KS
Ġb ai
ĠN ational
ĠM Ã¼
ĠHD Bank
Ġm etro
oc a
Ġph o
Ġr Ã´
g us
ĠG on
k an
Ġmaz ut
os i
Ġ15 2
Qu á»³nh
ĠLib ya
Ġp iano
ug a
I ÃĬN
ä º
Qu Ã¡n
ophyll um
ÄĲ iá»ĥn
ĠG all
Th Æ°
Ġid ol
Ġgiá» Ĺ
« m
Ġg o
ĠS CB
ut e
ĠN ass
ÄĤ N
S M
m áº¹
ĠM organ
ĠQ ÄĲ
Ġ202 8
n u
ĠthÃ ¢u
" -
ke i
Ġtá»¥ i
ylv ania
ÄĲ á»Ļc
b áº¥t
o on
D uy
op er
ĠK om
f it
et tin
ĠR ud
ĠÄĲH QG
b ot
Ġqu e
b Ãł
ph ong
m á»Ł
â Ĺı
ĠH im
em e
Ġv Ã¡ng
Ġg ang
ell er
ĠH Ã£n
ĠDon bass
ĠT ach
Ġso Ã¡i
as i
ĠA U
ĠZh ang
en ter
ĠK ey
Ġngh iá»ģn
Ġx ÃŃt
ĠV Ãłi
k á»³
ĠÄĲ Æ°a
nh Ã¢n
ĠV ui
w agen
Ġm in
Ġch áºŃp
y u
ĠUB MTTQ
t ext
ĠP ic
G u
BC K
ra h
Ġ13 7
Ġc áº¡o
yl on
ĠN un
Ġ( ,
R Ãµ
ĠLe ipzig
Ġnh áº±n
um e
Ġxá»ī u
A h
w s
ĠCÄĲ S
c op
ÄĲá» ģn
ĠIM F
L H
w alk
ĠEr ic
ĠE S
Ġ13 1
ĠÄĲV TN
H z
Ġ14 6
ye ong
sk a
ĠKh áº©u
Ġtr Ä©
ĠMark eting
GD ÄĲT
ĠMed vedev
Ġs Ã²ng
c y
T inh
ĠM á»Ļ
p es
Ġch áº§n
r áº¥t
en cia
Th uá»ĳc
NT ech
orgh ini
ĠLá» Ľp
Ġm Ãºi
Ġphá»ĳ t
ĠR Ãµ
ç İ
M iss
ĠPan ama
ĠDmit ry
! âĢĿ.
B Ã¢y
ĠCN BC
ĠM ekong
? ",
Ġhero in
ĠA ustin
Ġxo Äĥn
ĠMan ag
enz ym
Ġl áº©u
ĠchÃŃ ch
Ġth áº£n
ai re
Ġ áº©u
Ġm on
c Ã¡i
io NTech
P H
oni idae
ĠCarol ina
Ġr ay
ĠSer v
ĠR yan
Ġch uá»Ļc
Ġ19 31
Äĳá» £t
Ġx Ã³i
ĠB ook
Ġ19 18
K hÃ
ĠL or
K G
ĠX L
ĠC CH
P er
th a
ob ile
p ink
ĠC áº¥m
M áº¥t
il li
O A
Ġn u
ĠH A
ĠH áº¡n
ĠNh áº±m
g ate
Ġr Ã¬a
ĠL LVT
ĠA TTP
ter a
y ong
ĠAl pha
og l
Ġá» Ĳ
l anh
Ġv o
Äĳ iá»ģu
B ao
st ock
ĠM á»ĭch
Ġph en
S port
ĠR ice
Ng uy
. -
orn ing
p an
ĠBec kham
ĠÄĲ á»ĭch
ĠK enn
Ġv uá»ĳt
Ġhá» ĳc
ĠBr uy
Ġs Ãºp
Ġmá» ©t
Ġ Ãºp
d ie
R au
° C
T Æ¯
ĠThá»ĭ t
ĠTr Ãłm
ĠMart ial
ĠJol ie
ĠVI á»Ĩ
ĠC V
S Ã¡ch
G r
ĠM á»ĳi
Ġch áº¯t
ĠC C
ĠB h
ĠE TF
ĠMas on
av id
Lá» «a
B ay
áº¥ ng
ĠC ov
Ġng ai
ks wagen
Ġ un
Ġ19 32
Ġro om
v as
as aki
ot us
ĠC á»±
c Ã¡ch
ec tor
Ġnhu áº§n
Ġ19 12
ĠÃĶ n
Q uyá»ģn
ĠSl am
ĠPh nom
ĠV CCI
el an
ĠTr Ã²
ĠÄĳ iáº¿u
Tr áº¡m
ol is
ĠJ akarta
w are
á» ħ
ÄĲ áº·t
ĠchÃŃ p
w i
om on
Ġsáº «m
ĠÄĳ áº½
ĠX avi
uk e
ĠBal tic
ĠH inh
em i
ĠnhÃł m
ph áº§n
B iáº¿t
gia dinh
P ink
Ġ19 33
Ġd áº³ng
M ong
t Ã¬nh
ĠÄĲ Ã¡p
Ä į
D áº§u
ĠR ica
Ġ $
ber ia
P R
ĠSt am
ĠSn ap
ĠLi u
ĠP re
Ġr áºŃm
ĠKh an
ul f
C Ãº
ĠTrich optera
N á»Ĺ
l ai
d Ã¢n
Ġ22 5
ĠMar oc
Ġc olor
y t
ĠMar ie
Ġcá»§ i
ĠKhá» ķng
Ho SE
1 000
á»Ĳ C
ĠQu een
ĠCas emiro
ĠTr uy
ĠW u
s ylvania
ĠN ak
Phá» ĳ
Ġca fe
ĠS uá»ĳt
S ai
Ġnh ang
Ġnhá» ī
ĠB ob
ĠPe nh
| }
ig o
ĠD omin
ĠÄĲ Æ°Æ¡ng
ĠLim oniidae
ĠAP EC
ĠXV I
Ġthu n
j k
Ġng áº¥m
J e
Roy ce
Ã¼ r
Ġk Ã¬nh
iá»ĥ ng
ettin o
ag an
c áº§u
ĠN AM
ĠS ea
th áº¿
ĠÄĲH ÄĲ
ĠS S
ĠY oshi
th am
ĠEver grande
Ġt Ã¬
en do
Tr iá»ģu
bour ne
L G
Ġâ Ĩ
ĠK pop
T ang
l Ãªn
ĠH ak
ĠE C
ir ates
ĠTP DN
x x
Ġk n
ĠM ul
is ual
end er
ĠCh áº£i
ac kg
ig a
b ack
ĠLá» ©c
A b
op ia
ĠT ed
ĠBruy ne
Ġ19 14
19 95
t ÃŃn
Ġkh ay
ĠC our
Ex press
um bia
ĠEr d
st ant
ord s
ĠTe am
ou gh
ĠM ike
Ġ19 10
S uá»ĳt
och ettino
ĠF i
ĠR EUTERS
6 50
ĠI mp
Ġ á»ķi
s burg
Ġ Ã²a
M Ã£
ĠD á»±a
ĠD áº£i
A ng
Ġ enzym
ĠHo Ãłnh
Ĵ NG
anth us
ĠE co
app y
IC E
L Ã£i
ĠUnivers ity
ĠNghá» ģ
b áº±ng
up ol
y g
ton ia
Ġg á»ĵng
re z
ok o
Iá» Ĥ
å Ń
Ġ13 9
ĠG e
Ġn oi
ov iet
ĠL as
th an
ĠM INH
h en
Ġh iÃªn
th y
ĠJ r
ĠghÃ ª
ĠPenn sylvania
lá» Ľp
Ġd áº¥n
199 2
ĠJ ava
m ond
az z
Ġv áº·n
id ent
Ġb Ã¡i
C EO
Ġkhá» ıa
ĠAmer ican
A Bank
Nh áº¥n
ĠL ing
ĠKit Ã´
ch ia
ĠJ esus
ĠN ext
p ert
ĠS K
ĠC ur
Ġtu i
_ {
ĠE con
ĠIU U
ch áº¡y
ĠM oney
ĠVi os
Ġl iÃªm
Ġ14 8
n ia
ĠÄĳ Ãłng
oc kh
Giá» ¯
D Ãłn
S Æ°
Ġsh ophouse
c am
il us
Ġnháº¹ n
ĠLav rov
th oi
and ra
ĠTH X
b ay
ĠVin amilk
ĠB O
ĠK CB
Ġ19 13
ĠOx ford
ĠPot ter
ĠÃ Ĺ
ĠÄĳá» į
C I
ĠÄĲ Ã¨o
: "
Ġte am
199 6
ĠTH ADS
im bank
Ġxo ang
N áº¡n
oy a
Ġb us
ĠSoh u
ĠD J
Ġq uyá»ĩn
ph un
x ico
Ġg Äĥm
ĠLu áºŃn
ĠDu áº©n
Ġh at
g Ã¢y
Thá» ¥y
Ġt áº»
ĠN ick
ĠB ez
L ar
ĠRam os
ĠA udi
ĠI van
Ġ19 22
Ġtá» §y
ĠÄĲ ang
ĠS Ãłn
Å ¨
Ġv Æ¡i
ag i
Ġ15 3
ĠH at
ĠRoll s
ĠV OV
Ġmang a
Ġn em
I t
Ġlog ic
5 50
C áº£i
ĠNH CSXH
u ong
Ġ19 08
ĠTh Ã¡c
ĠN issan
ĠMeg han
ĠViet lott
202 20
Ġph Æ°á»£ng
ĠTh er
Hu á»³nh
gi ao
ĠBro ok
Ġth áº·ng
ĠS ah
ĠK aw
Ġ16 3
Äĳá» ©ng
Ġx á»ĭn
% -
19 90
E E
ang a
Ġ19 27
Ġhom estay
Ġ19 17
ĠÃĲ áº£ng
b áº£o
Ġch Æ°á»Ľc
Ġ25 6
Ġnh á»ķ
ĠM á»ı
D G
al es
t an
ĠI T
ra vel
ĠVH M
ĠThÆ¡ m
im er
ĠS Ãª
if lor
uc ci
ĠC ook
ĠP ul
Qu áº§n
ĠWe ibo
P od
R T
n ar
ĠV o
Ġ19 25
ĠAl bert
ik h
ĠMik el
ĠPes kov
ĠSer gio
t z
ĠGeor g
ĠC le
ĠM áº¥y
og en
Ġng ao
ĠG Ãł
ĠKh Ã¡n
Ġnh ung
ithi um
ĠÄĲ Ã¡n
Ġ19 24
H A
ĠH iÃªn
Chá» įn
Ġx ui
as y
ĠÃģ ng
Ġsex y
H Ã³a
Ġ18 5
Äĳ ang
ĠChá» ©c
v Ãłng
Ġh en
Ġthá» ĩ
ĠMol nupiravir
Ġcat walk
ad ing
ĠL exus
ĠAn ne
ĠKiatis ak
ĠLÄĲ BÄĲ
tr ick
ĠLaz ada
ĠF uk
pp o
ĠChÃŃ n
áº¢ I
c Ã¢y
Ġs áº§m
ĠCCH C
ĠS Ã¹ng
ĠH on
t ion
ĠThu áº§n
ĠV oi
Tr Ã²
ĠY emen
Ġx Æ°á»Ľc
or ation
iv a
ĠMar cus
M O
ĠhÃ² m
ĠCh iÃªm
ĠSen egal
ĠEm manuel
L Ã¡
M on
c er
en er
ĠJu li
ĠFrank furt
ĠDi amond
Ġ19 11
E G
ĠC ent
an us
Ġ19 19
is m
k áº¿t
h Ãłnh
T ai
ĠD K
ch an
ĠS á»Ĳ
N ATO
ĠN u
j ect
ĠS Ã³ng
ĠK TT
ĠC áº¥n
all ad
ĠNo el
ĠStam ford
âĢ¦ ).
ĠTach inidae
ĠP S
ĠWol ves
ae us
ĠH um
ĠCor olla
f ica
m id
ger ia
Ġho ay
ou cher
v Ã´
ĠKy lian
Ġn ig
ĠY oo
¬ a
oph er
ĠCarl os
ok u
ĠW ell
en berg
ĠJ ul
ĠFed er
Ġc Æ°á»¡i
ĠHan oi
d es
Ġngá» Ŀi
in am
M a
N á»Ńa
om et
ĠEV FTA
CM P
ĠÄĲ Ã©c
ed y
Ġthá» Ľt
aver se
Ġ14 3
ĠC PTPP
ĠâĨ Ĵ
ĠJ ustin
ert o
el y
Ġb iáº¿u
ĠBe ach
ackg round
B e
nh Ã³m
Nh an
A t
ol k
ĠM r
ngu oi
ĠL Æ°á»Ľi
ĠBec amex
ĠDiv ision
ĠW es
ans as
E p
Ġg áºŃt
ĠT Ãły
ĠK op
giá» ¯a
k ey
Ġ19 28
li ch
ĠTr Ã¡c
Ġng Ã³i
i Phone
em o
ot hi
ĠHai ti
ÃĤ m
ir l
ĠnhÃł o
ĠW eek
ÄĲ áº£o
Ġc ode
ob e
ĠCz ech
qu an
Ġch Ãłi
Ġt áº¯n
ĠThá» Ł
Re uters
Ġtr Ã³i
Ġn atri
Ġb áº§y
ĠB ent
c Ã¡
ĠM á»Ļng
ĠLeg end
Bl ack
ĠÃ Ĭ
ĠtÆ° ng
ĠMoham ed
ĠMo z
S ol
ess a
ĠPau lo
áº¬ T
Ġ ),
or ia
l b
ĠZapor izh
ĠG unn
et ta
ĠT eh
v al
199 4
r aph
ĠL ÄĲTB
ĠR oad
ĠNhá» Ľ
ero on
ĠGi áº£
ĠRom e
ic ius
ÄĲ Ã¬nh
ĠTik tok
el t
L Ãªn
att le
Ġ Ã¡t
ew s
ĠH H
Ġtr Æ°á»Ľng
Web site
ĠÄĲ áº·t
Ġ ion
ĠE TC
ĠKh uáº¥t
ĠÃ ī
Ġ14 2
ĠEm irates
ĠS TB
ĠRe p
ĠCol umbia
te ur
Tr á»¥
V FF
S a
3 60
Ġb re
ĠGeor gia
Ġmá» įng
im i
ĠE mp
8 50
ĠM orning
ĠSerge i
ĠÄĳÃ£ ng
ĠE ug
ro gen
ĠNh an
ph an
ĠC ongo
Ġh Å©
ĠT ASS
ĠErd ogan
ĠAr ch
ak o
Ġm RNA
12 5
ĠTá» ©c
or p
há» ģ
orm at
ĠT iÃªm
ter res
Ġm Ã¨
ĠM Ã£n
B GDÄĲT
ĠC á»ĵn
Ã³ w
ĠR ol
ĠBr uss
ĠAngel a
Ġb r
ĠKho Ã¡ng
ĠCon te
ĠR on
ĠT Æ¡
ĠMÃ© xico
it i
Ġr Æ°ng
ĠBa h
ĠA IC
à ¹
Ġg Ã¡y
oy d
B er
Phi lipp
ĠJenn ifer
ĠJ ang
s m
is c
cel otti
ĠPC TT
itt le
ĠCh alle
oc o
e us
ĠLe v
Ġd r
ĠR aj
au r
tor y
ĠM anh
ĠNh áºŃp
199 3
( "
ĠCon s
m el
ĠRet ail
Ġl ive
ĠCr edit
ĠGu terres
Austr alia
th áº»
v Ã¬
and r
Th áº£o
ĠPT NT
G roup
K á»¹
S áº¯p
ĠD ae
ĠLamb orghini
Ġ19 16
ĠCl oud
Ġkáº» o
ĠC ell
ĠH Æ°á»Łng
CT C
ĠP ochettino
ÄĲ Ãło
b ul
oviet nam
in ch
ĠMW G
ach us
Ġ189 1
ĠP od
ThÃ ¹y
Ġc ard
ĠTr á»ĵng
ĠX p
Ġh oÃł
ĠQ uyáº¿n
BCK NN
t iá»ĥu
ig u
18 0
ĠGaz prom
Ġz alo
Äĳ á»ģ
Ġtá»ĩ p
!! !
ĠChá» įn
G áº·p
ĠT ower
ĠFried rich
T ech
ĠT em
ĠSp ec
at ra
ĠG un
ĠV itamin
in ia
ĠGreen wood
im es
ĠBÃŃ nh
Ġd ong
Ġt anh
Ġ14 7
SD ÄĲ
Thu áºŃn
ĠS á»ķ
b iáº¿n
ĠJu an
ex ay
ad on
Kh Ã¡n
Ġ16 7
Ġs Ã¡o
n Æ°á»Ľc
f rom
s áº½
l ah
ĠG od
ĠKen ya
l on
Ġ17 4
D on
v Æ°á»£t
ut ion
nh a
ĠIns ider
M áº¥y
ĠW ater
ĠT áºłI
ĠBor is
ĠÄĲHÄĲ CÄĲ
ĠC K
ĠJac ob
Ġ19 26
R S
c áº¥p
Ġqu i
Æ¯á»ľ NG
w ig
Ġ áº¿
ra w
ut o
0 50
b ook
ar io
Th áº§n
± t
Ġt Ã©
VA X
Ġph ai
SI P
ĠCN VCLÄĲ
ĠG om
da q
Ġ19 06
T ime
ĠWal ker
Ġ Æ¡
ur u
ĠD á»ĩt
ĠPetr olimex
c hÃŃnh
L áº¡m
urg en
ĠS ter
at on
ĠH ero
ia h
Ġ16 8
ĠSe ung
Ġm ake
ĠN FT
... ).
int endo
ti en
ĠEner gy
ĠT aj
os us
ĠC iv
tr Æ°á»Ŀng
Ġ19 23
H uyá»ģn
qu ang
ĠK un
ĠEcon om
ä ¹
Ġx Ãª
au n
Ph Ã¡o
G Ã³i
ĠU á»ĳng
eg as
ĠLy n
g n
ĠA B
ĠhÃ ¢n
N á»ķi
o en
ĠNG á»ĮC
ĠPhil lip
ĠBruss els
ucker berg
ĠBos ton
q uá»ĳc
Ġm áº¥u
ĠX ung
ĠH áº¡o
Ġ9 999
T áº·ng
ro t
ed onia
U P
Ġ16 2
C uá»ĳn
bra him
ThÃ ºc
ng hi
it er
Ġ amin
ch áº¥t
ĠGiá» ¯
ĠÄĲá» ©ng
N a
Äĳ oÃłn
ĠB ali
45 5
anc ial
ÄĲ Äĥng
hi o
m et
Ġc áº¥n
ĠP ierre
Ġngá»§ i
x áº¿p
ĠC Ãłn
ĠP av
Ġm uá»ĳng
ChÃ ¹a
c Å©ng
Ġo x
ster dam
hi re
v ua
T hÃŃch
m ath
ĠCh iáº¿t
... ;
k hÃ³
áº¤ N
ĠC ode
lu á»ĵng
ĠB iá»ĩt
ĠTh uáº¥n
ĠC Ã¡p
ph iÃªn
ĠD X
ol m
Ġ36 5
b at
k ara
Ġ >
ĠL Ãłnh
er us
ĠT CB
ĠR á»«ng
Ġtrá» Ĺi
Ġl áº¡ng
Ġ19 05
ĠHO ÃĢNG
A x
Ġnhu á»ĩ
ĠB ab
Ġe kip
L L
Ġnhá» īnh
ĠSa f
W il
og ne
B á»ķ
ĠW B
ch t
Ġnhá»Ľ t
ĠT B
Ãģ nh
Ġv est
11 5
M ich
er ia
thá» §
i F
r Ã´ng
Ġ8 50
ĠR S
ĠJ apan
ĠF ound
M V
ĠC and
ĠF ace
Ġn ÃŃu
ĠchÃ ²i
Ġ15 1
Ġ15 4
Ġd áº«u
r or
ĠR uss
ĠEr ling
Nhá» Ľ
it r
ĠkÃ© n
Ġmá»ī m
bá» ĩnh
ĠIS O
Ñ ĥ
ĠGi o
ÄĲ á»Ļ
Ġk Ã©t
Ġcá»Ļ m
ff ee
áº³ m
t ay
ch ung
Ġb áº¥p
ĠV ÄĤN
Ġ19 07
alan ta
ĠG iÃª
ĠAg u
Ġp oly
ÄĲ Ãłn
is tr
ĠTh áº¯m
if orm
ĠS á»¯a
ĠG áº·p
ĠThÃ ¢m
Ġ38 9
ĠA tt
Ġc r
ubl ic
ac on
ĠNap ol
z ie
ĠPl aza
ĠV Ãłm
Ch áº¯c
O NG
ĠL áº¡ch
ĠFran ce
V ND
ĠQU á»ĲC
is oo
çİ ĭ
ard i
as m
iv o
att an
ĠR oss
ĠVol kswagen
p i
Ġt we
Ġlo ay
und er
ĠE ast
ĠNat han
ï ¼
AID S
F r
Ġsá» Ŀ
ĠNet work
ak ing
ĠK um
R h
ĠB LACKPINK
âĢĻ .
2 20
c Äĥn
ĠNV L
ug h
Ã½ p
AS EAN
l ink
in da
Ġl Ã¹n
Ġkho áº¯n
Ġlá» £p
ĠChá» ĳt
ĠT G
cel and
ĠS him
ent e
ĠTun isia
ThÃ º
t v
ĠR ose
3 20
ĠY eon
ĠZ uckerberg
ĠB aby
ĠL eop
æ °
L ED
b á»ĭ
Ġv áº«y
ĠCorp oration
l ist
ach i
Ġm o
Ġm Ã©o
ar ch
Ġl on
Ġnh áº£
ĠL op
ĠSh ah
ĠS ina
ĠAl geria
h elm
ĠCam eroon
ĠH uyáº¿t
ĠId ol
ĠMari upol
ĠGram my
ĠT áº¡m
an ch
ĠB un
Ġm Æ°á»Ľt
ĠS qu
n ie
ĠV biz
ĠB ou
ĠEx imbank
ĠTeh ran
ĠtÃŃ a
ĠCol or
ĠMel bourne
ĠKiatis uk
P seud
G al
R áº¡ng
Al bum
Ġc áº·n
âĢ¦ âĢ¦
ap a
Ġv áº¿
ĠTh Ã¡m
Ġr oi
Ġ18 95
er on
Ġgi Æ¡
Ġ3 70
ĠCÄĲ CS
Ġn Ã¡ch
B iá»ĥn
it ies
Ġch áº¯p
in ce
Ġ19 15
ĠV ision
ĠR iver
ann el
Ġf ile
ac ia
ĠAn celotti
ĠSt udio
ĠChar l
ly n
f o
ĠGiá» įng
T Ã¹y
ĠSchol z
à ¤
en burg
DP L
B inh
ĠNik kei
áº¢ O
ow a
ĠLu Ã´ng
R EA
is er
ĠR M
M u
ĠBlack pink
E CO
Ġ19 09
ett s
l ov
" ).
ĠÄĳ Ãły
ic ia
Ġt áº±m
Ġtr u
ĠM old
W B
m Ã¡y
Ġcom p
K Ã½
Ġ3 80
Ġv ar
Ġ3 40
ĠT áº§ng
ĠTr Ã¡nh
Ġnh Ä©
ĠT as
Bá» ı
kh ong
ab e
s ang
ĠP G
ĠT uyá»ĩt
ur us
14 0
v Ãło
ĠThÃ ´i
ĠCamb ridge
al ty
ÃĢ NH
ĠChá» Ń
et e
do anh
Ġstream er
Ġ15 7
ĠB á»Ļi
id o
ĠPas teur
Ġ19 21
S áº¯c
og ue
o ul
ne ws
Ġng áº«m
ĠMar athon
ĠTeleg ram
ĠThÃ ¬
z io
ĠL td
ĠÄĳ áº£n
din and
ĠÄĲ ÃŃnh
ĠI v
19 72
nh an
at ed
con s
ĠM ap
utter stock
em is
ĠDe f
S e
ĠE thi
Camp uchia
ĠkÃ¨ n
ĠJohn ny
2 23
ĠNg uyen
ĠFor est
LÄĲ LÄĲ
b á»ı
Ġv ung
ĠPar t
Ġt Æ¡i
ĠNas daq
Ġxu Ã½t
ĠX ÃŃ
ĠCT G
ĠAb ram
act yl
ĠM Ã¡t
ĠJo on
ĠO hio
G DP
BG DPL
* )
¨ C
anc y
ĠU g
Ġng Æ¡
Ġcá»ĳ p
Ġth uyÃªn
m u
ev iew
__ __
Ġphá» Ľt
yc l
es i
ĠA NH
ĠPl at
ĠCh e
ĠCO VAX
uy a
H uÃ¢n
ĠMon aco
ĠColle ge
id ane
ĠTT CK
Ġs Ã²
30 3
s tein
Äĳ á»Ļi
ĠD im
Ġchá» ĳc
ov ac
Ġ19 03
Ch Ãłng
ĠM SB
B á»ĳi
ÄĲ Ã¡m
ĠPac ific
ĠTá» ī
t iáº¿p
ĠChan el
C Æ°
á»ķ n
Ġh Æ°Æ¡u
ĠM and
Ġs áº£ng
ĠPrem ium
ĠNad al
us sia
ĠSav ills
Ġ orient
ĠH ans
M Ã¡i
Ġ ~
ĠL áºŃy
ı m
ĠVP B
Ġth Ãł
nh ap
ĠNhá» ±t
Ġd ec
ĠP or
kinh t
ac y
tr ich
ĠC lin
D áº«u
l Ã©
ĠA K
ĠLim ited
ĠT Ã¡i
m edia
ĠR ain
Mal aysia
ĠHend erson
O P
V Ã¢n
ĠLuc as
ĠBez os
C áº©m
ĠAr k
ian e
if i
c áº£
G eo
ĠV A
ra ft
c ung
ĠT Ã²ng
ab in
is p
Ġb áº§m
dr agon
ĠComp any
ĠO CB
ox ing
ĠVI P
ong a
ĠC Q
ĠS aka
Ġnh ÃŃch
ĠNg á»Ļ
s áº£n
Ð ²
ĠP hÃŃ
ĠE P
Ġca st
ĠG E
uch i
T Ã³m
ĠT áº¥m
ĠO t
Ġth Ã¡n
ĠSV ÄĲ
qu es
Ġm Æ°á»Ľp
Ġnh Ã´
phÃ ²ng
Ġkhuy nh
Ġcá»Ń u
æ ľ
Ġbá»Ļ n
Ġnho Ã¡ng
? âĢĿ
ĠD or
Ġbá»ĭ a
ip es
Nghá» ģ
ĠJ oo
L iá»ĩu
Ġx á»Ļn
ĠÄĲ o
Ġk il
ĠMark et
ĠAustr al
Hot line
col n
19 47
22 7
ĠWil son
ĠBurn ley
D avid
ĠH au
Ġnh áº¥p
th o
Kh áº£o
IC A
å Ĳ
Ġgá»į t
Ġng Ã¹i
Ġx iáº¿c
B á»¯a
i Äĩ
B Ã¹i
ĠAm sterdam
ĠLes te
ĠB ae
Ġtr Ã³c
ar ma
up er
ĠIP O
m as
19 73
ĠD om
ĠQu e
ĠJ ay
ĠXp ander
ĠSpace X
ĠM em
Ġy áº¿m
ĠRaf ael
ĠC ad
G l
9 50
Ġbu á»ĵm
Ġph ot
ĠN áº¯ng
ĠTh áº»
at ti
i pp
os ph
ott om
ĠPhÃ ª
P al
Ġm áº£i
F an
Ġ é
Ph a
ĠH áº¯c
ĠPh áº£n
zh ia
ĠCh Ã¡u
ĠH ad
id el
ĠG ai
t ing
Ġmar gin
g g
won do
ĠSal v
am ey
Ġs á»Ļ
al em
ĠbÃ¨ o
cel o
E d
um in
ĠN á»Ĺ
exay dung
ill o
ri que
ĠEx p
l eo
kinht exaydung
N Ãłng
ĠI celand
M e
M eg
ĠL Ã´i
ĠD L
ĠS IM
Ġr á»ĳn
ĠDo ji
t ime
ĠH az
ic es
ĠC all
ĠHit ler
ĠTT ATGT
j amin
Kho áº£n
Ġc ovid
ĠSo ft
ng oÃłi
Ãµ ng
Ġtrai ler
ĠB enn
ĠA TP
l oáº¡i
Ġch Ãły
p son
Ġ15 8
âĢĻ ,
ĠÄĲ á»ĵi
ĠB QL
s v
et on
ĠBen fica
ĠB all
Ġw ww
ell es
L ao
Ġth áº±n
áº¤ T
ĠZ ero
W D
ĠCav ani
Ar t
R á»ĵi
Ġl Æ°Æ¡n
Ġl Ã©p
ĠcÃ¡ u
ĠF old
ch ez
B en
v ai
Ġtu Ã½p
ĠV it
y th
up e
L á»Ļ
P ol
ĠP ass
h áº¡
ill er
ĠAbd ul
ari us
ĠThá» Ń
ĠLe y
Sam sung
ĠVN M
ĠManag ement
ĠA ub
ĠKQ XS
ĠS áº¯p
ĠG raham
ag u
ort s
is ch
á» ¦
ĠVIá»Ĩ T
ay s
Ã© s
L á»ĳi
ĠHe ung
Ġx iáº¿t
Ġh áº¡c
f i
ur al
" ),
et ti
ra v
ĠLat in
V H
d ai
P ark
ĠMan e
d ot
Ġ19 02
ĠC uá»ĳn
Ġsá» ī
se ille
Ã ī
V al
p ol
Ġng Ã³
ĠV ie
ĠJ P
ĠEar th
Ġ ab
ĠNh ai
19 89
ĠElec tron
] .
ĠN intendo
Ġr áº§n
19 54
ĠMot ors
hÃ ´
ĠB uk
ĠD iana
Ġc áº¡p
d al
w ait
N á»Ĺi
ĠS em
G Ã³p
ĠK em
H AGL
h ang
in al
J u
M iá»ģn
ĠA re
ap l
ĠN iá»ģm
Ġth iáº¿p
ar l
Ġngá» £p
ĠCá» §a
Ġqu ai
as ka
ert z
ĠRom ano
ig i
ĠN T
Ġgi Äĥng
il ton
hÃ³ i
Ġf eet
ĠCM ND
ĠZaporizh zhia
ĠVin com
Ġy á»ĥ
Nh Ã¡nh
A A
T uáº¥n
Ġm ui
IM F
Ġl Æ°á»Ŀn
Ġkh Äĥng
erm ain
Ġ29 0
Ngh Ä©a
lin ois
B M
ĠF ac
ĠKh ark
ĠDav is
ĠEthi opia
Ġmá» īa
ĠP CT
ĠK ard
ĠL S
Ġ19 01
V áº»
ĠSec ur
ĠD T
ĠU FO
ri es
ĠAt alanta
Ġqu áº©n
Ch Äĥm
S Æ¡
ĠR ico
w n
Ġ20 5
ĠBá» īnh
Ġc over
ĠÄĳ ong
ĠS ystem
ĠR C
ec ta
ĠTh oa
ĠY our
ĠC L
ĠPet ers
han ol
nh iá»ĩm
ut i
ĠT KV
H ung
UY ÃĬN
Ġ189 7
D áº«n
S tr
ĠM ini
ĠKh al
os c
ĠChÃ ªnh
ĠO f
Ġl ike
C Æ¡n
ĠhÃ ¹m
uc a
2 80
Ġs l
ĠSh o
ĠKhÃ ¢m
ĠQÄĲ ND
d oi
ĠI DC
m ang
ĠnÄĥ n
Ġ3 10
Æ°á»£ m
Ġch áº¥u
Ġchá» Ľ
âĢ¦ âĢĿ,
X ung
ĠB orn
ĠJ urgen
ox ide
ĠChi m
ĠFin ancial
ĠEs tonia
ĠK orea
ĠViet ravel
u ce
Ġal b
ĠBV ÄĲK
ight s
v et
v á»£
ĠKh ung
H e
Ġm Ãºc
ĠC ot
Ġ áº§m
G I
Ġsá» ¡
ĠK yr
ĠSh ak
Ġnh Ãºng
Ġ14 9
ĠR at
ĠM SN
achus etts
iF one
ĠA DN
Ġ19 04
Ġgá» ī
T áº¡p
d iá»ħn
ĠH Ã¡t
P ay
Ġl Ãµm
ĠS CMP
ÄĲB QH
ĠG ong
ĠMal i
ĠthÃ³ c
ec om
Ġ18 99
k ook
h on
Ġy ou
em ia
re w
Ġv áº§n
ĠAr thur
l ant
ar in
ip edia
ĠA CV
Ġl ithium
Ġn Ã¡m
ng uy
us an
Ġbá» ¥c
S Ã³ng
ĠÃ į
ri o
ern er
Ġk iá»ĥng
ĠF ashion
ĠSnap dragon
ull ah
ĠFir st
âĢĿ :
ph ia
ĠLin coln
Ġs Ã¡
ĠPel osi
L áºŃp
ĠÄĲ ÃĤY
ĠN on
ĠMc C
l at
ĠN ow
s et
D V
ĠH ass
Ġb iáº¿ng
C Ãłng
ch iáº¿c
Ġtá»ĭ nh
ĠTr á»Ł
ĠLog istics
Ġ4 20
ĠPr inc
ĠTechn ology
ĠCh er
C or
ĠMan ila
ĠTikTok er
G iáº¿t
ĠK or
ĠFul ham
Viet tel
Ġc áº±m
Ġb eta
ĠA x
ic um
Ġ189 8
ĠFel ix
ĠN orm
Tá» ©
im us
A lex
tr ol
ĠthÃ¹ y
ĠL eo
ĠNhá» ±a
ond er
Æ¡ ng
ĠH om
ĠSant os
ĠN ott
ĠH ind
Ãª ng
ĠB ot
ĠB CTC
Ġd áº»
ĠLy on
Ġth áº³m
at ive
ie z
ik ipedia
ĠSer g
ie g
ĠSp ider
az e
+ ,
amil y
ĠL amp
Thá» ķ
Ġins ulin
19 30
ĠM I
ĠAn field
ons o
ĠR onald
ĠMor ris
ĠIl linois
ĠQu al
Ġxá»ī n
T Ã³c
ĠVin icius
ĠC orn
Ġ17 7
H Æ°á»Łng
ĠS anh
ĠAb e
h áº¡ng
ĠLH P
ha el
Æł XH
ĠBlack Pink
C ry
ĠPu erto
ĠM Ã¡i
Hy undai
t om
en k
Ġtr áº§u
ĠK BNN
ĠR Ã´ng
K áº»
ĠS XH
m Ã¹a
o C
ĠCh Ãłng
IC EF
202 8
ÄĲ á»įc
Ġr Ã¢m
Ġ16 4
ĠTV B
emb ourg
S aint
z on
ĠOb ama
w art
et amine
Ġcon cept
eth yl
T Ã´n
ĠL GB
ĠG el
B D
Ġ17 6
Ġkho Ã©t
Ġ16 1
ĠTP Bank
ann i
ĠLit va
t ang
t Ãłi
x Ã¢y
ĠT Æ¯
ĠDo ug
ĠLH TN
Ġc Ãłn
d au
ĠMass achusetts
Ġ9 11
Ã ¸
ĠVal encia
ĠHy brid
99 0
K on
ob a
ĠVn Express
Ġb on
] ,
Ġl uyáº¿n
ĠCl ass
ĠOtt oman
yd r
yn ch
Ã ±
Ġqu Äĥng
ĠWil helm
ro g
eop le
2 60
Th áº¯ng
ĠLu d
udi os
S á»
ĠR over
ĠLew is
? âĢĿ,
ÄĲ Ä©a
l ia
Ġtráº» o
B áº¡ch
Ġ en
s ao
f ia
ĠH erm
ĠP itt
H yp
Ġr en
ĠD ur
CO VID
ĠGi an
ĠTaj ik
C á»ķng
Ġs Ã¹ng
d ale
sh ow
ĠAth let
Ġf un
há» £p
Ġch ao
aw i
Ġk V
Ġp os
ĠâĢ Ŀ
ĠEver est
v iá»ĩc
Ch Ãło
ĠR áº±m
ĠH and
ĠG ab
ĠTr uyá»ĩn
Ġn áº¡c
NT M
ĠInd ustr
lá» £i
ĠTR UNG
Ġx Ã²e
Chá» ĳng
L Ã¢u
ĠB ow
ĠNik ol
iss a
ĠF ire
T áº§m
in or
rom e
ĠH ur
Ġkhu áº¿ch
v iáº¿t
ĠT áº¯c
ĠCh am
H áº±ng
ĠCh Ã¡y
M ax
19 88
Tá» ī
ĠRom an
S u
ell en
at su
Ġd á»Ļt
Ġtá» §i
ic ola
Ġ21 5
Ġx uyáº¿n
ĠM ey
es p
Ġmod el
ĠD em
ĠL iv
ri ed
ĠC áº¡nh
ĠL áº¡nh
M et
ĠE ti
Kh uyáº¿n
es pa
al ign
ĠP ink
ĠG IA
ĠF um
ac a
Ġs elf
ĠS á»©
ÄĲ au
ĠG Æ°Æ¡ng
le g
ĠCr uz
L i
id ium
Lar en
há» ĩ
ĠD oll
ok ia
ĠRes iden
el en
ĠR ow
TT H
Ġmá» ĵng
ĠN est
ĠB Ã£o
ed u
ad er
ĠMai n
Ġn áº¥c
ĠBe at
ng ay
kh ai
ĠTR áº¦N
anth a
Ġs áº·c
ĠHu go
ĠZ idane
ĠMich igan
ĠFer dinand
ĠLe ban
ĠKH CN
ĠV R
ĠS tone
âĢ¦ âĢĿ
ĠmÃª nh
gus on
io us
Ġal ign
ion al
ent s
Ġv isual
ĠHot el
M ark
S S
ĠB eck
ĠV Æ°á»£t
ĠL l
ens en
th Æ°Æ¡ng
Ãģ C
ĠKh iáº¿t
... ".
Ġl ip
t ro
ĠJun ior
ĠBS T
H an
Ġ16 9
22 5
b Ãłi
æ Ŀ
ĠH ills
ĠGen eva
ĠBS R
ĠRobert o
ĠLeban on
Ġh áº¯t
ĠK elly
CS GT
uro p
p him
ĠMat th
ĠPed ro
b or
ĠP BGDPL
ĠST EM
Ġg Ã¡n
Ġthá» «ng
Ġtr uáº¥t
ast ic
k ai
ĠA aron
ap e
ĠD ata
ĠJer ome
ÄĲ áº¥u
ĠCH DC
os ite
Ġtr iá»ģn
ĠL il
ÄĲ C
ĠP ok
Ã² m
ĠErik sen
Ġst udio
ĠStand ard
Ġ17 2
Ġo Ã¡n
t os
ather ine
Ġr eo
Ġph áº¥t
ĠA ct
ĠF air
ĠA qua
19 82
) "
Ġ19 2
ĠCon nect
ĠAb u
ĠS y
19 46
Ġs i
ĠN eo
ĠC áº¡p
ĠH anh
ĠSch l
amey ang
C Ã¡nh
th al
Ġ20 3
um er
ĠEti had
T o
ng oáº¡i
ĠSt udios
ĠR ah
' t
F or
ĠWars aw
ĠGre at
ĠB ull
Ġ18 8
Ġm iáº¿n
ĠX ÃŃch
amb ia
k áº»
Ġ17 3
á» §i
ĠCarib e
Ġng uyá»ģn
ĠB eek
10 5
ĠH ook
iv ia
Ġ189 6
Ch Ã¡u
Ġy en
ĠLGB T
© n
ĠMac Book
ĠCo ffee
Ġr ight
Ġ hÃŃch
Ġn Ã´i
Ġf r
com m
ĠPort o
ao mi
C Ãºp
ĠCat al
ĠCar r
ian us
ess ing
B L
ĠL ady
ĠP ixel
w er
Ġtu r
ĠPetr ovietnam
ĠL Ã¡t
c ong
Ġca ffe
á» ĥn
Ġc áº±n
ĠQu Ãª
ing o
ren ce
ĠDi or
ĠP A
f in
ĠUB TVQH
P SG
Ġv oucher
Ġca c
ĠN y
ĠD iÃªm
Ġom ega
ĠC áº©n
Tr á»Ŀi
ĠDy nam
ĠF BI
th iÃªn
ib a
as an
M i
ĠV accine
M E
og on
C áº£ng
Thá» ıa
Ġ22 2
m s
ĠK ent
Ġ15 9
ĠMar seille
ros hi
ĠH áº¡c
emb ele
Ġout fit
Iá» ĢN
V accine
ĠÄĳÃ ¹m
ĠT BA
Ġl Ã¡n
ĠMc K
Ġr Æ¡
St ation
H a
Ġ7 20
Ġng áº¡o
ĠL A
ĠSter ling
Ġd Äĥm
ĠX Ã³m
' )
Ch am
N e
p ng
un ct
ani um
Ġ4 80
Ġ17 8
ĠphÃŃ ch
ph u
ĠGrand e
ĠNh iáº¿p
KV ÄĲ
Ġh uyá»ĩt
ĠV ent
ĠTor res
Ġ est
Ġl b
ei ro
ĠSc ience
ina wa
ĠJ isoo
b Ã£o
op ol
ĠhÃ ²ng
ae idae
S im
B áº§u
it su
Äĳ á»Ļc
ĠGener al
Ġle ft
ĠMar sh
Gi an
ĠT ab
ok e
ay o
ĠD á»¥c
ĠPat rick
G R
Ġvá»ĩ t
T á»įa
UA E
D Ä©
Ġ ang
ĠHo us
ĠGunn ar
ĠP ur
ag as
ĠHam ilton
ĠN ano
u do
ĠB aker
ĠS Ã¡t
ĠAc ad
Ġlives how
h r
ĠFer guson
Æ¯á» ¢
ĠV ers
T ip
t am
ĠI ng
hn t
H áº¡n
Ī Ĵ
ĠLu ke
Ġh an
Ġkhá»© u
ib le
Ġ18 89
t us
ĠLux ury
eri od
T a
v hnt
Nh a
ul idae
ag ne
H TX
å ¸
17 0
Ġláº» o
ĠG as
Ġr Ã´ng
Thá» Ń
ĠW is
enn es
ĠLu Ã´n
thoi bao
Ġph iá»ĩt
O I
ĠXN K
ĠCiv ic
ĠdÃ¬ u
Ġgolf er
' ?
ĠD á»¥
hi r
ĠVND irect
ĠMill er
ĠX Æ°á»Łng
ro b
un o
v Å©
Ġph Ã¡ch
ĠJoh ann
u f
ĠB B
omin ay
S car
v ier
ĠBen jamin
ĠSp ears
T E
ĠTajik istan
ĠSh ang
ĠMob iFone
Ġ *
Philipp ines
Ġgiai tri
thoibao vhnt
B ioNTech
shi re
ĠD h
Ġthá»¥ y
r ent
ĠBank ing
ĠNott ingham
ĠY an
S on
op us
Ġ2 19
ĠE th
ĠPr ess
od en
ĠbÃŃ ch
ĠHá» ĺI
Ġl Ãºt
l áº¥y
ĠLux embourg
ĠRec ords
ĠDe pp
Ġ ap
ont o
ĠL ay
ÃĢ I
us c
ch ip
ĠG ot
ĠW id
Ġg ames
Ġáº¤ p
ĠB eng
ĠÄĲ áº«y
ĠGi Ãłu
B ul
M ag
T á»ĳc
b om
e im
Ġ áº¯p
ĠA BC
ĠRu á»ĵi
ÄĲ áºŃu
ph en
ĠÃį ch
M D
ÄĲ áº·ng
hi d
ĠAl aska
if ol
B ig
T ominay
ĠPV F
ĠL ine
S Ã³c
Ġhá» Ŀi
Pl us
Ġtr Æ¡
ĠN P
ĠD iá»ĩm
CS C
Ġv áº¡
ĠMac edonia
Ġb en
ĠBrit ish
Q P
el op
å ı
ĠN ÆłXH
ĠG ala
o it
ĠAs ilidae
ĠC CN
ĠH T
ĠQue ens
ĠmÃ´ tÃ´
ĠSt ol
ĠhÃ£ nh
x a
li b
ĠCh ev
iss on
ĠchÃ ´m
Ġ17 1
ĠCN LÄĲ
ĠTh S
o T
Ġtr Ãłm
ĠEr n
C er
ĠP etro
ĠCT ÄĲ
AM A
s ur
ĠTHá» Ĭ
ĠTHA NH
ĠT ou
ol in
D ate
Ġnh Å©
ch eon
n B
1 12
ĠM iÃªn
Ġlá» ĵi
ĠS ay
Ġ20 40
f acebook
Ġs am
ĠT K
Ġf orm
ank a
2 10
Ġs ch
ĠR áº¡ng
ra f
P ost
ul atus
ta h
s á»ĳt
el son
d á»ĭch
ĠJ eon
kh Ã¡ch
ng Ã´i
ĠN ot
av an
F l
v á»ĳn
ĠD IG
ĠW W
Ġcho Ãłng
Al l
Ġb Ã¹i
Cl ass
iflor a
ernand ez
ĠÃ´ xy
ĠH op
ĠD un
... âĢĿ.
ĠAn kara
app er
p en
ĠAz ov
Ġc uá»ĳc
al t
Ġsá» ¥c
g hi
ĠN ote
ĠB ut
Ġ9 50
iet y
il ity
ĠBeau ty
ĠÄĲ KVÄĲ
ĠR Ãł
ĠE p
ĠPl an
h ail
ĠBV MT
Ġr á»ĵ
H Æ°ng
ĠA BS
Ġj ust
ĠQU áº¢
Ġgl uc
ĠH TV
ĠPC I
( *)
ĠD áº¥u
Ġ18 90
áº¤ U
T áº¥m
Ġ18 00
Is rael
om i
ĠA TV
ĠAthlet ic
Ġs áº£i
Ġn Ãł
yp od
yl la
M áº¡ng
ĠMa j
B Ã£i
Ġng Ãł
ĠV áº£i
E uro
I B
T ÃŃn
er an
Ġsu Ã´ng
27 0
phÃ ª
l ao
Ġm Ãło
ĠFum io
Ġself ie
ĠTh áºŃn
ĠGI Ãģ
ĠDV D
Ġ16 6
ĠGi áº½
ĠSteph en
ĠTh ang
ĠO LED
ĠXV III
3 30
G a
F PT
K hÃŃ
Y D
ĠL áº·c
K á»ĭch
F P
ak ov
ĠTr Ã¡ng
ĠValent ine
av ia
R P
Ġb ottom
au rus
I U
th ong
Ļ ng
ĠkhÃ ©t
Ñ ı
Ġ2 11
ĠV SIP
ĠY G
ĠSte ven
ĠT TT
Tr áº¥n
ĠUg anda
ĠN ich
t Ã¡c
ĠJer us
Ġm l
Ġd erby
Ġbá» ¡
ĠKh áº©n
Ã© e
ĠB ung
ĠDu á»ĩ
ĠEuro pe
ar es
Man chester
T áºŃn
ĠL ake
4 90
ĠH ÃĮNH
ĠYo nhap
ch uyÃªn
ch Ã¡y
) /
z er
ĠW ork
ĠNH TM
Fran ce
M or
ĠK P
l iÃªn
Ġtu á»ĵng
ĠSerg ey
Ġr Ãª
Ĩ NH
T om
O ne
Ġt áº¥c
ĠWil d
ĠL apor
áº« ng
ĠJerus alem
Can ada
N Äĥng
ħ u
Ġcá»ĳ m
ĠK as
il o
ĠB ag
ĠK D
ĠÄĲ Ã³ng
ng e
ĠT ao
Chu á»Ĺi
ĠOk inawa
ĠD ak
ĠBell ingham
Ġk iá»ĩu
há»ģ nh
) -
ant es
ĠT ony
ĠI brahim
Ġ189 4
ĠC rown
3 80
æ ĺ
Ġ ç
ch in
Cá»¥ m
ĠInvest ment
M el
b ro
ĠHi roshi
å į
ĠCh Ãł
ĠFred er
Ġc ol
Ã© on
Ġtr Ã¡
Ġr eview
z an
ĠL ÃĬ
ĠK KT
ĠM á»«ng
iz za
Ġcan vas
ĠJer sey
er g
ĠM end
ĠUn ion
ro st
ĠDia z
tr is
ĠBl ockchain
A ir
d Æ°á»Ľi
ĠD Æ¡i
Tr á»ĭnh
H ier
ĠHÄĲ ÄĲT
Ġng a
ÃĻ NG
m ino
Ġso fa
ĠK ol
Ġ18 4
y ch
ĠK in
az y
oph arm
Ġl iÃªu
19 68
ĠL em
aj or
Ġ áº¯c
ĠX iÃªm
ĠWar ren
ĠG uy
ĠH Ã´n
K ÃŃnh
stan bul
H oÃłi
ĠG em
hi ro
L I
ai ca
19 0
ing rad
es ar
Ġkn ock
Ġs áº¡p
ĠTh uyá»ģn
ĠVi enna
ĠL ag
ĠH ard
Ãļ C
esc ens
b ury
ĠL á»ĳi
or um
Pl ay
ĠD á»ĭp
ĠGi Ãºp
ĠcÆ¡ i
r Ã´
Ġs Ã´
ĠOpen AI
b áº¡n
Ð ´
Ġx Ã¹
oa ch
enz o
c ont
Ġhe ight
ĠvÃ© n
ĠLat via
ĠW omen
Ġ20 35
Ġ18 3
ĠChrist opher
ch uyá»ĥn
ĠL ac
ĠM Ã©p
Ġpen alty
ĠC MC
ĠAc c
l ac
ten berg
Ġx á»Ł
Ġr Ã¬nh
ar ez
ĠR ic
ĠÄĲ au
oh ama
Ġ18 6
iez mann
Ġorient ation
ÄĲ an
K iá»ĥu
l Ã¡
Ġrock et
s Ã¢n
Ġv ali
Ġg áº¯p
ĠÄĲ áº¡m
Ġo anh
ĠV iÃªm
ĠBro th
Ġ4 30
ĠI R
Ġhu á»³nh
stant in
Ġnh Ã²a
es is
l ish
qu Ã¡
U R
p ur
h oÃłn
Ġhá» ¥i
ĠX inh
ĠM Ã¹
ĠXH CN
Ġl im
Ġsá» §ng
ĠTr áº£
Ġr Ã´n
Gi Ãºp
Ġh un
ĠN in
ĠCh un
Ġ24 5
ChÃ ¹m
N LÄĲ
S ize
Ġ3 90
ĠCP U
ĠGre g
Ġgá» Ŀm
ĠP ri
Ġm Ä©
ĠD S
av en
Iá»Ĩ N
C r
ĠC ab
Ġn áº¯n
ĠH F
ĠMer kel
Ġ Æ¯
ĠPl Ã´ng
Ax is
ĠRob ot
A rea
is se
ĠDo ha
Ġ è
ĠMan uel
ĠH ann
ĠKard ashi
ĠF ull
ÄĲ N
ĠUB TÆ¯
am oto
Go ogle
in er
ĠFre e
Ġchá» «
CP I
l Äĥng
v ey
ĠAr ena
ĠK ry
ĠSp a
H áº¿t
Ġt een
ĠR an
Ġgá» ıi
S EA
ĠS id
Ġtu Ã´ng
G TVT
ĠRal f
N Ãºi
in ity
ĠI A
ĠhÃ º
ah n
ant s
T á»ĳt
ĠPr ad
ĠCo in
c Ãº
G en
ĠH appy
Ġ áº£
V CCI
ĠNH M
ĠÄĲ Ã¡m
ĠSp urs
ĠMar io
M os
ĠG á»Ĺ
As tr
ĠÄĲ Ãª
19 86
F ormat
Ġl iá»ģm
ĠAn a
ĠL uyáº¿n
ĠHS BC
ĠNe urop
b as
ri pt
ou k
ĠGr ay
Ġenzym e
g irl
b ong
ar at
ĠVen ice
ĠG Æ°Æ¡m
ĠN Ã´m
ĠE le
ĠTN XP
ĠGom ez
A lig
ĠN O
V X
ĠN áº±m
Ġd rama
ĠPo int
A p
ĠF al
Ġ17 9
Ġnh áº¥m
ris e
NT Q
Time Axis
ĠGP U
ĠP ers
P eriod
ĠNeurop tera
ĠM ix
Ġr i
ĠNor wich
V TV
V ÄĲV
ĠphÃ ¨n
ĠSalv ador
22 2
ĠKy ung
F ord
ĠMc Laren
m Ãłu
Ġs Æ°a
ĠTh uyáº¿t
Bu Ã´n
sv g
v Äĥn
ob i
TH PT
Ġnu á»Ļt
ĠF DA
Ġ18 2
13 5
ĠhÃ ©c
Image Size
Plot Area
ĠP ict
tr um
Ġ21 6
F L
b Ã¬a
ĠL Ã²ng
at hip
Ch ar
ophi la
H ol
ĠR ick
Ġt áºŃu
gy z
ĠMB B
ĠB uck
g ram
qu ay
ĠMc Tominay
ĠW ind
nh áº¥t
Ġngo Ã£n
N eo
T en
Ġb áº§n
Ġd ÃŃ
sp an
PP O
c tor
11 3
ĠD eb
ĠHe art
Ġr Æ°á»£t
ĠP ad
ĠU BCKNN
ĠBar b
p ing
s Ã¡ng
ĠAD B
ĠM H
ĠK iá»ĩn
12 8
s á»©c
ĠR B
Ġ18 7
F DI
P o
Ġbl azer
ĠWhi t
M áº¡nh
re at
ĠGi uá»Ļc
Tr uy
ĠR iv
ĠM PV
qu áº£
L á»±a
Date Format
11 1
f ast
ĠAir bus
orn is
K Ãªnh
ĠKu wait
M G
Ġ| |
Ġvá» ¯a
ĠGP LX
sh ine
n us
Ġsá» ¥n
Ġbá»ģ nh
ĠÄĳá» Ĺi
ĠY uan
ĠS eb
" |
Ġshow room
E uph
Ġd áº±n
ĠB á»ĳi
ĠTr ip
iat ion
B razil
ĠD embele
ĠCh ap
ĠC ore
ĠL ittle
ĠW endy
^ {
ĠGi use
ĠB iá»ĩn
ĠD Ãłi
ĠAr iz
ÅĤ aw
ĠRap hael
M L
ĠG ri
ĠBá» ĨNH
ĠMar co
w en
ĠN Ã©
ĠL U
ĠS D
s hip
ĠG lor
ĠRe y
ng o
Ġ20 8
T ÃŃch
ĠH R
ĠHÄĲ TV
l Æ°á»£t
ĠH SG
Ġphá» Ļng
ab aeidae
Ã¢n ia
our i
ss ID
ro ph
IM ARS
ĠGD NN
áº¬ N
H P
11 7
ĠMod ric
ScaleM ajor
Ġtwe et
Ġná» ī
ĠNg uyá»ĩn
ÄĤ NG
ĠV D
ĠMi y
å¤ §
ĠH ir
ĠKar im
nB ars
Alig nBars
ĠV NG
ĠAl an
ĠA ur
Ġ23 5
ĠGar cia
Ġh Ãłu
ĠY a
ĠK ÃŃch
fr ed
r ell
£ m
P aul
BG TVT
ĠLl oyd
ĠCar n
ĠNic olas
ĠSol omon
ĠO N
ion e
ega ard
ist ic
ĠTT YT
Ġg á»Łi
ĠAub ameyang
ĠC ÃĶNG
oph ora
ĠJ ason
ĠK ay
ĠVietnam net
Ch rist
Ġsá» §a
ĠÄĲá» įc
ab ad
ĠCH Ãį
ĠH ae
et o
ĠJ ess
ĠTik i
Æ°á»Ľ n
12 3
hÃ ¬nh
ĠW ong
Viet combank
v ir
Ġnh á»į
is ic
Vin Fast
ĠManh attan
ind er
ĠSo und
Ġm il
Ġnh am
er ing
ĠC ir
yl and
ĠMoham med
ĠT U
ĠD ang
la f
ĠBor ussia
ĠH ernandez
ĠK V
ĠK á»µ
Th áº¥t
ĠRog er
Qu ay
ie ng
m ir
ĠCop a
ĠS á»Ńa
Ġ4 70
Gi áº£
ĠT áº»
ĠJ ob
r um
ĠChá» ¥p
ĠEv ans
ar ag
ĠR O
G ermain
ĠTh or
ĠKardashi an
Ġ4 60
Gi áº¥y
ĠN á»ĳt
ĠW r
ĠBan d
10 4
ĠS as
ĠW y
10 9
ch es
ĠS MS
b ell
ĠS ic
ĠCar lo
Ġm á»ĭt
Ġ21 7
ĠD ance
lin s
ie ber
Ġjust ify
ĠNov ak
ĠTh Æ°á»Ľc
un c
EC D
ach o
ĠLing ard
ĠD er
ĠB á»ĵi
ĠNorm and
s w
ch uyáº¿n
T AT
ĠBlue zone
ĠA st
AF P
Ġfun ction
ĠMá» ħ
Ġr Ã¨m
ĠF ur
ĠV áº¡c
ĠR in
ĠI z
ed d
ĠRam s
Ġn á»įc
ĠP ang
áº® C
r Ãºt
ĠB art
g et
ĠÄĲ áº¹p
ĠÄĲ iá»ģm
ho use
T iÃªn
X EM
O W
ĠG le
ĠMat s
FI FA
TT Y
est a
ĠL ad
ĠSul li
y Ãªu
ym ph
ult an
Ġnh áºµn
Ġ20 4
ScaleM inor
Ġblog ger
al ish
Ġ18 1
Ġt Ã©p
ĠT iger
há» į
oll is
ar n
ow een
B ackground
ĠMar ina
ĠCru ise
Bar Data
ĠW erner
ĠDoll ar
Ġb itcoin
Ġs ale
ĠInd ia
ĠtÃŃ t
Ġnh Ã©t
Ġd en
Kh ung
ĠM endy
St ar
k u
Ġv áº¡t
ĠS áº£ng
Ġ áº£i
Ġ oc
ĠC IA
ĠU s
ith u
c á»Ńa
Ã Ĵ
Ġn ano
b ophyllum
ĠK och
ĠV iÃªng
or bia
our ce
ĠGold man
ĠN ÄĲT
M il
Ġ19 3
Ġli u
S hi
Ġng á»ķn
Ġc Äĥm
av is
19 87
ĠF lip
Ġin d
âĢ¦ ),
ĠN áº¡i
ĠGre alish
M erc
vert ical
ĠSlov enia
ĠPlay Station
ĠAriz ona
Ġchá» ĵn
k et
m os
Kh áº©n
ĠT á»Ļi
Ġr em
é Ļ
ydr ate
W est
ĠMc D
3 70
Ch at
Lu Ã´n
S áº£i
ĠD á»«a
op mart
ĠPH Æ¯ÆłNG
4 80
H áº¡ng
f al
ĠT Q
m ay
L Ãłn
ĠB Ã´i
ĠL á»±a
ĠH C
ĠC ua
ac et
ĠR eno
s Äĥn
ĠMin nes
abri zio
Ġ20 6
le d
qu Ãª
T ext
od ia
Ġn ick
ĠNh áºŃm
3 40
ĠF und
ĠI stanbul
ĠCh eng
ĠR iá»ģng
ĠAlb ania
mid t
Ġbá» §a
ĠAnd r
Ġ21 8
ĠS ix
ĠKr ist
ĠD á»ĭ
10 1
ĠPro duc
ĠYok ohama
ĠIs a
ĠSin opharm
ĠNun ez
S á»¯a
ĠL iban
ĠF arm
ĠM ig
ĠW TO
ĠO re
ĠDi jk
m á»Ľi
ĠJ osh
ois ao
F acebook
ier ra
ĠFound ation
ĠB rian
c hÃ¢n
Ġs yn
ĠMinnes ota
Ġg áº£
ĠH em
ĠNass r
ĠKyr gyz
Ġ Æł
op y
Ġ18 85
ĠAnd y
ĠSp ot
l oad
z ania
Ġt al
19 76
ĠR eb
v á»«a
T Æ°á»Łng
ĠG m
Ġc ort
Ġx áº»o
Ġd ay
ĠN ations
ent ina
ĠJon athan
var ez
Ġchat bot
I ran
ac ium
en os
å ľ
Ġá»Ĳ c
á» ī
ĠSouth gate
ĠTIáº¾ T
Ġch Ã¡t
nh Æ°ng
ip e
ĠStol tenberg
ĠC ass
ĠÄĲ á»Ļt
1 19
Ġ( ),
Th áº©m
10 3
p ro
it es
ĠJ adon
amb ique
ĠM ath
ĠO TP
ĠGD PT
ĠKenn edy
m á»©c
ĠTr áº¡ng
ĠH id
ĠÄĲ K
ĠF E
N áº¯m
Ġbl ue
æ ĸ
ĠVik tor
ph áº£n
ĠGirl s
ĠS uez
S K
ĠGiÃª su
! âĢĿ
Ġ20 9
ĠI Q
Ġr up
ĠChá» īnh
ĠS O
sh op
t á»ĳi
ĠB Æ°á»Łi
ĠS und
O PEC
ĠRe port
L T
ĠCA HN
ou g
Ġ26 5
ĠMik hail
ĠGr iezmann
c á»©
ĠRom Ã¢nia
n oi
x cÆ¡
ĠVietin bank
ĠphÃ¹ n
ĠTH U
ithu ania
ĠHy dro
og i
ĠJung kook
ĠWal ter
Ġng á»ĳc
Ġsal ad
ĠD uyá»ĩt
... "
ĠAle ks
ĠWar ner
Ġ2 12
ĠTr áº§m
nh iá»ģu
c at
ĠKos ovo
ĠC áº¯t
w o
Ġra dio
ĠPC D
r al
ĠRe v
Ġcor ona
ĠM is
ard s
ĠHav ertz
ĠL áº¡m
Tr Ã¡nh
he in
B iá»ĩt
ĠÄĳá» Ŀm
ĠP ao
Ġ5 60
Ġba ht
ua tin
ĠD ry
p hÃ¢n
19 62
ĠZ en
ĠB ey
ĠV il
Ġd Æ¡i
Ġ18 80
c le
b re
oid uatin
et i
H NX
V OV
å °
yo ung
V iÃªm
Ġmá» Ľ
Ã¨ ne
ĠCam era
AF C
uz ia
en ch
ov irus
m ore
19 85
Scar abaeidae
Background Colors
ĠAss et
Ġso da
C áº¥u
R ich
ND P
ĠJ oy
ĠN ancy
ĠhÃ£ n
it or
ri ot
Ġop era
c in
Ġf ans
L y
ĠSt ars
chá» ĳt
ĠP R
ĠF orm
Hier acium
S L
g am
ĠS áº¯t
Ġ19 1
ied ad
con n
l Ãºc
qu in
ĠPrad esh
Ġb á»ĭch
ĠTod ay
ĠTor onto
t Ã´ng
ĠC Ã¢n
ĠS uy
ph o
Ã «
ĠK DC
ĠQu á»Ľi
qu it
ch inh
ĠG ucci
ep s
ĠBuff ett
ĠG yeong
ngu oiduatin
t Ã¢m
Ġ15 00
ĠCá» ¦
chá» ĵng
Ġv Æ¡
Ġh áº¥t
og n
ĠT Ã¡
tr áºŃn
ĠQual comm
ĠSX KD
ĠRos Ã©
Ġs Ãł
ĠQU AN
ĠH áº¿t
ĠAnd erson
2 90
Ġ3 000
ock er
imb le
s ong
L Ä©nh
v oi
ĠT á»ĵn
Ġ18 78
Ã¨ re
ĠPh áº«u
id as
ag alus
bar a
é ķ
n on
ĠElectron ics
g l
ĠGE TTY
Ġ189 3
d ang
ĠGiá» ĵng
k us
ĠHá» ·
15 5
or ph
ĠJu lian
Ġ3 75
l ay
Ġg el
ĠElec tric
c Ã²
Ġ uyá»ĥn
Ġ27 5
oh ydrate
ĠTR á»
Ġch an
ĠMc Car
ĠLeop ard
e ID
EO N
ĠCÃ³ i
j ek
Ġ3 25
ĠCH I
ĠM ov
ĠSach s
UA V
D a
v Ã©
ĠJ oan
ĠSh ar
ĠCu Ã´ng
ThÃº y
as o
Ġnh á»ĳi
W e
r ak
Ġká»ģ nh
ĠEVN N
Ġl áº«m
CO M
Ġpr essing
ĠSing h
inh a
ut ch
ĠBol ivia
Ġgi áº«m
ĠH omes
T ur
ĠL otte
2 12
Ġhá»ķ i
ĠDo g
Ġcac bon
6 80
Ġng Ã¹ng
ĠO cc
Ġkh a
ok i
B áº¡c
um an
ĠN ino
ur ai
Text Data
ĠCá»¦ A
ĠG an
at ure
V L
k on
Ġnh Ã¡
ĠJ ust
Astr agalus
Ġel ec
Ġn Æ¡
es k
Ġ21 4
ĠH Q
ĠGu am
Ġdo c
ie c
ĠBV TV
ĠSt ory
ĠWat ford
Bar celona
ĠphÃ ¬nh
19 79
T e
ric io
Ġ4 40
Ġch lor
ĠL ov
áº¦ U
G Ã³c
Ġvá» «ng
ĠL ie
ĠF abrizio
oc eph
Ġgames how
B iss
ĠAb raham
VP CP
L á»ĩ
ĠV egas
ĠMed ic
ĠM D
W al
ĠG ro
ul aris
ham mad
ins tein
Ġmar athon
ĠH art
ĠKhÃ ¢u
Ġs áº£y
ĠP il
5 30
µ m
ĠH ÃĢ
Ġr iáº¿t
Ġ all
ĠV at
ĠHS SV
t Ã¹y
ĠH wang
ann y
G Æ°Æ¡ng
Ã¡ s
ĠD iÃªu
P L
G Ãł
ĠN ut
agas car
Har ry
ch ar
ĠP DR
áº¤ u
ª u
ĠVal ley
ĠBá» ĥ
Ġh áº«ng
ĠÄĳá»Ļ n
ĠQU ANG
H á»Ļ
th iáº¿u
ĠÄĲ áº¤U
ĠSt art
ĠBrit ney
ĠPro pert
ĠCHDC ND
S Ãłi
f ontsize
0 80
ic z
ogl oss
J ack
eb e
ĠFernand ez
ĠhÃ ©o
B TS
Ġcá» ıi
ĠTr ai
ĠF O
ĠO laf
ĠK ub
ĠSan chez
ĠM áº¥t
imble don
y x
ĠBl anc
ĠF oden
ĠÄĲ Ä©a
ent ial
Há»į a
Ġá» Ķ
ĠAl ph
CN V
Ã¨ s
Ġb oot
Ġ18 59
ĠMod i
um ber
SD L
ĠHass an
Ġt Ã£
Ġv Ã£ng
ĠT uc
ĠB oh
Ġg Æ°á»£ng
00 1
A NH
ĠCh annel
ĠX box
ĠMoz ambique
ĠM iz
ĠG Ã¢y
b á»ĳc
% :
m oi
å ±
ĠThá» īnh
Nh áº¥t
th áº£
ĠHu d
D Æ°
car e
id s
ĠHous ton
ĠKyrgyz stan
Ġb ot
ĠM áº¿n
Ġra ting
Ã©r ie
inn ess
L áº¡ng
y i
Ġ oi
e ira
In ter
ĠY i
amb a
ĠAM D
ĠX áº¿p
sp ur
Ġc hÃ´ng
n Ã³i
ad h
ĠBus an
ĠLaz io
ĠGon z
ĠSoc iedad
ĠF ant
........ ........
x uáº¥t
ĠÄĲ áº¥y
Ġ18 82
Ġh as
TC K
ĠIS TAT
fer ence
oc er
ĠAdam s
ĠDoug las
19 80
ĠMarsh all
ch Æ¡i
10 2
ĠNg Ãłn
N o
s or
ĠB á»¯a
ĠB it
ah l
Ġng áº§u
oll ow
Ġ5 70
ĠCast ro
ur ch
Ã ĥ
ĠV EC
b urn
Ġhot line
ild ing
ĠPeters burg
å İ
m es
un ic
Ġca s
st atic
p earl
Ġb Ã³i
Ġin ter
ĠTel ecom
ĠV ogue
Ġ Ã³i
22 4
Ġtr áº§y
ĠHaz ard
Ġ ì
á» £i
ĠNg u
ĠRad io
Kh áº³ng
f eld
Ġtr ans
12 1
ÃĤ M
c á»±c
y ph
ĠHall oween
5 60
h or
ĠB is
ul u
Å¨ NG
ĠPr im
O lymp
Ġk W
Ġg roup
ĠLan c
org inho
ĠM iáº¿n
Äĳ un
ĠRob usta
ĠCh anh
ĠKan te
Ġb oxing
Ġtá»Ļ t
H Ãłm
Ġnh Ã¡y
Cam era
ĠW ave
ĠMcCar thy
r ina
om at
ĠHá»į a
ari idae
Ġ18 86
ĠS ara
IN E
T Ã¡i
ĠSi beria
po int
ĠArn old
Ġnh Ãµm
ĠTH I
Q SDÄĲ
ĠDe an
tr ia
ĠVÃĢ O
ĠSt alin
ĠG CN
ĠNh Æ°á»£c
Th Ã¡p
el o
Ġ22 3
vel le
ĠSal tic
ĠSar ah
ĠT on
ĠÄĳÃ ¹n
ĠV ssID
ĠVill age
Ä Ļ
Ġnh áº§y
Ġ22 1
ĠATV S
ĠMold ova
Ñ Į
ĠB ale
kh oe
ĠYouT uber
m ac
Ġn Ã¨
ĠSulli van
Ġv ac
Ġná» ĩ
ĠGr uzia
ĠP eople
Ġb áº¹p
ol lo
t Æ¡
ĠTan zania
Ġá» ī
Æ¯á» ļ
ĠÄĲak rÃ´ng
ĠNA Y
Ġh ecta
ĠD id
eth er
au g
et es
A V
ĠAp idae
ĠL ithuania
te c
14 1
ĠCap e
ĠColor ado
nh ung
ĠT áºŃn
Ġp od
ĠY oga
ĠOr ig
ĠF ut
ng uá»ĵn
ĠG Ã¡i
Ġ18 88
ĠChamp ion
ag ar
ĠC Æ¡n
ĠAr my
ĠM om
ĠTrá» «
Äĳ Ãło
PhÃ ºc
Ġ18 75
ĠMich el
Ġs Ã¡n
ushi ma
T ar
v Ã²ng
Ng Å©
15 4
G Ã¢y
ĠMax im
} \
ĠAng ola
Ġtiáº¿ u
ng oisao
ĠUy á»ĥn
n ers
ĠK TS
ĠL ip
ĠSun shine
ĠA ch
ur as
uc ation
oph ia
Ġdá» ım
ĠH amp
ch ong
ĠB ush
Iá» Ģ
T AND
V áºŃt
Ġr et
TK CN
EU R
ĠX á»Ķ
H igh
áºł T
Ġnh Æ°á»¡ng
ĠT ÃŃ
ĠKho Ã¡i
ĠMo ore
ĠBoy s
I F
ĠkhÃŃ t
b n
ĠB ack
ĠCru iser
Thá» ©c
Äĳ a
t Æ°
19 67
ĠDX G
ĠTh is
HC DC
ä »
ed er
Ġr e
ĠS Ã¡n
Ġn om
ĠL et
Ġ21 3
ĠJ ar
ĠSaltic idae
ĠU K
Ġest rogen
L á»¥c
en ne
ĠE o
ĠN uÃ´i
17 5
ĠAll en
ĠF ior
J enn
H er
ĠX Ã¡t
aw at
ĠBL HS
l ar
Th áº»
Ġn áº·n
Ġvá»¥ ng
ĠCh iáº¿u
ĠChu á»Ĺi
ÃĶ M
Ġm eg
Ġ5 40
Ġtá» ĥ
ĠK ep
ad d
Ġhack er
C hÃŃ
D el
Ġtrá» ĩt
ĠPar ag
Ġlá» ıi
is i
Ġl azy
ĠCh ern
ĠR un
Ġ18 60
ĠH ok
4 40
ĠHot spur
Ð¾Ð ²
ĠD aw
ĠGi Ãł
ĠAr d
C Äĥng
Ġ áº¯t
ĠH IMARS
ĠGP S
ĠLop ez
Ġ20 7
p in
ĠP ia
te y
Ġ um
ĠG ol
Th áº¡ch
ĠMTTQ VN
ig ma
uat em
Æ°á»Ľ u
ĠL ump
ĠR id
ay ev
ÄĲ Ãłm
k im
w oo
it on
ing en
ĠDes ign
n áº±m
ĠH N
oc arp
R ON
ĠEn rique
ĠP VN
at hi
ĠW imbledon
ines e
ĠG ua
ĠSz cz
Ġ are
v idia
Dr agon
m ai
ĠExp lor
Ġng Ãºt
G N
ĠB le
ĠH os
Bar ca
ell us
Æ ¯ng
ĠP age
ĠWeb site
ĠTen cent
ĠXS MN
X i
Ġ0 24
ĠBah rain
ĠV AS
dio xin
ĠJam aica
ĠAss oc
H áº¡nh
ĠNg oan
ĠkhÃ ¢m
4 70
ĠSil icon
7 80
ch iá»ģu
ĠPr es
ĠLÃªn in
id ion
k Wh
t áº¥t
ĠL ak
G á»Ńi
Ġd áº«m
ĠMir ror
T al
tr á»ĭ
ax i
ĠNh am
ĠNh iá»ħm
w indow
ĠH MS
Ġ189 2
, ..
p le
Ġt ennis
ĠV T
ĠTae k
lad el
ĠMin sk
ĠGer man
Ġs anh
ah u
R ed
ĠP earl
Ð ¼
os ta
Ġtr Ã³t
ĠChar lie
ĠTÃº y
f Ã©
Euph orbia
P ter
ĠN ike
ĠBern ab
Ġs uyá»ħn
ĠP ra
Ġvá»¥ t
ov en
Ġng á»Ńi
Th Äĥm
Ġp H
ĠPV C
C Ã¡t
ut an
unn ing
ĠCQ ÄĲT
Ð ¹
r ice
ov sk
ĠUN ICEF
ub le
Ġmá»ĵ m
ĠLaw rence
it ton
ĠPol y
it ol
ĠGu inness
Ġph Æ°á»Ľc
ĠtrÄ© u
ĠM iá»ħn
Ġc áº³ng
ĠMar gar
T Ã¡o
xcÆ¡ va
aphi c
v ers
ĠG ust
19 77
l áº¥p
ĠSh utterstock
ĠD Ãłn
Ġl Ã³
ĠBá»ī m
Ġ9 99
Ġ30 4
Äĳ á»Ļ
ĠHold ing
G A
4 20
T Æ°á»Ľng
et z
ep end
ĠQueens land
ĠD ark
M c
ĠUS A
ĠDá» ¥ng
ĠMarc os
Ġph áº£
d ao
ĠBeng al
Ġtu á»Ļt
ĠR ab
19 84
ĠR im
Ãģ T
10 7
t es
Ġv ol
Ġmá» Ńa
ĠZ oom
Ġph iá»ĩn
ĠF B
Ġca p
ĠAl ber
Å Ļ
ĠC hÃ³
ķ n
ĠL Ãłn
ĠR ivers
S un
ĠD est
Ġ5 000
áº¢ NG
ach el
ĠL á»įc
10 8
Ġt Ã¡p
ĠS ign
ĠD at
F ood
ĠG ary
Ġmet averse
ĠNg ang
ĠK áº¾T
ĠX D
ĠPh oen
ĠKh en
Äĳ áº·t
Ġ25 5
11 8
ĠMo Mo
ĠHi ro
itz er
Ġh uÃ¢n
Ph áº¥n
ĠMad agascar
ĠB ra
ĠB ros
Ġlip id
ĠAcad emy
il ic
ĠEm ma
Ch Ã¡y
ĠS r
ap on
ĠHe ard
g ie
ĠN Ã¹ng
ĠMc G
å ·
ĠN okia
ip an
ĠDow n
ĠD Æ°á»Ŀng
rus h
ĠH aut
ĠF all
Phi l
Ġ18 79
å Į
Ġx Ã³c
ĠW inn
ĠMal d
ĠStan ley
Th Æ°a
ĠR um
g ont
Ġcá»į p
g ai
Ġ3 12
z z
ĠChan athip
ĠCS XH
ĠVN eID
ĠMar s
chÃ ºng
c áº¯t
t iÃªu
ĠPhÃ ¬n
g mail
ĠM iÃªu
r ap
Ġp oster
T im
ĠSam uel
ing le
ĠBern ard
H el
Ġvá» ±a
ĠRC EP
ĠH ÃĶM
ĠB our
Ãļ c
is o
B CT
ĠW o
Ġ22 6
B ID
F uture
Ġtá» Ľ
ip er
is co
ĠAngel ina
u o
ĠFin ance
ĠJam ie
ĠF le
ockh olm
ri er
ĠTh iago
ul ar
ĠIsa ac
ĠB ox
Tr á»©ng
Ġngá» Ľt
Th áºŃp
ĠR iy
Ġ22 8
ĠLump ur
W A
b Ã¡o
Ġr ich
ell idae
D X
ch áº¿t
ĠV iew
Ġsá» ĩt
ĠL ow
ag us
j s
Ġ18 81
ĠY ear
h at
Ġl áº¡y
au m
ĠLá» «a
E ver
ĠD Æ°á»¡ng
ĠMatth ew
CL OS
C R
G V
in os
ĠB uch
end ra
ĠD áº«n
ĠGiá» Ĺ
Äĳá»ģ u
ĠE ur
ĠCA Q
ĠAc cent
ro ud
ĠFu j
ĠT áº£o
ĠT ob
ĠDar win
ĠB ug
á» ²
and i
10 6
Ar n
; âĢ¦
Ġs á»¯ng
el u
ĠKH ÃĶNG
ush u
ladel phia
q i
f u
ĠN á»Ĺi
ĠMal ta
ĠTr á»ĳng
ĠThá» ĳt
ĠSho igu
ĠIs ab
ĠK ÄĲT
Ġcarb ohydrate
ĊĊ ĊĊ
ĠBen th
88 8
ĠAndre a
ĠT ung
ill y
ĠHero es
ĠY ak
Q U
BC ÄĲ
HÄĲ XX
ĠDay s
ĠJuli us
elop ment
ĠT Ã¡nh
ĠH CDC
s ai
ĠCo oper
ĠN Æ°Æ¡ng
ĠNgh Ä©
Ġd eb
gi Ã¡o
b Ã³ng
amb urg
ĠCl ark
19 63
âĢ ĺ
ĠBr uce
ĠSch midt
ĠSun ny
Ġnh Ãºt
Ġá» ¦
ing a
ĠX U
Al pes
ĠchÃ³ c
ĠJo ao
Ġ24 7
ĠAl g
4 30
B ang
Ã Ł
EA M
åħ ¬
M in
b le
al aya
ĠX Ãł
ĠR och
mp ic
Ġ5 12
ĠFernand o
Ġelec tron
d om
ĠT it
ĠG iáº¿t
ĠNor u
ID S
p hÃŃa
Ġthá»ı m
q uÃ¢n
Ġvá» ±ng
AT A
Ġg ly
BC A
Ġv Å©ng
ĠP ir
L ou
ĠT err
L ep
ĠK BS
Ġr áº¡
Ġchá» Ļi
Ġn ao
Ġkh anh
ĠM iá»ĩn
ĠKho ai
r ion
han e
ĠAm ber
j n
Ġr Ã¬
Ġtrá» įc
ĠVin pearl
ĠB á»ĵn
od actyl
ĠbÃŃ t
ĠDak ota
ĠP on
ĠHe in
ĠMid d
A v
Ġb ass
Ġth oi
un ce
ĠM am
ĠI N
umb ai
ĠRodrig o
ĠS uga
re g
Ho áº·c
ĠM Ãºa
G reen
ut ions
ĠOd egaard
nh at
B á»ĵ
v á»ĭ
Ġh áº¯c
... ),
ph y
ĠM Ã¢n
19 70
Ã¨ ze
n á»Ļi
Ġd Ã£i
ch amp
H iá»ĥu
Ġd ata
yp hi
ĠKid s
B i
ĠA ld
ĠD all
ip l
Ġm Ãºn
ĠM k
Ġru f
ant o
c ovid
ĠSu arez
ĠLeon ardo
Ġm elan
ĠJ ane
U T
Ġm Ãºt
ĠL á»ģ
ĠKu ala
Ġr áº¡c
Ġ0 90
Ġ22 7
ĠL ille
ĠOre gon
E TC
r ie
Ġc p
19 83
ĠDen is
ĠKr as
Ġp an
ĠCA D
Ġm áº©u
Äĳ á»Ļng
tr á»¥
Ġ23 8
ĠK ao
if ood
ĠSt ate
Ġn ai
ĠMu hammad
ĠSum mer
Ġ18 87
Ġ23 1
ĠFr ont
ĠC rai
Ġ5 20
ĠB ac
Ġr Ã¹ng
R ad
ĠG und
ĠCl ar
S y
ĠM ate
ĠDN NN
giá» ¯
M Ã´n
ĠT est
Ġx á»ĩ
Ġqu Ã¡ng
14 5
ĠKo eman
ĠB ieber
ĠK ro
Ġgiá» ħu
l á»Ļt
ĠM BS
nam e
Kh Ã¡t
ist ol
å ¾
ĠH us
apl uat
ĠH áºł
11 6
Iá»Ģ U
ic ran
Ġbo ong
z burg
ĠK BC
ĠPh ao
dor f
ĠD Å¨NG
+ .
ĠBernab eu
ĠÄĳÃ³ a
S mart
ĠRuss ell
ĠN áº¯m
ĠK ings
ĠMon te
ĠK ath
ĠB ourg
Äĳ iá»ĩn
ĠChalle nge
Y áº¿u
u it
ĠAp ollo
our ist
ĠCoun ty
... ",
ĠH á»±u
ĠOli ver
uatem ala
l Ä±
on es
c Æ°á»Ŀi
ĠI owa
Ġ31 5
ĠA EON
Th áº¡c
3 10
Ġt eo
Ġ3 28
ĠB ond
ĠK IA
ĠSe ABank
4 60
ĠN ang
Ġ24 8
ĠKu in
imb ab
ĠAug ust
æ° ı
ĠFil m
l und
ĠN á»Ńa
ĠEd u
8 70
Ġm y
Y ou
Ġph om
ol ic
ĠO M
Ġ18 63
F in
ĠTh Æ°a
os o
ĠKar ik
ĠSel tos
0 60
ĠLi ber
ĠG ÄĲ
th es
F DA
Ġw ork
Olymp ic
ĠV Ã¢u
ĠPhi ladelphia
M ad
ĠC Ã²
ĠÄĳ uá»ĳc
ÄĲ inh
6 20
t hÃŃch
Ġ24 9
ĠM Ã¢u
ĠHu gh
Ġ Ã³ng
ĠLuk ash
Iá»Ĩ P
l inh
az ine
77 7
ĠP M
Ġ18 70
ad ow
s uáº¥t
ĠK oh
Sh ow
u ter
Th om
Ġ18 84
ĠTIáº¾ P
N uÃ´i
ĠGran t
imbab we
f ood
Ġs áº¡
Ġbá» £
ĠNG H
r t
V an
Ãĵ NG
! ",
Ġ ov
Ġb iáº¿c
ĠPhÃ ¬
ĠFu ji
L ife
ĠÄĲ Ã¡y
BN EWS
T ottenham
ĠE X
ĠJe ong
any e
K ÃŃch
ĠC I
19 69
12 2
ĠFox conn
F S
m áº·t
Äĳ Ã¡ng
ĠLiz zie
áº ¶
Ġr Ãºp
du oc
ĠCH á»
ĠGar eth
k ina
ĠT ank
r h
ĠB ak
ĠV ero
ĠRodrig uez
M á»Ļc
L áº¡i
ĠDal ot
ĠParag uay
Ġn Ã¡u
ĠB P
Ġb it
ev ich
Ġyá»ĥ m
Ġá» ·
ĠTuc son
Mich ael
ĠP and
or ge
Giá» įng
r au
ĠSeb ast
t est
ĠMiss ouri
ĠP ter
ĠP ele
ĠY as
ĠY áº¿u
D ia
ĠW ikipedia
A f
ĠBO G
quit aine
ĠN vidia
Ġf in
K iá»ģu
ĠO il
Ġt alk
19 65
land s
hi te
ĠJ ens
ĠV áº¯c
Ġ18 77
ĠC TCK
5 70
ĠP ick
is ha
s te
nh áºŃn
ĠSt ockholm
Ġ6 80
Äĳ áº¡o
ĠNhá» ı
M bappe
N ov
ĠH as
ThÃ ©p
Ñ ĭ
im s
Ġthá» ıi
ĠK oi
em outh
ĠBent ley
R Ãł
ir d
16 5
uc c
EN CO
b t
p ot
ĠM S
ĠS ierra
Ġn ylon
ĠEd ucation
ĠF ans
Ġp Ã´
ĠCam ry
c Ã¢u
ĠK ansas
oc al
Ġh áº±n
ĠN L
ĠP LO
é ģ
Nhá» ĭ
ĠAh med
11 4
ĠD R
ĠMan s
Y C
ĠK el
Ġ6 60
ĠO ver
Ġsp ec
N áº¯ng
m áº·c
Ġ4 10
Ġ24 2
mer ce
BÄĲ S
ĠF ast
eth ao
24 7
hy un
Ġt on
ĠC VT
13 6
ĠDe ep
w ick
ĠOff ice
ne x
Ġ23 6
ĠJenn er
ae v
ec cons
ĠKh am
13 3
ĠSport ing
i ph
ĠO PPO
Ġn áº»o
Viet in
ĠAgu ero
ĠPap ua
x Ãª
ĠB ella
ĠS AR
Cap ital
ĠD W
ĠTur bo
D end
C rist
H yd
ĠN CC
Ng á»ĵi
ro ad
Pod s
ĠArab ica
Ġvá» ĵng
Ġâ ī
es te
Tr á»ĵng
im p
ĠAR M
ĠTed ros
ĠC II
Ġlá» ©t
ĠSecur ities
ĠS Ãło
ĠR hein
13 4
ĠPict ures
ĠTh at
tr ai
Æł N
v u
Ġt Ã²ng
Ġr á»ĭch
Ġdá» ģn
ĠMay a
BID V
P le
m us
V iÃªn
ĠÄĲ á»ķ
ĠPro ject
ĠRang ers
ĠSH S
r ik
M H
ĠPh iáº¿u
B el
Ġn ot
ĠBá» ı
S il
ĠM umbai
ĠF au
ĠE Q
Ġl at
Ġt uáº¥t
ĠL á»Ĺi
áº® NG
8 20
t Ã©
ĠÃĲ áº¡i
U ng
ĠCen tre
itan ie
ĠAsia d
c ell
r d
ĠA PG
ĠChá» ©
uc t
ĠM áºŃp
l is
ĠI oT
Ġb Ã¡ng
ĠH orn
F ED
Ġchá» ĵi
ĠP á»ĵ
S uy
av y
ĠPer ez
b Ã¡nh
ĠN eb
ĠC ay
ĠPr Ã´ng
ĠVin cent
ĠNapol Ã©on
w atch
w orld
g es
Ġqu ÃŃ
9 80
á» Ľ
in ental
ç ļ
Ġp ap
ĠB CG
áº¬ P
p ar
ĠT ch
uc ky
ib ia
6 60
Ġng uÃ´i
ĠM ess
st ad
ĠDe ad
Ġch áº§u
Ġ ol
S en
tr áº»
ourn emouth
K ia
Ġg Ãło
ĠT ol
P an
ĠC Ãłi
ĠH áº¯n
H GÄĲ
ĠQ P
Ĭ NH
ĠB ord
ĠS ton
Ġb Ãºi
ĠL CD
Ġcaffe ine
f ish
ĠP P
avir us
c áº§n
ĠLukash enko
ag er
ĠTr uss
ic olor
ĠB ong
ĠÃĲ á»ĵng
ĠFior entina
ĠNat ure
ĠK Ã¶
Ġ23 2
M áºŃt
ĠSp ring
ĠGlor y
k es
há» Ļi
ĠJ en
iy asu
ĠBR I
Ġd Ã´i
ĠIC U
ĠGor don
Ġ23 4
Ġr Æ°á»Ŀm
ĠÄĲ Ã¨n
Ġcast ing
ĠVat ican
ĠS ÃŃp
8 30
9 20
T Æ°á»£ng
Ġh áº¥n
Äĳ á»ķi
qu oc
ĠO z
Ġ28 5
S Ã¡u
Äĳ Ãªm
av ier
Ġ27 9
L Ã´
ĠCh al
ĠL ist
Ġrob usta
ĠB Ã¢n
ĠG uatemala
- ...
5 80
c Ã¡nh
ch em
l ow
ĠExplor er
ĠRivers ide
J ung
h au
ĠR áº¯n
ĠMig uel
L áº¡c
AP I
ĠCov ax
Ġl á»ĭ
phá» ¥
âĢ ł
ĠHF NC
Rob ert
V ui
ch y
ĠK le
Ġ6 20
ĠchÃ³ p
y ang
Ġb á»Ł
et to
Ġ <
ĠP ug
ĠEng ine
Ġkh áº¥n
ĠÄĲá» ĺ
Ch Ã¡nh
z he
AM G
ĠSec ret
V ic
é ĥ
on na
Ġs áº¥m
ĠS W
Ġ18 64
enc er
19 78
os ia
Ã´m a
6 30
T G
Ġsh ort
ĠJ orginho
ĠHD B
Äĳ Ãłn
m ec
ĠN K
Ġ5 80
ĠSp O
ĠNhá» ķn
R os
S ar
tr á»±c
NV CC
O m
ov ka
ĠLá» ĬCH
UYá» ĢN
ĠSom alia
ĠT ÄĲC
ĠComp osite
Ġd áº£
ĠBr y
Ġ18 71
Ġb iáº¿m
ĠÄĲ oa
ĠKur d
ĠPol ypod
ĠSpot ify
P op
ĠCS HS
36 5
L am
ĠTH ÃĢNH
bo at
ond uras
Ġ Æ¯ng
iv ir
Ġ26 6
V ol
An th
J ames
N ASA
M us
yphi idae
12 9
ĠFir mino
kus en
ĠLin yphiidae
ĠHuy nh
IS A
Ġc ur
ent a
ell ow
Ġhá» Ńng
ĠCar ter
5 40
ĠÄĳ iá»ĥu
Ġph osph
A z
T ik
Ġs áº§n
ĠS tein
âĢĿ (
i os
Ġnh Ãºn
ul ia
ĠK ad
ĠR and
ĠPr ime
AR T
ĠTitan ic
ĠG M
ĠÄĳo Ã¡i
ir st
ĠSil ver
ĠTr ading
Bay ern
Wil liam
ĠNova World
ĠH V
ĠTor ino
ood y
op a
12 6
Ġtu á»Ļc
ĠVu itton
con sin
ĠK ot
Ġ3 35
Ġdi oxide
; ...
ĠS Ãºp
ĠMÃ¼ ll
ĠZ imbabwe
Ġw orld
CB S
ĠMas ters
ĠJos Ã©
ĠAn im
ĠO ng
19 60
Ġ18 76
og na
Ġw ifi
a eda
an ov
for man
ant is
iat us
ĠLP B
ĠU m
ĠT á»ĭ
em at
ĠA eon
ĠY ellen
ĠW ith
ĠCamp bell
L ove
ĠL á»Ńa
Ġ18 65
ÃĢ O
G ar
Phá» ¥c
id us
ĠY ah
18 5
ĠKCN A
áºł M
Ar gentina
ĠB Ãª
ĠChar m
nik ov
" âĢ¦
ĠC áº¥u
Ġqu á»ĩ
ĠZ e
light s
Ġ18 73
ĠSab eco
Ġv Ã£i
Ch áº¡y
BÄĲ BP
Äĳ á»ķ
d et
ĠE CB
y eon
w at
ĠP ath
Ġdá»¥ m
ĠPolypod iaceae
12 4
ĠBin ance
ĠPropert y
d ae
Ġtá» µ
ip ennis
Biss aka
nh u
ĠhÃ¨ n
ĠO ri
m Å©i
Ġp al
ens tein
p d
ĠG á»Ńi
ĠG ross
23 5
C all
c Å©
x b
ĠT onga
ĠV ig
re ad
Ġ30 5
ĠT áº·ng
Ġ22 4
ĠU d
ĠLe ver
8 60
Ġr uá»ĳc
ĠM ond
ĠCh iÃªn
ug ar
ĠAnd ers
ĠR oth
ĠN BC
Ġr eal
ĠWes tern
ĠKir by
ĠAl varez
ĠOn ana
Ġm Ã¡ch
ĠF our
ek i
C as
Ã© mon
Ãµ a
ĠCB CNV
ĠÄĲ iá»ĥu
ĠM it
5 20
b al
ĠTh iá»ĥm
ĠF ad
ĠJ ota
ÃĤ u
ĠPh áº¡t
k ar
ĠB Ãłnh
Ġ30 1
ĠPhan tom
ĠAlexand re
s am
Ø §
om or
Äĳ áº©y
ĠM itch
ĠBet is
Ġch áºµn
ĠÄĳ áº¥ng
Gi áº¥c
red list
ist on
P et
ĠN elson
to is
ĠS eng
ĠTur ner
ĠDis c
Ġcas ino
A le
Ġng áº©n
ĠChi ld
7 20
Ġp all
ĠNh Æ°á»£ng
ĠPer ry
ĠInd iana
ĠBro ad
N Ãªu
an um
ĠS ik
oun tain
ĠTS MC
Ġáº¤ y
ĠK w
Ġrá» ¥c
th uá»ĳc
Thu áºŃt
ãĥ ¼
ĠPat riot
Ġt itan
Ag ribank
ĠF un
ĠSte el
oster one
ĠBil bao
GR DP
ĠQu ay
ĠE c
phun u
amb on
Ġd Ã¬m
cá»© u
ĠSach sen
Ġan ti
Th S
ĠHo j
chá» £
C ro
ĠPar ad
ĠLey en
b en
ĠTP B
ĠK á»ĭp
ĠR á»Ńa
ĠServ ices
3 21
ĠS ass
ad ona
ĠÄĲ Ãłng
ot es
yd er
Ġlay er
19 74
Ġte aser
ĠL IÃĬN
ÄĲ Æ°Æ¡ng
b uk
Ġkh áº£m
ĠH Ãºc
ĠA V
Ġf il
eo t
Merc edes
n an
Ġhá»Ļ t
ĠF it
ĠPCT N
ĠV RE
ĠM ind
Ġ Ã¬
ĠUn der
ĠBer g
6 40
ĠA u
ĠD UY
13 2
Ġtu abin
ĠF rid
han na
ĠMich elin
AN K
ĠAl m
Ġ24 3
ĠMil it
ĠM ina
ĠJP Y
Ġg áº·m
Ġ18 83
od ont
av es
gi áº¥y
ĠC ool
Ġth at
ĠcÃ ¹i
{ \
ĠT ag
Ãģ NH
ĠSun ak
hi s
ĠKhu Ã´n
g il
Ġng Ã³t
ĠC in
Nh áºŃp
ĠEng lish
ĠJ ake
Ġ25 1
Ġ23 3
ĠCop enh
0 70
8 40
Ġan t
ngh Ä©a
Ġ6 30
ĠEnter p
V áº¯c
Ġph Ãło
h áºŃu
Ġl ine
ĠF ly
ifol ium
23 4
c ens
ĠGi áº£n
P ep
ĠDi ogo
n os
ĠCam eron
ĠN KT
ĠG rai
O li
sk ie
S á»Ńa
ĠI g
ĠAM G
. (
M en
p us
Ġl Ã¡c
Chá» ©c
ca fe
ud y
Ġni u
h áº¿t
ĠD od
ĠI CT
Ġs áº¡m
ĠChÃ ¹m
ĠAl t
ĠServ ice
C ity
6 90
ĠBrook lyn
ĠLamp ard
ĠS et
Ġd áº·t
S áºµn
ĠK ool
qu Ã¡i
to ine
d ia
m áº«u
ĠCh Ãło
ĠOr ange
G H
Ġs ec
ch at
ĠMT QG
D ani
Ġd iÃªm
Ġcon s
ah alli
ĠMorris on
ĠM á»Ĺ
Ġ18 61
ĠEng land
ĠT Ã¡t
Ġx iÃªm
Ġsp in
åŃ Ĳ
iz on
ĠNou velle
Ġng Æ°Æ¡i
ĠP un
Ġ5 30
14 2
ĠCon ference
PhÃ ¹
Ġ22 9
if era
Ġng áºŃy
hÃ´ ne
6 70
ĠGust av
3 75
U EFA
Ġnhá» ¡
Ãģ CH
ei j
ĠKn ight
Ġ10 22
A U
Ġbá»ķ n
ĠZ ambia
NS T
7 60
ĠÃ ĩ
LH Q
Ġáº ¨n
ĠHiroshi ma
Bá» ī
ĠWis consin
c enter
ĠK N
A L
ĠÄĳ ay
th iáº¿t
Ġ18 66
ĠCopenh agen
V itamin
Ġ18 74
ĠLu gan
ĠF TS
ĠBR G
ĠR ac
th ouse
ph Æ°Æ¡ng
ĠNest lÃ©
ĠMau ricio
ĠN az
Arn old
Ġn áº¥p
id an
ĠJul ia
ĠNhÃ ©
ĠS ale
Ġ4 71
Gi Ã³
T ÄĲ
Tr ich
ĠKh Ã¡t
ĠLo áº¡t
ĠTho Ã¡t
ace a
AF F
ier i
Ġm Ãµm
P CCC
Ä «
ĠC á»Ļt
ĠG ak
er ry
25 6
ĠG ur
0 20
ĠLud wig
ĠC BS
Ġk á»ĭ
ĠSchl tr
ĠG au
x on
ĠM Ã¡
ien Viet
R om
Ġ ev
phi s
ĠÄĲ áº©u
ar te
phunu vietnam
Ġlo an
S w
ĠL DG
Ġng Ã¡t
ĠV áº»
há»Ļ p
Gal axy
ĠW onder
HCM C
14 8
ĠUr s
ph Ã¡
ĠEU R
ĠF idel
ai d
B est
Ġs Ãª
ĠTr u
ĠIU CN
ĠH onduras
ĠDr ag
ĠH in
ĠPr om
ĠSqu are
ĠLugan sk
ĠLever kusen
há» Ĺ
Ng Äĥn
Ch e
d á»ħ
19 50
ĠF amily
ere um
zhe imer
Ñ ĩ
ol ution
b Ã³c
ĠHy o
uch in
ç Ķ
Äĳ Ã¡
Ġo áº£i
uc ks
el ine
ĠCh ao
ĠÄ ĥ
ĠFeder er
h aka
olog ies
K ing
Ġg ran
Ġch uá»ĳt
og y
ĠP Ã´n
ĠCon cert
ov sky
ent iane
ĠNh anh
ĠPhoen ix
k az
ĠA NTQ
ĠF uture
ĠH áº¢I
G h
ĠSp ar
ĠVol vo
Ġ( ?
ĠK amp
ĠLe vi
CCC D
ĠPart ners
3 90
hi ng
ĠStan ford
Y P
Kh áº¯c
N Ã³ng
K y
Ġb áº¹
ĠN D
ĠH oÃł
Ġ7 37
ĠB ail
ĠVH NT
ab aby
19 44
Ġâ ĪĴ
0 30
iy ech
ĠOle ks
ĠC oca
ĠG aga
O H
Ġb uá»ĳt
Ġtal uy
n ab
ĠAm b
ĠGh ost
b á»ĳ
c raft
Ġt Ã©t
ĠB ournemouth
ĠS ok
ĠTh aco
Ġs ulf
Ġz oom
Ġt one
ĠV iv
13 8
ĠFans ipan
m ot
ĠN á»
Ġ25 7
ĠCol l
ĠB og
ĠTr áºŃt
Ġ26 2
ĠJohn s
ĠH VN
ĠCharl otte
5 10
O s
Ġg ao
ĠIS S
ĠR ot
ĠIn cheon
opter idaceae
Ġl uá»ĳng
ĠM ICE
D F
ĠB YD
Ġcá»© a
ĠSub aru
ĠTaek wondo
V iáº¿t
ĠB ÃĮNH
ĠCh in
ĠTrá» ©ng
P eter
ĠS v
ĠVin Future
ĠÃĲ á»©c
Ġ Æ°
Ġv in
Th Ã¡ch
ĠV e
ĠBat man
ch áº³ng
15 2
19 66
ĠJan et
ĠCot eccons
m Ã³n
ĠR NA
? .
Ġbá» Ŀi
Ġ25 2
Ġná»ĩ m
A B
ĠK av
M az
r s
ĠS BS
b f
Tr á»Ļm
Ġhá» Ŀn
Ġ er
Ġ30 8
20 5
Ġm ÃŃch
uk o
ĠATVS LÄĲ
n ell
thá» ķi
C E
ĠHy p
lan ta
R á»«ng
ĠAI PA
ĠWay ne
Ġboot s
h l
ĠN eg
ĠS app
au c
ĠSo ul
7 30
Ġ29 5
0 40
Ä ħ
Ġn Ãºp
Ġsá»Ł i
ĠB eta
uc n
H am
Tr Ã¡ch
Ġ18 69
ĠOcc itanie
Ġnh áº¥c
Ġch áº»
tr uyá»ģn
st a
ĠJob s
io ides
ez o
S Ã¡p
T áº§ng
ĠSA O
Ġhá» ħ
ĠH Æ°u
r ico
ĠAl ice
V á»ĩ
b oy
ĠbÃ¹ a
Ġl á»ĳ
ĠB Ã©o
13 7
Ġr Äĥm
ĠL oa
Ġty pe
ĠPr ice
Ġgluc ose
b Ãłn
ĠGi roud
ĠInf inity
ĠBlanc os
2 99
P etr
im o
tr eo
ĠTáº» h
æ Ń
Ġr Ãłnh
and o
ĠPr ince
ĠMap s
oy e
ĠEd en
7 90
Ġhá» Łi
y eol
ĠK iá»ĩm
ĠMag ic
ĠAl li
yl ist
s ov
ĠL lor
ĠR up
tr áº£
Ġ24 4
ĠR Ãło
g Ã³i
ĠDá» °
19 64
v á»¥
ĠPh arma
di en
acon ex
12 7
c áº§m
g art
Ġf ull
ĠChi l
0 90
ĠI gor
ĠD um
Ġm el
ulin um
á ¹
Ġk ar
ĠT enn
hÃ ©
ĠL Å©
que z
Ġc ro
ĠK S
ict idae
T el
s á»Ń
w ana
ĠHen ri
Ġkhá» ĳ
ĠTr Ãło
ĠTh uyÃªn
Ġ18 62
Tr á»£
ĠLe ad
hi t
ĠAir Pods
ĠMartin elli
S uper
ĠPhillip s
ĠJess ica
ĠAl isson
ĠGu ill
ĠH L
ĠAl c
Ġn ov
ĠAl zheimer
Ġb áº¿t
os um
it is
å± ±
q uyá»ģn
Ġng Ã¡y
or h
ĠHe ad
ĠCor ona
ĠN iá»ĩm
6 10
Î ±
ĠB LÄĲ
ĠVir us
Ser ies
ĠV Ã¢y
if a
ĠR az
Ġso c
ĠW right
od i
Ġle uc
ĠBá» ģn
ĠHow ard
ĠLis bon
in y
ag awa
ĠB áº¡t
ĠS ent
ĠTr ay
Ġnh áº½
Ġd Æ°á»£ng
Ġ4 75
Ġshi p
ĠKy oto
B us
J o
ĠBr yan
ĠDep ay
ag n
ain s
ĠD ick
ap est
est on
F e
Ġr ep
ĠGi áº¥c
An ton
T áº¥n
r ac
ĠM iá»ħu
ĠI an
lah ovic
Ġ25 8
ĠMald ives
t Ã´i
ian um
ĠAh n
ĠCh art
ĠW ard
Ġ á»ĳ
ĠRed mi
ĠVi entiane
H Ã´n
ĠA ud
op idae
Ġ18 68
ĠSte fan
Tr Ã¢n
ĠZh ao
ĠBas el
ĠNghÃ ©
Ġv ÃŃt
ĠTr an
ĠY un
ĠShe ikh
C X
ĠN ur
od end
f ace
ĠNg á»±a
ĠB urg
ĠthÃ ºng
em er
ĠSh an
ĠSM E
Ġje an
E up
Ġ4 88
ur ance
y on
ĠR Æ°á»£u
ĠSai gont
ĠNut ifood
á ŀ
car az
Ġden im
9 60
l ess
Ã Ĺ
K m
g Ãł
ĠC F
uk et
at ing
g ers
ĠT oy
ĠCat alan
ĠAth ens
ĠSoc ial
ĠHau te
G old
ĠB ing
ĠT ot
ĠTh ong
as is
ap ur
Ġc rop
Ġhá» Ŀ
ĠRud iger
ĠChÃ ¨o
ek o
ĠBenn ett
nghá» ĩ
i idae
Ġnh Ã¡c
Ġ9 70
Ġh áº»o
Ġ6 40
ĠH á»ĳ
ĠF TX
oph y
i ucn
in fo
ĠA o
Ġ3 24
Ġbl ock
iucn redlist
13 9
t áº¡o
Ġl á»ĳt
Ġb Æ°ng
ĠÄĲ oÃłi
ĠTHA CO
ĠhÃ ºc
8 10
Ġ3 31
ĠNhÃ £n
ĠC ocker
ot light
ĠOd essa
ĠT ig
ĠB Ãºt
or ca
Ġ18 58
ĠG in
ienViet Post
Ġ3 26
ĠSp r
Äĳ Ãºng
TN MT
MS T
ĠCh uá»ĳi
Ġ25 4
oc en
Chá» ¥p
Ġm Æ°á»Ľn
Ġl Ã¨o
ĠChu á»Ļt
ac in
ĠKr ak
ĠYuan ta
champ s
f ort
ĠAh mad
N m
Ġm Ah
ang er
D áº¡y
Äĳ au
L uc
19 5
ĠJ orge
P at
t Ã¡i
b Ã¡c
thá» ĥ
Ã§ ois
ĠInd epend
Ġ ).
un er
ĠKaw asaki
25 5
m inh
ĠP ax
ĠKho áº£nh
ĠDry opteridaceae
Ġs up
Ġkh áº¿
ĠK won
H U
Ġrá» £n
th us
ĠnghÃ ©n
b ie
å ¯
Ġcá» ¯
es hi
ĠMar x
C á»§
s á»ķ
ĠK iÃªu
ĠS ey
Äĳ Ã¢y
ast el
ow y
ĠGar n
T Ãºi
ach t
ĠCan celo
ov inam
ĠHun ter
ĠAr ane
14 7
ĠAm ar
ĠO xy
ch áº·t
ĠFil ip
ĠS ax
ĠTr o
ĠTr Ã¢u
aly mpic
ĠL una
ĠF at
Crist iano
ĠAv eng
V KSND
13 1
ĠN Q
Ġ18 50
ĠR us
Phá» ķ
ĠM á»Ŀi
el of
ill us
enz a
Iáº¾ N
22 8
G áº¯n
n ang
ĠP Ã¹
ĠMar yland
ĠÂ ·
ĠS ultan
Ġdá» Ĺi
Ġ24 6
uk u
m Ã´n
ľ I
14 9
ĠTechn ologies
Ã¶ r
ĠDá» ħ
ĠN ice
Ġtrá» ©
C Ã¡o
Ġ26 8
CP C
forman ce
ĠK anye
ed i
ĠMan o
ĠSp ir
L ai
on ic
esse nger
en eg
ĠI ron
un i
k or
ĠTN CN
ĠAlg Ã©rie
ä ½
áº ¨
ĠÄĲ Ã¢u
ĠM Iá»ĢN
15 7
ĠPark er
ĠG Ã³p
ĠR ui
Ġ18 67
Iá»Ĩ U
ĠL ast
ĠD á»±c
8 80
ĠE ss
ĠGo jek
le v
M at
H ang
X uyÃªn
ut inho
ĠPr ay
ĠCS CÄĲ
ĠDe ng
ienVietPost Bank
ĠH AG
ĠTr a
rol et
cafe f
V D
ĠTay y
Ġ4 90
Ġpol ym
ĠSc ar
Ġng áº¡n
ĠT Ã´m
C áº¯t
g ow
ĠV Ã©
ĠM ing
ĠEmp ire
N á»£
l ic
ĠcÃ µng
ĠGl azer
ĠGl as
nh áº¡c
ĠVo ice
ĠR Ã´ma
16 8
c áº£m
ĠTr ue
Tá» §
ĠLou ise
ĠSoft ware
Ġv áº¹t
ĠS Ã£o
ĠInn ova
Ġc ross
Ġnh en
ĠAl onso
ĠIA EA
14 4
Ġl Äĥm
ĠAv iv
ĠCrai g
ĠA er
p ost
os te
Ġgh áº»
arl ison
Ġphá» ī
ĠK ien
Ġ24 1
15 6
ĠB av
ic ut
) )
ĠS amp
ĠF ish
ot is
b is
v iv
Ġ29 9
ub an
f olk
ĠBourg ogne
o ung
ĠK L
Ġ28 8
ĠResiden ce
v áºŃt
ĠXS MB
ĠKam ala
au er
ĠE instein
7 40
ĠthÃ ¬nh
ĠReal time
T uyá»ĩt
Z ero
ĠRob in
ĠEconom ics
ĠPra ha
Ġá» Ľn
Ġ7 30
ĠBern ardo
all a
ug in
Ġáº¤ t
m ont
Æ°á»Ľ m
ed e
S el
ĠSA B
há» ĵi
end s
ĠTO P
dot el
ĠE SG
B ur
ĠH z
ĠE PA
ph us
aw an
ĠSG GP
Ġ und
ch enko
ĠClin ton
ĠK ob
ĠM es
ĠU tt
ĠAl ab
ĠK iáº¿p
Ġin f
ĠWid odo
Ġhá» ·
Ġtrá» ĵi
ĠMar adona
55 5
AN OI
ophi e
ĠV is
Ġ3 45
ass o
Ġ ag
ĠW ak
ĠBl ade
n s
omy ia
ĠKh oan
2 45
d ep
ĠP it
ason ic
w orth
áº® T
ĠRang e
Ġl Ã¬a
Ġd Ã¡t
in ensis
Äĳ á»ĭnh
ĠDu c
C áº¡nh
7 70
ĠAk ira
Ġc ut
19 48
ĠAl fred
XS MN
ĠLight ning
T CT
ĠRe view
16 6
ĠC atherine
ES T
abi ot
ĠcÃ ¢m
B Ãły
j ima
ĠD IC
ig oz
ff ield
ĠV isa
ĠAd v
ĠT DP
Ġm á»ĭ
ĠTayy ip
Há» ıi
ĠGri ff
M Æ°á»Ŀi
ĠM M
Ph áº¡t
b ÃŃ
Ġh on
an u
ĠL ung
Ġw as
Ġv Ãºt
ĠJim my
Ġmod ule
4 10
ĠL á»±u
ĠNor man
ĠP s
ĠAt lanta
ĠHud son
ĠFranc es
ĠL INH
ul d
ĠJu ve
6 17
ogloss um
Sh ark
ĠS eon
18 6
å ¹
ĠD Ã¢y
Ġdeb ut
4 25
El on
Ġ á»ĳi
t oc
ĠChá» Ŀ
P oly
ĠEm ily
ran t
XS MB
ĠCB CC
act ion
ol t
ĠHo áº¯c
Ġs iÃªng
Ġr á»įi
c idae
n or
ĠVent ures
Æ¯á»ļ C
ic ana
D M
G Ã²
Ġs tory
ĠD ell
ĠArk ansas
H Ã²n
Ġ23 7
ĠcÃ³ i
ĠLe i
yo ut
18 3
Ġgi Ãªng
Ġ18 38
ĠBr id
' '.
ĠS ee
Kh áº©u
Ġ26 3
23 1
ĠKhark iv
t ung
ĠV S
n Ã¢ng
Ġ one
ļ t
4 75
Ġp ul
art o
Th o
P ierre
Ġs Ã¹i
14 3
ĠBÄĲ KH
ĠQu ÃŃ
US S
Ġl áº¡p
ao ke
l á»Ŀi
ĠÄĲá» ĬNH
ĠCh áº©n
X a
ĠchÃ ¹i
u v
ĠOm ega
ĠHal ictidae
Ġb allad
ĠH ist
å Ľ
ĠgÃ³ a
T or
nh áº±m
Ġn áº·c
UB KT
at y
ĠSal zburg
Ġho me
ĠS oy
ĠchÃ £i
Ġgu á»ĵng
ĠN á»£
Ġx iÃªn
ĠMid u
7 10
G M
19 41
ĠZ iyech
M od
ĠDe uts
Cry pt
U K
Ġs kin
is lav
I d
on o
Ju ventus
ar ay
16 3
Ð½ Ð¸
Ġt uyá»ģn
ĠCai ro
ĠEl li
ĠRom elu
H iáº¿n
ĠPr ov
pl en
ĠGm ina
ĠH ell
il es
ot en
15 9
B al
ĠCh áº¡y
ro e
Ġ23 9
PP P
b ala
d ad
Ġx á»Ľi
ÅĦ ski
ĠNg á»įn
ĠthÃ ©t
ĠGi oan
om er
Kh en
ĠS á»ĳt
24 3
>> >
è ¡
-------- --------
z u
ĠCap itol
ĠKTT V
18 9
ĠBl ock
Ä± r
C hÃ³
ĠDid ier
Ġ3 19
Ñģ ÑĤ
Ġst atus
Ġkh iÃªn
Ġ35 6
ĠO ppo
18 8
se in
ĠÄĲHQG HN
B Äĥng
Ġp seud
ĠCh ai
ĠUBMTTQ VN
ĠkhÃ³ e
Ġxá» ı
Ġtrá»« u
dong san
g s
Ġr ÃŃt
Ph áºŃt
f ul
ĠSu isse
ĠA IDS
ĠR IA
ĠRo oney
Ġn Ãºm
ĠV á»ı
ĠEl ite
L á»ĵng
n en
ul es
d s
Tr uyá»ĩn
Th Ã¡o
ĠÄĲ Æ°á»Ľc
t iÃªm
Ġp ur
ik en
t ur
s ha
æ ²
ĠD H
ĠcÃ ºt
Ġ28 7
Ġg Ã¹
an z
ĠCr eta
ĠSant iago
Chi m
yp ter
ĠGak po
Ġ26 4
17 7
ophyll aceae
ĠBud apest
Sá» Ľm
== ==
igoz hin
h op
ĠN CB
Tr i
ĠDo ctor
ĠPar alympic
l Ãłng
Tr áº£ng
ĠKy odo
Ġvac xin
l os
ĠcÃ ²ng
ĠFrank lin
Le uc
ĠLo ire
ĠNhá»ĭ p
n á»ķi
ĠS yn
au gh
ĠAt lant
h ara
ĠP yr
on c
G áº¡o
in ol
ĠPok Ã©mon
ĠCocker ell
ĠT oshi
ĠFl ash
ĠHá» Ľn
V en
D ai
å º
Ha aland
éķ ĩ
ĠN xb
Ġ" .
ĠUnivers al
3 25
S i
b áº£ng
ĠNew ton
ĠLapor ta
M ont
ĠLe pt
ĠZh u
ĠM ia
Ġtá» ģ
ĠM Ä©
ĊĊ Ċ
ĠMargar et
ĠH amburg
gor od
ĠAustral asia
Ġs em
ĠÄĳá» Ŀn
23 6
ĠT Æ°Æ¡i
ĠB Ãģ
km en
b ourg
ĠD Æ°a
Äĳá» īnh
C at
ĠKar aoke
ĠMer r
ĠM uá»ĳi
Ġhi u
b ur
ĠPh uket
ĠPal m
ĠMend es
e um
g ne
ĠK ap
Ġná» ©a
n Ãłng
Ġ18 57
Ġ29 6
han sk
gi Ã¢y
ĠInst it
K hÃ³a
ĠY eo
li o
Ġp izza
ĠF ati
ĠJ ai
ĠO ECD
Ġn eu
ÄĲ á»ĵn
Ġ18 72
ĠV as
ĠTeleg raph
ĠY en
l ang
z awa
ĠSi em
h oc
ab lo
ĠtÃº m
) ".
K K
x uá»ĳng
ĠT ir
ÄĲ áº¡t
ĠAb b
ĠMeg ach
ng on
Ġl Ã³ng
ĠDec lan
Ġp ost
ĠB Ã²
ial is
** *
Ġqu Ãłng
ĠG y
ĠF aso
ĠNor folk
T hÃ³i
Ġ26 1
ĠAzov stal
S yn
Å ¾
Ġb Ãłnh
ĠMegach ilidae
L ew
ic ollis
ĠKhÃ ´n
HÄĲ QT
n Ã´ng
ĠOli vier
c anh
ag in
5 90
S eo
k áº¿
w al
Ġthá»¥ t
ĠBin z
Geo r
ĠG áº¥u
N Ã©t
c á»¥
ĠS us
or f
Bul bophyllum
v ath
ĠC SDL
ĠV BA
ov ax
ug eot
ĠT ake
Gi ang
chÃ º
19 55
og raph
2 15
es ch
ud ential
T Ãº
ĠRap tor
é ĩ
Th Æ¡
ĠX haka
C anh
Chá» ¯
ĠB á»ĳng
ĠW ei
se i
28 5
ĠNV QS
l oe
ĠCy ber
Ġ18 48
ĠHun t
Th áº¯p
ab et
ĠPr igozhin
17 9
Ġ35 5
ĠNormand ie
Ġ ãģ
li on
ĠPhao lÃ´
ĠK Ãª
Ġdu á»Ĺi
m Æ°a
ol ep
P ass
Ġng áº£i
ec ca
og r
Äĳ á»ı
ĠCar e
ĠC ob
ĠG á»«ng
Â ·
Ġngá» Ĺng
am o
th ia
Tip ulidae
ri en
Lou is
J ac
t ail
ĠM ack
Ġ18 54
ĠNe u
L E
ĠTá» §a
Kh Ã¡i
Ġ35 4
ĠMod e
ĠA ff
V LO
ĠF ai
Ġmac ro
Ġs Ãłi
ĠV lahovic
Ch iÃªm
ĠPV S
tu oi
ĠPh Ã¡
ard ia
ĠNev ada
L á»¯
b áºŃt
ĠG O
Ġká» ģn
Ġpod cast
Ġg há»ģnh
ĠSah ara
Ġx Ãºi
Ġf ac
0 10
C amb
T w
ĠW er
ĠS ag
Ng Æ°
ĠJ a
iz ation
17 6
ĠEug Ã¨ne
d iá»ĩn
ĠS uss
od ium
ĠHu ang
Ġnh áº¡o
ĠTr áº¡c
Ġsá»Ń ng
14 6
ĠM áº¡n
Ġ18 40
66 6
esse e
ht ar
ber l
26 5
L ept
ok er
An t
ĠGre y
Ġr ec
M Ã´ng
ow ers
Ġt áº¥y
Ġd ance
Ġ18 30
Ġ25 3
Ġ ed
ÄĲ á»Ļt
ĠLind elof
ĠÄĳÃ¡ u
ĠA mp
18 7
ĠCon trol
ĠTw o
ÑĢ Ð°
D j
Ġb ol
ĠJohann es
D es
ĠI BM
ht ag
n m
ĠKh Ã¡
ĠPar a
ĠWinn ie
á»Į NG
ĠFut ures
ĠT IN
ĠEth ereum
ĠH UY
c á»ĳ
Tr ÃŃ
ĠDes champs
ĠM ord
ĠW S
ĠDr ive
ĠHo ang
math bf
ay ama
ĠAir es
ĠMel o
ĠL V
ĠÄĳÃ´ la
Ġ26 7
ĠRol and
ĠH is
ĠD VC
ord er
ĠOr gan
h áº¡t
ĠRai ze
ĠB ever
ĠCá» §ng
ĠAl caraz
ĠSol utions
Ġtr Ã¡m
ĠH Ãłi
ĠHok kai
d Ãłi
ĠhÃ ºng
ĠSte wart
E uc
i ya
ĠTrá» ©
arb on
let on
ĠBh utan
p id
ĠL omb
Ġ18 46
CC B
ag le
ĠIP U
ĠUrs ula
Ġm ont
ĠK iss
ĠCour tois
am ol
Ch Æ°
á»· u
Qu Ã¡ch
40 4
C ÄĲV
ĠXS KT
ĠN á»¥
ĠMar ca
ĠSt u
ĠAd vent
A mp
M as
ĠW el
ĠCN Y
m un
ĠAP I
ĠFreder ick
äº º
ĠHind u
o ai
ĠN emo
ĠAbram s
d Ã¹
ĠM ud
ĠVel oz
é Ľ
ĠE k
om ar
ĠFran co
P aris
S outh
SB D
Y am
qu id
27 9
Ġ áº¯ng
Ġs ingle
ĠthÃ³ t
ĠLouis iana
ĠJim in
ĠG ao
ĠHaut s
Thom as
th ai
ĠMcD onald
ĠH od
ĠBr on
Cl oud
L P
l la
du ong
ĠC ort
Th áº£m
D iá»ĩp
s son
Ġr eg
19 8
ĠNov os
s ol
... âĢĿ,
ĠGund ogan
Ġn áº»
ĠB K
Ġb áºŃy
ĠGam ing
ipp i
giá» ĳng
ĠKD H
ĠL Æ°á»¡ng
16 9
ĠV a
el ai
ĠI k
29 5
ĠCarn ival
agh er
ĠTr ust
ph at
Ã´m Ã©t
A sia
ĠK ick
c s
m Ãł
Ã© g
Th Ã¡nh
Ġhá»Ļ c
ĠSch war
i ens
ĠB áº¿p
Ġ27 4
Er ik
B ÄĲT
18 1
iz ens
27 5
any ahu
ĠLu hansk
G ENCO
K l
ĠR unning
Ng áº¯m
M er
Ġng áº©m
19 7
Ġs ter
ĠF ind
ĠAn toine
ĠJ esse
Ġ27 2
nex press
M yr
Äĳ á»ĳt
To Ã¡n
h Æ°á»Ľng
s ay
ĠCh Æ¡i
ĠY uri
K em
c Ãł
ĠK ak
ym n
ĠHK TT
ĠI OC
Ġláº» n
ĠO S
ĠV ung
PA Y
ĠLÃ£ m
ons ai
ĠPi que
io ch
oy es
ia e
chá» ¥p
ĠL ily
al um
ĠD I
Sc ript
ĠR el
enc y
ĠCh urch
ĠK eo
ĠE PS
ĠB Ãº
Ġn á»±c
. '
h ua
Ġng Æ°á»Łng
Ġch áº¡c
ĠH ND
th ang
ng he
Ġv Ã¡t
qu ets
ĠGr ace
w eb
ĠP ier
ĠSuss ex
ĠM O
Ġ37 1
ĠNet anyahu
id ad
ĠN LG
37 3
ĠVill as
nghá» ĭ
S tyle
ĠEd ge
ĠPed ri
Ġtr Æ°á»£ng
ac an
Ġ30 2
o xy
ound e
D á»
Ġ ep
Ġc Ã¡ng
Ġsp otlight
17 4
ĠNam ibia
ĺ C
ĠH Ã´
ĠK end
aud io
ĠN BA
Ġo unce
16 7
Ġtrá» ı
eb r
åİ ¿
ĠFrid ay
eneg ro
Lá» ĩnh
Ġar ab
m áº¡nh
ĠC á»ĳt
h ong
ĠT een
ĠM oto
Ġkhu á»·u
it us
d is
nh eim
23 7
Ġsu it
lad e
ĠHol land
g ian
m ade
Ġnh Ã¡m
ĠEd in
ĠAbram ovich
ĠConnect icut
ĠFort uner
B TV
ĠM ore
16 1
Ġfl ag
a hi
ĠS ob
Ġthu Ã´n
Ġ31 6
Ġlog istic
ĠBol ogna
ĠTH áº®NG
Ġpro duc
L Ã²ng
4 99
ĠAd ani
ĠHá» Į
ĠTal k
tar io
ĠOtt o
ĠAU D
ĠTT ÄĲT
ĠRub en
ĠP áº¯c
QL TT
Ġm Ãłnh
TT DL
et us
ĠJ et
ĠChÃ ¢m
ĠK il
ĠUn i
ĠSum atra
ĠB io
ac le
ĠFad il
r ag
ot on
uck land
G er
m ingham
ĠC ul
ĠC yp
Ġlu á»ĵn
eb ack
M Ã¢m
v ien
ĠÄĲá» ©a
ĠBur kina
ĠCh op
ff er
Ġh igh
âĢĿ ?
ch im
H Ã¹ng
ĠBN EWS
Ġlá» £
ĠSi am
ĠFran z
ĠTod d
Ġr Ã´m
ah an
iss ippi
ĠThom pson
0 28
ĠPh one
4 35
Mic rosoft
c Ã¡n
ab al
ĠtÃ¹ m
39 6
Ġm ol
Ġtrá»£ n
áº¢ N
Ġgá» Ľm
ĠGa al
Cá»© u
Ł m
ĠCol e
AD B
M ey
C y
ĠCh au
us to
ĠGel ex
Ġg ara
ĠP OW
H OSE
b ine
Ġb áº·m
t á»ĳt
Ġ !
Ġth Æ¡i
ĠDev elopment
ae k
Ġf ran
R Ãºt
ch ai
19 53
Th ai
ĠH á»Ļp
ĠM ake
Em ail
Je an
Ġgi áº§y
i ent
ĠV K
ĠHá»į p
ĠB iel
ĠD B
ĠR ush
T á»Ļi
ĠL Ã¹ng
en land
Ġ28 1
ĠEd die
Q aeda
Ġrá» ¥t
ĠCer ezo
Ġv Ãªnh
ĠPh arm
ĠBr om
20 3
ic ot
end i
ĠÅ Į
Ġcá» ¯u
Ch áº¥n
L Æ°á»£t
Ġl Ãµng
ĠhÃ ª
ĠMad onna
Ġ3 37
ĠhÃ³ ng
BH YT
ĠShe ffield
ĠD á»ĳc
ĠSh arp
ĠGV R
ĠTh Ã¡ch
TH CS
9 70
um ma
Ng á»įn
16 2
ĠH ed
l im
Ġ18 52
CO N
ĠBos nia
ĠWar ri
Ġv áº©y
ĠN Y
ĠC biz
ĠK Ã¨
ĠLu ka
ĠGD TX
r ess
ĠB I
Ġrá» īnh
ĠT ie
Ġ4 25
H ong
qu Ã½
8 90
u es
ĠTr eo
Ġ3 36
17 1
45 1
ĠTenn essee
m ers
ĠBal d
v tv
19 42
ub b
ĠHÄĲ BA
ĠPV I
Ġgr ac
ĠH eo
ĠU NDP
Ġmen u
ÄĲ Ã¡
ap t
Ġnit Æ¡
19 6
Kho ai
Ġd áº¹t
ĠÄĲ uá»ĳng
ov anni
18 2
ĠC Ã¡m
ĠG ra
Ġ6 70
as ak
ĠBH L
ĠNich olas
B E
19 43
19 59
ĠAbd ullah
ĠAd idas
ĠBRI CS
ĠHar per
ĠSc al
ĠGreen land
ĠH á»ĵn
TT T
17 8
DX Y
Äĳ Ã´i
Ġch Ãłm
M Ã£i
ĠG W
vath ethao
ĠTh Äĥm
Ġxe vathethao
ĠT á»ĭch
ĠAn at
ĠJ ud
ĠFin al
ĠC lip
ĠM eh
Ġ18 49
Ġ18 53
ri p
ial s
Ġd is
am us
Ġ5 10
ter te
Ġ33 3
Ġb áº£
st en
f ile
à¸ ²
' ;
am on
Ġáº ¨m
n ow
å ¦
ĠJ ur
ĠBá» ĺ
ĠHop kins
ĠE IB
9 10
ĠÄĳ iáº¿c
Ġnh eo
ĠS is
ĠXX I
h ee
Ġm atch
ind y
Ġc oc
19 58
M es
N at
Ġr Ã¨
ĠS ime
ĠNg áº¡c
16 4
opter is
ĠB áº¿
ĠTh iá»ĩt
ĠNev ille
ĠShang hai
B ro
ĠChrist ine
T un
Ġ Ã´i
pp e
ãģ ®
ĠNg o
ĠA qu
n ic
Ġ28 6
ĠSh ell
ĠSe ong
ĠHarris on
M ed
T p
ĠO ct
b ol
Ġs ur
Ġr áº§y
ĠL ike
Ġnhá» ¥y
ĠW emb
ĠAl ba
ach er
Ġ18 44
Ġin ox
igh ter
h er
ĠGi Ã¡n
Ġ27 3
T an
Ġtrá» Ľ
ĠSe attle
Ġv Ã¡nh
Ġch ang
ry p
ĠS OS
ockh eed
Ġth áº£y
ĠL Ãºa
oc ar
Ca fe
Ġ !!!
Ġlo ang
ĠRobert son
Iá»Ĥ M
ĠBorn eo
m Ã¹ng
te a
3 45
Ġd iáº¿p
ac ter
ou ver
l iá»ģu
Ġng Ã³c
f ly
ĠP LX
ĠHar vey
ĠAngel ababy
S uz
m áº¯t
Th ua
Æ¯á»¢ NG
ĠT I
35 5
ĠSher man
han ouk
ico id
ÄĲ BP
ĠSh el
ĠRM IT
Vietin Bank
L es
Ġ Ã©o
Ġl eg
æ Ī
R á»Ŀi
eo k
ĠBa ch
C ola
20 4
ĠNg á»ĵi
Ġbá»ĳ t
ĠMel inda
ĠFl ick
ĠGlas gow
M ot
d b
ĠO ak
ĠSw itch
" ?
ng á»ĵi
ĠPh en
ĠLin ux
ĠR ider
A quitaine
ĠL áº¡n
ĠBS C
ĠFuk ushima
ĠBu enos
ĠCand Ã¨ze
Ġkil Ã´mÃ©t
Ġta b
ĠHo on
Tal iban
j ar
Ġn á»ĵm
te k
let t
v ens
18 4
he ad
19 4
ĠSe an
Ġl Ã¬nh
ch ui
20 1
Ġ4 15
Ġ25 9
ĠGab on
ri um
ĠMur ray
ĠR Ã´
Ch Æ¡i
ĠB Ã³
Ġrá» §ng
ĠMir ae
3 99
ion a
Ġ27 6
ĠVina Capital
ĠIC E
ch uyá»ĩn
ĠK ov
pp on
em ber
M áº¹o
ĠTrá» ¥c
ĠP t
ĠHo ut
b iá»ĩt
l ler
ĠSo fia
s Ã¡t
19 2
Ġmet hanol
T iá»ģm
ĠL ed
ĠRich arlison
ĠD ias
å ¼
C Tr
V oi
inn aeus
g as
ĠL ord
ĠTr in
ĠDu terte
iform is
i ol
ol ate
65 6
ĠH ey
ĠS ens
ĠC uc
ĠCH O
9 40
W TO
f en
Ġgi Ã£i
ĠBr ug
ĠSt arb
Ġch áº±m
ĠP SV
ov ation
it age
om us
och oi
eco in
opp ing
ĠRep ublic
Ġá» £
ĠVN VC
ĠSak ura
V Ã¡y
ĠL PG
oth y
á»¥ i
Ġ28 2
ĠOn tario
ĠRi hanna
j un
ĠJ ak
N eymar
n Ãºt
em berg
28 8
ĠSol ar
ĠAy un
Ð ³
ĠV CI
ora emon
ĠHol mes
Ġgr and
ĠCoun try
V iew
ĠG A
Ġoff line
M M
ig e
ĠT Ã¨
or is
du lich
Ġm áºŃu
ĠSin ovac
]] ,
Ġmake up
chip s
Ġg out
ch Æ°Æ¡ng
lo use
ĠEsp orts
Ġh ip
ĠP anth
ber ry
ĠP os
chu áº©n
A sp
N ET
20 8
ĠSeo k
ĠMich elle
E CB
Ġ3 18
Ph yll
ĠSt ock
ĠZ ag
Ġmag ie
nh o
ĠCh áº½
ĠSt orm
s á»ĳc
Â ³
ĠTH E
ĠMah rez
nh áºŃp
ĠS ou
ĠhÃ³ t
ew ay
ham ph
Tik Tok
Ġthá» ī
ãĥ ³
Ġ es
ocarp us
K A
p x
Ġl Ãªnh
over y
ĠAustral ian
L isa
w ara
23 8
n á»ģn
ĠT oáº¡i
r em
ĠChi ang
S av
ai se
ĠS uchin
A k
K ey
v iÃªn
ĠN Æ°a
Ġrub le
S Ãłn
Ġn ude
Äĥ h
ae won
ĠWat son
m Ã©t
Ġv áº¯n
ĠL áº¥p
26 9
Tr ÃŃch
ĠL Æ°á»Ŀng
ĠAut om
ĠZ in
Qu áº¿
ĠG á»įi
Ġ7 80
ĠL ÃĢ
ĠUtt ar
3 15
Chá» Ŀ
P O
ĠN Ãło
ĠLin da
ĠC ord
ic ornis
L D
Ġ us
Com tÃ©
utt gart
C á»Ŀ
ĠB áºŃt
c Ã¢n
Ġ uyÃªn
ĠPan asonic
ĠMoham mad
ĠRams dale
B áº¿p
ĠR OS
os ev
çļ ĩ
? '
ĠQ N
man ia
ĠF ield
H Ã©
as cia
ia ta
tr iá»ĩu
ĠAl f
ĠCar Play
ĠK bang
ber ra
2 18
Äĳ áº¥u
ĠSn ow
g Ã£
Ġn uc
ĠHim alaya
Ġch áº¡nh
ĠÃ ĵ
Ġ organ
19 3
ĠI w
ĠLe ng
d ez
Ġqu áº¹t
ink i
oz h
H eter
ĠPh áº©m
tr á»Ł
ĠVin aconex
ĠCA O
ĠSpec ial
9 30
Ch rys
ĠCast ile
C Æ°á»Ľp
se an
Ġ5 15
24 2
ĠAndre as
Ġr Ã¡ng
ĠR Æ¡
ĠMont enegro
ov iÄĩ
Ġ3 22
Äĳ Æ°a
ĠGh eb
Ġcross over
ĠAlab ama
17 3
ĠKhark ov
ĠHoj lund
do ch
ĠComp lex
ĠSel ena
uli fe
ĠCC TV
ĠN ong
Ġr am
ic ta
ĠMic ro
ĠT GÄĲ
ĠBus quets
ĠM ick
O xy
Ġ8 30
ien co
High lights
ĠMiss issippi
f ess
ĠX o
17 2
ic ulata
ĠRob inson
Ġkh áº½
ab akh
å ¥
ĠÄĲ áº¦U
el ypter
ĠlÃŃ u
ĠBad en
D á»ħ
Ġn ail
ĠM essenger
ĠCA CC
âĢĿ )
5 29
Ġcon t
is k
Iá»Ĥ N
ĠN oo
ĠZ ak
Xi aomi
ĠTR ONG
ĠOli via
Ġx Ã¢u
ĠB ed
ĠCa esar
ĠPol it
ĠNapol eon
ĠM ountain
ĠE b
ab o
Ġv áº¹o
Ġ18 41
Ġtest osterone
ad dy
he im
ĠSi hanouk
hi to
aph inha
âĢ¦âĢ¦ âĢ¦âĢ¦
Ġb onsai
iv ka
ĠK ounde
ĠChev rolet
F E
ĠPh Ã¡n
ack er
Ġac et
ĠCh rome
yl er
lig ence
ĠÄĳá»ģ m
ĠZ hi
ĠRiy adh
h al
Ġ18 56
Ġo ai
Ġl Æ°
NT C
ĠTur kmen
OL ED
ĠS ae
ĠÅ ł
ch ang
em p
ul o
Ġqu áº§ng
ĠDall as
ob in
akh ar
ĠK ou
ĠEl an
ĠGl ong
D ung
X Ãºc
Ġs andal
ĠAl leg
N ass
r ica
Ġp re
ol id
ĠVoi v
ĠF M
Ġto Ã¡i
ib r
err ard
ĠGheb rey
M áº¯t
al ie
Ġs ize
ĠD áº¡y
ens k
ĠPul isic
ĠSt ad
á»ŀ NG
th áº¯ng
ush el
ro y
ĠBuff alo
Ġp o
ĠS I
os m
Ä ¨
ith ec
Sm ith
M obile
ĠN áº¥m
Th uyá»ģn
tr áº¯ng
Ġ18 51
ĠAl ves
24 4
Ã¼ n
ĠLen in
ĠL ienVietPostBank
Ġchá»ĭ t
Ang el
Ġrup ee
0 15
Ġch Æ°á»Łng
ĠT A
19 56
ĠTur in
Ġqu áº¡
It aly
C ast
z ant
ĠÄĳÃ ¹ng
ĠB ioNTech
ĠK Ã©o
00 3
ĠW or
ran a
ĠG ul
Ġ Ã¹a
ĠÄĲ O
on ym
ĠBV CC
d ich
m iá»ģn
Ġcá» Ĺi
ThÃ ´n
ĠN om
ĠEm il
Ã ĴNG
ĠhÃ ¢u
ĠBir mingham
' m
h iá»ĩu
ĠTá» ı
oh en
Ġs ne
oph orus
Ñģ Ðº
ĠGhebrey esus
Ġs Ãº
nar umma
r áºŃp
20 6
burg h
p m
ar ning
Ġf ul
50 5
ĠTur k
ĠMem phis
ĠÄĲ áºŃp
ĠÄĲ Ã³n
f est
Ġ29 3
Ġtr Ã¡o
er es
ĠHá» ıi
k hÃ
tr am
NH ANOI
ĠBar ack
ĠIndustr ies
ĠWemb ley
Ġnh áº¿ch
Ġth ong
ĠA ung
Ġ30 3
ĠDav ies
J ose
Ġc all
N ay
Ġd ep
ĠV log
Ġsá» ©a
ĠChÃ ¨
ĠRobert s
ĠS eg
os z
ĠCN C
Ġc up
Ġth áº£nh
osp ital
Ġarab ica
v áº«n
Ġ18 45
âĢĿ. /.
Ġ50 5
ĠHo REA
ĠJack pot
ĠChalle nger
L au
S O
Ã ¥
Ġhá» īnh
ĠMitch ell
A ss
d oc
ĠÄĥ ng
l Ãª
ĠV J
ec on
nat ha
Ġtrá»ĭ a
ÄĲá» īnh
G W
M ah
ĭ a
Ġf ollow
ĠGl ass
Mart in
Nhá»ĭ p
b iá»ĥn
ĠM á»±c
ĠD GC
ĠLau rent
des ivir
B ol
ĠTr ib
19 57
Ġ30 6
L ist
odes hip
k á»¹
ĠL B
ND N
v at
ĠG ate
Ġchi u
b inh
ĠD anny
ap s
V AS
Ġb aking
ai a
Ġná» ¡
âĢ¦ ".
ĠHu oai
ab ao
ĠNar endra
E I
T Ã´
au de
Ġ3 23
KG VX
g roup
Ġx áº¯t
ĠcÃ³ p
ĠM oody
ĠBrad ley
h oi
ĠB ass
im m
n Ã©m
Ġ29 2
s áº¡ch
St en
B MW
H ome
Ġn ÃŃn
ĠV C
ter ed
ĠEurope an
ĠD ir
ol ina
ĠSev en
Ġn á»ĭnh
Ġ3 38
15 8
ĠXinh ua
O B
Ġm Ã³
ĠP Æ¡
os tr
ĠPr udential
ĠMá» ĩnh
thu ong
ĠN NT
ĠG avi
Ġ3 34
ĠNH ÃĤN
s un
w all
ĠAd en
ä¹ ¡
ĠSAO star
u j
ĠB G
Ġ7 70
ip al
Ġp a
R ub
m á»ĳi
Ġg áº¥m
ĠR ag
2 17
ĠP L
ĠF U
ĠchÃŃ t
Ġ31 3
N á»ĳi
Ġt áº¯p
ĠL ok
ĠJ ICA
Ġtr áº¡ch
ĠVN PAY
ĠNH áº¬T
ĠShi eld
c edo
ĠPar tey
phÃ ¹
Ġm Ã¡ng
Ġp ixel
ĠÃĲ Ã´ng
enz ie
ĠMag azine
Ġt Æ°Æ¡m
ĠV or
ĠY eol
Äĳ áº£o
yl es
acet amol
im et
Ġto ken
P in
Ġth au
ĠT au
ÄĲ á»ĳng
Ġmá»į t
PM organ
Tr ans
ĠTom my
on line
ĠI c
ĠPlan et
ĠD Æ¯ÆłNG
av al
ĠH uá»ķi
ĠL X
anc ouver
ĠPH áºłM
Fan page
( \
Ġk o
ĠG Ã¶
ĠVI X
ĠInd ian
ĠM AI
Ġmag iÃª
ĠVoiv odeship
er d
19 52
ic ial
ĠAl ban
ĠSzcz ec
ĠO mar
ho áº¡t
Sh op
SH B
ĠE y
ĠW ir
ĠKent ucky
2 16
ĠV áº½
Ġ18 36
ĠSp eed
OR T
ĠSime one
Ġngá» £m
ĠFr enk
3 35
ens io
Ġ47 3
ĠI SI
B Ã´ng
Ġ }
ĠÄĳ Æ¡
Ġm al
as ma
ĠTim o
ĠJan eiro
ĠChá»§ ng
ĠSte am
Ġn Ã²i
Ġ27 1
26 8
Sai gon
n is
ig en
Ġsil icon
ĠP sy
ĠS aw
as k
uph apluat
j ae
ĠTr op
ĠTh en
¤ C
ĠDy bala
ĠF ors
ĠElan tra
S SI
ĠG at
ĠLe c
ĠBal kan
osev elt
ĠT KCN
ad os
ĠSal man
4 85
X V
kh oi
ĠM ut
G ame
I FT
S et
an te
Ġghi m
ĠMar ÃŃa
ĠVá» Ģ
Ġp il
ĠBar bara
ĠWall ace
G Ã£
Ġr áº£
ĠCo upe
ĠFrenk ie
m ins
ĠN á»ĳi
im an
CS T
Ġa f
ĠC ath
on oid
ĠA uckland
N á»¥
ĠH BC
ĠCo utinho
Ġhot girl
ĠOp era
ĠFin tech
uz u
7 25
Ã ¯
ĠW oman
T imes
ĠK ok
ĠKn ow
h inh
Ġ3 11
Ġqu áºŃy
ĠS ap
ĠC Ãłnh
ĠQ C
19 40
ĠC NH
ĠK ag
ĠFl am
C Æ°á»Ŀng
T Tr
Ġ( ~
ĠNO XH
Ġm áº¡t
ĠA ge
und a
ĠSebast ian
w ald
ĠSaigont ourist
ĠH Ã²e
15 1
ĠS apa
ĠNG UYÃĬN
ĠKh ao
ch et
land o
akh on
ĠLá»ģ nh
li fe
ĠCan berra
ĠArm s
0 24
Ð ¿
Ġb as
Ġcá» įng
ch uk
Ġ27 8
A gr
an na
ĠphÃ ²
ĠPe ugeot
Ġh al
Äĳ á»ĵ
22 6
C á»
ĠH els
ĠYah oo
à¸ £
ĠSad io
Ġsl ot
c ard
d at
29 2
áº¾ N
g om
p os
ĠB attle
ri f
app en
ĠP rix
ĠS áºµn
ĠK ash
t á»±a
land er
18 90
23 9
Ġ28 4
st agram
Ġb Ã´
ĠI NT
ac um
Ġ12 00
ĠDis play
red it
Ġr an
ĠK ovac
ĠK iá»ģn
Ġ3 95
ĠAp ax
Ġgi en
ĠHer bert
ĠDan ang
ĠH ana
ĠQ i
Äĳ áº¹p
ĠVin fast
ĠFi in
on avirus
ĠG áº¯n
th Ã¡nh
phun uphapluat
B XD
ĠN áº·m
ĠTh Ãło
st yle
s Ã³ng
ĠS usan
K e
36 6
ant i
ĠN KG
Ġ28 3
ĠAm y
ech n
ĠB iz
Ġs Ãªn
em in
ĠhÃ³ m
Ġ38 5
Ġn m
Ġg anh
ri ott
ĠHK QT
D ance
C ont
D Æ°a
ĠL Äĥk
ĠL otus
tr uong
x ay
ĠR ov
23 2
Ġbre v
Ġx Ã¨o
ĠÄĲ áºłT
ĠP ie
ĠâĢ ł
ĠÄĲá» ¨C
ĠTá» §
Å Ľ
ĠCho ice
Ġp art
ĠN it
ĠX ing
Ġ18 37
ak ers
LX D
ĠÄĳ anh
erm ont
m Ã´
Ġl áº¹
Ġb oy
Ġph ung
ĠDh abi
ĠLau ra
ĠWW E
W ar
ĠB agh
ĠD Ãłnh
ĠNh áº¡n
ou am
XH CN
ary a
R ock
p Ã´
Ġh Äĥm
Ġd iá»ĩp
L á»Ļc
Ġch Ä©a
M id
r ang
Ġh áº¹
Ġtr Ã²ng
Ġh ist
ch am
ĠLan k
ĠXU ÃĤN
Ġd Ä©a
ĠB M
ĠM uk
ĠK B
ĠO pt
ĠAd ele
ĠG Iá»
or idae
ĠAG M
im ar
Ġgh áº¹
al og
PhÃ ª
ĠKal in
ill on
gi áº£
B ill
Ġn Ã¡i
Ġnhá» £t
ĠPh ot
Ġ36 3
t oi
k iá»ĥm
ĠT Æ°á»Ľc
Ġph Æ°á»£t
ĠEr t
D Ãłnh
Ġs áº¥p
ĠN ara
ĠA L
ĠCB RE
ec e
" );
Ġgi Å©a
ĠChrist ensen
Ġvi lla
odend ron
R u
CO V
ĠPom er
ĠPlat form
ĠCol lins
ĠT Ãºi
ĠB eth
ĠMon tre
ĠI F
orn o
ĠL ock
ay e
eo ph
d it
ĠT áº£n
ĠS ard
Ġf iller
ĠCon t
ĠKT XH
ĠV á»«
it ory
ĠEnterp rise
ĠL ens
oc us
oh a
Ġ33 2
ill es
ĠJe ju
ĠTer ra
ĠLis andro
C uba
Ġ5 90
Ġst ylist
ĠJosh ua
ĠS ophie
ĠTR á»ĮNG
Br uno
ĠRub y
Ġk ey
ĠS ig
Ġ4 99
ol ot
ĠEx po
W ork
ĠS oi
Ġpar v
J un
R á»Ńa
ĠSant o
L Å©
Ð ±
19 1
CB M
or ies
Ġ28 9
ÄĲ Ã¢u
ĠGran ada
2 13
ĠD in
ic ul
ĠJ ude
chá» ©ng
asm us
lac era
C Ã¢n
ĠK OL
eta fe
Ġv Ã¢ng
th uc
22 1
NV V
L ion
ĠT GP
ph p
æĿ İ
ng Ã¢n
ĠTr Ã¹
00 2
ĠDN NVV
ĠFlor ence
im hen
36 8
ĠH áº¹n
ĠD z
ĠBor rell
ĠC art
ĠL áºŃt
Ġá» ¥
Pl at
I EA
Å ¼
Ġc y
ĠSl av
ĠNP K
Ġ26 9
ĠHot line
N i
ĠF ive
Ġ29 1
Ġ art
ay an
ĠP ablo
ĠJ Ãºt
ĠG ent
ĠVin mec
ĠRo osevelt
ĠDomin ica
ĠARM Y
ĠL M
ia c
ĠEVNN PT
ĠV ETC
Ġ18 47
15 3
48 4
Ġhas htag
Ġb ÃŃnh
T ek
Ġb louse
Qu Ãª
ĠM ÃŃt
m áº¯c
27 4
33 3
ĠFor ce
M its
ver de
ĠPV D
Ġmo Ã³c
Ġx Ã©n
ĠSton es
Ġ3 39
chá» įn
ĠRal ph
ĠC ost
ĠAl am
A H
D á»«ng
ĠN hÃŃ
CT CK
sh ev
ĠCons umer
el ess
ent or
yl an
ĠC ÃģC
ĠL O
ĠR Ã¡y
ĠF ore
ĠAs p
M ir
t oÃłn
M Ã¢u
ĠG BP
pd f
og ram
ĠAd rian
ĠTU áº¤N
U l
st ed
M elan
ĠB Ã¡u
Ġ35 3
Ġc er
Ġnh Ã¢m
26 6
ĠN C
Ġ31 7
ĠCo V
ĠUr ban
Ġ29 8
A mer
Ġp astel
erm o
ĠTIáº¾ N
ĠN iel
ĠC au
ĠSm all
ĠRod ri
ian s
atch back
Ġr Ã©o
Ġtrá»¥ y
25 4
Há»į p
ĠP ott
ĠVN R
gi um
ĠSw an
ĠMÃ¼ n
ĠSt uttgart
ĠES OP
L im
M Ã¼
ĠW eg
ch eck
ĠÄĲ áº³ng
ĠK unt
as tern
tr anh
Ġl ed
28 6
Tay lor
N or
23 3
Ġde al
00 4
30 5
ĠH eb
ĠM á»ĵ
amb o
ĠJo el
ĠP yo
ĠKar en
ĠParad ise
Ġr Ãºng
ĠMur phy
iv en
EV FTA
Fr ank
t iáº¿n
Ġph Ãłm
âĢ¦ );
Ġ30 7
ĠRoll ing
c ore
ĠY áº¿t
ĠZ ur
S ab
ĠSo f
ĠIt aewon
oceph alus
U r
p is
Ñ ħ
d Ã¹ng
ĠÄĳ áºŃn
ĠPer formance
Camb ridge
im in
Ac anth
ĠThai land
c aceae
f eb
det ail
ĠGarn acho
ĠNh áº¥n
á»¥ t
áºł NH
ĠTTT M
Ġth iáº¿c
Ġd iáº¿t
ĠN Ã©t
ĠD Å©
nh áº£y
ĠS F
at eg
ĠGreg ory
ĠKry m
ĠStarb ucks
ĠI ll
ĠKat y
b ull
ĠCh ad
ĠE va
22 9
Ġ34 1
Ġp unct
Ġká» īnh
ĠA vent
ĠHer z
Ġv log
Khá» §ng
atin um
h m
Ġr uá»ķi
Ġfin tech
' ).
b Ã¹ng
b eck
ĠD ut
ĠGle i
ĠNg Äĥn
47 8
Ġvá» ī
Ġ40 1
40 5
an ie
ĠM LS
Ġ45 8
5 78
Ġg ar
et y
ĠMai ne
29 3
ĠBeck er
C en
Ġr áº§u
AM C
ĠKy le
ĠES PN
ĠKro os
ĠL ap
ĠG ad
ĠR abiot
Ġ50 4
ĠPhá» Ł
47 7
ç ¾
ĠT iá»ģm
ĠAn aly
Ġtrá»¥ i
pt op
P ap
Ġ Ã¡ng
ĠI TA
Ġm áº£
Ġ4 35
38 5
n in
ĠT axi
ĠSh adow
I CM
t uyáº¿n
Ġ acc
Ġhá» Ľt
Ġmá» ģ
00 8
38 3
iff any
et ia
k it
² a
Ngh Ä©
ĠS ail
ĠVenez ia
f il
ĠTurkmen istan
c ac
ĠStr and
Ī NH
ÄĤ M
ots wana
h ard
Ġtá» £n
ĠDu ke
ĠDon narumma
ĠTou ch
L NG
ĠB á»Ļc
ĠV ancouver
R AM
ĠLe Ã³n
anc ed
Sol skjaer
d el
Ġ á»ĳt
ĠP OS
Nh iáº¿p
ĠMall orca
ĠH w
Ġ7 60
ĠGCN QSDÄĲ
e aux
Ġl em
25 8
ĠStart up
D ig
k av
00 6
ĠBay er
ĠT at
Ġ3 99
ĠR aphinha
ron s
ĠBo iss
ĠFuk u
ĠVD SC
3 12
Ġ6 10
Æ¯ á»ŀNG
ĠKho ang
ĠKras n
Ġgiá» Ł
as ha
ĠChi ng
ĠJul es
H Ã¡t
L ind
ex it
ĠHa j
ĠÄĳ áº±m
ĠLlor is
Ġdo ping
Ġ40 5
ÃĤ U
ĠRem ix
E W
n á»ķ
ĠKh Äĥm
ol u
ĠErt iga
j andro
Ġng Ã¡c
th áº¥t
ank o
t á»Ń
v ideo
Ġb Æ°á»Ľng
ĠP eng
00 5
28 7
ĠNhá» ¯
ĠTam il
Ġdo wn
ĠY uk
Ġ36 7
ph Ã¡o
F ried
s ource
ĠP Ã¡c
Ġkhá» ĭa
br al
Ġur anium
v áºŃn
ĠT á»ĳn
Ġph áº¿t
ĠAl tis
19 39
Ng á»§
). /.
ĠSong k
B om
ÄĲ L
Ġcon dotel
ĠX iá»ĥn
áºł CH
And r
ĠTC VN
Ġl Æ°á»£m
ĠCÆ¡ m
0 75
s tone
Ġm ot
ĠTh iá»ĩp
ĠHak imi
D áº¡
m al
ou x
ĠAd han
O ff
S á»ĳt
ĠP Äĥh
ĠTr ent
tr á»įng
Ġcho Ã¡n
ĠD AP
34 7
Ġ4 77
áº¾ P
D inh
R am
j or
Ho REA
ĠTR Æ¯á»ľNG
Ġá»Ĳ ng
ĠH I
ĠFood s
omet ers
t Ãłu
ĠH ap
ĠB áº¢O
m or
Ù Ħ
ĠM og
ĠMar cel
ĠFran Ã§ois
I r
as z
ĠAdhan om
H H
Q ue
R od
ĠL ic
iv ate
ĠBÃº k
A li
K YC
45 6
ĠCH F
ĠCHÃį NH
eij ing
j ung
65 8
|| ||
Vic tor
V ill
V irus
ĠA sean
Ġ37 9
b un
ĠG Ãłnh
Ġváº¯c xin
Sim on
á Ģ
ç ¥
ĠH erb
ĠAnd rey
an ne
ĠL aut
if ul
38 6
qua d
th áº£m
áº¤ P
az i
26 3
acc a
ĠAl ess
ach e
Ġfl ash
ĠV Ã²
ĠArt s
Ä± k
ĠÂ ½
åĮ º
ĠH ÃĻNG
im ac
24 9
lu or
ĠStar link
arag ua
C ode
ĠB ion
ĠHad id
C áº©n
Ġox ide
G ray
Meg ach
oa h
Ġ27 7
05 5
ĠNhu á»ĩ
ĠSá» ıi
0 35
D O
n ien
c as
Ġc áºŃt
as bourg
th áº§y
ĠAM OLED
ĠHáºł NG
5 95
E ng
ĠÄĳ Ã¡c
ĠNhu áº¿
H em
ĠR ak
Ġsil ic
3 36
L Ã¡i
Ġs áº©y
ĠKar ate
m Ah
ĠTh iet
08 2
ĠPH ÃļC
R B
Ġ Ã¹
ĠC ienco
ĠB á»įn
24 8
ĠNG Há»
ĠR ost
tr ip
ThÃ ´i
Ġh ir
ĠL ockheed
ĠJ oko
ĠM MA
ĠP Ã©
Ġlá» ¥i
hi de
Ġ5 25
Ġ55 5
ĠMi u
ĠIndepend ent
ĠT av
ĠNh áº«n
man i
ct ic
chÃ ¬a
T esla
k al
ĠG lad
Ġ18 42
ĠÅ ŀ
ĠX uyáº¿n
enn y
ĠrÃ¬ u
Ġso l
29 8
Ġbre ak
W in
s is
ĠV B
ar an
ul ing
ne z
Ġd ev
Ġ3 27
Ġdi g
ĠD ab
ĠClass ic
c áº·p
p et
ĠBat dongsan
R á»§i
ĠC urt
35 9
Ġn á»Ļm
ĠTh uá»Ļc
ĠGi org
out ube
D y
ĠNS X
ĠPomer ania
n ip
ch b
aze era
Ġ8 88
ĠVin Mart
ĠAlban ese
P ower
ĠS á»£
ĠBook s
ĠM ON
it as
Megach ile
r iÃªng
Ġm ult
ĠSi u
ĠWin ter
ä¸ »
ib u
ĠIntel ligence
) âĢĿ.
¤ P
ĠTr á»Ļn
20 9
19 49
ĠOli ve
ĠCarol ine
iz u
ĠHá» §a
Ġw hi
34 6
E B
ĠB áº®C
Äĳ Ã´ng
ĠPer eira
Ġ3 21
CC S
ish ino
Ġcar ton
38 9
ĠNh iÃªu
50 1
Ar g
Ġph arao
ĠMar qu
Ġco in
ĠRay mond
l ock
ĠT iá»ĩn
ĠEd erson
ĠU tah
37 8
b Æ°á»Ľc
ul k
ĠT ong
ĠT iáº¿c
us z
un ya
ĠAt las
osh op
4 15
K US
g ang
B on
e em
er re
Ġso Ã¡n
ĠN R
Ãģ I
ĠR ing
ĠLe one
ĠBr est
ĠK ra
com Bank
cont inental
V Ã©
Ġ ot
ar g
om m
Ġcal ci
? ?
ley rod
ĠEn zo
3 19
P ort
Ġ amp
iss ima
d ing
v re
ĠL ives
ĠS Ã¬n
ĠY us
C u
b ps
ĠL Ãłi
em ale
Ä Ľ
ĠLev y
ĠAveng ers
ĠG errard
ĠFi ji
ff et
ect Æ¡
Ġl á»±
Ġhá» £t
ĠR A
Ġ35 2
D an
T Ã¹ng
nh anh
ĠBill y
ĠH err
ĠV Å¨
ĠCh Æ°á»Łng
ez ia
ĠBai du
ĠBever ly
B ad
Q E
f ect
ph am
ĠWeb b
ĠHel en
å Ĭ
Ġngá» Ľ
Ph Ã¡
S á»ķ
ĠBou le
Ġ18 32
G á»įi
ĠÄĳÃ ºt
Sh in
ĠE A
ĠBald win
Î ¿
ĠMar riott
24 6
ost ok
ĠMos s
Ġm áº§u
ĠmÃ£ ng
ĠCit izens
M Ã¨o
P e
Ġv eo
ĠK et
ur ing
Ġba by
R ap
\ ,
ĠR achel
ĠÃ ģn
ĠJ PMorgan
ern Ã¡n
Ġlá» īnh
oph ylla
ä ¼
ĠcÃº n
Ġtalk show
4 65
S PC
ĠRe agan
60 1
ĠVI E
k Ã½
ov i
Ġl act
Ġn ew
ĠWal t
s ide
ĠK uro
Ġ4 000
el er
op l
ĠHu b
ÃĬ U
Ġlá»ĭ m
y un
Ġn Æ°á»Ľu
ĠP am
Ġ9 30
Ġ29 4
Fran che
ĠT hÃ³i
ĠTr ev
Th iá»ģn
els mann
ĠRec ep
T á»ĭnh
ist o
all on
28 3
ĠPh iÃªng
as cus
D en
ĠN ed
ĠE ps
ĠLu zon
27 3
ĠJe ep
ĠSoc iety
Ġm ao
Ġnh á»įt
ĠLu iz
Ġ34 8
ky un
ĠDav e
htt p
Ġz ero
ĠBab ylon
f ur
ĠCarib be
ĠDeng ue
ĠC Ã²i
... âĢĿ
ĠIs hi
any ol
ĠHer itage
ĠV asil
ers in
Ġgá» Ŀ
G on
hÃ ²a
45 8
ĠGo al
ĠCA P
44 4
ĠWh ats
ĠAlph abet
ĠFant asy
ĠRac ing
H ope
ĠM ez
ĠR X
Ġ18 43
ax acum
pha er
T etr
s berg
Ġnh Ã³t
ĠV espa
amin o
ring ton
ĠV L
ĠCh ae
ĠE li
ĠHu Ãª
ĠStr ait
ung e
____ ____
r ett
ĠZ akhar
47 2
Ġná» Ľt
Ġ8 40
ĠMus tang
19 25
ĠÄĲá»ĺ NG
k ur
ĠV ovinam
ĠTAND TC
ĠKien long
26 2
85 5
Ð¾ ÑĢ
Q atar
Ġl áº¡ch
Ġkhi Ãªng
ÄĲ Ã¨n
ĠYam ag
Ð½ Ð°
phen ol
hor st
ĠAvent ador
Y áº¿n
ir con
yl a
bral tar
5 25
ĠÄĳ Æ°á»£m
Ġ30 9
ult ure
ĠBy zant
ĠH ope
ĠAs ensio
å¤ ©
ĠWeek ly
ĠBug atti
N ot
ĠB ok
ĠM Æ°u
ĠInstit ute
N ic
b ow
x u
Bl ue
g un
k r
rob ium
ĠBar ry
oe ing
ĠVN ews
28 9
khá» ĳi
ĠEdward s
ĠMul ler
ĠV EAM
Ġcho col
en kov
/ -
y de
ĠCH XHCN
ĠBer m
¥ m
Ġc ot
Ġd Ãºi
ĠT ina
ĠB otswana
ĠU á»·
ĠSau l
D Æ°á»Ŀng
ĠAg ain
ver gne
ĠSch les
ĠJac ques
Ġ ë
ng á»įc
ĠM ÃĢN
os aurus
em ans
áº¢ NH
35 6
ĠVin mart
à¸ Ļ
ĠD Ã¢u
em ma
ot ene
ĠMaster ise
2 11
W ang
ĠM áº¡i
ĠEVN GENCO
N áº¥m
Ph Æ°á»Ľc
ou ard
ĠCon tin
Ġâī ¥
D Ã¢y
Ġb áº£nh
ix on
ĠThÃŃ t
T our
az ette
ĠMak o
X Äĥng
ĠM ae
iv ision
ant an
ĠCa fe
ĠVel vet
ĠNikol ai
C yr
ĠchÃ ¹n
ĠSen do
ĠUN CLOS
B á»į
Ġkh eo
ĠCon stantin
ĠNan oc
n á»Ńa
u eta
ì Ŀ
ĠCN XH
sh in
! âĢĿ,
Ġng Æ°á»£ng
ĠphÃ ºng
Ġgiáº¿ m
ĠN ao
ĠQ SDÄĲ
vietnam net
Ġj azz
Ð ·
æ µ
áº ©ng
ĠchÃ ¢y
ĠChar tered
stad t
K I
ĠT eo
Ġ40 2
Ġmet al
ĠF itch
p hÃ³
ĠP ai
29 4
R es
Ġn ong
Th áº¥u
Ġ18 33
ph on
ĠHá» ĴNG
25 2
ĠMau rit
ĠArane idae
ĠRe z
ĠHugh es
ĠB ee
ĠR Ã¹a
ĠW owy
ĠHil ton
v ong
Ġs iro
ek a
ĠTo ul
ĠHot els
b iá»ĥu
ĠF AT
th en
46 8
ĠT ia
24 1
ĠKunt ze
5 99
Tr áº¡i
os oma
ĠdÃ¹ i
man e
Ġ38 2
ĠBail ly
ic in
Ch en
Ã ¦
ĠSon et
p art
ĠTr am
CÆ¡ m
Ar aceae
L áºŃt
V áº¡n
th ua
h ack
Ġm obile
ĠkÃŃ t
ĠKH KT
Geor ge
N I
Ġu á»·
b Ã³
x Ã¡c
ĠCar abao
ĠÐ ¿
Ġchocol ate
G á»£i
P yr
ĠK obe
20 7
á»ģ m
qu áº£n
ĠResiden ces
Ġt ambon
Ġg á»ĵ
ĠDynam ic
S Ãºng
on ne
ĠKovac ic
Ġb ook
Ġg Ãłi
ĠM SC
37 9
C á»ĳt
Ġt iá»ĩt
uc tion
ĠBroth ers
U p
Ġs in
ĠSor ento
ĠTG G
ĠSystem s
Ġl áº¥m
ĠW ins
H al
R hÃ´ne
Ġ 000
ĠPh o
VN PT
ĠPar am
j ah
and an
pt us
anc es
ĠSE K
ĠSaf ari
T Ã´m
ĠO ur
c áºŃu
ĠHy uk
Ġ36 8
ĠSch w
ĠPep e
ĠLau ren
eran ian
Tar axacum
feb iz
u is
Ġm Ã²i
eck er
lec ano
Y M
ĠP ont
ĠKon stantin
KhÃ ºc
or es
0 25
ĠC á»į
n Ãªn
w anda
Ġtho áº¯t
ks hire
I RE
m ing
Ġqu áº·c
Ġg Æ°Æ¡m
Ġt Ã³t
ĠJer emy
A CV
E vent
anc er
its ch
Ã ±a
ĠI ris
ĠVig lacera
ĠG etafe
Mits ubishi
s l
ĠV á»įt
ĠS Ãºng
27 2
å Ī
¡ n
c ini
Ġh and
ĠF ont
od ar
ĠTT CN
T Ãłng
ĠTT C
c ass
Ġ7 40
29 1
Ġcom ment
cop ark
Ġvá» Ľ
ĠB AF
ĠÄĲá» £i
ĠWe iss
ĠSqu id
L in
ĠOs imhen
0 99
ĠQ Q
Tr iá»ĩt
TT M
ĠLen ovo
8 25
ĠH BO
ĠV oy
Ġlá» įi
Ġ4 12
Ãģ P
ĠHein rich
R Æ°á»£u
end ing
38 4
ĠL á»į
eo r
ĠO ber
ĠBuk ayo
k á»·
ĠT Ãª
ch on
Ġsá» ĵi
ia z
ĠX ay
fal z
y te
Ġl áº£
Ġr iá»ģng
ĠGi ovanni
Ġ18 39
ĠMed ical
ĠMu ay
t áº§m
ĠS le
ĠD áº¿
Ng Ã´n
Ġ8 70
Khu Ã´n
Ġv ectÆ¡
ĠL NST
Nh Æ¡n
8 15
B itcoin
ĠMan ulife
ĠC Äĥng
Ġ35 7
Ġ34 3
ÃĢ Y
IV E
Pr em
Dr ive
w h
ĠC Ã¡o
ĠÄĲ áº£n
ĠA H
eh r
ĠAlexand ria
F M
Ġs and
ĠK O
ĠFuku oka
ff ect
Ġ34 2
H á»Ļp
ĠThá» ı
kh áº©u
ĠEl anga
tien ne
n ight
Ġchá» «a
Tr ail
ĠWin Mart
4 95
Ġt Ãłnh
ag li
yl us
. ).
ĠT E
ĠB Ãºa
26 7
ĠAd olf
Cafe Land
m iá»ħn
Ġ4 68
or ter
ro ch
ĠHe at
ĠDomin ic
V KS
lah oma
ĠMov ie
al ur
il ever
38 2
ĠA leyrod
Ġ6 90
Ġ18 55
Ġ31 4
ĠHab ana
Ġl ove
Ġb alo
ashi ma
ĠAu vergne
45 2
ĠGr ac
x l
GP MB
ĠNic aragua
Maz da
Ġth áº¹n
ĠN ina
ĠN aomi
ĠâĢ ¢
ĠX ÃŃn
ĠthÃŃ a
Ġe ng
Q R
ĠG row
eng er
ĠOr lando
V er
d own
ĠÄĲ ÃŃch
Ġ7 47
CK II
ĠBav aria
N ik
c g
ĠL us
ĠL um
ĠW ook
ĠW ho
TS C
tt i
Æ¯á»ľ I
P en
ĠT Ãļ
ĠP ET
ĠK iá»ĥn
ĠD áº¡ng
ÄĲ á»ĩ
ĠBuck ingham
ĠM BA
ĠBan ks
ock tail
0 45
E ri
ĠC li
ĠK Ã¨m
27 6
L Ã£o
h yd
85 8
ophi lus
Ġcro ptop
t á»ĳ
Ġ45 5
R EUTERS
H iá»ģn
Ġtr ue
Le on
39 7
33 2
Ġ9 80
ĠAnd ren
PA C
ĠTerr itory
I R
Ch lor
ĠPV O
ĠOrig in
ĠC oc
Ġr h
Ġ7 65
34 1
p at
ĠB C
ĠY aris
Ġ29 7
ĠSh u
Ġdr one
ĠLanc et
Dj okovic
t own
r est
Ġ17 53
ĠBeat les
Ġflag ship
T ak
Ġ asp
IS S
5 75
c ach
ch áº¿
oph agus
B ÃŃch
D al
á» Ĵ
Ġ17 58
Ġb al
Ġ4 22
36 7
B á»Ļt
oth er
ĠSá» Ľm
ĠGil bert
ĠAlleg ri
5 12
ĠT elles
ĠTr ain
Äĳ á»Ŀi
38 8
ĠShin zo
00 7
ĠEVN HCMC
Äĳá» §
k ol
em ann
35 2
vel and
ĠÄĲ un
Rob ot
ĠWh at
4 22
l w
ĠH NG
gi Ãºp
ag hi
B áº£y
C op
ĠO st
ĠSW IFT
Ġ av
hi eu
ĠT CM
Phá» §
NX B
ĠKep a
Sc op
ĠAv atar
Char les
P sy
c au
ĠM itt
sk aya
ĠRom eo
Ġneu tron
B Ã¡t
Ġl Ã¹a
el is
ĠRe ich
34 9
ĠEx c
å® ī
ĠIbrahim ovic
Lion el
E NT
Ġt oÃł
Ġw e
Ġhu á»ĩ
mins ter
ĠTr á»Ĺi
qu er
ĠSub eo
H ua
ĠStu art
ĠV LXD
ĠTr Æ°a
ÄĲ áº±ng
C ycl
l Ã²
t uc
ĠTh ink
or ro
chÃ ¢u
4 23
s mart
ĠEm my
p ilic
ĠN em
qu et
ĠTV TU
ĠLar ry
az aki
ĠÃĲ oÃłn
ĠT ul
Ġtu m
v ol
29 6
ir am
ĠZ o
ard e
L ab
g iáº¿t
ĠH utch
ĠR TX
39 8
ude au
Ġang ust
ĠVal lecano
Ġs w
ĠGi braltar
ĠNin ja
U ni
er in
ia d
al ez
ĠLim a
ĠPom eranian
5 35
l Ãłn
Ġ37 2
ĠN Ã¡
ĠS SD
ĠI EA
is cher
39 4
ĠLÄĲTB XH
Nh anh
ĠXS MT
ĠLyn ch
S in
l idae
t áº¥m
26 4
pilic ueta
Ġg áº¡c
ĠA A
E s
ĠTr á»¯
eh yde
ĠMeg an
J in
L ÃŃnh
ĠO g
47 9
ĠRom ero
ĠMac au
f ried
Ġf re
E mer
30 4
ard in
ĠGH z
á»² NH
H ab
ĠWell s
ĠAssoc iation
am ura
Ġho p
ab ilis
ry go
sov petro
ĠNanoc ovax
and in
ec tin
ĠTGP L
Ġn icot
ĠGi ron
ton i
othi c
C áº§m
ĠB eo
ĠW ake
ĠSong s
é ĺ
ĠV ick
as se
MT N
ĠRow e
r el
ÄĲ á»ķ
ĠArt emis
S ub
Ġk id
ĠK ore
Äĳ en
old ings
New castle
ĠBai ley
5 45
Ġb all
th ar
ik tok
30 8
l á»±c
Ġch Æ°á»Ŀm
ĠD oraemon
ĠGi ven
us ion
ĠFal con
ĠDang da
ĠSic ilia
Agr ilus
MÃ¼ ll
Ġláº½ o
47 3
ĠV im
os is
Ġ36 4
Æ¯á»¢ C
Ġbot ulinum
I l
ĠS iv
AT M
ĠEm ail
ĠHels inki
L ive
ĠD PM
se arch
ĠCai cedo
ika a
d ech
d ison
Ġn Ãºc
ĠMÃ¡t xcÆ¡va
ĠKav kaz
ĠTot al
6 18
ĠC oi
ĠC ub
ĠC indy
ol ine
ev o
27 8
Dani el
G á»¡
Ï Ĥ
ow o
ĠMar iana
6 88
ĠQu Ãłng
36 2
ĠWal mart
Æ°Æ¡ c
ĠTr udeau
Ġsá» §i
ĠNi ppon
ĠErn st
Ġh Ã¡ng
un ea
Ġgá» £n
od er
nghá» ī
t uy
ĠP ix
ad an
05 9
ĠMor ata
ĠReg al
) ",
c áº£nh
ĠL AN
ĠM K
Ġrá» £p
u olo
Ã ĩ
en b
Th Ã¡c
ĠY ev
di um
Ġc áº§y
ĠU BS
,... )
ĠStr asbourg
s im
0 65
l á»Ĺ
t Ã¬m
ng á»§
an et
ĠR ennes
h ome
Ġ á
Ġ Ã³
Ġs Ãłm
is cus
Ġchá» Ľm
Ġr Æ°Æ¡i
ĠR as
ab ar
ĠColle ction
ÄĲTB XH
á» Ľt
Ġph Å©
op ogon
ĠMar u
Ġ47 4
chá»ĭ u
L áº¯ng
ĠB áº¢NG
ro x
ĠHo e
ant hi
D D
M Å©i
È Ļ
ĠC eb
ĠV on
om ys
ĠMar ch
chá» ¯a
ĠAndren idae
Ġx á»ĳi
il ian
Ġhá» ±c
ĠS ÆłN
ĠE copark
ĠEl m
c ss
ĠH PV
Ġ34 6
ĠUS AID
ĠS kin
Ġban king
3 11
b á»©c
Ġcá»Ļ c
49 8
ck i
phá» §
ĠC yr
Ġ" ,
av in
Ġ36 9
Com merce
ĠProduc t
7 85
ĠB eijing
ĠP iet
ĠA van
ĠMelo idae
Ġ40 6
KhÃ³ i
ĠGua dal
2 19
g áº¥p
m and
Ġp ano
ĠD erby
K á»ĭp
ĠNe il
Ġn áº¥ng
ĠS U
ĠF am
iform es
7 99
un ity
ĠSh inh
6 36
Ĥ ¬
Ġc os
ĠEl is
ĠKing dom
ĠFab inho
ĠYoshi da
ĠSzczec in
E ug
I i
M aster
ĠL enn
CP OA
ĠSal iba
Ġflav onoid
ĠFTS E
W ill
ĠB ast
ĠB eg
hÃ³ c
im mel
ĠC J
ĠI DI
ĠPar ty
oph one
46 9
ĠVal verde
phá» ¥c
agu ar
Ġb ut
ĠY ale
ĠKh uyÃªn
Ðµ ÑĢ
ĠYout uber
B iá»ĩn
Ġb Ã©t
ĠKhá» §ng
ĠNag elsmann
d W
ĠN au
28 2
Ġkho Ã¡
it ect
Tá» ıi
ouam eni
ĠPott iaceae
ĠD ion
le e
37 7
oll ah
Ġng Ã²
Ġnhá» ¥i
Ġdi va
ĠCuc ur
K áº¾T
P a
ĠV US
34 4
Iáº¾ U
ĠBÃģ O
ĠWS J
ernÃ¡n dez
D áº¡o
Ã¨ ng
ĠSe ine
ĠInter continental
ĠNghÃ ¨
00 9
ĠMal awi
78 7
S pe
ro ugh
ĠBer kshire
ĠR ong
Ġ9 60
ng Ãłnh
Ġl áº¯t
ĠÄĲ iÃªu
80 5
ĠTRá» °C
P s
ĠGi Ãły
ĠMar celo
ib al
ĠM eth
NG UYá»ĦN
ug u
ĠN ishi
ĠS Ã´
Ġ3 29
ĠCar go
ĠCS B
ĠFI T
ĠmÄ© m
TT HC
40 8
ĠJeff rey
7 15
[ [
Ġs ax
Ġgi Ã¹m
28 4
ĠSH TT
Ġáº µm
List ener
B rach
ĠB att
ĠP ublic
ar um
ir k
kh oa
ĠOk lahoma
Sport s
60 9
IP O
ĠG Ã£
hi en
88 9
add Event
addEvent Listener
7 95
S um
Ch uá»ĳi
se udo
ĠKH ÃģNH
ĠGhan i
g áº·p
ĠS hip
ĠR ou
ed on
2 14
V ar
ĠT oni
ĠCh ase
as una
ĠDK RA
ĠHerm es
M oh
ĠD á»ģn
ĠCh áº¿t
ak an
ĠDam ascus
bre ak
' ...
x áº£
L iá»ĩt
ĠT Ã¡n
iz ed
Ġh Ã¡
ĠL á»ĵng
ĠW anda
ĠOr le
Ã¶ y
ĠBut ler
ĠEdin burgh
30 2
ĠMC U
Ġur ic
up p
27 7
âĢĻ âĢĻ
Ġáº¢ ng
j c
x Ã©t
Ch amp
ĠEm er
ĠCom ex
ĠMat ic
Ġ40 8
ĠZakhar ova
ĠA eg
Y m
s um
nh Ã¬n
ĠT iffany
ĠOr ion
ĠAlber to
ĠKend all
M ord
t hÃ¢n
ia la
ĠO TT
ul osa
ĠBr exit
Ġ38 4
M exico
Kar abakh
w D
Ġg áº¥c
ic y
ĠEsp anyol
ĠJeon buk
3 37
ĠBr omel
9 19
b áº§u
Ġr iÃªu
Ġ9 20
ian t
3 95
C ard
ĠQ S
Ġbu ffet
h oÃłng
s oo
Ġ ir
Ã³ e
ĠW ick
65 5
éģ ĵ
U HP
ĠKe ane
T Ã´ng
ĠS ymph
ĠG and
pl ugin
br ight
ĠClin ic
ĠLaut aro
A ster
D E
l á»«a
n aceae
ĠNg á»§
35 7
ĠKT NN
inam o
onc Ã©
F red
W at
Äĳ o
ĠBr an
ud din
ĠSum mit
Ġ18 24
28 1
nh ieu
Ġnh Ã¡o
Ġho áº¡
Ġsá» ©t
ĠchÃ ¹ng
ĠA kh
ĠMar ine
Rich ard
l áº¡
ĠC AT
Ġr áº©y
ÃĶ i
ĠNic ol
Ġs ul
H i
d á»Ł
ĠCent ury
ĠTT XH
35 3
ĠJos ep
ĠDeuts che
G re
tr uy
og lu
4 17
n Äĥng
t ab
end an
ĠEs te
z ia
ĠÄĳ áº§n
ĠNg ao
ĠA BB
Ġ18 31
49 7
Un ited
ĠWhats App
F ab
z el
ĠL ook
M á»
c ode
Ġ7 87
L on
Ġh er
ĠEd inson
Ġj wplayer
Ġsec ond
ĠT NDN
ĠBr et
ä¸ Ń
B Ã¡m
ĠG PT
QE w
ĠT ier
ĠG ue
up ta
30 1
ĠCar rick
Lo E
cl bt
== ";
Ġlazy Script
db LI
xl Ym
dW wD
UHP xlYm
clbt lw
dWwD dbLI
UHPxlYm LoE
ĠPH AN
ĠTan aka
Ġet hanol
ĠÄĲH CÄĲ
ĠHu bb
25 7
ĠUl tim
v ao
ĠB rah
ĠNh áº¯c
99 5
ĠVir gil
? ...
å ¿
Ġ aus
et su
44 3
ĠAbd ala
D iá»ĩu
ĠmÅ© m
t uá»ķi
ĠG á»ĳc
Ġnhá» «
old s
Suz uki
ne ider
3 22
M iá»ħn
x áº¥u
ĠV á»±c
Ġgiá» ¡n
ĠNic ole
8 65
ĠY os
VID EO
ho ang
ĠKam en
ĠAsh ley
D icran
t ÃŃch
ĠViet sovpetro
37 4
D ry
d áºŃy
Ġvá» ĵ
ĠC Æ°á»Ľp
ĠTh áº£m
Ġmang an
Äĳ Ã´
ĠCol let
hamph etamine
n uÃ´i
ĠR wanda
ec ook
ĠFit ness
ĠT etr
Ġx Ã²a
ĠTh ree
ĠK ier
ĠR á»§i
ĠO wen
ĠEX O
3 29
T ag
à ½
Ġc uá»ĵn
Ġl áºµng
is pa
li k
H ook
M ur
le z
m á»įi
ĠV id
anth es
ĠKTT T
v ay
ĠI sk
ĠW as
iss ion
Ġmu á»Ļi
ĠSam dech
ĠH ao
ĠD et
lo om
ĠKum ar
ri y
ier e
H iáº¿u
ĠG EX
Ð¾Ð »
ç ¦
ĠC ow
ĠkhÃ ²
pp ing
Ġngo áº·c
ĠHe ights
D iá»ħm
Ġth Æ°á»Ľt
ĠTr áº¯c
ĠK ah
ĠMan cini
46 3
ĠN ig
Ġyá»ĥ u
M á»±c
c á»Ļng
ĠD uma
Ġtur bine
ĠH ospital
ch Ã¡u
ĠM ine
38 7
ĠVCB S
c or
á»¥ a
Ġpl at
5 68
D Æ°á»£c
nh á»ı
ĠC ASA
Ġ5 79
re c
ĠPer se
k á»ĭch
Ġt Ã¢u
Ġbá» ĩt
le ct
60 3
Cl ub
H á»¯u
t our
æ ±
Ġg Ã¡p
Ġ4 69
az ar
ost oma
uz h
ĠWood s
C PTPP
æ ī
Ġ55 9
ĠMark le
ĠNam e
ĠE QS
5 11
ĠÄĲ á»ĳp
ĠTh olot
Ġkhá» īnh
Ġ34 7
ĠVar iety
KhÃ ©p
Ë Ĳ
ĠM oya
app a
F err
ĠC áº¡n
ĠC Ãĵ
ĠS Ã³i
ĠG LC
30 7
B LACKPINK
Ġsoc ola
ĠK ul
ĠK Åį
Ġ18 34
ĠMah ar
B R
R á»ĳi
Ġh Ã¡ch
Ġn iken
ĠTh a
on n
34 2
ĠTop enland
ĠWin ner
ĠZapor ozh
T er
ĠL ot
Ġho r
ĠQ UY
Ġ37 8
ĠRem desivir
Ġcr ass
0 22
ĠN er
ĠR aw
ĠCar ey
D TTS
M ol
Ġl Ã²a
ĠP Æ°
Ġ35 9
37 2
ĠMach ine
ĠPS SI
3 16
U FO
V ir
W hite
Ñ Ĩ
Ġt ip
Ġnh Ã¡p
6 25
d em
x ic
tr an
ou ch
ĠCo ast
ĠMon roe
gen y
J et
30 9
ph cm
Ġxo ong
R ang
V R
m outh
Ġl ight
id ea
Ch áº·ng
Ġ38 6
48 3
ĠHak im
ĠAdvent ure
Ġchá» Ļ
tt emberg
v ui
ĠBy ung
Ġng áº©ng
ĠB ib
il yn
ĠSt yle
ĠJi ang
Ġsc an
ĠHU D
ĠT yr
M aria
Ġ35 8
37 6
ĠÄĳÃª nh
ĠLac azette
9 25
g ame
ĠB ard
ĠTá» ĪNH
ĠBord eaux
j ab
ĠX Æ°a
Sau di
ĠTN MT
67 8
ĠVina Phone
C á»±
L uk
Ġs Ã©c
ĠN ash
ĠB kav
Ġ8 20
ast opol
of ana
4 12
Ġv Ã³t
Ġs te
Sh e
Ġp at
ĠK ant
ĠVin as
Ġlazy Style
b ase
ĠB ase
ĠÃĶ i
ĠOne Plus
Iá»Ĥ U
s oi
Ġp ound
ter est
ĠkhÃ ¨n
ob ius
Ngh iÃªm
ĠElli ott
), ...
Ġmá»ı m
ĠChrist mas
9 75
ic ata
op han
ĠZ one
ess en
34 3
ĠCal c
ĠZur ich
N SNN
æ Ļ
00 00
36 9
lor a
sp ort
l au
ĠC á»ĵ
ac ional
ĠSte f
R o
c áº¥m
k Ã©o
ĠD ial
at ha
ĠDo an
åĲ İ
3 28
6 75
ng a
ĠÄĲ ÃĮNH
ĠL DP
ĠSt at
ĠDe ath
Ġhá» ī
CN N
Ġ37 7
ĠYou th
ĠFlam ingo
ĠS J
Ã© d
ĠMer ck
ch is
ul um
ĠJeff erson
ĠHum an
ĠPhen ikaa
ĠBromel iaceae
6 95
8 35
ĠR ishi
Ã¤ r
ĠM icron
tr ans
Ac acia
ĠN M
ÄĲ S
ĠE agle
ig on
ĠAz pilicueta
ĠFau ci
6 68
W F
Ġn e
ĠE do
ĠLu ang
ĠNH K
ĠCl ay
æĸ ĩ
ĠWarri ors
c Æ°á»Ľp
Ġ18 25
ob ic
ĠBr istol
Ġser um
LÃªn in
ĠBion ic
ĠP eg
ant ara
Ġ36 1
ĠMet z
åľ ĭ
D uyÃªn
Ġ4 95
Ġpol yp
0 32
b Ã©
ol an
ĠEl le
ĠSi ro
6 99
B re
Ġn áº¿t
ic idae
ĠAm anda
Ġrich ter
Ġc Æ°u
Ġb ack
ĠS ta
N ap
ĠG og
op oda
ĠJer ry
phá» ĳ
ĠN áº¥u
Nghá» ī
ĠSign ature
Ġd áº¿
Ġph ui
ĠÄĲ S
ĠR á»ĳi
55 9
oni q
ĠSecur ity
ĠÄ ©
Ġh atchback
ĠC Æ¯á»ľNG
ĠWars zawa
Ġm Ã³i
ĠK urt
ĠPar c
hÃ £
Ġb anh
Ġs elen
ĠB ert
ĠM BC
ĠSch immel
r Ãª
Ġb enz
er ic
ĠQu oc
ĠW a
Br it
d t
45 9
25 9
ĠUr b
b iáº¿t
v á»¡
Ġm us
ĠTá» ª
av inga
Äĳ iÃªn
if an
25 3
80 8
c il
75 5
kho áº£n
0 11
C TV
Ġrá» §a
co in
ĠMor i
Ġhá» Ľ
ĠAle jandro
ĠCatal unya
Ġx iÃªu
ĠD á»įc
ĠLab s
7 41
H om
c li
60 8
ĠLen ingrad
ĠGIA NG
q uyáº¿t
ĠCh ol
å¤ ª
ĠGener ation
ĠCle veland
Ġnháº½ o
N O
X anh
ĠCel tic
B Ã¡
ĠPet e
ĠA us
id ens
ne a
ĠSh ort
und i
ca febiz
ater ina
ĠWol ver
ĠK ass
ak ura
ĠCap tain
x á»Ń
Ġn áº¹p
ĠV igo
ĠK ona
ha w
35 8
ĠHQ C
ĠIs lam
Ġcom eback
ĠOrle ans
3 39
ch uyen
ĠD ennis
44 2
Dend robium
Ġs áº¿n
Ġ18 35
am u
ĠS ue
Ġam onia
B ia
Ġph Ãłng
ĠFort une
4 88
k ay
t ac
áº ¨m
ĠÄĲ ua
is b
li er
ap er
Ġmu á»ĵi
ck er
ÄĲ BSCL
Tr á»ĭ
ĠSte vens
Ġ\ \
act ive
ĠU TC
ĠTá» ıi
48 6
ĠLor enzo
Ġnov el
W C
t ier
ĠÄĲ u
Ġto ang
ĠHy per
ĠWest minster
0 63
IRE CT
Ġl áº·t
ÄĲ áº¿
ĠR F
ĠCT R
49 1
ĠSen se
ĠChrist oph
je unea
L os
V á»ĭnh
ĠPh Ãłn
ĠR EE
30 6
D ip
Ġn anh
yl is
ĠNova Group
5 85
Ġch áº§m
ĠMar ian
PC I
ĠL anh
ĠK Ã¬
ta wa
ĠAm ir
ĠVie ira
5 79
d áº«n
ĠCol in
Há» ıa
B ox
C ent
U BCKNN
Ï ģ
Ġ45 6
0 27
B at
ĠA ce
ĠchÃ ²
id on
ff in
ĠGen esis
ĠLu er
ĠBrug ge
7 75
8 13
35 1
ĠVP S
ĠByzant ine
3 23
Ġr áº·ng
ĠW ander
60 5
ĠAB Bank
A th
T áº§n
ard y
ĠUn ilever
ĠMain z
5 38
D ol
ĠM ult
ĠÄĲá» Ľi
ĠR ik
i j
m ic
ĠV ivo
ĠD Q
Ġvi olin
ĠW he
47 6
ĠFel ipe
Ġs it
09 4
ĠOs lo
Kh Æ¡i
ĠGall ery
D ÄĲT
h ly
ĠL od
ĠHaw k
ĠNiel sen
5 88
Ġf ashion
ens on
ĠTh áº£n
ir in
idi idae
5 67
Ġm om
ĠN awat
ĠL Æ°á»£c
ĠM Ã¡u
is en
ĠKy i
ĠKT GS
B TNMT
K az
ĠS ac
ĠNhá» ĩn
ĠBR T
ar ic
ĠTá» ³
ill ac
Ġ37 4
ĠZh ong
v y
Ġv Æ°á»£n
Tr áº¡ng
Ã¨ ve
ec kham
Ġ7 77
ap ixel
ĠWind sor
Ġnh áº·n
ul aceae
ĠShak htar
b ac
ĠS ank
ĠkÃ¬ a
mon ella
å¸ Ĥ
ĠSapp oro
ĠTr á»Ļm
Gi Ãłnh
Ġá» ¶
at as
iá»ħ ng
ĠLapor te
ĠDisc overy
ĠPÆ° h
ĠMo ise
ĠTR UYá»ĢN
ĠAU KUS
5 66
Ġgá» įng
ket iah
uy u
ĠC ody
Ġ5 99
ĠCan on
Ġ36 6
ĠSav ann
ĠAbd el
ĠFab io
ĠT áº¾
al on
ĠR av
ĠGiá» ıi
ĠGu ide
ĠTu áº¿
ĠTal ent
Ġx oan
EA D
9 65
G ymn
v nexpress
ĠA e
ĠBa ham
tu al
4 45
y ar
ĠGer ard
Hua wei
0 21
Ġkh Ã¡u
en ed
ĠRol ex
v irus
Ġkh Ãłn
ch iÃªu
ĠB Ãło
ĠChá» ¯a
kh Ã¡t
70 7
ĠMÃ¼n chen
ĠP K
ĠK err
ÄĲ o
es o
ĠR osa
ol s
le ba
Alex ander
Ġn Ã¡
ĠB LV
im um
48 2
ĠPhÃª rÃ´
å Ł
ĠA udio
Äĳ Ãª
New s
7 89
ĠM áº¡o
48 9
3 24
U TT
er athon
Ġ40 3
ÃĴ A
p lex
ĠCar bon
gh áº¿
dan viet
ĠBob by
L ine
O p
ĠT CP
ascia ta
5 13
T á»ĳng
b iet
in z
ĠBl an
ĠSouth ern
Ã¼r ttemberg
V á»Ł
Ġl Ã¢ng
an ensis
ĠD CM
37 1
Ġ8 60
0 95
ĠR Ã¡ng
ĠF V
40 2
son aro
erm in
ĠVen us
ĠT ap
ĠP MI
ĠJ D
ĠSp encer
Ġ36 2
ĠUd inese
7 35
M á»«ng
ĠK iel
ĠI PC
40 9
ĠBá»ķ n
4 14
P au
st appen
ĠSev astopol
ĠNic ola
ĠPas cal
t et
Ġh ave
ĠI phone
75 6
ĠPl atinum
ĠGar ros
VP Bank
27 1
ĠBerm uda
Ġb ina
0 23
6 15
P ed
Ġnh Ã£o
Ġ( ).
ĠSh a
40 3
Je ff
ĠChil well
ogr aphic
ĠQC VN
v ing
ĠC ohen
ĠS R
ĠR est
Ġ8 80
oc era
po und
ĠFeder ico
Ġx Ãµa
ĠGi Ã£
c hÃ³
ĠV CSC
ĠS ut
ĠD ylan
ĠMark ets
g Ã¡nh
Ġr os
Ġtim e
w ha
ng Ã£
ĠS ide
na az
ĠSu u
ĠAlex is
7 45
S Ã¡t
ĠH Ã¡ch
ĠK TX
om ia
ĠCon cept
NT K
s á»Ł
ĠK asp
Ġ4 85
tr uyen
ĠnghÃ ªu
Ġ4 32
ry k
ĠCar p
Ġ47 2
ĠLan e
ĠKH XH
Jenn ifer
ĠP uka
ĠQu Ã£ng
Ġtho áº¡t
ĠTer ry
0 18
B áºŃt
Ġngh iáº¿n
ĠD iá»ģu
ĠGr en
b ushel
ĠT Ãłng
ĠScal oni
Tun es
ĠB um
ĠTh ani
ĠU ber
ĠMet averse
C á»Ļt
Ġg Ãºt
ĠL ite
ĠAvan za
3 38
t Ãºi
D ys
l Æ°u
Ġta ek
ter i
ĠLu ther
Ġ40 9
ĠOn ly
3 18
8 75
th áº¥p
ĠBol sonaro
ĠVer ona
O COP
ĠG áº·m
and y
05 7
Iá»Ĩ M
ĠE t
Sch ool
t uyen
v ez
ĠT YT
ĠS Ã¢u
K TS
S ec
S á»©
ĠS AM
TO CK
Ġcot ton
LV N
aw ak
ĠCad iz
ĠHokkai do
ĠCaribbe an
ĠEx tr
t uyá»ĩt
æ ³
com e
Ãĵ A
Ġster oid
4 19
j on
n um
ĠC ÄĲT
ĠMont ana
ĠVAS EP
0 12
ĠI CD
58 6
3 34
9 35
ris eco
69 2
89 8
Ġnu Ã´ng
r idae
ĠN ixon
al c
", ...
ĠMar in
40 6
s tream
ĠG wang
36 4
ĠCH á»¦
3 14
V á»ı
v it
Ġtr á»ĭch
ĠNghá» ī
PP L
ĠTy son
7 65
B KH
ĠV ID
ĠK oo
ĠCh ro
kh a
je une
ĠPanth er
ĠCar s
ug awa
ĠWeg horst
ĠG et
Ġ7 10
Ðµ Ð½
omat idae
5 15
8 45
M r
Ġt er
Ġc ell
ĠT ad
ĠA AA
ĠY ar
oc r
26 1
ĠÅ ļ
4 11
ĠH ank
ĠG ay
ĠFr aser
ĠSpir it
ĠKy lie
ĠCas per
inch enko
Ġox it
z in
ĠG há»ģnh
Ġu á»ĥ
ĠUB BC
ĠKu leba
ĠTch ouameni
ĠKrak Ã³w
Ġm ad
ĠÄĲ MST
ĠÄĲá» ĴNG
ĠI G
ĠTrans fer
Ġtaek wondo
d ieu
Ġm ed
ĠÄĲ Ãºc
78 6
ĠOs asuna
N ord
b s
t as
ĠH AI
Ġ4 14
ĠLe jeune
uk ov
ĠRod rygo
ĠBy te
t ed
O h
ĠV áº¿t
Ġmá» Ľn
ĠK ais
Ġ4 11
ĠW itt
Ġ34 9
Ġl áº¡t
Ġrá» ĩ
co urt
z zi
Ch iÃªu
ent in
gi Ã¡m
ĠPH ÃģT
U I
ĠJoh an
ĠCurt is
5 16
K O
ĠB áº¡
ĠD nip
Ġ18 28
LH PN
ĠExc iter
! ,
D á»įc
ĠC ES
ĠK oz
ab el
Ġr á»±a
ac er
r il
ĠK ei
C ten
l á»ĭch
ĠCh ong
âĢ¦ "
ĠMu á»Ļn
... );
ff ord
ĠThom is
ĠMetro pol
ĠDep ort
G ener
I NG
J on
Ġchá» ±c
ĠI oniq
ID O
gi Ã³
S ir
gi áº·c
ĠMad ison
ott en
T i
t Ã¢y
ĠP ack
ĠTh reat
ĠHur acan
odactyl us
Ġq uyá»ĩt
ĠX BB
ĠO c
ĠAleks andr
Ġcort icoid
ĠN aver
ĠC raw
ĠD w
as im
sk Ã½
ĠAm az
ĠDis tr
ĠForm osa
ĠDog ecoin
p to
Ġng an
79 2
ĠPl ace
XS MT
ĠMe ey
ĠNun o
H yl
n áº·ng
ĠC GI
ĠTh elypter
ĠD Ã¬
ĠI CA
ap olis
60 6
Ġamin o
ĠDef ender
Ġd et
ĠL viv
Ġca fÃ©
gr ad
ĠRy u
ĠBB Q
ĠMH NT
ĠS AG
ĠK ram
ĠD inamo
ĠR ut
ĠSo áº¡n
lu áºŃt
3 17
H g
Ġnh Ã³i
ĠR Ã¢u
ĠRe ims
4 38
ĠH ue
em us
ph ai
ĠvÃŃ u
ans a
Ġ38 8
ĠArms trong
Ġx áº©m
al ore
49 6
ĠÅ ģ
ĠThelypter idaceae
O x
V áº¿t
ĠH ob
Ã¶ l
ĠNav ar
Ġur ani
ĠAtlant ic
6 12
ĠT iá»ħn
ĠW en
Ch ris
d áº¥u
ĠC ash
ĠCh uk
59 4
L Äĥng
c uá»ĳi
Ġy our
Äĳ áº¯p
ard en
yc le
ĠB ian
lib aly
ĠPs aki
0 14
T L
ĠS tre
ĠS ei
ĠD á»«ng
im mer
ĠF ofana
Ġná» ı
Lá» Ĺ
Ġ39 6
ĠPol o
ĠWell ington
ĠS ars
50 2
Ġ35 1
ĠIs mail
um o
ĠTR ANG
ĠSá» £i
0 13
Ġlu áº©n
ĠW TA
46 6
F er
Ġp ub
45 4
Yam aha
j Åį
âĢ¦ ",
46 7
ĠMcK in
ĠErn est
c ai
Ġn áº¹t
ĠTh áº¥m
ĠVin at
ĠRhein land
T Æ°á»Ŀng
Ġ ass
VAS EP
Th Äĥng
ĠOn sen
Ġgam ing
36 1
ĠHyp naceae
g gio
j ong
p eng
Ġqu áº»
ĠCh and
ĠHD R
ĠMont p
ĠMill enn
ĠP ich
ig g
Ä± n
Ġchá»Ń ng
ĠHon or
ĠRiv era
ĠNh áº£y
ĠE than
Gi áº£ng
PT V
ĠCl ara
ĠEVNN PC
d Ã¬m
ĠG á»ĳm
Ġáº¤ m
Ġl áº£ng
ĠS ed
ĠAl aba
ĠAcc ord
er k
ĠL L
ab an
ce ph
25 1
39 2
ĠPop ov
ĠTW ICE
ĠA pr
ĠR is
Ġbá»ĳ ng
Ġ40 4
thá» Ń
ĠK ess
ĠU FC
Ġ5 75
ut en
39 3
ĠP AN
ro i
ĠAf rica
Car ex
e er
Ġ37 6
ĠDef ense
5 24
f ound
ĠT Ã¨o
ĠTr iá»ĩt
ers ky
X yl
ĠCon stant
0 19
Ä ģn
ĠT áº¥u
Ġx á»ĳt
Ġ8 10
ĠNgh inh
ĠGen oa
ĠStar g
ĠSC IC
ĠArd ern
4 26
H il
ĠÆł n
G an
W ashington
X L
t Ã¡t
Ġy outube
ĠPh Äĥn
ĠW it
ors et
ĠS ophia
D Å©ng
en ue
Ġ4 65
ah ara
ĠPH ÃĴNG
s z
Ġt ar
Ġb or
al am
Ġrá» £
li ver
Ġi Tunes
ĠSpec ies
ĠC i
ĠS B
lian z
7 43
Ġc yan
ĠH MTN
ĠM áº¡
ang ay
ĠF ah
ĠE in
ĠMontre al
0 68
G O
s uy
Ġd áº¥p
and ar
Ġhu á»·
ĠK uz
Tr á»«
im on
05 6
Q uyá»ĥn
Ġan th
om um
h ung
ng uyen
Ġhy p
n ius
ĠB am
ĠR ÃŃ
Äĳ Äĥng
re uters
b el
z ero
Ġkho áº»
ic eps
Ġ18 26
Gr and
ĠSchles wig
s el
ĠD SC
ig ne
75 9
ĠOt tawa
ĠFur ious
t ics
v aro
ĠL oc
Ġngh Ä©nh
ĠCh em
ĠArn ault
ĠSass uolo
M ade
Ġx sm
Ġá» ¨
ĠI mm
Ġ9 10
z ar
Ġg uá»ĳc
ĠF est
ah ashi
Ġal pha
ĠAc ecook
L amp
e an
n Ã©
au ty
ph in
49 4
ĠLiber ty
nd ers
ĠMil ano
áºł O
ĠZaporozh ye
D B
b org
Ġb Æ°Æ¡n
Ġg Ã¡o
Ġh uyÃªn
ĠÄĲ iá»ĩu
Ġ38 3
iy e
xic Ã´
ĠV JC
ĠP avel
ĠO ch
Ġf ly
ĠS ov
or ov
it omo
3 26
ĠD irect
re cht
ERS TOCK
ĠT ec
19 29
kin son
ĠPep si
elli er
0 16
0 29
ĠC ec
oh an
TS KH
HÄĲ BT
And re
yout ube
m á»¹
ĠC od
inh os
ĠW ai
79 7
ĠMas er
ĠGeorg ina
Ġpolym er
0 48
S JC
ĠK od
ĠW ord
kh áº£
sk o
34 8
ĠIS BN
ĠStrait s
L asi
j al
ut us
ank ham
æ ´
ĠTH ÄĲT
ĠZh ou
ĠÄĲV HC
Ġnit rat
å¦ ĥ
æ Ĺ
ĠC áº¤P
3 31
Ġ4 45
ĠYo Y
UTT ERSTOCK
Ch oi
Gi Ãły
ĠVN E
sh u
ĠConstantin op
0 17
N E
b eg
k hÃŃ
ç «
ill ing
95 9
68 6
ĠCollet idae
m all
Ġl ev
ez i
KH HGÄĲ
, ....
4 28
æ ķ
Ġg Ãłu
Mos cow
id is
tr Ã¬nh
O D
S Ã´i
há» ĵ
et is
Ġ9 40
ĠCon an
ĠHor izon
b áº¯n
ĠB od
ĠL áº¯p
ĠTh áº¥u
hÃ ºt
ĠB Æ¡i
ĠEl ly
Ġ38 1
ĠDaw n
V S
d Ã²ng
ĠÃ ĸ
gi oi
Ġa er
ĠSim one
ĠRod gers
UYá» Ĩ
enc ak
ras ka
C ov
ĠD ÃĤN
ĠE van
ĠÄĲ Ä©nh
ĠM eng
ĠI B
66 9
ĠGlobal GAP
ald ehyde
B ry
Ġvá» ©c
ĠB IM
Ġkh áº£i
ĠTh Ãłng
Ġtu Ã´n
ĠP B
Ng Ãłi
ĠE ven
ĠAr am
TB T
' +
Ġm á»ĳ
ĠL áº½
ĠM ÃŃ
ĠE qu
Ġvi r
ĠSh Åį
99 8
ĠV CG
mark t
d Ãłnh
n á»ĳi
ĠB au
ĠB Ã¹ng
80 2
ĠKy un
A dam
Ġ à¸
tr ieu
Ð° Ð½
Ġkar ate
ĠZag reb
ĠB oss
Ġ9 90
ac as
ik awa
50 9
raz y
ĠMedia Tek
S ev
ĠM ort
ay ak
ĠVF C
oit te
F estival
L ago
U y
iz zie
ĠAl ain
ind h
ĠBagh dad
F re
y ne
ĠCh ul
ey a
S ky
90 8
ĠAre caceae
ĠTrin idad
t phcm
ä ¿
Ġm or
Ġ6 75
Ġ18 29
48 7
55 6
An na
ĠMat eo
ĠNu tr
S ter
d le
Ġcá» £t
ĠCol umb
0 77
b ai
Äĳ áº¯t
iff el
ĠComm unic
m ia
ĠT ut
ĠN ile
tr uc
49 2
67 4
Ġpoly phenol
ĠRim ario
P res
X T
ĠC e
ĠA w
ĠR á»ĳc
46 2
rab at
ChÃº a
4 18
6 45
n eo
v accine
Ġho st
ĠG Ã¬n
ed ine
ĠAg ency
ĠÃĲ Ã¢y
Ġcor onavirus
Mo ore
ĠEngine ering
M INH
68 7
ic le
Ġcl ick
c áº£i
Ġthi s
Fin ance
ĠH oi
ĠQu Ã©t
ĠE g
il io
ĠZ ay
ĠAl lianz
ĠKhu Ã´ng
ĠNG Æ¯á»ľI
ĠVer stappen
ĠJoh ans
Ġd Ã³
ĠBen ed
ĠByte Dance
R Ã¡c
ĠT EU
ĠN antes
ĠC Ãły
ĠB uá»ĵn
Ġá» ļt
CN TT
ĠShinh an
ĠB ear
ĠCh ay
rai ne
ĠGr is
c en
à º
ĠÄ °
ch el
ĠB ody
19 38
Ġ39 2
69 8
ĠAndr Ã©
detail s
ĠT NT
ĠT CH
ĠN ine
ath e
N K
Ġm Ãº
Ġh áº¿n
Ġr á»į
G am
M Ãª
h ampton
ĠVI T
Ġm iáº¿t
un ch
8 95
f rey
à ¥
ĠC old
ĠD áºŃt
ĠHe ath
asm ine
ĠKV PT
B arb
g it
ĠB ash
ĠD F
ĠX en
Ġ47 6
9 45
B áº§y
ä ¾
ĠL ONG
ĠLu la
CC o
66 7
ĠNass er
P ach
th ophagus
46 4
iz a
ym astic
ĠNS CC
ĠFish er
5 36
5 32
R en
z ard
Ġs un
Ġnh áº£m
ĠV es
ĠA WS
al ic
em ic
ty n
Cl ar
D IC
Ġb áºŃp
ĠM áº£ng
ĠTheo d
80 6
ĠU k
ĠJ azeera
P or
Ġ18 27
35 4
90 5
0 38
ĠM áº§n
ĠM ei
ĠM ÃŃa
50 3
x o
ĠP ach
ĠP LA
TH U
R at
Ġ áº¡ch
Ġ( âĢľ
áºł N
ĠWe Chat
ĠM R
Ġmá» ¥
05 2
ches tra
H I
l ak
iss o
sky i
H Ã¡n
Y u
l oi
Ġg Ã¹i
Ġsá» Ľ
Ġá»ķ ng
67 6
Ġ ãĢ
ĠO pp
ĠEVN CPC
Ġg Ã´n
ĠB es
il et
Ġmeg apixel
Ġthi u
ĠChi p
ĠBV H
P I
¬ m
Ġph uá»Ļc
ĠH ui
if rons
Ar thur
ux e
Ġ over
ill and
ĠSai t
aver ick
ocer idae
ĠBaham as
c um
Ġth áº«m
Ġ4 23
it Ã£o
Ġlo Ã¡t
ĠCl ement
cá» ©ng
ĠPrinc ess
0 26
Ġvi rid
85 3
aut iful
t áº§ng
Ġt ele
ĠT yler
ĠL orient
id ay
59 8
phi dae
ĠBoe hly
ĠH ÃĲ
Ġ50 2
Chat GPT
J P
P hÃŃ
ĠK is
Tr Ãºc
ĠR Ãºt
Äĳ á»Ļt
áº¤ m
ĠCal vin
89 6
oz a
Ġskin care
T NG
ĠM Ã¢m
Ġcá»± a
s ac
Ġd iá»ħm
ob o
ĠDá» ©a
Ġcl ub
M Ãł
Ġnh á»Ļng
ĠC row
36 3
AS T
e ong
Ġc c
ĠÂ «
dor ia
sch ild
Hung ary
T uyáº¿t
Th an
ps et
ĠMad dison
g round
Ġk iáº¿t
ĠJ as
ĠPhan xicÃ´
ĠStr ange
B áº¿
ang el
ĠI FC
ae ng
C AND
x á»©
am ar
ĠM ug
en us
TT TT
khá» Łi
BV H
¬ u
ch us
ar ov
0 85
7 88
G ly
M im
Ġd emo
ĠN akhon
Ġ4 16
oe i
ĠNovos ti
6 39
c is
s Ã´ng
Ġl Æ¡i
ĠPV comBank
ĠTom iyasu
ĠRui z
m ap
ĠQu est
ĠE iffel
ĠLejeune aceae
8 22
ĠN á»Ł
ĠP att
ĠD HA
ĠF itz
Ġ7 90
Ph Ã¡i
69 6
ĠXD NTM
Ġgi Ã³ng
tr en
z Äĥng
Ñ ĸ
". /.
ĠBo ut
kel ey
0 46
B amboo
S up
l oh
Ġv oan
ĠSup ran
Ġbol ero
shev ik
ag rion
ak s
ĠOr ch
Äĳá» ©a
ĠRh ine
Art eta
ĠKhal ifa
ĠV ong
ĠD ah
ol and
tr á»ĵng
ĠTH T
ĠCel ta
ĠCre ek
ĠOlive ira
ĠMaser ati
Ġtr áº¥u
Ġ4 26
ĠF RT
Ġvi ral
ĠDi esel
29 7
ini i
ĠKH HGÄĲ
3 13
Ġ Ø
Ed ward
D ich
ĠG amb
ul aria
ist s
eth e
ĠMON O
ĠB utter
ĠTh áº±ng
ĠBá» ģ
Co el
ĠCam avinga
ieg el
K o
b á»ĳn
ĠThá» £
ĠPh áº¡n
NG á»ĮC
Ġpul ch
m ong
Ġm oi
Ġ4 37
ĠTH áº¢O
60 2
6 23
C oll
G olo
ĠT ass
or ama
ĠLá» £n
omb ie
ĠPin terest
ĠV ÃĢNG
ev e
bo und
Ġel eg
ĠCur ie
ĠHist ory
S CB
U E
l Ã½
ĠK ens
ĠChrist ina
ĠHer ald
Ġwork shop
5 33
ĠC áº¡
ĠA ction
ĠD Ãª
ro ck
Ġlo e
oc yan
Ġ40 7
Le itÃ£o
att s
ĠGal il
ĠSymph ony
6 24
6 85
D ec
S k
ĠS earch
Ġ45 1
Ð° ÑĢ
4 13
5 28
tr act
Ġv áº§ng
Ġtra ck
tr u
ĠJoy ce
Ġ %.
ĠTr av
ĠSt ell
77 9
ĠN I
ĠE M
50 8
ĠBl ood
ĠCan thar
65 7
Ġ39 3
ĠTher idiidae
Mu ell
ĠMord ellidae
d á»±a
ĠC ed
Há» ©a
4 29
P fizer
te ct
ĠSam oa
ĠAnn ie
Ġc ocktail
ĠT eng
ion i
ĠEuro zone
F il
L en
Ġl uy
ĠR ib
ed om
op es
âĢĻ ),
ug e
Ġel ip
Ġ end
Ã´ á»ĭ
ĠS AS
ain er
ãĥ »
ald um
4 16
P ak
Ġph oto
ĠN ketiah
ĠkhÃ ¨
eb ec
Ġ47 9
EF L
5 17
K am
t ia
Ġtr áº¯m
ĠM ello
ĠF rom
ĠE astern
ĠPao lo
Ġgi Å©
ĠTr iton
ash tra
ĠLey te
ĠM áºŃn
ti es
O l
é Ŀ
ĠC E
ch áº¡m
Ãµ n
ĠRe yn
80 9
70 5
OO OO
å Ĩ
ĠK us
ĠD áºŃn
ĠPh anh
40 7
uti aux
ĠKle in
s ub
ĠNew port
07 2
ĠAng kor
ĠVND IRECT
ell ia
ĠBel gorod
ĠTri pp
thi ng
ĠHamp son
ĠP TTH
ĠS AT
ap at
Ġf olic
ep ard
ĠBurn s
ĠEug en
ĠSupran ational
N Ãºt
h uy
Ġkh áº¥m
ĠG aul
m á»ģm
and om
ĠcÃł phÃª
à¸² à¸
J am
k ong
ĠTr oy
Ġhá» ¯ng
ĠP Ã´
ĠP all
Ã© es
rai on
79 3
ĠMon ster
Tech combank
49 3
HO NG
H Ã¨
s at
ĠL á»¥a
it idae
Ġ50 1
ĠZ inchenko
ĠLy cos
B ern
al bum
ĠBr emen
gi am
ĠDuc ati
ĠS áº¡ch
ĠJ YP
85 2
ĠBey oncÃ©
ĠSiem ens
0 88
4 24
æ ģ
ĠH ers
ĠGal tier
ĠArch itect
Ġworld ometers
8 48
H á»ķ
ian i
anth era
ĠAlexand ra
ĠVik ing
5 39
ĠSab itzer
ĠCh ron
ĠthÃ ²
ĠR aul
ĠChÃ ²m
Con te
ĠAnton ov
ĠIM G
ĠRock y
) âĢĿ,
Z one
ĠM ater
Ch an
ĠNG ÃĢY
ĠVá» ļI
Ġrem ix
ĠNeb raska
8 26
B ell
Ġv Ã´ng
Ġ4 19
ĠMus eum
oss a
ĠPom p
jn aldum
ĠH áº§m
ĠR asmus
Æ¯ A
80 4
59 6
ĠCy rus
4 39
ĠJ al
ĠHab sburg
Po int
5 31
7 29
® U
ail les
7 22
ĠX ong
ĠAn ime
NhÃ £
ĠRah eem
ĠGonz alez
tr ak
ĠTT CP
di em
ĠHe ine
Ġg áº¡
ent ino
ĠAr ist
ĠMey rick
ĠRov ers
B loom
ĠU rus
ĠR atch
om ic
ĠW igo
ĠZ al
90 9
ĠRog ers
ĠHat ha
oach im
t Ã¢n
ĠC AR
aw are
CH F
á»Ĳ NG
9 22
H ow
w est
Ġch ill
ĠN IM
ĠTr ade
55 8
ĠLuc y
d ap
æ Ľ
ĠG Äĥng
ĠKh áº¿
od om
Cro atia
S iáº¿t
al ov
ex co
78 3
Ãį NH
Ġchlor ide
Ġ57 8
On thophagus
Ã¡ r
ĠSt ation
ĠVin c
ĠUN I
ĠTer esa
ĠKer ala
Ġdig ital
6 65
ĠH ÃĴA
ĠK ud
75 7
akh et
L it
ĠH Y
tr end
Ġa espa
rop is
E du
ĠH ik
al ife
et amin
ĠJ avel
79 4
ĠSchwar z
Ġm Æ°á»Ŀng
Ġr ot
id ar
ian thus
8 99
S á»£
ĠB áº¯n
Ġvi et
yl ene
G Ã¡i
u h
Î ½
ĠTh ier
Ã¶ n
ĠDest iny
Ġg há»ģ
ĠM á»¥
ic ill
se e
Ãģ N
77 2
ĠCour t
Wal ker
! .
8 28
Å įn
ĠN ÄĲ
ĠC act
ĠV err
77 6
ect ion
ĠKe ita
Ġcr Ã´m
ĠCham ber
9 85
z ai
Ġt iktok
ĠT áº£i
Ġph iáº¿m
ĠG á»ĵm
19 18
ĠQu i
AC AF
0 43
å »
Ġt Ã³p
6 35
R eg
tá» «ng
ĠEver y
ĠRec ord
' ',
8 66
th Æ°á»£ng
op is
Ġma x
Ġno Ã£n
Ġbar ie
ĠColom bo
ĠGyeong gi
¢ P
Ġr á»ĳc
ĠB Ã¡m
ĠTr ee
ar row
19 37
TH ÃĶNG
ĠPost mart
) âĢĿ
Ġn iá»ģng
ĠX EM
ĠEm ery
Ġj apon
ĠM oyes
ĠX T
68 3
My anmar
ĠAgu il
ĠLeop old
ĠPt ol
ch ange
TN AM
ĠTech o
fr ont
ĠPter idaceae
D ÄĲ
L yc
T ee
ĠB ike
ĠM N
hi ko
ic i
ow ska
ink a
ĠGu j
ĠÐ ¡
Hen ry
ĠLeg acy
5 34
B or
K evin
BS C
05 4
Ġ _
ch ev
ĠG oo
ĠCh áº£y
Ġ4 13
Th uá»Ļc
ie f
ĠThe erathon
Ġ37 3
Ã¼ k
7 27
L Ã²
ĠL er
un ov
50 6
mar ck
ĠRich ter
C áº¥m
Ġt ank
ĠDo uble
47 4
77 8
ĠWi Fi
ĠElis abeth
R ay
Ġl iáº¿ng
ĠB oun
ĠM IT
ĠO w
Ãģ NG
ĠSch neider
M eta
ĠC oach
ĠP E
it ime
ĠnghÃ ©
88 4
ĠMon ter
ĠC U
Th Æ°á»Łng
Ġe KYC
ĠTak eshi
ĠNag asaki
ĠSand hu
aug rana
T Q
ĠC oco
ĠM á»µ
ie p
Ġ38 7
trich aceae
3 27
J an
c Äĥng
ĠN ever
ry n
ĠInn ovation
4 32
Ġc ost
ĠN ÄĤM
Ġvi vo
van te
ĠDan ube
ĠRen ault
... ]
ĠSt ur
Æ¯á» Ľp
** **
L ang
88 6
qua t
ĠKu o
ÄĲH QG
ĠPray ut
C ir
h oldings
r iet
y na
ĠK ind
19 20
ĠJ aguar
75 3
UB G
ĠM omo
ĠF oster
us mane
ĠBang alore
erm um
ict us
ĠGustav o
VD SC
8 18
l uc
w ater
ĠH KD
79 1
ĠLycos idae
N issan
ĠB ua
Ġ39 1
7 26
W E
ĠV AMC
ar th
ĠQu ao
78 4
ĠG ott
Ġ4 28
os uka
is ol
il ey
ig ata
Ġu áº¿
60 4
80 1
KV FTA
ĠComm unity
ĠWr est
art ney
Ġ34 4
85 9
ĠDel oitte
ĠPVO IL
6 11
Ġn Ã©p
Ġ4 66
ĠX áº¾P
ov ina
05 8
Ġ48 6
ThÃ ¬
ON E
ograph y
Moh am
B Ã²
N orth
ĠS SB
ol et
ol ph
tr ao
ho on
67 2
ric ius
) (
Ġf lor
ĠHil al
ĠHatha way
4 81
4 48
H R
L ev
ĠE at
Ġlo anh
ĠBr endan
ĠEl che
ĠKon ash
ĠEV NHANOI
can al
allad olid
G á»«ng
L ogo
â ĪĴ
Ġl iáº¿m
ĠT ÄĲ
och a
ĠKat ie
5 14
t ao
tr ack
ĠHan sen
ĠHP X
Tip ula
7 44
Ġr Ãº
tr Ã²
ĠZ ircon
ii i
................ ................
Jenn ie
ĠAmar yll
z yn
ĠT áº¤N
ChÃ ¬a
! '
b Ã´ng
Ġl ep
19 26
ĠE tern
65 9
ym b
Ġlay out
Ġk e
ĠT ÃŃt
as co
ot am
Ġl áº³ng
Ġb ox
ĠM averick
eb y
Ġmai l
38 1
ĠAd ri
hu ong
ĠN ishino
67 9
San ta
ĠHow e
ĠAx el
8 11
ĠG othic
th or
4 21
M ik
ĠÄĳ Æ°Æ¡c
um en
99 3
ĠCanthar idae
ar oo
tr á»£
Ġkh Æ°á»Ľc
70 8
ĠXX II
ĠClar ke
A ut
k ÃŃch
ĠT og
ĠN ation
ĠBá» Ĺng
ĠChi esa
ĠBo ul
ĠFer ran
ĠEp ic
cass urance
8 24
B le
c Æ¡m
ĠH áº³n
Ġ4 18
70 4
ĠHer mann
ĠSP F
len burg
For ce
M Æ°á»Ŀng
N á»ĳt
s Ãło
ĠV á»Ł
Ġ4 29
ur ia
Tw itter
L eo
ĠNg Ã²i
ĠK R
it ana
Ġchu m
se v
40 1
rom is
Ġs ÃŃnh
45 3
ling ton
ĠSoc orro
B áº¡o
Ġ18 20
ĠAr au
ĠSc andin
Ġ47 8
mat rix
Ġd on
Ġ4 33
od rom
ĠPl atia
ĠS CG
ĠÆ¯ Æ¡ng
ĠINT ER
ĠR ank
os idae
PhÃ ¹ng
td own
Ġreal me
ng hiá»ĩn
Ġch ar
ĠCh ua
av ian
ĠTD H
ĠNan ogen
ĠSpr ings
ĠGriff ith
ĠContin ental
n ov
et ter
Ġ45 2
cli ffe
G abri
eb o
Ġo ch
Ġ48 3
sh Å«
iel emans
ĠMod ern
C re
f ri
Â »
Æ°á»£ p
ĠW enger
ĠCH UNG
AP AS
ĠPort land
NC ACAF
à¹ Ģ
ĠChurch ill
ĠPÃ© rez
8 33
V V
ĠT ÃĤM
Ġhá» «ng
ie va
og un
han a
ĠTok ayev
cho tria
ĠCons ult
A st
v ice
Ġb rach
en ing
19 12
ĠBrand ao
L at
ĠK ost
ĠVH C
ĠIm age
Ġpar acetamol
L as
e imer
ĠSe as
l aw
Tr Æ°ng
th ao
ad ar
Nh Æ°á»£c
07 4
Ġc oun
ed imex
ĠTT VN
Ġki wi
H amp
W TI
ĠId lib
ĠTas mania
Prem ier
7 68
® NG
Ġd áº¥m
ĠP API
ĠCh áº£
ĠE PC
Ġngá» ¥t
Do Ã£n
77 4
ĠÃĲ iá»ĩn
AN TT
c d
f at
ĠB II
ant ino
95 5
M ob
v ang
ĠÄĳÃ³ m
ath y
ĠAmaryll idaceae
B aker
ĠH ack
ĠL Ã¹
Äĳ Ã²n
ĠBrand enburg
ĠDW T
19 22
Ġf ormat
ĠI ce
05 3
eck lenburg
b áº«y
Ġd á»ĳt
ĠT ell
ĠPh am
ĠHá» ¢P
5 47
C le
D ar
æ ¸
ĠH ip
ĠP iano
ah ar
75 2
ĠImp er
ÄĲN O
7 23
J ang
L ÃĬ
Ġ under
ĠJon as
ĠchÃ² e
ĠThomis idae
ĠKonash enkov
4 46
7 16
E ner
t á»Ļi
ĠG os
ĠIs uzu
ĠSal es
ĠÐ ²
May bach
qui pe
ĠCyp rus
5 18
8 64
X á»ķ
b á»ķ
t ot
re ng
Kh Ã¡
70 9
ĠAb bas
AM S
07 6
ishi ng
ĠFul bright
B ai
Ã© b
ĠAP S
t ap
or ed
ver ev
57 6
ĠP ou
ĠAl ps
09 6
ĠMB Bank
nghi ep
5 64
A ran
K ai
et ic
ĠBr aun
85 7
Sp ace
c dot
Ġtrá» ģ
ĠGi b
ĠZ am
Ġvo á»įc
7 67
W indows
h om
ĥ nh
ĠÄĳ Ã¡t
Ġng Ã¹n
Ġr ib
ĠDial lo
9 67
B ud
ĠM Ã£nh
ĠA ero
ĠCh iáº¿m
ĠJ azz
ess on
Mar ie
J ones
50 7
ell an
Ġt el
on ment
0 49
g ra
ĠP oz
Ġ4 24
ur c
Ġ0 28
á»ĩ ch
giá» Ľi
oll s
07 8
ĠHá»Ĺ n
ĠGh áº¿
ĠGuadal canal
Ã´á»ĭ má»Ľi
R hin
ĠB omb
od ie
CC A
ĠMilit ary
4 27
6 16
7 19
9 15
V Ãłnh
ĠW uling
ĠMad e
55 2
H K
M Ã³ng
Ġs ÃŃt
ĠW ant
ĠJ ing
Ġ16 00
ek king
tu ong
Mey rick
0 71
al idae
ĠKh Æ¡
il er
ĠAl p
0 44
4 33
5 23
7 28
kh an
ev es
45 7
ĠTok ugawa
6 19
Ġn Ã´m
Ġ17 75
est es
ez b
TM ÄĲT
under land
ĠP oh
ĠRe ed
our ney
ĠAd obe
An n
ch ua
el ma
ct us
S ay
ĠN ab
âĢ¦ /.
á»¥ p
ĠMir anda
5 48
8 14
x Ã³a
Ġ4 38
ES A
06 2
D ie
Ġt Ãło
Ġg al
Ġchá»Ŀ n
R og
Ġd Ãł
ĠTr Äĥm
or os
ĠQU ÃĤN
5 22
S quid
W AS
r ong
Ġx Ã©o
Ġ5 95
ĠQu Ãł
Ġur Ãª
ĠLad en
M uá»ĳi
Ġnh Ã£ng
ĠT iá»ĩm
ĠT ea
ĠB iá»ģn
op t
ob ar
ta ch
zh ou
ĠAth ena
ĠP Ã¡
ĠY ing
ap o
60 7
In ternet
Ġch rys
ĠhÃ ªnh
ob us
ell ata
ĠPl ate
A ct
ĠH ello
ĠL I
ĠK Ãł
re ira
ib urg
gr ade
ĠHann ah
D ub
ĠH og
ĠG iáº¿ng
ĠDe S
ĠKr ish
Ġoc c
Ferr ari
C ross
f ax
Ġh Ä©nh
ĠP Ãł
Ġ4 31
Ġ18 01
ethyl ene
ĠAnim ation
Trail er
4 36
i ensis
ĠD as
em s
ĠW ing
ĠBer keley
ĠLead ers
t iÃªn
ĠGuy ana
ĠMahar ashtra
4 49
9 11
E le
P falz
ĠChild ren
7 69
c áº¯m
m Ã¢y
ch eng
art ment
ah o
Thu áº¿
0 34
Ġthá» Ľ
ĠN Ãºt
ĠM IN
ĠCl aire
nu oc
n Ãºi
Ġ18 10
ĠSt ud
ĠCar ne
h anh
l n
ĠB áº¥y
ĠV ega
Ġ4 46
lo ch
ĠNav al
b uri
s q
em ay
ac i
ĠJ ura
Ġdi ch
77 3
ĠNag orno
6 38
n ao
59 3
ĠNghÃ ª
6 81
è ¦
Ġh el
ĠV pop
ĠX P
ĠE ld
ob acter
ĠMal p
78 2
KH ÃĶNG
k Ã©p
ip as
Un ivers
ĠWes ley
ĠPrinc es
ĠOleks andr
5 26
6 37
g al
Ġv Ã¡i
ĠL LC
ĠD icran
ad ia
Cap rio
d Åį
Ġb ir
ĠV ib
ĠS EC
ĠK atherine
ĠF WD
Ch áºŃm
65 2
ĠFr ench
ĠAf ter
ann ing
5 27
5 37
m Ã¡u
Ġt uá»ĳt
Ġn ia
ĠS Æ°á»Ľng
im edia
SE E
ĠPlat nick
ĠFly ing
ĠThreat ened
ĠB eh
ĠÄĲá» §
ĠX R
Ġto wn
le ck
Ãį CH
ĠWolf sburg
5 63
L á»Ńa
ĠV all
Ġ4 17
ac io
ĠHÃłn Ã´á»ĭmá»Ľi
gi Ãł
iew icz
5 89
T áº¡
nh i
ry th
ĠPT DT
ĠAbb ott
. âĢĿ,
t al
Ġcar oten
Ġcomp osite
5 44
L og
ĠL ÃĤM
Ġ4 27
ard osa
ach a
ĠChu Ã´ng
Ġ Ãºa
Ġb áº½
Ġs ign
ĠB MI
Ġ5 45
ĠRh ymastic
ĠHealth line
ĠL Ã£n
Ġ5 28
ac ity
Äĳ áº£m
ert sch
lo ai
58 7
Ġn Ãµn
Ġx anth
ĠM RI
80 7
ĠGar c
Sch um
P il
Ġr im
ĠL T
ĠMy s
ert y
ãĤ ¤
ĠGang nam
Ġob sc
ĠThier ry
F u
ĠH eng
ĠG N
ery th
acin co
M Ã¹i
l Ã£o
Ġ audio
ĠNg Ã¢m
ĠAct ive
H áº¹n
ch áº¯c
ĠKh iÃªu
ro bi
ap ak
68 9
Ġsal on
ĠJavel in
4 71
Ġtr Ã¡t
ĠK wang
ĠMil ley
VP F
ĠTr ail
ĠchÃ ¬nh
Ġ6 25
Ġ18 02
Ph áº«u
ri b
ĠBl ake
ĠWork s
Luk aku
4 61
8 12
99 6
Ġá»¦ ng
ĠHout hi
J im
ĠC ream
ĠL innaeus
th Æ¡
uch a
Ġ39 4
+ +
5 65
A ug
Ġkh áº¥t
ĠC BNV
in sky
ĠD ÃŃ
it iv
li v
ec io
cu oi
ĠPolit ico
6 28
d rama
ç Ľ
50 4
ifol ius
ĠRey es
0 36
è ĩ
ng Äĥn
ĠN ah
ĠmÃ¹ n
75 4
ĠFr esh
ĠMat xcÆ¡va
Ġ Ãº
hÃ ©p
ĠV MS
ĠE B
08 7
IA EA
In ternational
ĠHus sein
K N
ĠT Ã³m
ĠDu áºŃt
ĠÃĲ BSCL
RO M
ĠVil nius
7 47
9 24
O ECD
R ashford
b á»¯a
y ev
ĠT á»±u
ĠN k
ĠS co
VN O
EM A
Ġcard igan
ĠPand ora
y ah
Ġ5 38
ĠR oom
D á»ĭ
on et
ĠO Ã¡nh
li um
,âĢ¦ )
59 7
ĠSport age
ĠPenn y
ĠEconom ic
ĠEps tein
te en
ĠAc id
j as
l ast
ĠC áº¯n
ĠP ent
Ġ6 45
ĠF ury
Ġ50 6
80 3
ĠMy TV
ãĥ «
ĠMontp ellier
9 27
N em
P ogba
áº ª
ĠB rab
ĠR ao
tho Ã¡t
Ġcaffe in
ĠMaurit ius
H appy
y ama
ng á»±a
ĠF ol
tr alis
ton a
68 4
Ġpro ton
ras in
7 37
Ġtr Ã¢m
ĠMar ino
95 4
Ġ Ï
ĠL Æ°á»£t
Ġ4 36
Ġtá»ĭ t
ĠHar ley
ĠPV EP
ĠBol shevik
Ġspec ies
ĠRez nikov
5 62
k awa
é Ģ
ĠC oss
ĠE L
ĠBr ight
ĠHe avy
ĠRed dit
And roid
ĠMarqu inhos
75 8
Kho ang
V y
h ol
l Ã£nh
ĠN im
Ġlá» įn
ĠSt al
uá»ĳ m
Ġbá»ĭ u
ap arte
ĠHo áº¡ch
08 3
ĠVII C
ï¼ Į
ĠColl agen
ĠD PR
ad in
st art
aw att
ĠKai ty
P F
f ol
ay ashi
ĠE ye
Ġ48 2
ĠMon s
mat han
ĠBir d
Te am
ĠDicran aceae
0 42
ĠS Ãłng
lad bach
ĠMah m
f us
z illa
ĠM ED
ĠF ey
eb a
79 8
ĠWhit ney
B ac
ĠE CO
58 2
ĠDeport ivo
ĠTripp ier
6 42
B á»ĵi
H aw
Th er
Ġin c
rid e
ĠMay bach
ĠBul bophyllum
Ġnh Äĥng
ÄĲ P
Ġchi pset
li es
As ton
ĠYe ah
p ad
s á»£
Ġ17 89
ĠDr ake
ĠLink ed
ĠPi ed
RC EP
ĠYok osuka
9 77
Ng uyá»ĩt
Nh iá»ħm
ĠLe go
ĠHy ung
KCN A
Jose ph
ezb ollah
th áºŃt
ier a
Ġc re
ĠS ugar
man s
Ġ+ /-
ĠVI ÃĬN
ĠEuro window
je ong
eph al
0 81
L áº§u
S áº¡t
c ity
ĠM Q
ĠK IM
our a
88 2
ä¸ ī
ĠTÃŃ m
ĠD Ã£y
Ġ5 33
ĠKh Äĥn
ter dam
od idae
DC A
ĠNG C
: âĢľ
ĠQu ebec
ĠÃĤ L
ĠHo Ã¡
ach es
Ġ45 4
ĠKalin ingrad
= \
ĠT atar
ĠP ag
ĠSp e
ĠKhá» Ń
thá»ĭ t
ĠGuj arat
o ia
t it
ĠP áº¯k
eo la
ĠF ight
is es
ĠMan et
Ġma xi
Ġngo ai
ĠCa fÃ©
ĠEug ene
ĠLenn on
J ust
Ġp ubl
19 17
f ar
w iki
Ġph áº£ng
im al
ND T
ig am
ok s
ĠTh s
ĠQ G
SD LÄĲ
ber to
ĠSte gen
Lo ire
GH B
Ġgi Æ°Æ¡ng
ĠQu Ã¡t
John son
S ant
Ġt v
Ġn Ã¡n
Ġqu áº«n
ĠB Æ°á»Ľm
ĠP O
Ä© u
or ra
Ġ39 8
55 7
ĠRh odes
M á»ı
g ing
m ich
p ect
Ġm er
ĠL K
ĠSh ap
gi ang
0 66
V n
ro ps
te e
0 67
E con
Y o
ar est
ĠV alladolid
ĠP rab
ent y
ly cer
55 3
4 31
K at
m uá»ĳn
Ġc áº¡y
ĠT ite
ĠD rew
Ch ina
Qu Ãł
ini um
ond ers
ĠMor iyasu
ĠPH ÃģP
Ġphot oshop
v ec
ĠB Ã´
ĠB ath
ur um
tr Ãł
ĠMan che
75 1
ĠCl aud
44 1
06 4
UN CLOS
ĠPyo tr
F BNV
J i
90 7
ĠCam illa
ĠDel aware
ÃĶ I
ĠCK II
oit re
r ung
y at
Ġt Äĥn
ĠH Ã¹m
ĠH oney
or r
ĠO u
Ġta g
7 33
V CBS
Ġx Ã²
ĠP is
ĠD UNG
ind ex
ĠDe al
ĠVI N
ien ces
8 78
F BI
ĠN d
ĠN Ãª
ĠÄĲ Æ¯á»¢C
ĠY ellow
ĠHá» Ĵ
Ġgh áº¹o
85 6
ĠJu do
Ġsne aker
ĠHubb le
ĠKier an
, .
k Ãªu
p al
Ġ ure
ĠS yr
Ġf us
ĠAm rabat
ĠDi Caprio
ĠMau rice
ĠSund ay
à¹Ģ à¸
N ick
ĠTr Ã²n
ĠK ill
ĠI beria
ab aya
Re ach
ĠFors ter
K en
n á»£
ĠN is
ĠH áºŃn
ĠG ulf
ĠKh áº³ng
oc aul
09 2
09 3
Ġr Æ°á»Ľi
Ġá» ³
Ġ4 47
Ġ45 3
ĠPe ace
At letico
ĠAx ie
ĠBis marck
Ġh em
Ġp yr
ĠY in
eop atra
ĠKou libaly
4 37
5 77
8 16
B ob
D ipl
b ok
l ana
Ġx áº¹p
ĠB oxing
hÃ³ t
ĠGer ald
R hy
ÄĲ áº§m
ĠBe ast
87 6
ĠChrist ie
brid ge
ĠAssoc iat
6 29
7 62
ĠB áº¡o
ĠB AN
ĠTh ak
ĠD ip
ĠQu ochoi
Äĳ d
UN ICEF
0 37
B oy
ĠI PP
Ġvi ll
ĠCH ÃĤU
ĠMag n
ĠSec ond
5 72
C ÃĶNG
S ph
h et
l em
ĠTh r
Ġly m
eng en
7 12
? ,
A CB
G ro
X á»©
Ġm asc
en idae
as tr
ĠLá» «
Ġtá»§ a
ĠCatal onia
ĠMaj or
ĠAnders en
6 14
7 14
l Ã´ng
u in
ĠKhá» ıe
ĠMor eno
ĠnhÃŃ m
ĠWi jnaldum
R M
d ate
Ġd ent
ĠBar nes
8 36
C ua
ç ´
ĠN AS
ĠHo ff
ES S
ĠWat an
ĠSoy uz
8 68
8 72
ĠR oc
ĠI ly
ĠTor tric
Ġgar age
Q I
R i
ĠC ong
ĠH M
ĠMaster card
Mord ell
K un
o que
Ġd Æ¡
6 21
E nd
b and
Ġv ector
te p
ĠDon ny
ĠAlli ance
K M
Ġp iston
Ġdá» ģ
ĠX áº¡
om oto
ĠJenn y
yll um
lá» Ľn
9 14
Ġm eme
ĠÄĳÃ ¬u
ĠH ÃĢNH
ĠP izza
ex els
5 19
L amb
f ire
Ġm art
Ġn ua
ĠN oah
ĠV CS
ÄĲ iá»ģn
ĠJ ag
up le
Ġ50 8
ĠMy ung
aly ptus
ĠVer ge
ĠStand l
ĠVim edimex
4 34
c hÃŃ
f our
Ł ³
ĠM ata
Ġ46 2
DP R
ĠKe ith
Scop ula
7 66
ĠA ke
ĠR ex
Ġ18 22
usta Tee
6 48
Ġs n
ĠTr avis
iÃª t
Ġ4 42
ĠW itch
ĠRe ading
ĠCS I
ĠPal au
elai de
ĠSongk rasin
U NDP
ĠM itr
ĠI da
95 7
TH á»
ĠAv enue
GD TX
ĠKhÃ³ i
ĠKer ry
ĠRat ings
ĠLU áº¬T
ĠCact aceae
in ski
HO ÃĢNG
ĠWander ers
D er
M au
Ng á»±a
ist or
ĠNag oya
Benz ema
6 61
8 77
Ġn at
ĠM Ãº
Ġb il
ĠF ighter
ĠCl aude
y y
ĠN umber
ĠH OT
ĠE MA
ĠSc ud
Wh at
ĠUV TV
ĠKh uá»ķi
ĠMad am
ĠVlad iv
ĠKir k
c ord
á» ¥ng
ĠTH ÃĶNG
ĠPal mer
ĠSamp doria
0 69
9 43
F lor
z aghi
ĠF eng
ĠBlack burn
9 79
w ai
ĠX avier
Äĳ á»ĳn
90 6
nd ham
ĠCom ics
ĠFl ower
B as
l áº¡c
ĠS áº§u
ar ium
os lav
Ġthá»ķ n
8 23
n c
æ º
ĠT ian
ĠL ines
ov Ã¡
ĠÄĲT DÄĲ
shi pper
ĠBroad way
7 21
v áº½
ĠC Ã´i
tr Ã¹m
ĠBl augrana
TM T
åħ ĥ
ĠIsab el
Ġm Ã©
ĠGi anh
ĠZ ach
ev ision
Psy chotria
Ġ4 44
á»Ĳ c
ĠFab ian
vir onment
0 31
T Ã¡m
em isia
Tr a
Ġch eo
Ġchá» Ńa
ĠJ ump
88 5
ĠSo on
NhÃ ¢m
ĠNob ita
åį Ĺ
Amer ican
ĠB ish
re ct
09 1
ĠGS M
tinh te
n el
ĠC Æ°á»Ŀi
ĠG áº¥m
Ġbá» įng
68 2
08 4
ĠDig i
ĠPom ina
Ġ5 85
ĠY el
ic au
ĠHil ux
ess es
ini que
ĠCol ogne
ĠHerr era
H ub
S at
V ina
ay at
ĠP ear
88 1
ĠCH LB
ĠEx xon
liz zard
EVN N
ĠAlm era
P ros
ĠB Ãºn
ĠL if
... /.
ĠSh am
qu en
65 4
ĠSl im
Or th
9 89
M all
V a
Ç İ
ĠEdu ardo
m atch
son i
aw ay
ĠDim ens
ĠAur el
7 81
c ay
an an
ĠS underland
ÄĲ áº¹p
ĠW EF
ĠSN SD
ais al
SM E
7 38
S UV
Ġng áº¥y
es tr
th em
ak awa
ob ium
Ġam idan
ĠAle k
C are
T est
Ġr áº¿t
ĠG LS
St art
ĠAv iation
SL NA
0 61
ĠAn war
ĠHar naaz
ĠKenn eth
8 21
Ġ5 39
ĠX Ã²e
ĠTá» ĥ
ul er
95 6
omor pha
B eg
E v
x á»ĭn
ĠT Åį
Ġ4 81
Ġf olate
Ġ50 9
ĠBr isb
etro it
ĠGI áº¢I
ĠnhÃł u
kh ov
Ġ39 7
ĠSal ern
%) ...
ĠPT I
ĠHH V
l áºŃp
ĠS yl
ad one
ĠHá» ®U
90 3
ĠEd ouard
ĠAll ister
ĠTou liver
9 68
N es
Ġr ow
ĠM im
ĠhÃ³ i
âĢ¦ ]
ĠBun mathan
ĠBrisb ane
j aya
ĠP ell
ov an
end orf
Br ad
8 37
Ì ģ
Ġ7 25
ov ern
ĠMy kh
DC I
ĠCN S
ĠHal al
C ot
ĠÃģ c
ÄĲá» ©a
IC U
ĠJu lie
ĠBos ch
hid ae
Gh áº¿
5 41
æ ħ
hi l
ĠChá» Ĺ
ĠHÃĲ ND
Bloom berg
8 38
K ang
g re
ĠO per
ĠTN R
ĠShak ira
ĠRum ani
H ari
V CSC
ĠP seud
ĠX oan
07 9
ĠBol ero
ĠTak ahashi
7 17
ĠZin edine
5 21
R R
19 00
P orsche
Î ¹
Ġc in
Ġm aster
ĠE ly
tr acht
Ġw ell
ĠAs plen
88 3
MA X
ĠAg rico
07 3
ĠGre ene
ĠRy ab
ych idae
F el
Ñ Ī
Ġm ul
ĠD ome
Ġ5 11
od or
oc y
Äĳá» ¥ng
ĠVictor y
ĠVers ailles
Ġnick el
ĠH ut
ĠL Ã©
ĠD OC
ĠF a
Ch áº¥p
CT N
An thur
67 3
pt ion
ĠDut y
ĠToul ouse
7 71
Ĳ I
Ġ6 66
ĠO K
08 6
m our
ĠK re
eo m
Ġ4 21
ĠThÃ ª
Ġ60 1
ĠHai ley
ti i
Ġant ifan
ĠArau jo
5 42
K it
M AT
S U
Ġn Ãłi
ĠV iva
ĠR iz
ph uong
eg en
ĠMat rix
Anthur ium
ng hÃ
Ġx á»ĳc
ĠL ost
ĠM AC
70 1
87 3
UN ESCO
ĠCin ema
BVH TTDL
r ine
Ġs ushi
Ġn Ã£y
ĠN áº¡p
ĠS ib
er os
ĠPr ague
ĠOr chestra
ĠCB R
ĠReb ecca
8 69
8 42
9 69
95 1
09 7
ck en
Sal ah
ĠPia ggio
C ab
c ab
ĠN ole
99 2
B ong
ĠE vo
Ġ45 7
65 1
Ġ49 8
4 47
9 21
9 26
Ù ħ
19 35
ĠLá» °C
áº¬ U
I OC
S uá»ĳi
Ã ķ
ĠPh r
ad es
39 1
Iáº¾ T
6 46
D or
Ġho en
ĠPh oto
ĠSim pson
5 46
å §
ĠT á»Ļ
Ġmá» ģn
ĠO usmane
qu áº§n
ĠAI M
9 64
D ev
s b
Ph Æ°á»£ng
Giá» įt
85 1
ox emay
ä¸ Ģ
ĠNGH Iá»ĨP
Ġball et
r Ã¡c
Ġb eng
ĠTr Ã¡t
ig m
Ġxu á»ģ
ĠTrá» «ng
Sh utterstock
ĠÄĳáº½ o
d ÃŃnh
Ġchá» £p
or pha
ol us
ĠZ verev
Ġ60 5
9 48
G E
L áº¯p
Ġv ers
Ġ6 000
ol on
ĠThu duc
ĠEl len
ĠMin amino
UP CoM
åħ¬ ä¸»
ĠPick ford
D own
c lip
v áº¥n
ĠD ag
ĠCh ak
ĠF ang
ĠTom ato
ĠHamp shire
8 17
K E
ĠlÃł o
id um
te au
ond e
sm outh
Ġb icolor
ĠN ep
Ġbá» īnh
oc oc
ĠProduct ions
8 71
G ate
H CV
Ð ¡
ĠAm ad
ĠSu zy
b au
k os
İ le
ĠÄ Į
áº¢ M
Ġ65 5
Ġmac OS
ĠMÃ¼ ller
ĠHeine ken
Ġc áº¡m
Ġná» ¥c
Ġná» ĩn
ĠJohannes burg
Ġh Æ¡
ĠP RO
ĠF en
at is
Bá» Ŀ
5 69
ent rop
Ġ45 9
ĠSam son
ĠTw in
its ipas
0 33
t oan
co unt
ĠSan e
box ing
B ot
P art
ĠD us
Ġ5 13
CC N
ĠOd ys
ĠSent ai
agli ari
ur on
66 2
ĠTravel oka
Rang nick
uy in
ĠB MP
ĠK au
ĠK á»²
19 32
Ġ8 90
ĠKhá» ī
ĠMil k
ere us
d uy
ĠE uc
ĠAr row
ĠSer ver
95 2
Gl obal
S ur
Y oung
ĠT ielemans
ĠH ezbollah
ĠtrÃ¬ u
ĠBr em
à¸ ±
Ġhydro gen
ĠMD MA
ĠCBCC VC
ĠRost ov
ĠGiorg io
8 67
b ien
or row
ĠCh áº·ng
uz a
ĠTier ney
9 82
S acombank
ĠÄĲ áº¶
gi áºŃt
ĠGall agher
Aran eus
B aby
d ac
ĠP UBG
Ġ5 23
ĠGi gi
ĠR áº¡p
ĠF inn
ĠJohn athan
ĠBG K
ĠBret agne
ĠWolver hampton
åŁ İ
Ķ I
Ġho e
et ra
Ch anh
08 9
89 4
AN A
ĠMart ÃŃ
ĠTTT T
9 36
Ġtá» Łm
ĠL un
7 64
Ġnh uá»ĳm
ĠT ÃĤN
ĠM Hz
ob u
G irl
ĠM áºłNH
ĠS Ã¡i
amp a
ĠSev er
è ²
Ġ Ñģ
ĠT Y
ĠQ CG
et um
ĠLe p
ran s
gi Ã¡p
ais i
ĠTy ph
v áº¡n
ĠP Ã²
ĠK Ã¬nh
Ġ5 88
ĠX iáº¿c
ak is
ĠImp act
P HC
o ue
19 19
Ġ4 63
ĠZ i
ob yl
ĠMin as
ĠBrand on
unk u
6 22
Ù Ĭ
Ġm ale
Ġph áºŃp
ĠG n
ĠY er
ak ul
VI B
ĠTas co
W atch
d áº¡y
ĠÄĳ Æ¡m
if ied
ĠSp art
ass a
Ã´m e
Net izen
ĠFri end
ĠRic ardo
ĠMilit ao
ĠPun jab
ĠMSC I
w ing
Ġng Æ°á»Ľc
id end
tor s
Ã³p ez
ãĢ į
ĠSaf ety
l ot
ĠF oot
Ġto anh
ĠUn ic
ib ank
99 1
Ġpro p
ĠIsk ander
Ġkhá» Ŀ
ĠKh áº¥u
ĠJ ab
SD T
od ay
ĠMal acia
yp t
ĠLig t
ĠVer de
ĠBon aparte
ĠPre ah
Ġgi áº·m
ĠR Ã©
all is
7 39
Ġb ob
ĠT ail
at it
ick er
ĠDol by
ĠSoft Bank
5 71
L et
Ġ ]
Ķ NG
ĠA Z
Ġ5 26
Ġ18 06
ĠChÃ ¬a
ĠChi ba
05 1
ĠDel uxe
phone S
echn ya
c alo
ĠTá» ıa
Ġf irst
ole jeunea
ĠSE I
ser ling
ĠAlexand ros
. ",
ĠH á»ĳi
ĠV ital
Ġ6 68
ĠBr itt
ĠEVN SPC
X anth
Ġtr uÃ¢n
ĠA man
ĠI LO
egas us
ĠVladiv ostok
6 27
G ood
ĠL ogan
ĠG L
ĠPh e
ĠRe ece
Ġov ers
6 43
ĠG ry
om ing
ĠJ ans
ĠTá» ĬCH
ĠIr ene
ĠPG A
Ġnicot ine
D is
Ġth Äĥn
ĠP im
Ġlu c
ell ing
Ġáº¤ u
Nass r
3 000
Ĥ N
ĠC GV
ĠV Ã£n
am ic
ĠL Ã¡ch
Th iá»ĩt
ick et
88 7
ĠHS MT
ĠThai holdings
? !
F ar
H or
Ġn á»ĭch
ĠP ubl
ĠPhilipp ine
ĠVers ace
ĠBoule vard
b ig
ĠT ÃģC
au ss
Ġ6 99
70 6
ĠDub lin
}{ \
0 47
H G
h em
Ġl ear
ĠT F
ik ov
ĠMid way
ĠSher iff
0 39
Ġm ph
Ġnh á»Ń
ch áº£y
ir t
AR M
ĠMy rm
ĠEl vis
ĠEn i
ĠPau la
Ġ900 1
ĠTransfer markt
ĠEven ing
M áº£ng
l Æ°á»Ľt
Ġr á»Ļp
ĠM áº£nh
Ġ6 22
ash in
ĠSal monella
ĠTown s
Ð» ÑĮ
Ab d
ĠThor ell
8 39
S YT
en ka
IS T
Iá»Ĩ T
ĠFrances co
Ġot oxemay
ĠINTER NET
? )
r á»«ng
ĠK DL
ĠK etamine
ar co
PC TT
ĠOut Reach
Om icron
Ġ5 42
ĠR Ã¬
ĠY ersin
ri z
ĠMor aw
ĠNev es
berl ain
. ),
9 38
K i
g Ã¡i
n ong
r ÃŃ
u ff
áº½ m
ir is
ĠZ lat
ĠRe fin
ĠEconom ist
ĠDeS antis
¡ i
Ġb ase
ĠS ett
er cus
ĠAs ahi
fl are
ĠÎ ²
ĠSpar ta
b iÃªn
s Ãª
Ġ ãĤ
ĠV QG
ĠD XS
ÄĲ áº¥y
Ġbá»ĭ p
Ġ4 49
Ġ5 68
le igh
In f
A sh
g ay
å Ĵ
Th or
Le icester
ĠPul ga
7 36
X en
é ¦
89 2
ĠBoh emia
ĠRot terdam
å¹ ³
7 13
ĠV ert
ĠL áº¬P
Ġ5 48
ĠX Ã©n
Ch iáº¿m
ĠEl l
ĠGu ang
69 4
59 2
ĠTHá» ¨C
ĠN acional
ĠH ector
ĠL ÃĿ
Ng Ã£
ed ette
ĠCar th
UYá» ĤN
6 32
9 17
s áºŃp
t il
ĠB CM
ĠTh ere
und erb
ĠSp ezia
ath am
ĠGen Ã¨ve
ĠNom ura
atas aray
ĠAsplen iaceae
n ig
ang o
ĠTr ack
ÄĲ áºŃp
st ay
57 4
N L
ĠU OB
Ġqua d
ath us
ĠBank man
ĠNeu er
6 13
8 27
8 29
Ã §a
å ½
Ġt áº¡nh
Ġma jor
ler i
58 4
ict ion
Am azon
ĠJust ice
ĠLV MH
ĠVIE TNAM
T em
ĠTr ÃŃch
Ġtu áº¿
ĠE O
Viet lott
Ġeng ine
l ach
è ĭ
Ġ arm
Ġf usc
ĠPark inson
ĠTR Iá»ĤN
5 61
5 43
8 49
M edia
S áº§u
ĠK CX
ul atum
ĠPan j
ĠStef ano
ĠP oll
ĠX iÃªng
ue ang
Ġxu á»ĥ
ĠChamp a
ĠRam sey
ĠFl oyd
ĠMir age
ĠK hÃ³m
ĠD E
Ġsá» ı
ĠCh ain
ĠLi ang
å¾ ·
part ial
8 43
ĠB asil
ĠPh om
ze j
ĠCast le
I PA
ist ena
ĠSá»ĳ p
ĠOr ban
ĠCher ry
Christ ian
ĠStarg azer
V IT
d Æ°Æ¡ng
Ġl in
ĠÄĲ áºłI
ĠLe ao
ab uri
89 1
f ake
ĠC áº¦N
ĠL al
ĠEl ena
Sc ot
BH G
ept ide
Han oi
ĠTHá»Ĭ NH
9 88
9 42
S ony
Ġd áºŃt
os ology
It alia
Ã± o
Ġk etamine
Ġgiá» Ŀi
Ġ6 18
ot ic
ĠBre ak
ch Ãło
ao n
ĠA uth
ĠIn zaghi
ĠVin Uni
ner i
69 3
ĠPCCC R
ĠBer ry
æĺ İ
8 79
f ries
Ġn Ã¡y
Ġp y
ĠV et
ĠS ug
ĠPro tein
57 3
Ġsyn onym
Kl opp
J os
S X
ç §
Ġt or
Ġb áº«m
ĠS MC
Ġ18 18
Ġru g
ĠChamp asak
Ġ49 6
6 31
M áº¡c
O le
az u
yc in
ĠQN CN
D Ã£y
K al
è Ģ
ĠD ew
con nect
ĠVI NA
arm in
ĠÂ ±
ĠDá» ĬCH
Ġxáº» ng
ĠRyab kov
7 48
b ung
ĠV á»¯ng
ĠP HONG
ĠSch ult
ĠIt o
AND A
sq rt
7 18
9 46
s g
ĠT iáº¿u
ĠM ok
ĠPh ys
ĠCh echnya
ys ide
ĠNe ander
Que en
ĠS áºŃp
Ġhy per
ĠUn ai
ĠPal omar
ĠTum kur
à¸ Ń
ĠResort s
Hol stein
K TT
Ġ ul
ĠB ANK
Ġ7 99
ĠBe ir
ĠKy u
row span
ĠAss yria
ĠNad u
8 63
ĠVin ci
85 4
ial es
ĠFri ends
Rh od
ĠJord i
ĠCoun ter
9 12
N y
Ġc lo
Ġ5 22
as ong
ĠIn doch
ĠAr agon
ĠSer ena
9 29
H V
k n
t hÃŃ
Ġm á»ĳng
ĠS GD
ĠPro fess
m od
ĠP elle
Ġ5 16
ĠMet al
ĠPort smouth
ĠNormand y
8 32
B QL
K iáº¿m
m Ã¡t
Ġtr ekking
ĠL aser
ap ura
6 44
c zy
hÃ ©t
ĠNg áº£i
ĠBr ig
M ill
Ġnh áº¡i
ĠM ish
ĠS amb
ĠCh on
ass in
ĠPl ant
Lon don
7 32
Ġv Ã³
ĠG um
ĠD erm
Ġ6 15
ĠJ SC
ĠEuro Cham
TB A
Ġrun ner
ĠFle utiaux
9 37
r Ã©
let cher
7 11
9 32
ĠN ico
ĠM Ã¨n
ĠM ecklenburg
ĠEr z
ĠSic ily
S ud
Ġ ae
Ġ ok
Ġc opy
Ġn ÃŃt
ĠTh áº§u
Ġ[ âĢ¦]
ĠMon ica
ĠFuji wara
Lasi oglossum
Ġg áº«y
ĠM X
ĠG ud
ĠD iet
al ensis
ier z
ÄĲV TN
65 3
ĠMang a
ĠMoz art
oug ht
gom ery
m ag
ĠÄĲ áº¥ng
ĠPV TM
of i
ĠKn apper
Emer ick
d ers
ch lor
ĠCom mer
ĠMcC artney
ĠW ings
ill ariidae
Ġw ill
ver ter
ĠAd elaide
69 1
c arbon
Ġv ul
ĠB org
ĠÄĳá»ĥ u
ÄĲ ÄĲ
Ġ18 21
if one
55 4
Ġdec or
ĠhÃº y
l it
é ĸ
ĠG ambia
ĠD ing
ĠBr uch
ĠSt ates
ĠSch engen
Petr olimex
Ġt iá»ģu
Ġ18 12
ers k
ĠAS TA
tá» ©
shi r
ĠIc ardi
8 62
Ġm eth
Ġbu ilding
ĠHar m
09 8
ĠZh eng
n áº¡n
ĠP ool
hi ma
ĠR ashi
ran o
math rm
6 33
N á»ķ
ĠQ uyá»ĥn
Ġ5 17
ĠSer b
ide ae
Ġ58 4
ĠFar oe
Bel arus
Ã ģn
Ġth Ãły
Ġch uá»ĳc
ĠK up
Ġ48 9
ĠTour ism
ĠTHá» ¦
Y S
é »
ĠL und
othi ng
V áº£i
c n
ch áºŃm
ĠM Ã¹ng
Ġ5 35
ĠF av
ig ua
ĠLe vante
Tá» ©c
ĠbÃª tÃ´ng
ĠM ab
ĠK Ã©p
Th ao
Ġ18 15
ĠAr iana
ich el
ĠSt yles
55 1
Ġfran c
9 34
m Ã´i
Ġan n
Ġ18 23
ed ar
V F
Ġs uper
Ġph Äĥng
an ji
Ġngh iá»ħm
ic et
ug o
ĠPan zer
ĠFre iburg
9 13
R em
á» ©a
et own
Ġi od
ĠCas a
ĠKub o
T uchel
p as
è Ĭ
Ġr el
or ough
99 7
Ġá»Ķ n
ĠGat eway
m áºŃt
ĠK K
ĠR otten
ĠJ ew
Ġcá»¥ i
90 1
ĠÄĲO ÃĢN
æ ŀ
ĠS ep
Ġ" ...
ĠÄĲ áº¡p
19 10
ĠQu Ã¡i
Seo ul
ĠAden ovirus
T ype
z m
ĠCh loe
ĠLu cia
ĠMos es
ĠEs c
ĠCast illo
ĠHel ena
9 83
G il
H ed
n amp
Ġtr Ãª
il ov
qu ar
Ãģ i
ĠSel ect
ĠTang mo
S oc
ĠH wa
ĠL iÃªng
ĠI CBM
ĠE uph
ke nh
vard iol
ĠAlber ta
Cá» §ng
5 49
ĠE RP
ĠAn ti
Ġnam e
ate k
Ġco upe
ĠDX Y
6 49
P ac
Ġs áºŃm
ĠS IP
Ġban d
ĠAn ast
ne w
å· ŀ
ĠGrac illariidae
8 46
C el
m ler
Ġnh áº©m
au me
ĠI f
ĠEm erson
ĠSM BC
h ao
ĠV Ã´i
ĠM ou
ĠS ph
ĠNg áº§m
ĠTe er
ĠEv il
Pet ers
Ġproduc er
d rop
ĠTr izzie
au st
en da
ĠÄĲá» ĶI
ĠF MC
SV H
ĠNav as
H MS
Ġ eryth
Ġ4 34
TT CP
kh Ã¡c
66 3
ithec ia
0 41
d áº§u
ĠM atch
ĠR chb
eng e
inc ta
ĠGeorg es
am er
ĠP oc
ĠI b
ont idae
lin er
to ch
yst icus
w eek
Ġ6 65
ut th
ĠMus ta
Ġblue chip
6 71
Z ing
w ikipedia
ĠMer ry
ĠBel le
ĠFor ester
ĠC TS
ĠC ox
ĠJ oachim
ig roup
ĠSh en
sh are
ĠVi ber
ĠHi pp
H áº§m
J O
k W
iv ing
ĠSt ark
oid ea
Mus ic
D ic
K Ã©o
ĠC Æł
ĠB ola
ĠTr Ã´ng
ĠNg áº§n
ĠW AG
ĠCop el
we ight
orus sia
y áº¿u
å ĭ
ĠAlb ion
Ġbr and
ĠLept oceridae
g el
Ġnh áº£nh
ĠP ow
VID IA
ĠTH áºłCH
Ġ67 2
ik in
oc aly
ign y
ĠVic em
ĠÄĲo Ã²ng
ĠMedic ine
7 46
8 61
9 81
O pen
ĠKr is
gr en
ĠVá»ĭ t
ĠÎ ±
Ġb Ã´n
ĠT all
Ġr Ã³i
ĠDi anka
thá» ĳng
TH ANH
ĠSar awak
ĠYoshi hide
ĠMud ryk
Th áº£
ĠCO NCACAF
anth aceae
ĠDo uyin
ĠAr i
PhÃ ©p
ĠChá»ĭ u
ĠStr ateg
Ġtwe ed
áºª N
9 72
h mann
l oa
ĠB lizzard
ĠV M
ĠV and
os an
70 2
95 3
ĠCT D
6 34
M áº£nh
Ġb rom
ĠÄĳá» Ŀ
Ġng oa
ĠD etroit
ĠChÃŃ ch
Thá» £
ĠCar rington
ĠNH áº¤T
ĠOut lander
ĠKom uro
ĠWW F
ĠMoto GP
Ġn Æ¡m
ĠR ace
CB CS
ĠCH K
lo x
8 34
ĠL Iá»ĨU
ĠReal me
58 3
ĠCu á»ĵng
ĠVá» ¤
ĠRO G
Ġl ab
Ġ5 65
om p
tr ac
ĠNhÃ ¹n
âĢĻ :
66 4
ä¹ ĭ
ĠP yth
ĠG ui
ĠJ ia
ĠGi bb
CH á»
ĠWatan abe
M ourinho
ous ine
ĠSe ason
lá» ħ
Ġcoc aine
ĠDQ TV
B á»ĳc
ĠG MT
ĠD P
Ġbá» ¥
ĠFl ag
ĠDae gu
è Ī
ê µ
ĠM á»ĳc
ĠS ex
ĠLu ca
Chu á»Ļt
ĠAR T
Ġsit com
ĠSavann akhet
p ay
Ġkh am
el es
Ġ9 18
Ar ch
ĠH ier
âĢĿ !
al ya
ĠSc reen
ĠBrook s
r z
âĢĿ ).
ĠJ ustaTee
ĠPor ter
ĠIndustr ial
ĠChop in
N ational
R ace
ĠH omo
ĠB Æ¡
ĠB uá»Ļc
ou c
ÃĬ M
ĠAnt wer
arto um
l áº¡m
há» ĳ
Ġm Ã¡nh
iÃª p
ad en
Ġcá»¥ p
OS T
59 1
ĠTit anium
S n
ĠL iá»ħn
ĠL Ã³pez
art times
95 8
Ðµ ÑĤ
olep is
ĠYev geny
beg in
Ġp ers
ĠC ron
ĠMar ilyn
ĠAt l
rit ic
ĠKol ar
7 63
X Ã³a
k iáº¿n
ĠK ung
st it
90 4
ĠCell phoneS
9 71
E IA
M ake
e il
ĠH Ã¡
ĠV era
Ġf luor
ff y
ĠWy ndham
R af
X M
ĠC á»Ļp
ĠK uch
Ġ4 48
ĠGi Ã³ng
ĠR oh
CN C
aw k
ĠAndre i
sw orth
6 26
Ġs port
ĠK iy
ĠGD MN
ĠSo th
ĠHam id
Tok yo
ars us
Ġsax ophone
ĠA TA
at an
Ġ9 78
un do
Ġ18 19
ob ia
90 2
ĠThom son
g Ã³p
Ġs Ã¬nh
Ġkhu i
ĠKh iáº¿u
ĠCorn ell
Ã¢ t
ĠE T
ĠDynam o
ĠM ister
Ġthu i
it ia
ol le
Ġ48 00
ĠBre aking
5 81
C Q
N ow
i h
í ķ
ĠT UV
ĠG ertsch
ĠJ CPOA
ĠChern obyl
ĠAff leck
n ard
ĠÄĳ áº£nh
ch áº¥n
ĠTr ophy
ach ne
esk Ã½
B CH
M att
V IN
á» ıi
19 23
ĠW ed
ro u
ĠMan n
thá» §y
ear e
ĠLeon ard
ĠProv ence
z ing
ĠV AMA
ĠM E
ĠCh es
Ġ7 67
ĠAt tr
ĠLi beria
ĠSá» °
R L
y ear
ĠH ep
ne ft
per ma
ĠAmaz ing
Ø ±
ĠH Æ¡i
Ġ6 12
Sc ott
Ðµ Ð²
ĠShim izu
Ġmil igam
plen ium
tti had
ĠB aku
Ġ18 14
ĠQL HC
ĠShi b
Ġgam ma
P re
ĠT áº¯m
Ġphá» Ľi
ĠK Äĳ
ĠIn tern
m á»ı
Ġb ig
Ġp ass
ĠP ip
ĠSir ius
Ġmin or
ĠLic ogi
ĠGarc ÃŃa
ĠM áº¡t
ĠW ii
ĠPrinc eton
Ġeleg ans
T iá»ĩm
Ġn il
Ġg Ã£i
ĠI con
Ġ8 61
ĠJ avier
Ġtá»Ń u
ĠTá» ¶
J ord
Ġg Ã²n
ĠT ac
ĠL ÃŃnh
ĠR Ã¡c
ĠJ ass
ĠPro p
Ġj udo
ĠWal k
Ġson ar
ĠAug sburg
H Ãºt
I ON
T RA
h omes
ç ī
Ġc it
Ã¡ lez
ĠCh ester
Äĳ Ã³
ce a
Ġpro c
7 61
V EC
ĠH iáº¿m
ĠK and
es en
ĠW ealth
ĠZ ap
ĠTs itsipas
ĠWill is
ĠKasp ersky
è ¥
ĠC agliari
ĠS Ã¡p
ĠS uri
in ja
er al
al ina
Ġ7 29
Ġ18 05
af p
rak tar
You T
L Ãºa
T Ãło
ch idae
ĠA il
19 27
ĠJ oc
ter ia
ra x
ĠCon str
ĠChristoph e
N eph
m Ãª
v ette
Ġd im
ĠA CT
ĠA WD
us te
ist is
9 41
ĠP á»Ŀ
er ta
Ġ5 44
Ã¨ res
ĠDá»± ng
ĠGor bach
ch au
ĠB j
ĠE XP
re ich
ĠDnip ro
TNG T
l ovid
s ar
ĠÄĳo áº£n
ĠBel grade
Ġsub sp
Ġgi áº»
ĠTr áº§u
ĠK ann
Ġ6 39
ĠZ an
ĠChi ron
ĠTim ber
Ġcom m
ĠUr al
cht enstein
. ;
9 23
B Ã¹
Ġ Ã¡y
ĠS ÃŃn
Ġ50 3
ĠEng l
C Æ°á»¡ng
Ġs Ã¡m
ĠL Ã³ng
ĠGeo ff
ĠNN PTNT
ĠSw eet
Gu ard
ĠDI FF
8 31
r and
Ġr inh
Ġr ed
ĠV ista
ĠS BD
ĠZ eus
ĠSh arma
TK V
ĠTHá» ¨
6 41
N áº¥u
g at
Ġh Ã¡m
am el
ric ia
sch ool
ĠMont gomery
VNO NN
H M
L ip
g ap
at om
av ar
ob y
6 77
F irst
V u
Ġh um
ĠS trong
ĠA ki
Tr iáº¿t
ĠÃ İle
ĠBu ilding
ĠDavid son
ĠSm ile
ĠTay can
ãĤ ¹
Ġgrac ilis
V Ã¢ng
t au
ĠP ing
ĠD M
ĠD rama
Ġde ad
Ġngá»¥ m
Ġ44 1
ĠSanta Fe
ĠDol ce
ĠTomato es
w yn
Ġ6 23
ĠTO EFL
H F
I CO
ĠKhá» ķ
89 3
Ġu á»ķng
ĠDab aco
ĠVIT IC
æ ¥
ĠT os
Ġá» Ńng
Ġ5 24
ĠE asy
ĠReyn olds
F ernand
M BS
Å Ī
Chá» ¯a
ĠNá» ĺI
M atic
Ġ ec
ĠG ene
ĠR ox
ĠF K
ur st
ĠNH Æ¯
BÄĲ Q
ĠSum itomo
T áº£i
ĠL eno
ĠM Ã¬
az zi
ran e
NhÃ £n
ĠBi ot
ĠIv y
istol och
t uyá»ĥn
Ġd Æ°á»£t
ch Äĥm
av ax
TS A
ĠTR ÃĮNH
TCT D
Y ang
Ġv áº©n
ĠP y
ĠG GHB
oll er
oth o
Eup ithecia
R um
d ev
ì Ħ
ĠÃ Ģ
ĠKh artoum
yl um
lat ec
Dig ital
C yp
ĠC á»ĳi
ĠB ain
ĠS BT
ĠKon ate
l Ã£i
nh á»Ŀ
Ġn Æ°á»£p
ĠH á»ģ
ĠV BÄĲQ
ĠBe er
ĠMidd les
K ane
Q C
Ġv er
ĠN oh
19 13
89 7
ĠMaster i
TR áº¦N
ĠBuch arest
8 47
P VN
x Æ°Æ¡ng
Ġp ectin
Ġ5 27
ĠTH D
aw esi
ĠHar old
ĠMas k
oss ard
. ".
ĠÄĲ Iá»ĨN
th ys
87 4
Ð¸ Ð¹
ĠDrag ons
Euc alyptus
L exus
Ġng Ã´ng
ĠH Iáº¾U
ĠL EG
ĠS ek
ĠW ik
ĠMa as
ĠGran it
ĠBarb ie
ĠGiuse ppe
ĠAugust us
7 31
ĠK ara
ur ri
av anh
69 7
79 6
5 000
ĠT IM
ĠGi r
ĠCA H
ĠSir i
æŃ ¦
K BS
N IC
ĠS ain
hi ll
ĠCh Ã¡
ir es
ob an
ĠMiss osology
m Ã¬nh
eo s
Th ang
Ġbe at
ĠKBS V
ĠJ asmine
Giá» ıi
ĠCr is
9 18
d ata
Ġt w
th uyá»ģn
Ġ18 17
re us
ĠTHá» ľI
D TBT
Ġng á»ĳn
Ng hÃ
ĠOb ser
Ãĵ M
ocar pa
ĠPie ce
ĠB áºŃc
ĠL DL
19 33
Rat ings
« ĺ
ĠB rai
ĠM SI
es per
ĠZ ar
ĠMet ac
Ġamonia c
r ata
Ġn eon
ĠN áº¿p
ĠA CC
Ġ6 36
Ch inh
ĠÃĲ iá»ģu
ific ation
t iáº¿t
Ġi Cloud
Ġj ack
ĠAp ec
6 47
Ù Ĩ
ĠY O
Chá»ĭ u
ĠMer se
ĠYang on
ĠIsab ella
y che
Ġp ower
Ġqua dr
Ġ7 15
ol ophia
tr inh
ew ski
ĠBV SC
ĠKit ty
ĠHá»Į C
8 19
9 73
ĠL iá»ģu
), âĢ¦
ĠPr enn
ĠSoc cer
ĠAmb ani
D ream
Ġb illi
Ġ4 39
ĠJ ill
ĠManag er
R F
v ane
ĠB Æ°ng
ĠL áº¡
ĠPVF CCo
B Ãºn
E CH
ĠL C
Ġkho áº£i
us ter
Ġf e
ĠBl ind
Viet jet
hÃ ¶
ĠTh Ãł
Ġsá» Ľi
CM S
ag os
II P
ĠTT F
ey er
PN J
G L
Ġl ar
ch áº¥m
ĠTh ings
ot ion
ĠVN A
ĠTHá» °C
ĠJac inda
TE CH
D oc
c ock
Ġr ing
ĠG ear
il and
est an
ashi m
ĠSch um
ĠMo ther
ĠJae ger
Ġad en
PM G
ĠCle an
ĠK ali
ir m
]] .
Del ta
ĠLÃĢ M
I x
Ġnh Ã²m
ĠC EP
Ġ6 28
ĠCh áºŃm
ĠSu khoi
ĠLy nh
Ġpl asma
ĠGer ais
ĠEmp oli
ĠAdv anced
p on
ĠH RC
ĠSing er
su it
ĠRos en
ĠPri ze
B os
Ġb ra
ĠW ifi
Ġpl ug
Mar c
Ġt Ã³e
Ġv n
an ag
ĠB har
ĠF ay
Ġ18 03
ĠSc r
ĠYo ona
ĠKho Ã¡t
Ġcons ole
C Æ°á»Ŀi
h áº¡n
ĺ T
Ġs ar
Ġs Äĥm
áº¿ nh
it um
il ion
ĠGl enn
Ġhydro x
ĠMatt eo
T ax
ĠP Ã¡o
ĠRoch e
m au
m Æ°á»£n
ĠB rain
ÄĲ HÄĲ
ĠF ocus
Ġ7 49
Ġca po
os un
ĠGal icia
Ġpen thouse
ĠBour bon
s ing
t iet
x Ã³m
Ġ7 19
Ch ang
Thá» ¥c
tá» ī
Ġpro file
ĠSe ed
ĠJohans son
Ġc ir
Ġb arb
Ġh eter
ĠT ek
ĠB old
Ch áº¥m
ĠHá» §
ĠHo ch
Ġsh opping
Lá» ĬCH
ĠEx cel
ĠNgá»į t
ĠNGHá» Ĭ
ĠEin tracht
9 86
z ic
| "
ĠÄĲ Z
ĠM L
ĠK ut
ĠMá» ¡
ĠSX MN
ĠLind l
ĠBud s
N ag
T áº¯m
h wa
j eon
l Ã¢m
l id
ĠG áº¡ch
ĠTH VL
ĠDu ck
yl en
ĠBol ton
Car l
Mordell istena
Ġb Ä©nh
Thá» īnh
ik er
Ġ\ ,
Ð¾Ð ¼
oton in
Pak istan
b os
ĠM Ãły
Ġ6 16
qu Ãªn
ĠIndustr y
: :
i ers
Ġng Ã¡o
ĠT iá»ĩc
ĠH acinco
ĠP ut
Ġtu á»ĵn
li ke
ec ao
Z A
æ ĥ
Ġk ayak
ĠT CÄĲ
,âĢ¦ .
ĠPol yn
I E
ĠDis p
inc inn
ĠParam ount
O d
] )
å £
nh áº¹
Ġl ac
ĠL Ã´ng
ĠD AT
ÄĲT O
ĠWal sh
ĠDev on
w itz
Ġs áº¯ng
ĠC esar
ĠA in
ĠDan ilo
rick et
ynch us
esp eare
9 47
Æ°á»£ i
ĠK sor
Ġba zan
ĠSt ella
ĠSt ade
eg ovina
Con us
Ġ49 3
Ġ54 3
Ġgl ab
f ont
s ton
ĠG round
ĠBa za
M ary
N on
ĠT ennis
an lÄ±
li en
ĠVerr atti
m ax
y eu
Ġm id
ĠL om
es tern
ĠÄĲá» Ŀn
Ġto ilet
re i
Há» §y
ĠDiv a
8 44
Ġqu áº©y
ĠTh áº£
ĠTh al
ĠTh ib
ab ria
Ġl Ã²i
Nghá»ĭ ch
Ðº Ð°
ĠPod oly
9 78
E quipe
khi en
Black Pink
ĠFac tory
ĠFreder ik
K Q
Ġc áº·m
ĠM net
hi k
Ġ5 61
ĠGr ig
chinh phu
ĠIN SEE
ĠMerse yside
b ana
Ġn Æ°á»Ŀm
ĠAs tr
h ae
Ġcá» Ł
ĠL Ã¨ng
ĠS ato
on or
Ġ5 63
ua ge
te ga
ĠPro c
ĠIP S
ĠTO ÃĢN
ĠLyn n
ĠHerb alife
ĠNg Ãµ
ĠLand mark
ĠKer ch
ĠPod cast
ĊĊĊĊ ĊĊĊĊ
ĠDistr ict
W ood
y am
Ġ14 00
ĠPr ivate
uf act
L eg
d nd
k orn
n uá»ĳt
q q
ĠV Ã¢ng
ĠR aya
ĠNhÃ ´m
Ġ46 4
Ġ[ ...]
à¸ ģ
Ġcort isol
ĠGiron a
f pt
} ^
ĠN VIDIA
Ġx Ã¬nh
Ġr ai
âĢ ²
em ai
ĠCh r
ĠHo Ã¡n
ous tic
och i
Ever ton
ĠAguil era
W u
j ib
há» §y
ĠT oÃł
ĠH E
ĠB row
ĠG vardiol
ĠD il
ĠY ur
ĠSing les
zh al
Mo on
E u
F N
n Ã³
ĠGal atasaray
St an
ĠCas ey
Lew andowski
h áº§u
Ġg ala
ĠCh rom
ĠAN ÄĲT
As plenium
Mil an
ĠKamp ong
m aster
t áº¯t
Ġ amb
ĠP egasus
ĠF ro
ink er
ĠCho ong
ĠMA X
å ĳ
ĠhÃ ¹
ĠE il
NT ÄĲ
ann on
ĠRen ard
Vinh omes
ĠÄĲ uÃ´i
ĠR apper
ĠTu á»ĵng
ĠCl eopatra
Ġ48 7
col e
ĠAndrew s
IU U
ĠYos him
found land
ĠH ig
ĠK itch
19 14
19 34
Ġt Ã¢ng
ĠC UNG
ĠÄĲ ÃĶNG
ĠV ad
ĠG áº¡c
7 49
O k
f ern
Ġb er
ĠD ÃŃnh
ĠX Ã¹a
Ġ55 8
Ġac ry
ĠFA O
Ð½ Ñĭ
ĠAle ppo
ĠCit izen
9 39
ĠK p
Ġvá»ĭ n
il s
Ġ50 7
ew ork
Ġ48 4
ĠÐ ½
h ra
ĠGi ll
BH TN
BV SK
ÃĴ O
ĠCarth age
ĠS Ã²
ĠL áº¯m
ĠAr iel
ĠUltim ate
ÃŃ k
ĠD ana
Ġfashion ista
H AI
b et
v id
Ġm ir
Ġcho áº¡ng
ĠL N
ach al
be nh
bro ugh
ĠVinat ex
F R
d áº¡ng
ĠN APAS
hi ri
Th iá»ĩn
as in
ĠO ANDA
ĠMu ang
ĠNat alie
ĠYok o
7 42
f olia
Ġg ra
ĠN iÃªm
ĠB Ãºp
il um
Ġf oot
ĠTH AM
ĠRe id
ens a
ros a
ĠHan wha
w C
ĠY osh
ĠÄĳá»§ i
ak in
ĠIn t
ĠPar ma
ĠBV DC
ĠKess ie
C ai
l á»ĵng
s han
Ġlá» ¥ng
ĠD usan
ĠTam my
ĠInf orm
bu Ã´n
ĠAcc ess
Ġlym pho
ĠPodoly ak
M Äĥng
o or
s oha
Ġm at
ĠC Å©
ĠAg riseco
ĠMax well
Ġ5 77
ur am
ak k
ĠJam al
TR á»
Geo rg
illand sia
M á»Ļ
O ber
j ang
an ta
Ġy ear
ĠR aven
Ġrá» ©t
ĠSh un
ĠYe ong
Econ omy
D H
Ġ00 1
ĠComp uter
M ess
h Æ¡i
Â º
Ġch rome
ĠC um
ĠG raz
th áº¯t
ĠÄĲV HD
Ġn áº£i
ĠCh eck
sp ace
ĠWolf oo
à¹ Ī
ĠHerm Ã¨s
rost is
Ġp et
ĠP te
Mic ro
ĠBae k
ĠB áº®T
ter y
ott o
ĠMag nus
ĠÃī n
ĠJacob s
ĠRain bow
Cont inental
ĠLinked In
o ter
Ġc áº£o
Ġ6 24
ĠCO D
af er
ĠBit exco
7 34
9 84
N CT
l Ã²ng
Ġc ord
ĠC ors
á»± ng
b ut
ĠH ew
ie cki
Ġal so
ĠVNE ID
U M
nh iá»ĩt
ĠH Ã²
op ro
Ġe Sports
ki em
Cer at
ĠLomb ardia
b ackground
ç Ĳ
ĠN ing
Ġlá» «
el ift
An is
thÃ ¬
ĠSk oda
Ġtrend ing
ĠJacob y
ĠlÃ³ e
ĠISI S
G etty
J oy
est idae
ĠUn it
ĠEn c
ĠPay s
n á»Ĺi
ĠK ast
our ces
ĠTel evision
ĠPe ak
aton in
ĠDT NN
ĠDÃŃ az
Ġ5 21
ID A
ĠCad illac
Ple iku
ĠDVC TT
8 41
v on
Ġp ic
ĠP Ãªnh
yl le
ĠR ita
ĠVen om
ĠghÃ© m
ĠPre c
Ġv edette
ĠN Ã¢u
Ġqu in
ĠL up
ĠG TS
Ġ5 18
Ġ5 34
tim ore
ĠRu th
Anth ony
N ob
c Ã¡t
Ġb áº¹n
Ġ18 16
ph e
ris es
ãĥ ©
ĠMet hamphetamine
ĠFore ver
p hÃŃ
Ġk iá»ģng
Ġh iá»ģm
Ġd áº§y
Ġchá» ı
ĠK ats
19 24
gi i
ĠHS C
ĠNor odom
ĠVUS TA
M Ãły
b uá»ķi
Ġv Ã¨
Ġ10 80
ĠE z
ĠAn y
ĠCos m
ĠInf onet
ĠKep ler
ĠPath um
ĠMyrm ele
l ap
v ie
á» ®NG
ĠD re
ĠCh ery
ĠKh au
ĠTH Æ¯á»ŀNG
A j
o xin
ĠV isual
TT LT
ĠCS TO
ĠBay raktar
ĠWood ward
K a
s oc
Ġr Ã¡i
ĠM ost
ĠY uki
ĠHydro ps
ĠKash mir
B ec
ĠÄĲ N
Ġ5 46
ĠGeorg ieva
Sen ecio
Petr ovietnam
r ae
ĠS ega
Ġlo Ã¡ng
ĠNH TW
ĠMus iala
ĠCM H
ĠChe ong
ĠHydrops ychidae
L ittle
T y
Ġm Æ¡n
ĠM ISA
ĠTh uÃ¢n
ĠQ Ng
ĠÐ ľ
US AID
ĠNav ig
ĠCraw ford
ĠMyrmele ontidae
á» ©t
Ġgi g
ĠP ope
te ng
ĠPr att
aph one
ĠSteph anie
ĠKos y
Äį eskÃ½
Ġpharao n
ĠPied mont
D in
Ġs ystem
ĠV Ã²m
ĠthÃ ªnh
au k
Ġ- >
ĠX Ã¡n
ĠE rich
Ġ18 13
ĠLÄĲLÄĲ VN
IS CO
ĠHal f
Hy un
ĠRi ot
Ste ve
Ġnh Ãłi
Ġ17 92
ĠStan is
ĠScandin avia
9 16
C oi
J oe
ĠR ail
ĠPro gram
ĠDimens ity
ĠF ischer
ĠAR V
odon etsk
ĠLM HT
S pr
ĠP AR
ĠPh ai
aria ceae
Ġ57 3
s elf
ĠC UT
ĠH á»ĳt
Ġ55 2
ĠSar r
ĠLuc ky
eno ord
Ġs err
em ont
Tr á»ĳn
Ġ44 3
ĠCir cle
ĠHorn et
r ao
Ġt Ã½
ĠN TD
ch or
ĠM ech
ĠG MP
le i
-- -
F PA
ĠC ut
Ġ5 19
ĠTá» ¥
ick i
ĠTs uk
P el
f ull
è µ
Ġb at
Ġ6 85
tr ess
ĠBr at
ãĢ Ĥ
Ġsam urai
E ric
Ġt etr
ĠH eg
ĠB ri
Äĳ á»įc
éĩ ĳ
D áº§n
am m
Ġ9 21
tu oitre
ĠSS CÄĲ
ĠLie chtenstein
or ial
ĠTá»ķ n
ab ia
ik aze
Ġ57 2
ĠHay ashi
B Ã¬a
P ob
É Ļ
ĠT ui
ĠL Æ¡
qu Ã©
ps is
lin an
act ic
ato xin
Beg onia
ĠÄĲ Ãģ
ĠP ros
ĠO F
ãģ Ħ
chÃ ¹a
ĠPap er
7 24
9 74
S ee
Ġl Ãº
ĠJ W
pp el
ail o
ĠTim othy
ĠCl ermont
ĠNar uto
n au
t Ã´n
ĠV O
ĠP TC
ĠQu ant
us k
om ac
os k
à¸ ĩ
ĠCM E
ĠAntwer p
ĠÄĳá» Łm
ĠL áº¯c
ĠP aw
Ġ5 47
ĠHav ana
ĠKore an
ĠD U
ĠCh inese
st at
ĠSing le
à¸ ¡
ĠBook ing
Mag uire
9 76
é ł
ĠT áº±ng
ĠL E
Ġbá» ¥t
Ġf ound
kh ung
ĠTai wan
9 49
L LVT
M áº¯c
p ina
Ġng áº¥n
ĠW edd
oph on
ĠMetac ritic
c f
h ab
ĠH Ãºt
te am
ev sky
xy nos
ĠSal a
ĠPa j
ĠCop pa
ĠKur sk
ĠHard y
Ġc el
Ġx áºŃp
ĠV ay
ĠS quad
Ġ18 04
ph antes
ĠAnd es
ĠAram co
p u
al ke
ff en
ĠFl av
for ce
ĠÃĵ c
G od
ĠP ush
ĠD ul
Ġban cassurance
ĠNew foundland
ĠMed latec
iy ama
ĠKal ibr
ĠAct ivision
ĠT á»±a
ĠC SND
ĠAb out
enh eimer
ĠMaxim ilian
ĠMit oma
9 66
ĠC TMT
ĠB ild
ĠR ight
ĠF letcher
at ta
ĠCO N
Nh áº¥p
ĠEx change
ÅŁ e
ĠInvestment s
Shi pper
ĠRefin itiv
L á»Ĺi
M ap
ĠN á»Ļp
ĠS DG
Ġlá» ķ
ĠTh under
Ġ5 67
or u
á»ģ nh
99 4
ois e
ĠFlor entino
Ð¸ Ñĩ
Th áº±ng
tr Æ°á»Łng
ĠCN A
ĠDen ver
utth aya
A TTP
L ib
k iá»ĥu
æ ·
Ġl ist
Ġx ÃŃnh
ĠH DC
Th ung
Ġ17 98
ĠSal t
aph aco
ĠGiá» ĳc
ĠhÃ©c ta
ĠBeir ut
p ole
ĠU áº©n
tr ec
th on
Ġ13 00
M Ã¢y
Ġdr iver
ĠBle us
ĠS ÃģCH
ĠX C
Ġcos play
ĠGand hi
ĠSoth eby
incinn ati
B uá»ĵn
C av
ĠD áº»
ad io
Ġ17 91
Ġfly cam
S Ä©
ĠÄĲ ao
ĠL ess
ĠG ym
Ġ9 74
te gr
st ro
ĠArt ist
ĠLyn k
g á»ĳc
p y
Ġ5 37
CS ÄĲT
ĠPr ado
urg a
KS S
ĠSapp hire
E IC
q lo
Ġc orset
ĠN Ãªu
ĠB áº§y
ig era
Ġ65 8
ĠIt al
è ģ
ag natha
ran i
ĠMiss ion
ĠFl ow
n ica
Ġqu áº·n
ĠD D
ĠâĢĿ .
Ġl ia
Ġd an
Ġi bn
D NA
P B
im co
od erus
Ġser ver
U TC
Z alo
ac antha
og aster
ĠSp hing
SI M
ĠNat ural
ĠSem at
eoph ora
t ieng
Ġ17 00
ĠSt age
Ġ70 5
ĠAc er
ĠCarne gie
h Ã¡t
ĠB Ã¬
ĠE f
ĠZ S
ĠHam ad
Cal ifornia
ĠAld er
N ova
Ġv áº¡c
Ġv Ã³n
ĠT erm
19 28
Ġ4 61
ĠCh um
Ã©t ico
ym e
ĠKar olina
ĠTV C
ĠJo Ã£o
ĠPT DTBT
ĠSul awesi
ell ini
ĠHá» įng
ĠShe eran
ĠâĢĿ ,
Fl ag
H CT
v iec
ĠN es
ĠI NS
Ġ60 2
Ð» Ð°
Cas emiro
ĠPanj shir
9 44
ĠS ylv
ĠG Ã¡nh
ĠY ao
ĠCon idae
ĠPer th
ĠPer isic
ĠST ART
cu it
Ġphot on
á» ļt
ver se
ĠÃĲ á»ĭnh
ĠMcKin sey
C ardi
f el
Ġl Ã³a
ĠÄĳÃ ²ng
en ke
ie b
per ia
ĠRh ynch
ĠMidd leton
Ġlear ning
u ensis
Ġnh Æ¡
ĠH ÃĵA
ĠP ose
Ġ20 31
Ġ7 75
ag ement
ob ry
qu el
CÄĲ DC
á»Ĳ ng
rod es
Je ans
ĠHaj ime
ĠSank t
V iá»ħn
r á»ĳc
Ġl es
Ġl Ã¬m
Ġ7 78
ĠE TH
Br ighton
9 63
ĠT oan
ĠG MD
ĠCom an
ĠVal er
lu encer
Ġnick name
W ol
l Ã¡ch
Ġp it
ĠC un
au sen
ĠSh ay
oy ama
ĠNH S
ĠCN VC
Ġac oustic
ĠFlor a
ĠValent ino
Ġnuc le
N AM
Ã½ ch
ok in
lu ong
yan ua
asc iatus
O doi
h un
æ ĭ
ĠD my
ĠPh ra
Ġná» Ľp
Ġ7 89
CH QS
lu igi
ĠRed oxy
ĠStad ium
Ġtv N
n v
ĠthÃ ¢y
Th y
ĠMy kol
ĠFac tor
ĠBow l
ĠGorbach ev
i ors
Î »
li ve
Ã©n Ã©es
ĠRich mond
ĠMey er
ĠBry aceae
ĠNk unku
ĠPelle gr
F ox
V o
l á»Ļ
ĠS Äĳd
gh en
namp lus
ĠSphing idae
f era
Ġp age
in omoto
Ng á»¥y
ĠKh at
ĠKh un
ĠSau d
K u
X oÃłi
Ġ az
á»ĳ k
ĠN IC
Ġ5 81
ĠJ oker
um ba
ĠCon f
ĠKhÃ ´
ĠFl em
ffe nheim
ĠKey s
ĠRep orter
ç ľ
Ġkh áº¡c
au se
ua tu
yl ic
ĠP Ã©t
Ġ4 67
ock et
yr is
tok ine
G ap
l áºŃt
Ġb Æ°Æ¡u
ĠCh uck
at z
ĠAl varo
Ã¶ m
==== ====
Victor ia
Ġng Äĥm
ĠH ick
Ġ7 41
ap i
ĠÐ ¸
ĠSat oshi
Äĥ c
ĠAn su
ĠGr ad
ĠCr ass
Ben th
O z
Ã ®
ĠT oh
ĠN Æ¯á»ļC
Ġchá» Ľi
ĠK PMG
ĠU t
ĠJ ut
CC P
Ġ49 2
ĠKl aus
ĠSemat ophyllaceae
n Ã´m
ĠT z
ĠL ex
ĠM s
ĠD DR
as te
to on
ĠEn t
ĠPH EV
lan ca
ĠAss ist
Ġ5 14
ĠKh uyáº¿t
ĠHann ibal
ĠN al
ĠV ia
in ter
ĠA TC
ĠI TN
Ġ25 67
ub on
Ġ60 3
ĠRh ode
ĠGam uda
ĠKun th
åĽ ½
b orn
ĠP D
ĠTh iÃªu
un aga
ym en
ĠÃĲ á»ĥ
khá» ķng
å® Ĺ
Ġbr un
ĠSait ama
l op
n ot
ĠP ita
ĠD ua
ĠR ach
our t
Ġ? -
f all
ay ga
Ġdo rs
Ch áº¡m
Äĳ u
ĠTH áº¾
sk e
ĠTT ÄĲB
TH A
ĠON E
Nov aland
L ig
T BC
n Ã´
u ther
v áº¿t
ĠE i
ĠMad uro
ien ne
ĠNi ed
Br and
ĠSab ah
Gabri el
G BP
ĠÄĲ iáº¿m
ĠV ul
ĠD ahl
ĠQu inn
Ch Äĥn
eman ja
tr ÃŃ
ĠThÃ ©
gi os
ĠN ept
am y
ĠS it
ĠChÃ ¢
ul li
ise nh
ĠDal at
ĠHom estay
ĠLGBT Q
ĠKin zhal
en ius
ĠRe f
ĠBl ume
Ġst en
ĠMon key
ãĥ Ī
ĠAlbum s
Ġ orn
Ġv it
Ã¡ l
Ġl áº¿t
Ġf emale
ĠAr s
Ġngo Ã¡y
ĠPV T
ĠShak espeare
L ith
X A
ĠÄĲ Ã¡i
Äĳ Ã³n
ĠBá» ¥t
ĠViet bank
Ġ55 4
Ø§ ÙĦ
ĠPit bull
ĠOct av
ĠVID EO
c áº¥t
nh áº¡y
ĠS AD
in em
Ġ6 11
Ġ7 18
ĠSh ophouse
qu il
ĠShopee Food
ĠMr s
ĠCNH T
Aster aceae
åĴ Į
ĠH Iá»ĨN
ĠB oc
ĠphÃ ¹ng
er v
ÄĲ am
ĠF lex
ĠMau ro
berg er
ĠSP S
ĠStars hip
iven tris
70 3
ust om
gr aphic
ĠShi r
ĠVIá»Ĩ C
Ġs Ã£i
Ġ9 68
Ġly cop
ĠAT K
à¸ ´
oshi ma
Ġcont ent
E st
ĠK IDO
ĠF aisal
Ġca cao
tr áº£i
ĠMat ip
ĠRaj apak
Rh ynch
ĠMartÃŃ nez
g reen
ĠT áº¯t
ĠM ie
ĠS CO
Ġ6 19
ĠE ri
SD F
ĠIn v
ev ille
Ġ58 6
ĠVal le
atch er
ĠDani il
ĠSV B
ĠHY BE
Rog er
Ġt it
ĠTh underb
Äĳ Ã¡p
Ġ80 2
ĠGen Z
ĠWe ise
Ġb ur
ĠM ous
ĠMai son
ĠÃļ y
ĠCle ar
usto zzi
ĠAless andro
ĠCommunic ations
9 31
C redit
J er
V Æ°á»Ľng
W all
k top
ĠAg ri
ĠKo en
cos mos
E mp
I ch
ĠCo en
ĠVer d
ĠCorn wall
- _
T s
Ġv Ã¹
Ġx á»Ļc
ĠÄĲ GN
Ã³ d
ĠTr Ã´m
ĠX Ã³a
ur fa
ĠBl og
ĠVI ET
Ġs treet
ĠG ut
ut on
ab ility
ĠLa h
ĠSc ient
uz z
ĠSteph ani
R al
R ic
R ep
ĠC razy
ĠBet ter
d h
or ity
Ġ6 26
ro th
gr ess
Vol kswagen
ĠKienlong bank
d era
k ir
l Æ°Æ¡ng
Ġh ar
ĠB SI
ĠP eckham
ĠGi s
ĠE xynos
ĠMal oney
ĠMil ner
ĠVI MC
As ian
ĠC ycl
ai gn
Ġ6 88
as ta
ĠJ rai
ent z
ĠTiktok er
Ġret inol
ĠGog h
C AD
G om
y er
ĠAn thi
ob er
aph osidae
po on
Ġg ris
ĠD ic
ÄĲ A
Tr Ã´ng
ĠF X
ĠVin ac
ĠBo ard
me ichel
Ð¾Ð ´
F LC
ì Ĺ
ĠH anc
ĠP ant
ĠS end
Ã¨ ge
ou le
ĠFre edom
ĠAj inomoto
ĠSchol es
Gold en
ĠEb ola
ĠBaza ar
Ġtr ig
ĠT CCS
ĠW ien
ill ia
ara j
yc n
ĠHol y
Black pink
ĠArk tic
ĠRobot ics
ĠColumb us
CHá» ¤P
ĠLEG O
ĠDisp atch
G IA
Ġ ê
Ġb et
ĠD up
ag na
Ġf ood
ĠChi k
ĠSh aron
ĠDu da
ĠÄĲT VN
ĠSon ic
ÃĶ tÃ´
ĠCry pto
M itt
v ili
ĠH app
at os
Ġar gent
j ay
Ġlá» §i
ur idae
ĠLu b
ec km
ĠTN LÄĲ
ĠOr acle
ĠPer fect
Ber ry
Ġthá»ī u
ÅŁe hir
s áºµn
ĠN ia
Ġ8 12
ĠSp iel
ĠMal aya
And rew
Er ling
ĠCá»« u
ĠRajapak sa
B Æ¡
Ġ inh
Ġ %,
ng oc
ĠÄĳ iáº¿m
op al
ass er
ĠEx per
IS O
John ny
9 62
Ġr Æ°á»£i
ĠB rach
ĠS UP
ĠTr ossard
au di
ĠFr itz
è¡ Ĺ
ĠCul linan
O ut
ĠHol ly
ĠBal timore
neum on
Ġc ity
ĠTr ium
ĠR ung
Ġ60 8
oph us
ĠAlex ei
ĠÐ ļ
Col eophora
ĠSD ÄĲ
ĠRoth schild
C and
H op
P ul
_ (
b ilis
x ÃŃt
Ï Ħ
áº µm
Ġh is
Ġx Ãºng
Ġ20 60
Ġ5 32
ĠEl sa
PV PHC
ĠBro z
ĠMob ifone
å¸ Ŀ
ĠNL TT
ĠAnaly tics
MAT IC
b lo
ĠU KVFTA
Ġ5 31
ĠI bra
ne v
ĠMad h
D irect
F est
L az
t áº¯c
ÄĲ á»ĭch
ite ch
ĠWeb er
mat y
ĠAy utthaya
B und
M ike
Ġl iáº¿c
Ġnh Ã²e
ĠTP CP
Ġ8 25
od us
ah r
ĠNH ÃĢ
Ġst udy
car otene
ĠHO A
Ser ie
SP ORT
HD Bank
Clar ke
ĠHarm ony
' -
M and
N okia
ĠV issan
Ã³ s
Ġan alog
Ġca d
%) âĢ¦
ĠNews flare
ĠGonz Ã¡lez
ĠPax lovid
f arm
Ġ5 89
ĠTá» ¬
Ġ60 9
qu ir
ĠIM O
uez one
ĠWy oming
l oc
Ġnh áº±ng
Ġx uyáº¿t
ĠB ose
ĠK G
Ġ9 15
ow ice
ĠEm ilia
ĠNap les
ĠHymen ophyllaceae
Ġcar at
ĠBey ond
nab ry
ĠCucur ella
? '.
C TT
ĠB uy
ang an
Ġ5 36
Tr áº§m
Ġ9 69
ĠLe arning
uc o
gi es
act us
Sp ec
ĠRoad ster
ĠPsy ch
Ġsand wich
ĠNeander thal
C AR
K ate
b áº¿n
t ong
Ġr Ã²i
Ġdo ll
ff ic
tern ative
Ġ54 1
Ġ00 7
ĠNav y
ĠPres ident
ĠSAG RI
B Ã¡ch
Ġv acc
at ov
ĠJ up
Ġf arm
MT R
ĠTrip le
G or
r im
Ġp e
ĠÄĲ ai
ĠÄĲá» Ĥ
ry pt
ĠSuper man
idel berg
c ade
g á»Ńi
é ¾
ng an
Ġr Ã¢y
ĠB ech
Ġ7 32
Ġtho Äĥn
est yle
akh alin
St ock
ĠMu Ã´n
ĠJac qu
w u
ĠThá» Ŀ
ĠPh arao
ĠMar inos
ĠRob bie
ĠSol edar
ĠDr iver
ĠSX MB
A K
F V
ĠN áº·c
en aria
ĠX Ã¡m
tr us
ell um
ĠAss am
9 28
C ass
D ortmund
V inc
b j
Ġ icon
ch io
ĠM p
Ġca ss
ari ensis
Ġ57 6
ĠHer c
ĠHw asong
c umin
Ġp eso
Ġ- -
ame a
lu Ã´n
ted othi
V AMA
g uez
r uz
r ates
Ã¡ k
Ġlá» £m
al pha
il t
ĠTá» °
ĠCá» ¬
ĠAnd orra
Ġax ÃŃt
Ġser otonin
Thi s
ĠHO ÃĢI
ĠSur face
ĠOff icial
H ad
ç Ļ
ĠÄĲ Ã£ng
ĠPlay er
ucc ess
ĠSle ep
ac ey
ĠBar r
Ġ55 6
c orp
ĠN VNONN
tr á»ĳn
ak ami
ĠAd eno
V ay
m aire
ĠV os
ĠTr uth
ĠQ NS
ĠA lec
ĠD GW
ĠTo ch
ĠOr der
ĠFin als
c ial
j j
Ġnh Ãº
Ġp ort
ĠK af
ul ation
re gor
ĠBur undi
ĠCard iff
9 61
D ep
E ur
F ree
Ġch áº¡ch
ĠRai ola
C á»ı
W olf
s Æ¡
w ith
Ġm ain
ĠT ÄĤNG
Ġra d
ĠX Ãĥ
ot ive
ut m
ĠChi bi
ev ski
rid a
berg ia
Ġnig ric
ĠAur ora
ĠC IT
ch elles
es ny
Tr Äĥng
ĠF light
Äĳ áºŃp
ĠMar g
Ġ60 4
kov Ã¡
Ð¾Ð ³
T uÃ¢n
ĠR á»Ŀi
Ġ6 48
ĠF ig
ut es
ĠPal is
ĠPic asso
ĠAlc antara
Andr ena
ĠH áº¡p
ĠM ung
hi an
of lav
Ġrá»ĩ p
s om
ì ł
ĠN ung
Ġf ont
Ġf raz
iflor um
ï¼ ī
ĠRashi d
è ¶
ĠL ob
ĠS AP
Ġtu ber
form ation
nam ent
ĠSol o
ĠCre ative
R áº¯n
S Äĥn
c á»¥c
ĠI CC
ĠW ool
ph uc
ĠGam ma
ĠGua d
D onald
ĠB áº¯p
ĠR ama
ĠViet ABank
ĠPH Ãļ
ĠFor ex
ĠID J
ĠDmy tro
ĠP wC
ĠG TB
ĠMerc ury
ĠFri ese
Ġbus iness
ĠBruch idae
eckm ate
Ġt Ä©u
hi st
Kh Ã¡ng
end e
Ġ65 6
sp ir
San cho
ser ies
ĠBil lie
B TTTT
C Ã´n
ĠB oo
ĠSh eng
NG C
ĠHol e
ĠNV B
ĠAnthi cidae
ĠL ÃŃ
ĠF T
Ġ17 88
eb el
ĠViet Times
ĠVÃµ ng
ib ir
Ġ59 4
ĠRy uk
ĠFar os
ĠNutr ition
G ram
á ¸
ĠC incinnati
tr uyá»ĩn
ĠEd mund
ĠMur icidae
ĠBent ayga
G rab
ĠhÃ ¹n
ĠU i
ĠCar ens
ĠTHá» Ĥ
bl ack
f eng
x Ã¢m
ç ©
ĠK tur
Ġho use
Ġf rig
ĠÃĲ áº¿n
ĠMi ura
ĠÅ »
Com p
ĠDim it
ĠKath y
Ġphosph or
P av
Y e
v uc
ĠTr end
hi za
ĠPh ol
ĠBu á»ĵm
ĠNov avax
ÃĲ á»ĥ
ĠTog ether
B Æ°á»Łi
ĠP ig
ĠD Ã¡ng
ar it
ap ter
ĠDi xon
ĠCS KH
ali ber
ĠQR Code
Ġs ap
at re
ĠSt inger
ez e
ĠHen rique
ĠOle g
; "
H á»ĳ
d l
Ġt om
Ġb is
ar ct
ĠF L
ĠTom orrow
Ġmet an
ĠPhom vi
g ens
ĠL oz
eb es
Ġel ong
W ay
Ġc ricket
Ġf err
ip a
In stagram
ĠVar io
ĠHann over
ĠBar oque
Ġser i
idend rum
H all
c ro
g áº¡ch
ĠK ook
al ity
ler c
ĠMe et
Anton y
I mp
Ġm ore
ĠPh áº¿
ĠR hÃ´ne
Ġkáº¿ ch
oc ene
ĠCÃ´ te
ĠSao star
Mar itime
ĠLanc aster
w ear
Ġ Ã©n
Ġh ealth
ĠK iá»ĥng
tr ait
ĠPr ed
asp x
ĠRick y
Ġtab let
ĠEy es
h ou
k ie
Ġ ×
Ġ5 29
ĠDes c
ĠRu á»Ļng
ĠDol ph
Ġphot oc
9 87
u il
Ġ os
ĠS ÃŃnh
Ġ6 13
as ek
ĠW ink
ĠSau nders
ĠAI A
ĠYamag uchi
H ÄĲT
f un
in osa
ĠX Æ¡
io id
Ġâ Ļ
à¹ ī
© m
ĠIn ca
ĠPV B
AG RAM
ĠlÃ² e
iy ah
oft us
ĠRud olf
X o
b Æ¡m
y uki
car s
nghá» ģ
ĠSad eco
ĠFront ale
rÃŃ guez
ı n
ĠN BB
ai v
el ing
ĠE DM
se ng
ug g
Bá» Ĺng
ĠCel ine
ĠTob ago
c ot
åĲ Ľ
9 33
u u
ĠPhÃ ©p
ĠGeo vane
able coin
ĠCre w
Mu Ã´n
ĠVR G
A er
V Ã³c
i Pad
k ad
Ġm iá»ģu
am ensis
ĠtÃŃ p
ĠCh eon
ĠSt or
opter yx
ĠMel issa
ĠEss ex
yout u
. /
Ġ Â²
Ġc and
In s
ĠGross i
ĠStal ingrad
D em
u er
ĠN SDLÄĲ
ĠP ew
ĠS EO
ĠK akh
ĠGi ustozzi
ĠI gn
ĠHel ic
A y
P ok
ĠS edan
ĠK Iáº¾N
Ã© l
Th áºŃn
is ie
v Æ°á»Ŀn
Ġ order
Ġn á»ĭt
Äĳ Ãł
ow e
ĠAd vis
ĠKy ushu
erb ock
Ġmelan in
ĠAttr age
ĠK ik
Ġ6 27
ĠE G
ĠRe eves
ĠVIC EM
A udi
Ġd Ã£n
Ġkh áºŃp
it en
Äĳ Ã²i
Ġtho áº£
Qu Ã£ng
ĠOl ga
ĠPen ang
k Ãªnh
r un
Ġs k
Ġr áº±n
ĠI ATA
ĠAm in
ĠHan na
Ð¸ Ð½
ĠSC R
aches lav
ococ cus
i u
ĠD end
et in
Bo C
ĠLus ail
B ut
N om
S om
W Ã¼rttemberg
p ack
y erm
áº °
19 08
ĠCh áº¥m
ul ina
ĠOr tega
ĠMá» ¸
ĠChrys opidae
odactyl idae
m anh
ë ı
Ġv ani
Ġnh oi
Ġd ist
ĠTh ua
ĠPh nÃ´m
ĠR out
Ġ7 86
ID E
ĠCar a
ĠBol t
M Ã¹ng
N athan
ĠB ÃĵNG
ub o
AS IA
ĠMotor ola
isenh ower
A ch
A ul
l oss
t ieu
ĠD DCI
tr Ãºng
ĠLou vre
oli u
ĠHal im
ĠProduc tion
Rad ar
ĠCay enne
ĠThak sin
P rop
Ġkhu Ã¢n
Ġ6 43
os cel
TT C
est one
F AT
P MI
é «ĺ
ĠT ip
ĠN ub
ĠC lo
Äĳ Ã¨n
oc n
og as
ĠNH Iá»ĨM
ĠÐ Ĵ
ĠMel ody
ĠPat el
Pr ince
ï¼ Ī
ĠLiv ing
J ess
L ys
Ġn Ãºng
ĠT ata
Ġ202 9
ag ui
tr áº¡m
NH áº¬T
Ġ49 7
ef eller
ring en
SH UTTERSTOCK
ĠKid o
ĠRoss i
ĠMetropol itan
tru oc
p or
ĠL áº¯ng
ĠTá» ¥c
Ã³n io
ĠAS US
ĠSu ite
Pter olophia
ĠTav ares
K n
N iÃªn
u tra
nh e
in as
at ur
all ia
ĠKH OA
ĠEd ison
opter us
ĠSav age
ĠMid night
ĠZen it
ĠM áº¯c
iz i
ĠMal ay
res h
ĠRock et
ĠDum fries
ĠTowns end
A ub
S lov
Ġc Æ°á»Ŀm
Ġl Ã©m
ĠT iá»ģu
Ġlá» ³
er idae
ad ezi
Ġ56 4
ĠYam ada
ĠNorth ern
ĠLor raine
ĠBarb ados
ĠOri ental
Melan otus
ĠInform ation
a a
Ġ11 00
ĠNhá» ©t
Ġ55 1
ĠNe ed
ogl obin
ĠDR H
G MT
ĠÄĲ Ã¹ng
ĠL ogo
ĠChá» «ng
ĠY or
ĠHÄĲ H
oss ible
ĠTech fest
ux oa
Ġb á»±
Ġng áº¡nh
ĠV iss
ĠM acc
ĠK INH
un ion
ag ioch
ĠSc inc
IT DA
ĠID F
S ung
k owski
t uyÃªn
á» Ľm
Ġchu n
anc ing
ĠPen thouse
ĠImper ial
d iá»ģu
m is
Ġv áº¡m
ch un
ĠÄĲ Iá»ĤM
ĠQu ad
ĠRe ap
ez a
ĠGu o
ĠDon bas
ĠElectron ic
S phaer
b ak
ĠB OS
ar ian
ĠEm ile
ĠJoh or
ĠHor se
h uyá»ģn
is tri
ĠJ oa
ĠTH ÃģI
ĠCom ic
ĠMun do
ĠHab eck
omm ern
} ,
Å º
ĠR Ãª
th at
os er
ĠBa erbock
ĠAl lan
oh ann
ĠPr ada
olep ta
berl ake
[...]
