{
  "version": "1.0",
  "truncation": null,
  "padding": null,
  "added_tokens": [
    {
      "id": 0,
      "content": "<|endoftext|>",
      "single_word": false,
      "lstrip": false,
      "rstrip": false,
      "normalized": false,
      "special": true
    }
  ],
  "normalizer": null,
  "pre_tokenizer": {
    "type": "ByteLevel",
    "add_prefix_space": false,
    "trim_offsets": true,
    "use_regex": true
  },
  "post_processor": {
    "type": "ByteLevel",
    "add_prefix_space": true,
    "trim_offsets": false,
    "use_regex": true
  },
  "decoder": {
    "type": "ByteLevel",
    "add_prefix_space": true,
    "trim_offsets": true,
    "use_regex": true
  },
  "model": {
    "type": "BPE",
    "dropout": null,
    "unk_token": null,
    "continuing_subword_prefix": null,
    "end_of_word_suffix": null,
    "fuse_unk": false,
    "byte_fallback": false,
    "ignore_merges": false,
    "vocab": {
      "<|endoftext|>": 0,
      "!": 1,
      "\"": 2,
      "#": 3,
      "$": 4,
      "%": 5,
      "&": 6,
      "'": 7,
      "(": 8,
      ")": 9,
      "*": 10,
      "+": 11,
      ",": 12,
      "-": 13,
      ".": 14,
      "/": 15,
      "0": 16,
      "1": 17,
      "2": 18,
      "3": 19,
      "4": 20,
      "5": 21,
      "6": 22,
      "7": 23,
      "8": 24,
      "9": 25,
      ":": 26,
      ";": 27,
      "<": 28,
      "=": 29,
      ">": 30,
      "?": 31,
      "@": 32,
      "A": 33,
      "B": 34,
      "C": 35,
      "D": 36,
      "E": 37,
      "F": 38,
      "G": 39,
      "H": 40,
      "I": 41,
      "J": 42,
      "K": 43,
      "L": 44,
      "M": 45,
      "N": 46,
      "O": 47,
      "P": 48,
      "Q": 49,
      "R": 50,
      "S": 51,
      "T": 52,
      "U": 53,
      "V": 54,
      "W": 55,
      "X": 56,
      "Y": 57,
      "Z": 58,
      "[": 59,
      "\\": 60,
      "]": 61,
      "^": 62,
      "_": 63,
      "`": 64,
      "a": 65,
      "b": 66,
      "c": 67,
      "d": 68,
      "e": 69,
      "f": 70,
      "g": 71,
      "h": 72,
      "i": 73,
      "j": 74,
      "k": 75,
      "l": 76,
      "m": 77,
      "n": 78,
      "o": 79,
      "p": 80,
      "q": 81,
      "r": 82,
      "s": 83,
      "t": 84,
      "u": 85,
      "v": 86,
      "w": 87,
      "x": 88,
      "y": 89,
      "z": 90,
      "{": 91,
      "|": 92,
      "}": 93,
      "~": 94,
      "¡": 95,
      "¢": 96,
      "£": 97,
      "¤": 98,
      "¥": 99,
      "¦": 100,
      "§": 101,
      "¨": 102,
      "©": 103,
      "ª": 104,
      "«": 105,
      "¬": 106,
      "®": 107,
      "¯": 108,
      "°": 109,
      "±": 110,
      "²": 111,
      "³": 112,
      "´": 113,
      "µ": 114,
      "¶": 115,
      "·": 116,
      "¸": 117,
      "¹": 118,
      "º": 119,
      "»": 120,
      "¼": 121,
      "½": 122,
      "¾": 123,
      "¿": 124,
      "À": 125,
      "Á": 126,
      "Â": 127,
      "Ã": 128,
      "Ä": 129,
      "Å": 130,
      "Æ": 131,
      "Ç": 132,
      "È": 133,
      "É": 134,
      "Ê": 135,
      "Ë": 136,
      "Ì": 137,
      "Í": 138,
      "Î": 139,
      "Ï": 140,
      "Ð": 141,
      "Ñ": 142,
      "Ò": 143,
      "Ó": 144,
      "Ô": 145,
      "Õ": 146,
      "Ö": 147,
      "×": 148,
      "Ø": 149,
      "Ù": 150,
      "Ú": 151,
      "Û": 152,
      "Ü": 153,
      "Ý": 154,
      "Þ": 155,
      "ß": 156,
      "à": 157,
      "á": 158,
      "â": 159,
      "ã": 160,
      "ä": 161,
      "å": 162,
      "æ": 163,
      "ç": 164,
      "è": 165,
      "é": 166,
      "ê": 167,
      "ë": 168,
      "ì": 169,
      "í": 170,
      "î": 171,
      "ï": 172,
      "ð": 173,
      "ñ": 174,
      "ò": 175,
      "ó": 176,
      "ô": 177,
      "õ": 178,
      "ö": 179,
      "÷": 180,
      "ø": 181,
      "ù": 182,
      "ú": 183,
      "û": 184,
      "ü": 185,
      "ý": 186,
      "þ": 187,
      "ÿ": 188,
      "Ā": 189,
      "ā": 190,
      "Ă": 191,
      "ă": 192,
      "Ą": 193,
      "ą": 194,
      "Ć": 195,
      "ć": 196,
      "Ĉ": 197,
      "ĉ": 198,
      "Ċ": 199,
      "ċ": 200,
      "Č": 201,
      "č": 202,
      "Ď": 203,
      "ď": 204,
      "Đ": 205,
      "đ": 206,
      "Ē": 207,
      "ē": 208,
      "Ĕ": 209,
      "ĕ": 210,
      "Ė": 211,
      "ė": 212,
      "Ę": 213,
      "ę": 214,
      "Ě": 215,
      "ě": 216,
      "Ĝ": 217,
      "ĝ": 218,
      "Ğ": 219,
      "ğ": 220,
      "Ġ": 221,
      "ġ": 222,
      "Ģ": 223,
      "ģ": 224,
      "Ĥ": 225,
      "ĥ": 226,
      "Ħ": 227,
      "ħ": 228,
      "Ĩ": 229,
      "ĩ": 230,
      "Ī": 231,
      "ī": 232,
      "Ĭ": 233,
      "ĭ": 234,
      "Į": 235,
      "į": 236,
      "İ": 237,
      "ı": 238,
      "Ĳ": 239,
      "ĳ": 240,
      "Ĵ": 241,
      "ĵ": 242,
      "Ķ": 243,
      "ķ": 244,
      "ĸ": 245,
      "Ĺ": 246,
      "ĺ": 247,
      "Ļ": 248,
      "ļ": 249,
      "Ľ": 250,
      "ľ": 251,
      "Ŀ": 252,
      "ŀ": 253,
      "Ł": 254,
      "ł": 255,
      "Ń": 256,
      "á»": 257,
      "áº": 258,
      "Ġt": 259,
      "ng": 260,
      "Ġc": 261,
      "ĠÄ": 262,
      "ĠÄĳ": 263,
      "nh": 264,
      "Ãł": 265,
      "Ġv": 266,
      "Æ°": 267,
      "há»": 268,
      "Ã¡": 269,
      "iá»": 270,
      "Ġl": 271,
      "Ġtr": 272,
      "Ġk": 273,
      "Æ°á»": 274,
      "hÃ": 275,
      "Ġb": 276,
      "Ġs": 277,
      "áº¿": 278,
      "Ġm": 279,
      "áº¡": 280,
      "Ġnh": 281,
      "ĠÄĳá»": 282,
      "Ġh": 283,
      "Ġth": 284,
      "Ġn": 285,
      "áº£": 286,
      "Ġd": 287,
      "Ġg": 288,
      "Ãª": 289,
      "Ġng": 290,
      "iá»ĩ": 291,
      "Ġp": 292,
      "Ġch": 293,
      "ĠT": 294,
      "Ã¡c": 295,
      "ĠcÃ": 296,
      "áº¥": 297,
      "Ġtá»": 298,
      "Ġvá»": 299,
      "´ng": 300,
      "Ãªn": 301,
      "ĠvÃł": 302,
      "Ġcá»": 303,
      "Ã¢": 304,
      "Æ¡": 305,
      "uy": 306,
      "á»Ļ": 307,
      "Ġthá»": 308,
      "Ġkh": 309,
      "Ġq": 310,
      "áºŃ": 311,
      "Ġgi": 312,
      "áº§": 313,
      "Ġph": 314,
      "Ġhá»": 315,
      "Äĥ": 316,
      "á»ĳ": 317,
      "Æ°á»Ŀ": 318,
      "ĠN": 319,
      "ĠÄĳÃ": 320,
      "Ġx": 321,
      "iáº¿": 322,
      "ĠC": 323,
      "Ľi": 324,
      "Ġqu": 325,
      "an": 326,
      "Æ°á»£": 327,
      "Ġcá»§": 328,
      "ĠcÃ¡c": 329,
      "Ġcá»§a": 330,
      "ong": 331,
      "ĠlÃł": 332,
      "áº¡i": 333,
      "Ġchá»": 334,
      "Ġr": 335,
      "áº¥t": 336,
      "ĠH": 337,
      "ĠcÃ³": 338,
      "Ã¬": 339,
      "á»±": 340,
      "ch": 341,
      "Ã¢n": 342,
      "iá»ģ": 343,
      "iá»ĩn": 344,
      "á»ĭ": 345,
      "ĠB": 346,
      "Æ°á»£c": 347,
      "Ġ1": 348,
      "Ġtrong": 349,
      "iÃªn": 350,
      "hÃ´ng": 351,
      "Ãły": 352,
      "á»Ł": 353,
      "Ġ2": 354,
      "ĠÄĳÆ°á»£c": 355,
      "áº¯": 356,
      "iá»ĥ": 357,
      "Ãłnh": 358,
      "inh": 359,
      "ĠÄĲ": 360,
      "Æ°Æ¡": 361,
      "Æ°á»Ľ": 362,
      "uyá»": 363,
      "Ġvá»Ľi": 364,
      "ĠV": 365,
      "Æ°Æ¡ng": 366,
      "hÃŃ": 367,
      "Ġcho": 368,
      "ĠÄĳá»Ļ": 369,
      "Æ°á»Ŀng": 370,
      "Ã´": 371,
      "iá»ģu": 372,
      "oÃł": 373,
      "anh": 374,
      "áº§u": 375,
      "Æ°á»Ŀi": 376,
      "ao": 377,
      "á»Ļt": 378,
      "áº§n": 379,
      "am": 380,
      "ĠÄĳÃ£": 381,
      "Ã¬nh": 382,
      "ĠnÄĥ": 383,
      "©c": 384,
      "ai": 385,
      "ĠL": 386,
      "Ã³": 387,
      "á»¯": 388,
      "ĠngÆ°á»Ŀi": 389,
      "áºŃn": 390,
      "ĠM": 391,
      "áº£i": 392,
      "Ġmá»Ļt": 393,
      "áº·": 394,
      "áº£n": 395,
      "ang": 396,
      "©ng": 397,
      "ay": 398,
      "ung": 399,
      "áº¿n": 400,
      "Æ°á»Ľc": 401,
      "ĵng": 402,
      "Ġmá»": 403,
      "Ã´ng": 404,
      "ÃŃ": 405,
      "Ġ(": 406,
      "âĢ": 407,
      "ĠP": 408,
      "ĠkhÃ´ng": 409,
      "ĠcÃ´ng": 410,
      "ĠhÃ": 411,
      "Ã¡t": 412,
      "ĠS": 413,
      "áº¿t": 414,
      "Ġlá»": 415,
      "ĠÄĳá»ĭ": 416,
      "ĠTr": 417,
      "ĠnÄĥm": 418,
      "Ã£": 419,
      "±c": 420,
      "Ġsá»ĳ": 421,
      "ĠTh": 422,
      "Ġngh": 423,
      "iáº¿n": 424,
      "Ġhá»į": 425,
      "Ã¢y": 426,
      "Ã¡n": 427,
      "in": 428,
      "ĠÄĳá»ĥ": 429,
      "on": 430,
      "uá»ĳ": 431,
      "Ġtá»«": 432,
      "Ġphá»": 433,
      "iá»ĩt": 434,
      "Ŀi": 435,
      "Ġtáº¡i": 436,
      "Æ¡n": 437,
      "ĠÄĳÃ³": 438,
      "ĠNg": 439,
      "¥c": 440,
      "ĠphÃ": 441,
      "Ã½": 442,
      "ĠK": 443,
      "¹ng": 444,
      "ĠÄĳáº¿n": 445,
      "á»¯ng": 446,
      "á»ķ": 447,
      "ĠnhÆ°": 448,
      "Ġnhá»¯ng": 449,
      "Ġvá»ģ": 450,
      "eo": 451,
      "Ãłng": 452,
      "oÃłn": 453,
      "ĠÄĳá»Ļng": 454,
      "Ã¡o": 455,
      "Ġá»Ł": 456,
      "ĠthÃ": 457,
      "Ã¡ng": 458,
      "áºŃp": 459,
      "Ġ20": 460,
      "Ġho": 461,
      "áºŃt": 462,
      "ĠnÃły": 463,
      "au": 464,
      "áº©": 465,
      "ĠQ": 466,
      "ĠA": 467,
      "Ġthu": 468,
      "Ãº": 469,
      "ĠÄĳá»ĵng": 470,
      "Ġhiá»ĩn": 471,
      "Ġkhi": 472,
      "iÃª": 473,
      "ĠÄĳáº§u": 474,
      "Äĥng": 475,
      "Ġthá»ĥ": 476,
      "Ġdá»": 477,
      "Ġsáº": 478,
      "Ġgiá»": 479,
      "iáº¿t": 480,
      "iá»ĩc": 481,
      "ĠchÃŃ": 482,
      "ĠvÃło": 483,
      "iá»ĩu": 484,
      "ĠtrÃªn": 485,
      "á»ĭch": 486,
      "ĠG": 487,
      "ĠD": 488,
      "Å©ng": 489,
      "Ġra": 490,
      "áº¡t": 491,
      "áº¡n": 492,
      "ĠthÃłnh": 493,
      "Ġhá»Ļ": 494,
      "Ġtrá»": 495,
      "ĠngÃły": 496,
      "Äĥn": 497,
      "ĳi": 498,
      "iá»ĥm": 499,
      "áº±": 500,
      "00": 501,
      "Ġviá»ĩc": 502,
      "áº£ng": 503,
      "Ġdo": 504,
      "Ġbá»": 505,
      "áº¡o": 506,
      "Ġnhiá»ģu": 507,
      "īnh": 508,
      "Ġdá»±": 509,
      "Æ°á»£ng": 510,
      "Ġsá»": 511,
      "áº¥p": 512,
      "Ãłi": 513,
      "er": 514,
      "ĠÄĳá»ĭnh": 515,
      "Ġquan": 516,
      "²ng": 517,
      "iá»ĥn": 518,
      "ĠNam": 519,
      "Ã¡ch": 520,
      "áº£o": 521,
      "Ġcáº£": 522,
      "á»ĵ": 523,
      "Ã¡i": 524,
      "Ġ3": 525,
      "ĠcÅ©ng": 526,
      "Ġsá»±": 527,
      "ÄĲ": 528,
      "Ġthá»±c": 529,
      "ģn": 530,
      "Ġnghiá»ĩ": 531,
      "Ã´i": 532,
      "Ġhá»įc": 533,
      "ĠnhÃł": 534,
      "Ġgia": 535,
      "Ġsáº½": 536,
      "áº«": 537,
      "ĠnhÃ¢n": 538,
      "áº¯c": 539,
      "Ã¡p": 540,
      "ĠchÃ": 541,
      "á»±c": 542,
      "Ä©": 543,
      "ĠdÃ¢n": 544,
      "Ġbá»ĭ": 545,
      "á»Ļc": 546,
      "ĠlÃłm": 547,
      "ĠphÃ¡t": 548,
      "ĠnÆ°á»Ľc": 549,
      "ĠcÆ¡": 550,
      "uyÃªn": 551,
      "¬nh": 552,
      "ĠchÃŃnh": 553,
      "Ġthá»Ŀi": 554,
      "en": 555,
      "Ġquy": 556,
      "ĠgiÃ¡": 557,
      "ħn": 558,
      "Ġtiáº¿": 559,
      "Ġ-": 560,
      "á»Ļi": 561,
      "ĳng": 562,
      "uáº¥t": 563,
      "£p": 564,
      "Ġhá»Ļi": 565,
      "ar": 566,
      "ĠhÃłng": 567,
      "ĠtrÆ°á»Ŀng": 568,
      "Æ°á»Ł": 569,
      "ĠtÃŃ": 570,
      "Æ°á»Łng": 571,
      "áº¥n": 572,
      "uyá»ĩ": 573,
      "ĠViá»ĩt": 574,
      "Ġtáº¿": 575,
      "Ġkho": 576,
      "Ġhá»£p": 577,
      "ĥn": 578,
      "Æ°a": 579,
      "Ã¢m": 580,
      "ĠhÆ¡n": 581,
      "Ġtá»īnh": 582,
      "Ġláº¡i": 583,
      "Ġá»": 584,
      "Ġká»": 585,
      "Ġchá»ī": 586,
      "áº±ng": 587,
      "Ġtá»ķ": 588,
      "ia": 589,
      "Ã©": 590,
      "ĠthÃ´ng": 591,
      "Ġsáº£n": 592,
      "Ġnghá»": 593,
      "ĠâĢ": 594,
      "ĠhÃłnh": 595,
      "Ġdá»ĭch": 596,
      "Ġnháº¥t": 597,
      "¢n": 598,
      "Ġy": 599,
      "ĠviÃªn": 600,
      "Ãłn": 601,
      "Ġcao": 602,
      "Ãło": 603,
      "Ġvá»¥": 604,
      "Ã¡nh": 605,
      "áº«n": 606,
      "Ġchá»©c": 607,
      "uyá»ĩn": 608,
      "áº·c": 609,
      "²n": 610,
      "20": 611,
      "ĠÄĳá»ģ": 612,
      "¥ng": 613,
      "ĠÄĳiá»ģu": 614,
      "ĠtÄĥng": 615,
      "ĩnh": 616,
      "áº£m": 617,
      "Ġnghiá»ĩp": 618,
      "áº¥y": 619,
      "uyá»ģn": 620,
      "Ġtheo": 621,
      "Ã¹ng": 622,
      "ĠU": 623,
      "hi": 624,
      "áº¡nh": 625,
      "ĠtÃ¡c": 626,
      "oÃłi": 627,
      "Ġsinh": 628,
      "uá»ĳc": 629,
      "Ġtriá»ĥn": 630,
      "ĠnháºŃn": 631,
      "Ġxuáº¥t": 632,
      "Ġpháº£i": 633,
      "hÃ³": 634,
      "Ġtiáº¿p": 635,
      "Ġdá»¥ng": 636,
      "áº·t": 637,
      "ĠxÃ£": 638,
      "Ġmá»Ľi": 639,
      "iá»ģn": 640,
      "iÃªu": 641,
      "á»ĳc": 642,
      "ĠtrÃ¬nh": 643,
      "âĢĿ": 644,
      "ĠthÃ¡ng": 645,
      "al": 646,
      "Ġbá»Ļ": 647,
      "ĠThá»": 648,
      "Ġsau": 649,
      "Ġqua": 650,
      "ĠNh": 651,
      "ĠhÃ¬nh": 652,
      "ĠÄĳá»ĳi": 653,
      "Ġcáº¥p": 654,
      "ĠÄĳang": 655,
      "ĠlÃ½": 656,
      "áº¥u": 657,
      "ĠlÆ°á»£ng": 658,
      "á»ķi": 659,
      "Ġkáº¿t": 660,
      "19": 661,
      "ĠÄĳá»ĭa": 662,
      "Ã¹": 663,
      "ĠtÆ°": 664,
      "ĠÄĳiá»ĥm": 665,
      "em": 666,
      "Ġ4": 667,
      "Ġ5": 668,
      "Ġthá»ĭ": 669,
      "Ġ202": 670,
      "ĠcÃ²n": 671,
      "áº¯t": 672,
      "ĠcÃ¹ng": 673,
      "áº¡ng": 674,
      "Ġkhá»": 675,
      "iá»ĥu": 676,
      "ĠPh": 677,
      "ĠÃ´ng": 678,
      "įng": 679,
      "Ġtá»ĳ": 680,
      "ĠQuá»ĳc": 681,
      "Ġlá»±c": 682,
      "Ġkinh": 683,
      "Ġ\"": 684,
      "Ġchá»§": 685,
      "es": 686,
      "uyá»ĥn": 687,
      "ĠâĢľ": 688,
      "Ġdoanh": 689,
      "áº¡m": 690,
      "Ġbiáº¿t": 691,
      "Ġcáº§u": 692,
      "id": 693,
      "Ġan": 694,
      "Ġlu": 695,
      "ĠmÃł": 696,
      "ĠcÃ¡ch": 697,
      "Æ°á»Ľng": 698,
      "ĠnÃ³": 699,
      "or": 700,
      "Ġlá»Ľ": 701,
      "ĠQu": 702,
      "ĠtoÃłn": 703,
      "ĠphÆ°Æ¡ng": 704,
      "ĠnÄĥng": 705,
      "Ġtin": 706,
      "Ġcon": 707,
      "oáº¡i": 708,
      "Ġtu": 709,
      "ĠCÃ´ng": 710,
      "Æ¡i": 711,
      "Ġgiáº£i": 712,
      "Ġbáº£o": 713,
      "ĠtrÆ°á»Ľc": 714,
      "áº¹": 715,
      "Tr": 716,
      "ĠÄĳi": 717,
      "ĠphÃ²ng": 718,
      "uá»Ļc": 719,
      "Ġbá»ĩnh": 720,
      "áº©m": 721,
      "ĠÃ¡n": 722,
      "Ġkhu": 723,
      "áº»": 724,
      "Ã´n": 725,
      "ºng": 726,
      "Ġsá»Ń": 727,
      "Ġtháº¿": 728,
      "áº¡ch": 729,
      "Th": 730,
      "ĠnhÆ°ng": 731,
      "ĠGi": 732,
      "iá»ĩm": 733,
      "iá»ħn": 734,
      "ĠTrung": 735,
      "Ġquá»ĳc": 736,
      "á»Ń": 737,
      "ĠÄĲá»": 738,
      "Ã²": 739,
      "Ġtáº¡o": 740,
      "..": 741,
      "Ġquáº£": 742,
      "im": 743,
      "Ġvá»ĭ": 744,
      "ĠR": 745,
      "ĠtÃ¢m": 746,
      "Ġhoáº¡t": 747,
      "á»į": 748,
      "Ġ19": 749,
      "ĠtÃ¬nh": 750,
      "áº£nh": 751,
      "ĠlÃªn": 752,
      "ĠbÃ¡o": 753,
      "ĠÄĳÆ°á»Ŀng": 754,
      "Ġnay": 755,
      "Ġ6": 756,
      "Ġgian": 757,
      "Ġso": 758,
      "Ġráº¥t": 759,
      "ĠtáºŃp": 760,
      "ĠphÃ¡p": 761,
      "el": 762,
      "Ġthá»§": 763,
      "ĠÄĳáº¡o": 764,
      "áº¿u": 765,
      "ĠÄĳáº¡i": 766,
      "ua": 767,
      "ĠCh": 768,
      "ĠtiÃªu": 769,
      "Å©": 770,
      "Ġtrá»ĭ": 771,
      "ĠhÃ³": 772,
      "Ġgiao": 773,
      "ĠnÃªn": 774,
      "á»ĳi": 775,
      "Ġgiá»¯": 776,
      "Ãªu": 777,
      "ĠhÃ³a": 778,
      "ĠkhÃ³": 779,
      "ĠkhÃ¡c": 780,
      "ĠHÃł": 781,
      "Ġquyáº¿t": 782,
      "Ġlá»Ľn": 783,
      "ĠBá»Ļ": 784,
      "ĠtÃ´i": 785,
      "Ġxe": 786,
      "«a": 787,
      "Ġtá»¥c": 788,
      "Ġtá»±": 789,
      "Ġpháº§n": 790,
      "Ġbáº£n": 791,
      "Ng": 792,
      "Ġkhai": 793,
      "á»¹": 794,
      "ĠÄĳá»ķ": 795,
      "Ġhiá»ĩu": 796,
      "ĠthÃ¬": 797,
      "ĠX": 798,
      "Ġtá»·": 799,
      "),": 800,
      "Ġgiá»Ľi": 801,
      "Ġthá»ĳng": 802,
      "ĠliÃªn": 803,
      "Ġcuá»Ļc": 804,
      "Äĥm": 805,
      "ĠTP": 806,
      "ĠmÃ¬nh": 807,
      "Ġvá»±c": 808,
      "áº¯ng": 809,
      "Ġdá»±ng": 810,
      "Ġtiá»ģn": 811,
      "Ġgiáº£m": 812,
      "Ġtá»Ľi": 813,
      "ĠtÃłi": 814,
      "ĠF": 815,
      "ĠChá»": 816,
      "Ġsá»Ł": 817,
      "Ġcáº§n": 818,
      "Ġtrung": 819,
      "Ã¡y": 820,
      "iÃªm": 821,
      "ĠI": 822,
      "£i": 823,
      "Ġphá»ĳ": 824,
      "Ġtham": 825,
      "at": 826,
      "Ġváº«n": 827,
      "ĠÃ": 828,
      "Ġná»": 829,
      "ĠphÃŃ": 830,
      "Ġhuyá»ĩn": 831,
      "Ġmáº¡nh": 832,
      "Ġtriá»ĩu": 833,
      "Ġtrá»įng": 834,
      "Ġthi": 835,
      "ĠÄĳÃ¢y": 836,
      "is": 837,
      "Æ°u": 838,
      "uyá»ħn": 839,
      "Ãºc": 840,
      "³ng": 841,
      "iáº¿u": 842,
      "Ġpháº©m": 843,
      "Ġtrá»Ł": 844,
      "Ã²ng": 845,
      "Ġthá»©c": 846,
      "Ġhá»ĩ": 847,
      "202": 848,
      "ĠtÃŃnh": 849,
      "Ġtrá»£": 850,
      "ĠvÃ¬": 851,
      "Ġnhiá»ĩm": 852,
      "Ġ7": 853,
      "ĠxÃ¢y": 854,
      "ĠÄĳá»Ļi": 855,
      "Ġdiá»ħn": 856,
      "Ġhai": 857,
      "Ġná»¯": 858,
      "et": 859,
      "ĠNguyá»ħn": 860,
      "¢u": 861,
      "ĠtÃŃch": 862,
      "áº¡c": 863,
      "uyáº¿n": 864,
      "ĠChÃŃ": 865,
      "ĠÄĳá»ķi": 866,
      "Ġchuyá»ĥn": 867,
      "Ġcá»©": 868,
      "ĠÃ½": 869,
      "Ġláº§n": 870,
      "á»ĵn": 871,
      "Ġáº£nh": 872,
      "ĠY": 873,
      "áº©n": 874,
      "ĠÄĳiá»ĩn": 875,
      "ĠthÆ°á»Ŀng": 876,
      "Ġcháº¥t": 877,
      "ĠÄĳáº¥t": 878,
      "ĠnhiÃªn": 879,
      "ND": 880,
      "Ġbáº±ng": 881,
      "ov": 882,
      "Ġty": 883,
      "Ġmáº·t": 884,
      "Ġká»³": 885,
      "ĠÄĳÆ¡n": 886,
      "Ġca": 887,
      "Ġthá»©": 888,
      "ĠnÃ³i": 889,
      "Ġanh": 890,
      "ĠkhÃ¡ch": 891,
      "ĠbÃłn": 892,
      "us": 893,
      "Ġráº±ng": 894,
      "Ġtra": 895,
      "ºc": 896,
      "ĠÄĳoÃłn": 897,
      "Ġbáº¡n": 898,
      "Ã©t": 899,
      "it": 900,
      "Ġá»©ng": 901,
      "Ĺi": 902,
      "ĠsÃ¡ch": 903,
      "ĠthÆ°Æ¡ng": 904,
      "áº¯n": 905,
      "ĠtrÆ°á»Łng": 906,
      "ĠÄĳáº¥u": 907,
      ").": 908,
      "ic": 909,
      "ĠlÃ£": 910,
      "Ã¡m": 911,
      "uá»ĵn": 912,
      "Ġchiáº¿n": 913,
      "Ãµ": 914,
      "Ġ8": 915,
      "Ġtá»ĳt": 916,
      "ĠÄĳo": 917,
      "Ġsá»ĳng": 918,
      "ĠKh": 919,
      "Ġmá»©c": 920,
      "Ãºp": 921,
      "ĠbÃ¡n": 922,
      "Ġcháº¿": 923,
      "ol": 924,
      "Ġ10": 925,
      "ĠtiÃªn": 926,
      "Ġnghá»ĭ": 927,
      "Ġkiá»ĥm": 928,
      "Ġtuá»ķi": 929,
      "ĠNá»Ļi": 930,
      "Ã¢u": 931,
      "áºŃu": 932,
      "ĠchÆ°a": 933,
      "Ġban": 934,
      "000": 935,
      "Ġkiáº¿n": 936,
      "Ġtháº¥y": 937,
      "Ġbiá»ĩt": 938,
      "áº¢": 939,
      "ĠvÄĥn": 940,
      "ĠE": 941,
      "Ġ9": 942,
      "ĠyÃªu": 943,
      "Ġnhá»": 944,
      "«ng": 945,
      "ĠhoÃłn": 946,
      "ĠÄĳáº¡t": 947,
      "Ġquyá»ģn": 948,
      "Ġthuá»Ļc": 949,
      "ĠMá»¹": 950,
      "Theo": 951,
      "Ġthiáº¿t": 952,
      "Ã³ng": 953,
      "Ġchá»ĳng": 954,
      "Ġgáº§n": 955,
      "ĠsÄ©": 956,
      "Ġdiá»ĩn": 957,
      "Ġcá»Ń": 958,
      "ĠgiÃºp": 959,
      "Ġhá»ĵ": 960,
      "ĠVÄĥn": 961,
      "as": 962,
      "Ġhá»Ĺ": 963,
      "Ġphá»¥c": 964,
      "Ġvi": 965,
      "Ġlá»ĭch": 966,
      "Ġkhoáº£ng": 967,
      "ĠPhÃ": 968,
      "om": 969,
      "Ġtruyá»ģn": 970,
      "Ġbiáº¿n": 971,
      "ac": 972,
      "ĠhÆ°á»Ľng": 973,
      "ĠláºŃp": 974,
      "Ġchu": 975,
      "áº¢nh": 976,
      "Ġtá»ĭ": 977,
      "áº±m": 978,
      "ıi": 979,
      "ĠAnh": 980,
      "ĠváºŃt": 981,
      "Ġcáº£nh": 982,
      "ĠgÃ³": 983,
      "Ġloáº¡i": 984,
      "ĠsÃ¡t": 985,
      "áº§m": 986,
      "áºŃy": 987,
      "ĠngÃłnh": 988,
      "Ġtá»ĭch": 989,
      "§y": 990,
      "ĠquÃ¡": 991,
      "ĠchÃºng": 992,
      "Ġnghá»ĩ": 993,
      "Ġbiá»ĥu": 994,
      "Ġkáº¿": 995,
      "Ġhoáº·c": 996,
      "ĠÄĳáº£m": 997,
      "ĠquÃ¢n": 998,
      "Ġhoáº¡ch": 999,
      "Ġdáº«n": 1000,
      "ĠÄĳÆ°a": 1001,
      "ĠBÃ¬nh": 1002,
      "Ġbáº¥t": 1003,
      "ĠtrÃŃ": 1004,
      "uá»ĳi": 1005,
      "ĠcÃ´": 1006,
      "ĠÄĳÃ¬nh": 1007,
      "ĠÄĳÃ¡nh": 1008,
      "Ġbá»ĳ": 1009,
      "ĠsÃ¡ng": 1010,
      "il": 1011,
      "ĠTá»ķ": 1012,
      "ªm": 1013,
      "Ä©nh": 1014,
      "Ġtráº»": 1015,
      "ĠW": 1016,
      "Ġsá»©c": 1017,
      "ĠÄĥn": 1018,
      "ĠÄĳáº·c": 1019,
      "Ġtrá»±c": 1020,
      "Ġngá»": 1021,
      "Ġcá»©u": 1022,
      "á»Ļng": 1023,
      "ĠgiÃ¡o": 1024,
      "ĠmÃ¡y": 1025,
      "Ġem": 1026,
      "Ġhay": 1027,
      "ĠtÆ°á»£ng": 1028,
      "Ġlá»£i": 1029,
      "Æ°ng": 1030,
      "Ġvá»«a": 1031,
      "ĠthÃªm": 1032,
      "¯ng": 1033,
      "Ġbáº¯t": 1034,
      "ĠÄĳÃ´": 1035,
      "Ġtrang": 1036,
      "Ġmua": 1037,
      "ĠAn": 1038,
      "áº·ng": 1039,
      "ĠnháºŃp": 1040,
      "ĠChÃŃnh": 1041,
      "ĠcÃ¡o": 1042,
      "ĠÄĳá»ģu": 1043,
      "Ġchi": 1044,
      "Ġnguá»ĵn": 1045,
      "ĠJ": 1046,
      "Ġháº¡n": 1047,
      "Ġváº¥n": 1048,
      "ĠvÃ¹ng": 1049,
      "Ġquáº£n": 1050,
      "ĠváºŃn": 1051,
      "ĠChá»§": 1052,
      "Æ°á»Ľi": 1053,
      "ĠMinh": 1054,
      "Ġnghiá»ĩm": 1055,
      "Ġtá»ķng": 1056,
      "uá»ĳng": 1057,
      "Ġvá»ĩ": 1058,
      "Ġphá»§": 1059,
      "ro": 1060,
      "BND": 1061,
      "Ġkhiáº¿n": 1062,
      "ĠtráºŃn": 1063,
      "Ġchá»ĭ": 1064,
      "ĠnÃło": 1065,
      "ĠngoÃłi": 1066,
      "ĠbÃ¬nh": 1067,
      "Ġliá»ĩu": 1068,
      "Ġkiá»ĩn": 1069,
      "ĠphÃ¢n": 1070,
      "Ġpháº¡m": 1071,
      "Ġcáº£m": 1072,
      "áº·p": 1073,
      "âĢ¦": 1074,
      "Ġchiáº¿": 1075,
      "ĠBan": 1076,
      "áº³ng": 1077,
      "uá»ĳn": 1078,
      "ovid": 1079,
      "Ġtá»Ń": 1080,
      "ĠcÃ¡": 1081,
      "Ġviá»ĩn": 1082,
      "Ġtá»«ng": 1083,
      "Ġtiáº¿n": 1084,
      "Ġlo": 1085,
      "Ġhuy": 1086,
      "ĠkhÃŃ": 1087,
      "Ġdu": 1088,
      "ĠgÃ¢y": 1089,
      "ĠnÆ¡i": 1090,
      "ºt": 1091,
      "ĠThanh": 1092,
      "...": 1093,
      "Ġgiá»¯a": 1094,
      "ĠCovid": 1095,
      "Ġmang": 1096,
      "Ġ2022": 1097,
      "ĠTrong": 1098,
      "ĠchuyÃªn": 1099,
      "ĠnghÄ©": 1100,
      "á»ĵm": 1101,
      "á»ĵi": 1102,
      "ĠkhÄĥn": 1103,
      "Æ°á»£t": 1104,
      "Ġgiá»Ŀ": 1105,
      "Ġkhoa": 1106,
      "Ġcá»ķ": 1107,
      "Ġmá»¥c": 1108,
      "Trong": 1109,
      "ĠthÃŃ": 1110,
      "ĠO": 1111,
      "Ġchá»©ng": 1112,
      "Ġná»Ļi": 1113,
      "ĠxÃ©t": 1114,
      "ĠhÆ°á»Łng": 1115,
      "Ãłu": 1116,
      "Ġchia": 1117,
      "Ġchung": 1118,
      "įn": 1119,
      "Ã¢ng": 1120,
      "ĠhÃ´": 1121,
      "ĠUBND": 1122,
      "Ã²a": 1123,
      "Ġ12": 1124,
      "ĠmÃ´": 1125,
      "ĠváºŃy": 1126,
      "áº£y": 1127,
      "Ġxá»Ń": 1128,
      "Ġgá»ĵm": 1129,
      "áº©u": 1130,
      "Ġcung": 1131,
      "ĠbÃł": 1132,
      "Ġ201": 1133,
      "Ã¬m": 1134,
      "ĠthÃ¢n": 1135,
      "ĠdÃ¹ng": 1136,
      "Ġcá»Ļ": 1137,
      "ĠluáºŃt": 1138,
      "ĠÄĳoáº¡n": 1139,
      "Ġto": 1140,
      "Ġrá»": 1141,
      "un": 1142,
      "CM": 1143,
      "ĠHá»Ļi": 1144,
      "©p": 1145,
      "ĠÃŃ": 1146,
      "ĳn": 1147,
      "Ã³m": 1148,
      "Ġghi": 1149,
      "ĠBáº¯c": 1150,
      "Ġbao": 1151,
      "ĠnguyÃªn": 1152,
      "Ġphá»¥": 1153,
      "áº©y": 1154,
      "ĠÄĲáº¡i": 1155,
      "ĠTá»": 1156,
      "oÃłng": 1157,
      "ĠdÃłi": 1158,
      "ĠchÆ°Æ¡ng": 1159,
      "Ġnhau": 1160,
      "Ġlao": 1161,
      "ĠtÃ¬m": 1162,
      "ĠbÃªn": 1163,
      "oa": 1164,
      "áº§y": 1165,
      "ĠgÃ³p": 1166,
      "ĠxÃ¡c": 1167,
      "Ġmáº¡ng": 1168,
      "Ġkháº©u": 1169,
      "á»Łi": 1170,
      "Ġáº¢nh": 1171,
      "ur": 1172,
      "ĠbÃ³ng": 1173,
      "ĠÄĳá»ĳ": 1174,
      "ĠThÃłnh": 1175,
      "Ġta": 1176,
      "ĠkÃ½": 1177,
      "Ġmá»Ł": 1178,
      "Ġ0": 1179,
      "ag": 1180,
      "Ġthay": 1181,
      "Ġthanh": 1182,
      "ĠloÃłi": 1183,
      "Ġvá»ĳn": 1184,
      "Ġtuyáº¿n": 1185,
      "ĠthuáºŃt": 1186,
      "Ġminh": 1187,
      "Ġcuá»ĳi": 1188,
      "SD": 1189,
      "Ġá»§y": 1190,
      "ID": 1191,
      "tr": 1192,
      "ĠÄĲáº£ng": 1193,
      "ĠÄĳá»§": 1194,
      "áº¹p": 1195,
      "th": 1196,
      "le": 1197,
      "á»ĵng": 1198,
      "á»ĭp": 1199,
      "ĠÄĲá»©c": 1200,
      "Ġ18": 1201,
      "áº¥m": 1202,
      "os": 1203,
      "ĠnÃ¢ng": 1204,
      "Ġtá»Ļ": 1205,
      "Ġ2021": 1206,
      "Ġnhanh": 1207,
      "Ķng": 1208,
      "Ġchuáº©n": 1209,
      "Ġphá»ĳi": 1210,
      "Ġ11": 1211,
      "ĠHáº£i": 1212,
      "ĠlÃ£nh": 1213,
      "Ġcá»ĳ": 1214,
      "iÃªng": 1215,
      "Ġtiáº¿ng": 1216,
      "ĠtÃªn": 1217,
      "Ġmuá»ĳn": 1218,
      "áº½": 1219,
      "Ġcá»±c": 1220,
      "áº¯p": 1221,
      "Ġmá»į": 1222,
      "ad": 1223,
      "ĠtÆ°Æ¡ng": 1224,
      "ĠâĢĵ": 1225,
      "Ġtranh": 1226,
      "Ġ15": 1227,
      "Ġháº¿t": 1228,
      "Ġdanh": 1229,
      "ĠThá»ĭ": 1230,
      "ter": 1231,
      "Ġgáº·p": 1232,
      "ĠCO": 1233,
      "Ã³c": 1234,
      "Ġtay": 1235,
      "ĠmÃ¹": 1236,
      "Ġsáº»": 1237,
      "ĠphÃŃa": 1238,
      "Ġyáº¿u": 1239,
      "áº¯m": 1240,
      "áº«u": 1241,
      "ĠÄĳáº©y": 1242,
      "ĠthÆ°": 1243,
      "Ġcá»Ļng": 1244,
      "ĠnÃ´ng": 1245,
      "Ġtiáº¿t": 1246,
      "á»³": 1247,
      "Ġbiá»ĥn": 1248,
      "Ġ'": 1249,
      "ĠsoÃ¡t": 1250,
      "Ġchá»įn": 1251,
      "Ġphong": 1252,
      "ĠtÆ°á»Ľng": 1253,
      "Ġtuyá»ĥn": 1254,
      "ĠChÃ": 1255,
      "ĠnhÃ³m": 1256,
      "Ġmá»įi": 1257,
      "ĠUSD": 1258,
      "Ġkháº£": 1259,
      "Ġmá»Ĺi": 1260,
      "ĠngÃ¢n": 1261,
      "\".": 1262,
      "Ch": 1263,
      "VID": 1264,
      "Nh": 1265,
      "ĠÃ¡p": 1266,
      "Ġmáº¹": 1267,
      "ĠTá»ķng": 1268,
      "á»Ľi": 1269,
      "ing": 1270,
      "ĠCOVID": 1271,
      "Ġgá»į": 1272,
      "Ġbá»Łi": 1273,
      "ĠÄĳáº·t": 1274,
      "Ġdá»¥c": 1275,
      "Ġcáº¡nh": 1276,
      "Ġbá»ı": 1277,
      "áº¡y": 1278,
      "ĠPhÃ³": 1279,
      "Ġnhu": 1280,
      "ed": 1281,
      "ĠSÆ¡n": 1282,
      "10": 1283,
      "um": 1284,
      "ĠTuy": 1285,
      "Ġlá»ĩ": 1286,
      "ĠÄĲá»ĵng": 1287,
      "ĠNhÃł": 1288,
      "Ġbay": 1289,
      "CÃ¡c": 1290,
      "Ġsáº¯c": 1291,
      "ĠrÃµ": 1292,
      "ine": 1293,
      "ot": 1294,
      "Ġtinh": 1295,
      "Æ°á»¡": 1296,
      "ĠgÃ¬": 1297,
      "ĠÄĲÃ´ng": 1298,
      "âĢĿ.": 1299,
      "ĠNga": 1300,
      "Ġrá»Ļng": 1301,
      "Ġnháº±m": 1302,
      "ĠÄĳÃ³ng": 1303,
      "iá»ĩp": 1304,
      "HCM": 1305,
      "uá»ķi": 1306,
      "á»įc": 1307,
      "ĠháºŃu": 1308,
      "Ġhá»ĵi": 1309,
      "Ġlá»Ŀi": 1310,
      "ĠDÆ°Æ¡ng": 1311,
      "uÃ¢n": 1312,
      "ĠlÆ°u": 1313,
      "ĠÄĳÄĥng": 1314,
      "ĠtiÃªm": 1315,
      "Ġdung": 1316,
      "Ġhoa": 1317,
      "Ġgiáº£": 1318,
      "ĠÄĳá»ĳc": 1319,
      "ĠÄĳáº¹p": 1320,
      "áºŃm": 1321,
      "ĠluÃ´n": 1322,
      "ĠsÃ¢n": 1323,
      "Ġtráº¡ng": 1324,
      "Ġcá»Ńa": 1325,
      "Ġnáº¿u": 1326,
      "ĠNghá»": 1327,
      "âĢĿ,": 1328,
      "and": 1329,
      "ĠHá»ĵ": 1330,
      "ĠThá»§": 1331,
      "Ã¨": 1332,
      "ĠTÃ¢y": 1333,
      "Ġnhá»ı": 1334,
      "Thá»": 1335,
      "Æ°á»¡ng": 1336,
      "Ġ200": 1337,
      "ĠÄĳá»Ŀi": 1338,
      "Ġsuáº¥t": 1339,
      "ĠThÃ¡i": 1340,
      "Ġká»ĥ": 1341,
      "ĠthÃ´": 1342,
      "Ġxem": 1343,
      "ne": 1344,
      "ĠcÃ¡n": 1345,
      "Ġ30": 1346,
      "ĠÄĳÃ¡": 1347,
      "Ġphim": 1348,
      "ĠkÃ©": 1349,
      "ĠmÃ¹a": 1350,
      "ĠÄĳá»ĵ": 1351,
      "Ġmáº¯c": 1352,
      "ĠCÃ¡c": 1353,
      "¯u": 1354,
      "ĠnghÄ©a": 1355,
      "ĠlÃºc": 1356,
      "Ġgá»įi": 1357,
      "ıa": 1358,
      "ae": 1359,
      "ĠHoÃłng": 1360,
      "Ġná»ģn": 1361,
      "ĠkÃŃ": 1362,
      "\",": 1363,
      "Ġtháº§n": 1364,
      "Ġtuáº§n": 1365,
      "há»¯ng": 1366,
      "iá»ħ": 1367,
      "Ã¡u": 1368,
      "Ġbá»ķ": 1369,
      "op": 1370,
      "¢y": 1371,
      "Ġsang": 1372,
      "Ġngay": 1373,
      "Ġká»¹": 1374,
      "li": 1375,
      "Ġtháº¯ng": 1376,
      "ĠdÃ¹": 1377,
      "ĠtrÃ²": 1378,
      "Ġtá»ĳi": 1379,
      "Ġsao": 1380,
      "ĠcÃ¢y": 1381,
      "ĠvÃłng": 1382,
      "ĠchÆ¡i": 1383,
      "ĠSá»Ł": 1384,
      "ĠthÃŃch": 1385,
      "ĠbÃłi": 1386,
      "ĠcÆ°á»Ŀng": 1387,
      "Ġhá»¯u": 1388,
      "ĠtrÃ¡ch": 1389,
      "ĠdÆ°á»Ľi": 1390,
      "ĠGiang": 1391,
      "Ġvai": 1392,
      "ĠLong": 1393,
      "ĠvÃ´": 1394,
      "ap": 1395,
      "ĠkhÃ": 1396,
      "ĠluáºŃn": 1397,
      "áº¡p": 1398,
      "Ġmáº¥t": 1399,
      "Ġmáº«u": 1400,
      "ĠphÃ©p": 1401,
      "ĠÄĳÃºng": 1402,
      "ĠtrÃ¡i": 1403,
      "Ġchiáº¿c": 1404,
      "ĠquáºŃn": 1405,
      "Ġdi": 1406,
      "¦y": 1407,
      "ıe": 1408,
      "Ġkhá»ıe": 1409,
      "Ġxáº£y": 1410,
      "ĠvÃ²ng": 1411,
      "ĠlÄ©nh": 1412,
      "ĠÄĳa": 1413,
      "Ġthiá»ĩn": 1414,
      "ĠcÃłng": 1415,
      "Ġcá»¥": 1416,
      "Ġphiáº¿u": 1417,
      "ĠLan": 1418,
      "ĠhÃ²": 1419,
      "ĠLÃª": 1420,
      "ĠQuáº£ng": 1421,
      "Ġláº¥y": 1422,
      "Ġtáº£i": 1423,
      "ĠÃŃt": 1424,
      "Łi": 1425,
      "Ġná»ķi": 1426,
      "Ġtráº£": 1427,
      "Ġkhoáº£n": 1428,
      "ĠcÆ°": 1429,
      "ĠHÃ²a": 1430,
      "áº¿p": 1431,
      "ak": 1432,
      "ĠnghiÃªn": 1433,
      "Ġ16": 1434,
      "ĠCá»": 1435,
      "Ġgiai": 1436,
      "Ġdáº§u": 1437,
      "ĠnghÃ": 1438,
      "ĠriÃªng": 1439,
      "ĠTráº§n": 1440,
      "ĠÃģ": 1441,
      "Ġchiá»ģu": 1442,
      "ĠÄĳÃ¡ng": 1443,
      "2021": 1444,
      "Ġmáº¯t": 1445,
      "iá»ħm": 1446,
      "Ġ2023": 1447,
      "ĠphiÃªn": 1448,
      "ĠmÆ°a": 1449,
      "Ph": 1450,
      "TT": 1451,
      "Ġnguy": 1452,
      "©a": 1453,
      "ĠtuyÃªn": 1454,
      "ĠgiÃ¡m": 1455,
      "ĠchÃ¢u": 1456,
      "Ġá»¦y": 1457,
      "Ġvá»įng": 1458,
      "Ãªm": 1459,
      "up": 1460,
      "ĠmÃ´i": 1461,
      "iáº¿m": 1462,
      "įc": 1463,
      "Ġ14": 1464,
      "ĠthÃºc": 1465,
      "Ġká»·": 1466,
      "ĠtÃłu": 1467,
      "Ġtáº¥t": 1468,
      "Ġly": 1469,
      "Ġtrao": 1470,
      "ĠÆ°Æ¡ng": 1471,
      "ĠchÃº": 1472,
      "ir": 1473,
      "Ġtháº¥p": 1474,
      "Ġxuá»ĳng": 1475,
      "Ãºt": 1476,
      "Ġrá»ĵi": 1477,
      "ĠhÃ´m": 1478,
      "2022": 1479,
      "Ġtáº¥n": 1480,
      "ĠthuáºŃn": 1481,
      "uáº¥n": 1482,
      "ĠtrÃ¬": 1483,
      "ĠsÆ¡": 1484,
      "ĠphÃ¹": 1485,
      "Ġ13": 1486,
      "ĠÄĳÃ´ng": 1487,
      "Ġchuyá»ĩn": 1488,
      "ĠThu": 1489,
      "ĠTrÆ°á»Ŀng": 1490,
      "ĠÄĳáº§y": 1491,
      "Ġthiáº¿u": 1492,
      "12": 1493,
      "Ġlá»ħ": 1494,
      "uyáº¿t": 1495,
      "Ġnhiá»ħm": 1496,
      "á»±a": 1497,
      "Ġmáº¡i": 1498,
      "hÃ¢n": 1499,
      "ĠLiÃªn": 1500,
      "Ġduy": 1501,
      "ĠhÃ²a": 1502,
      "11": 1503,
      "NgÃły": 1504,
      "Ġná»¯a": 1505,
      "Ġba": 1506,
      "Ġá»ķ": 1507,
      "ĠSau": 1508,
      "Ġtáº£": 1509,
      "Ġchá»ĵng": 1510,
      "ĠÄĳáº£o": 1511,
      "Äĳ": 1512,
      "Ġlá»Ľp": 1513,
      "Ġtiá»ĩn": 1514,
      "ĠmÃłu": 1515,
      "Ġkhá»Łi": 1516,
      "Ã£i": 1517,
      "ĠnghiÃªm": 1518,
      "ĠHoa": 1519,
      "Ġlá»Ļ": 1520,
      "ĠphÆ°á»Ŀng": 1521,
      "Ġnam": 1522,
      "ĠcÃ¢u": 1523,
      "ĠvÆ°á»£t": 1524,
      "ĠtrÃº": 1525,
      "ĠmÃ´n": 1526,
      "Ġ17": 1527,
      "ĠÃ´": 1528,
      "Ġchá»¯": 1529,
      "ig": 1530,
      "Ġnáº¡n": 1531,
      "ĠNháºŃt": 1532,
      "Ã²n": 1533,
      "ĠniÃªn": 1534,
      "ĠPhÃº": 1535,
      "iá»ģm": 1536,
      "ra": 1537,
      "ĠLu": 1538,
      "Ľm": 1539,
      "Ã£n": 1540,
      "ĠtÆ°á»Łng": 1541,
      "Ġpháº£n": 1542,
      "ĠtoÃ¡n": 1543,
      "Ġgá»": 1544,
      "ĠNinh": 1545,
      "ĠquÃ½": 1546,
      "Ġvá»£": 1547,
      "ĠBá»": 1548,
      "od": 1549,
      "ĠnhÃ¬": 1550,
      "ĠIn": 1551,
      "Sau": 1552,
      "uÃ´i": 1553,
      "Ġngoáº¡i": 1554,
      "ĠgÃ¡i": 1555,
      "uyá»ĩt": 1556,
      "Ġkhá»ıi": 1557,
      "ĠbÆ°á»Ľc": 1558,
      "Ġthuá»ĳc": 1559,
      "ok": 1560,
      "Ġhá»įp": 1561,
      "Ġdá»ħ": 1562,
      "Ġf": 1563,
      "Ġsá»Ľm": 1564,
      "30": 1565,
      "áº§ng": 1566,
      "á»ĩ": 1567,
      "ĠchÃ¢n": 1568,
      "ĠcÃ¡i": 1569,
      "á»Ńi": 1570,
      "ÃĶng": 1571,
      "ĠÄĳá»Ļc": 1572,
      "Ġhiá»ĥm": 1573,
      "Ġhá»ıi": 1574,
      "Ġcáº£i": 1575,
      "ĠKá»³": 1576,
      "Ġháº¡": 1577,
      "ex": 1578,
      "ĠÄĳÃªm": 1579,
      "Ġtháº£o": 1580,
      "ĠxuyÃªn": 1581,
      "ui": 1582,
      "ĠNghá»ĭ": 1583,
      "ĠcÄĥn": 1584,
      "ĠTheo": 1585,
      "Ġbuá»ķi": 1586,
      "Ġchá»īnh": 1587,
      "ĠXuÃ¢n": 1588,
      "ĠthÃ´n": 1589,
      "ĠxÃºc": 1590,
      "Ġxanh": 1591,
      "Ġgá»Ńi": 1592,
      "ul": 1593,
      "ĠNgá»įc": 1594,
      "Ġtáº§ng": 1595,
      "ĠphÃ¡": 1596,
      "ĠÃ¢m": 1597,
      "ĠlÃ²ng": 1598,
      "ĠtÃŃn": 1599,
      "ĠGiÃ¡m": 1600,
      "Ġtá»ĳc": 1601,
      "Ġvá»¯ng": 1602,
      "Ġxin": 1603,
      "Ġháº¡ng": 1604,
      "Ġnháº¡c": 1605,
      "ĠbÃ©": 1606,
      "ĠDo": 1607,
      "ĠbiÃªn": 1608,
      "re": 1609,
      "ion": 1610,
      "Gi": 1611,
      "ĠnhÃ¬n": 1612,
      "oi": 1613,
      "Ãºi": 1614,
      "Ãłm": 1615,
      "ĠBÃŃ": 1616,
      "ĠBáº£n": 1617,
      "âĢľ": 1618,
      "Ġná»ĳi": 1619,
      "ent": 1620,
      "Ġ25": 1621,
      "Ġ100": 1622,
      "Ġhiá»ĥu": 1623,
      "Ġtho": 1624,
      "§ng": 1625,
      "Ġá»ķn": 1626,
      "á»Ńa": 1627,
      "ĠhÃºt": 1628,
      "ut": 1629,
      "ĠÄĳá»©ng": 1630,
      "Ġnáº±m": 1631,
      "Ġmiá»ģn": 1632,
      "Táº¡i": 1633,
      "ĠTÃ¢n": 1634,
      "ĠÆ°u": 1635,
      "ĠdÃłnh": 1636,
      "ĠhÃ£": 1637,
      "Ġká»ĭp": 1638,
      "ĠÃĤ": 1639,
      "Ġcháº¥p": 1640,
      "ĠchÄĥm": 1641,
      "ĠkÃª": 1642,
      "Ġbiá»ĩn": 1643,
      "Chá»": 1644,
      "ĠLe": 1645,
      "rai": 1646,
      "ĠdÆ°á»¡ng": 1647,
      "ĠsÃ¢u": 1648,
      "ĵn": 1649,
      "ue": 1650,
      "ĠÄĲÃ¢y": 1651,
      "Ġ24": 1652,
      "ĠÄĳÃ¡p": 1653,
      "ĠkhÃ¡": 1654,
      "Ġtá»Ļc": 1655,
      "á»ĭnh": 1656,
      "Ġnáº·ng": 1657,
      "ĠHu": 1658,
      "á»Ĺi": 1659,
      "Ġtáº·ng": 1660,
      "á»ģ": 1661,
      "ĠÄĲiá»ģu": 1662,
      "ĠChÃ¢u": 1663,
      "ow": 1664,
      "á»¥": 1665,
      "Ġáº¥y": 1666,
      "iv": 1667,
      "Ġchiáº¿m": 1668,
      "TrÆ°á»Ľc": 1669,
      "Ã³n": 1670,
      "te": 1671,
      "Ġthuáº¿": 1672,
      "Má»Ļt": 1673,
      "Ġchá»ĭu": 1674,
      "ĠPhÃ²ng": 1675,
      "ĠkÃ©o": 1676,
      "ĠNguyÃªn": 1677,
      "Ġnghá»ī": 1678,
      "ĠPhÃ¡p": 1679,
      "ĠtÃ´": 1680,
      "ĠChá»ī": 1681,
      "ĠnuÃ´i": 1682,
      "Ġ2020": 1683,
      "ĠthÃ¡i": 1684,
      "ie": 1685,
      "ĠPháº¡m": 1686,
      "Ġtá»Ļi": 1687,
      "krai": 1688,
      "ĠÄĳÃło": 1689,
      "Ġxáº¿p": 1690,
      "Ġnghá»ģ": 1691,
      "Ġai": 1692,
      "Ġmong": 1693,
      "ĠthÆ°á»Łng": 1694,
      "Ġ199": 1695,
      "Ġxa": 1696,
      "av": 1697,
      "ph": 1698,
      "Ġtáº¡m": 1699,
      "ab": 1700,
      "ĠphÃª": 1701,
      "ĠQuang": 1702,
      "ĠThÆ°á»Ŀng": 1703,
      "Tá»": 1704,
      "ĠÄĳÃ´i": 1705,
      "Ġnhiá»ĩt": 1706,
      "Ġháº¡i": 1707,
      "acc": 1708,
      "Ġphá»ķ": 1709,
      "Ã³a": 1710,
      "Ġninh": 1711,
      "ĠÄĳÃłn": 1712,
      "ĠTH": 1713,
      "ik": 1714,
      "ĠBá»ĩnh": 1715,
      "Ġsung": 1716,
      "Ġtrai": 1717,
      "Ġ22": 1718,
      "Ġvui": 1719,
      "Ã£o": 1720,
      "Ġpháº¡t": 1721,
      "Ġ50": 1722,
      "ĠlÃ£i": 1723,
      "ĠLoÃłi": 1724,
      "kraine": 1725,
      "ĠcáºŃn": 1726,
      "ĠtháºŃt": 1727,
      "ĠphÃºt": 1728,
      "Ġbáº§u": 1729,
      "Ġ23": 1730,
      "ĠÄĲoÃłn": 1731,
      "accine": 1732,
      "Ġluyá»ĩn": 1733,
      "Ġtráº£i": 1734,
      "oc": 1735,
      "ĠlÆ°á»£t": 1736,
      "Ġ21": 1737,
      "¨o": 1738,
      "Ġthoáº¡i": 1739,
      "ĠlÃ¢u": 1740,
      "LV": 1741,
      "Ġviáº¿t": 1742,
      "ĠÄĳÃ³n": 1743,
      "ĠdÆ°Æ¡ng": 1744,
      "Ġcháº¡y": 1745,
      "ĠthÄĥm": 1746,
      "50": 1747,
      "Ġthá»§y": 1748,
      "ĠTáº¿t": 1749,
      "iet": 1750,
      "Ġkháº³ng": 1751,
      "ĠsÃ´ng": 1752,
      "ÄĲá»": 1753,
      "Ġtháº©m": 1754,
      "ĠvÅ©": 1755,
      "©t": 1756,
      "PT": 1757,
      "Ġvaccine": 1758,
      "ĠUkraine": 1759,
      "ĠZ": 1760,
      "Ġtháº¥t": 1761,
      "ĠHá»ĵng": 1762,
      "ĠÄĲÃł": 1763,
      "ĠdÃ²ng": 1764,
      "ĠLá»": 1765,
      "Ġbáº£ng": 1766,
      "Ġtrá»ĵng": 1767,
      "Ġgiáº¥y": 1768,
      "ĠTá»īnh": 1769,
      "ĠHÃłn": 1770,
      "2023": 1771,
      "ĠÃĤu": 1772,
      "ĠPhi": 1773,
      "Ġgiá»ĳng": 1774,
      "áº·n": 1775,
      "£t": 1776,
      "Ġvay": 1777,
      "ĠngÃ´i": 1778,
      "ĠvÃłi": 1779,
      "Ġlá»±a": 1780,
      "eb": 1781,
      "ĠtÃ¡i": 1782,
      "Ġdáº¡ng": 1783,
      "Ġdáº¥u": 1784,
      "á»ĳng": 1785,
      "Ġgáº¯n": 1786,
      "Ġná»Ĺ": 1787,
      "ĠYÃªn": 1788,
      "ĠtrÃ¡nh": 1789,
      "Ġkháº¯c": 1790,
      "ĠÃĶng": 1791,
      "µn": 1792,
      "ĠphÃ³ng": 1793,
      "ec": 1794,
      "ĠLuáºŃt": 1795,
      "ĠthÃ¡c": 1796,
      "II": 1797,
      "idae": 1798,
      "ard": 1799,
      "ĠbÃ¡c": 1800,
      "ĠÃ¡o": 1801,
      "Ġvong": 1802,
      "ĠMá»Ļt": 1803,
      "Å©i": 1804,
      "ĠcáºŃp": 1805,
      "Ġtai": 1806,
      "ĠgiÃłnh": 1807,
      "Ġchá»¯a": 1808,
      "¬n": 1809,
      "Ġthao": 1810,
      "ĠkhÃ¡m": 1811,
      "Ġmá»ĳi": 1812,
      "ĠcÃ¡nh": 1813,
      "Ġkiáº¿m": 1814,
      "18": 1815,
      "est": 1816,
      "Nhá»¯ng": 1817,
      "ĠTá»«": 1818,
      "Ġcam": 1819,
      "ĠCá»¥c": 1820,
      "ĠlÆ°Æ¡ng": 1821,
      "ĠkÃŃch": 1822,
      "ĠchÃ¡y": 1823,
      "Ġngá»Ŀ": 1824,
      "ist": 1825,
      "Ńa": 1826,
      "ob": 1827,
      "ÃŃnh": 1828,
      "ĠBáº£o": 1829,
      "Ġtáº§m": 1830,
      "µng": 1831,
      "Ġsáºµn": 1832,
      "ill": 1833,
      "ĠMar": 1834,
      "Ġda": 1835,
      "ĠsÃłng": 1836,
      "ĠPhÆ°Æ¡ng": 1837,
      "Ġchuyáº¿n": 1838,
      "ĠAr": 1839,
      "áºµng": 1840,
      "Ġláº¡c": 1841,
      "ew": 1842,
      "ĠtrÆ°Æ¡ng": 1843,
      "ĠLÃ¢m": 1844,
      "Ġtá»ī": 1845,
      "Tuy": 1846,
      "ĠquÃ¡n": 1847,
      "ĠKim": 1848,
      "Kh": 1849,
      "ĠNhÃ¢n": 1850,
      "Ġhá»įa": 1851,
      "ĠÃŃch": 1852,
      "Ġuá»ĳng": 1853,
      "Ġxá»": 1854,
      "Ġtáº¡p": 1855,
      "Ãµi": 1856,
      "ĠNáºµng": 1857,
      "ĠÄĳá»ı": 1858,
      "ĠVÅ©": 1859,
      "ĠTÃłi": 1860,
      "Ġbinh": 1861,
      "ĠÄĳá»Ļt": 1862,
      "og": 1863,
      "ĠbÃły": 1864,
      "ĠKhi": 1865,
      "Ġquay": 1866,
      "ĠkhÃ³a": 1867,
      "Vá»Ľi": 1868,
      "¢m": 1869,
      "ĠÄĳáº£ng": 1870,
      "Ġnháº¥n": 1871,
      "Ġtiá»ĥu": 1872,
      "ĠnghÃ¨o": 1873,
      "pp": 1874,
      "23": 1875,
      "Ġ27": 1876,
      "Ġná»£": 1877,
      "ĠlÆ°á»£c": 1878,
      "Ġdá»¯": 1879,
      "ĠChi": 1880,
      "NH": 1881,
      "áº¤": 1882,
      "ub": 1883,
      "Ġcháº·t": 1884,
      "ĵi": 1885,
      "Ġkhá»ĳi": 1886,
      "ĠNhá»¯ng": 1887,
      "ton": 1888,
      "ĠNgÆ°á»Ŀi": 1889,
      "ĠHÄĲ": 1890,
      "Ġloáº¡t": 1891,
      "VN": 1892,
      "Ġniá»ĩm": 1893,
      "ıng": 1894,
      "Ġthá»¥": 1895,
      "Qu": 1896,
      "ĠchÃ³ng": 1897,
      "uá»ĳt": 1898,
      "ĠÄĳá»£t": 1899,
      "Ġlan": 1900,
      "Ġbuá»Ļc": 1901,
      "Ġtá»©c": 1902,
      "ou": 1903,
      "amp": 1904,
      "ĠcÃ¢n": 1905,
      "TV": 1906,
      "ĠsÆ°": 1907,
      "ri": 1908,
      "Ġnhá»Ŀ": 1909,
      "ĠLinh": 1910,
      "ĠmÃ£": 1911,
      "NgoÃłi": 1912,
      "Ġ26": 1913,
      "ld": 1914,
      "%.": 1915,
      "ĠThÆ°Æ¡ng": 1916,
      "Ġdáº¡y": 1917,
      "Ġsai": 1918,
      "ĠnÃ³ng": 1919,
      "ĠsÃ³c": 1920,
      "ĠMai": 1921,
      "Ġsuy": 1922,
      "ĠhÃ¡t": 1923,
      "ĠKhÃ¡nh": 1924,
      "Bá»Ļ": 1925,
      "Ġnháº¹": 1926,
      "Ġsá»Ńa": 1927,
      "Ġtá»ıa": 1928,
      "ÄĲT": 1929,
      "ell": 1930,
      "Ġ28": 1931,
      "Ġcá»¥c": 1932,
      "Ġ31": 1933,
      "Ġcháº¯c": 1934,
      "se": 1935,
      "Ġtráº¥n": 1936,
      "Ã¹i": 1937,
      "ĠxÄĥng": 1938,
      "ĠÆ°á»Ľc": 1939,
      "ĠNgoÃłi": 1940,
      "Ġnguyá»ĩn": 1941,
      "ĠHLV": 1942,
      "ce": 1943,
      "ĠPhá»": 1944,
      "ĠQuÃ¢n": 1945,
      "ĠHÃ³a": 1946,
      "ĠThÃ": 1947,
      "Ġo": 1948,
      "Ġtá»ĵn": 1949,
      "Ġlá»Ńa": 1950,
      "Ġmáº·c": 1951,
      "Ġchá»§ng": 1952,
      "NgÆ°á»Ŀi": 1953,
      "Ġquanh": 1954,
      "Ġáº¥n": 1955,
      "ĠquÃª": 1956,
      "ĠquÃł": 1957,
      "Ġbá»ĳi": 1958,
      "iz": 1959,
      "Ġnghi": 1960,
      "Ġrá»«ng": 1961,
      "ĠtÃº": 1962,
      "ĠhÃ´n": 1963,
      "ĠNhÆ°ng": 1964,
      "Ġbá»ģn": 1965,
      "CÃ´ng": 1966,
      "ĠtÃ¹": 1967,
      "Ġin": 1968,
      "ĠMan": 1969,
      "ĠTrÆ°á»Łng": 1970,
      "Ġlá»ĩnh": 1971,
      "ĠNÄĥm": 1972,
      "ĠthuÃª": 1973,
      "ĠNgÃły": 1974,
      "one": 1975,
      "ĠkhÃ¡n": 1976,
      "Ġtrá»Ŀi": 1977,
      "ĠNáº¿u": 1978,
      "Ġdá»«ng": 1979,
      "ĠBa": 1980,
      "ĠlÃłng": 1981,
      "ĠthiÃªn": 1982,
      "ĠÄĳá»ĭch": 1983,
      "Ġtá»ı": 1984,
      "Ġdá»ĭp": 1985,
      "ĠnÃªu": 1986,
      "ĳt": 1987,
      "ĠmÃ¡u": 1988,
      "ĠCup": 1989,
      "Ġliá»ĩt": 1990,
      "Ġchá»Ĺ": 1991,
      "á»¯a": 1992,
      "ĠAl": 1993,
      "Ġnghe": 1994,
      "ĠTháº¿": 1995,
      "Ġtrá»¥": 1996,
      "ĠmÃłn": 1997,
      ");": 1998,
      "Hiá»ĩn": 1999,
      "Ġthá»Ń": 2000,
      "Ġ198": 2001,
      "ĠmÅ©i": 2002,
      "Ġlai": 2003,
      "ĠDá»±": 2004,
      "Ġxung": 2005,
      "ĠVÃ¬": 2006,
      "Ġcáº¥u": 2007,
      "Ġkhuyáº¿n": 2008,
      "Ġkháº£o": 2009,
      "ĠdÃµi": 2010,
      "ĠngÄĥn": 2011,
      "Ġsong": 2012,
      "ĠÄĳÃŃ": 2013,
      "st": 2014,
      "ank": 2015,
      "ĠGia": 2016,
      "Ġma": 2017,
      "ĠÄĳau": 2018,
      "15": 2019,
      "ĠÄĲá»Ļ": 2020,
      "ĠTÃ´i": 2021,
      "NÄĥm": 2022,
      "Ġcháº¿t": 2023,
      "áº¤n": 2024,
      "ĠPar": 2025,
      "ĠTuáº¥n": 2026,
      "ĠKinh": 2027,
      "ĠsÃ³ng": 2028,
      "ĠsiÃªu": 2029,
      "ĠÄĲÃ¬nh": 2030,
      "Ġ29": 2031,
      "ĠnÃºi": 2032,
      "ĠKhu": 2033,
      "ĠNgÃ¢n": 2034,
      "ĠGiÃ¡o": 2035,
      "ĠmÃ³n": 2036,
      "Ġphá»©c": 2037,
      "ĠcÅ©": 2038,
      "Ġ40": 2039,
      "ĠVÄ©nh": 2040,
      "ĠCÆ¡": 2041,
      "ĠngÅ©": 2042,
      "ĠgiÃ³": 2043,
      "Ġsáº¯p": 2044,
      "ĠRe": 2045,
      "ĠHÆ°ng": 2046,
      "Ġngáº¯n": 2047,
      "Tá»«": 2048,
      "ĠThÃ´ng": 2049,
      "ĠNgh": 2050,
      "Ġcáº¯t": 2051,
      "Ġnhá»Ľ": 2052,
      "ĠrÃºt": 2053,
      "Ġxu": 2054,
      "Ġváº¯c": 2055,
      "ina": 2056,
      "17": 2057,
      "EA": 2058,
      "iáº¿p": 2059,
      "ĠÄĳua": 2060,
      "ĠViet": 2061,
      "CC": 2062,
      "ĠKhÃ´ng": 2063,
      "Ġgá»ĳc": 2064,
      "Ġsuá»ĳt": 2065,
      "Ġmay": 2066,
      "ÄĲá»ĥ": 2067,
      "Ġtáº¯c": 2068,
      "Ġtháº£i": 2069,
      "ĠnháºŃt": 2070,
      "ĠHiá»ĩp": 2071,
      "ĠgiÃ¡c": 2072,
      "Ġdáº§n": 2073,
      "ĠlÃ¡i": 2074,
      "ĠSh": 2075,
      "ĠÄĲá»ĭnh": 2076,
      "ĠTiáº¿n": 2077,
      "Ġnáº¯m": 2078,
      "Ġsáº¡ch": 2079,
      "Vá»ģ": 2080,
      "Ġáº¤n": 2081,
      "ĠtáºŃn": 2082,
      "orld": 2083,
      "Ġbang": 2084,
      "%,": 2085,
      "á»³nh": 2086,
      "Ġmá»Ļ": 2087,
      "ĠkhoÃ¡n": 2088,
      "ĠVá»Ľi": 2089,
      "ĠbáºŃt": 2090,
      "ĠCÃ³": 2091,
      "Ġkm": 2092,
      "ĠTáºŃp": 2093,
      "ĠÃ¡nh": 2094,
      "ĠBiÃªn": 2095,
      "ague": 2096,
      "Ġbá»©c": 2097,
      "ess": 2098,
      "Ġháº¥p": 2099,
      "ĠhÃ£ng": 2100,
      "Ġquen": 2101,
      "az": 2102,
      "ĠÄĳÆ°Æ¡ng": 2103,
      "ĠphÃºc": 2104,
      "Ġchá»©a": 2105,
      "ĠThuáºŃn": 2106,
      "Ġtri": 2107,
      "ĠVÆ°Æ¡ng": 2108,
      "ĠNha": 2109,
      "Ġtháº§u": 2110,
      "Ġtruy": 2111,
      "XH": 2112,
      "Ġháº¡t": 2113,
      "Ġchá»£": 2114,
      "Ġchá»Ŀ": 2115,
      "Khi": 2116,
      "Ġváº»": 2117,
      "Ġá»§ng": 2118,
      "ĠlÃ¡": 2119,
      "BÃªn": 2120,
      "Ġlinh": 2121,
      "Ġhuáº¥n": 2122,
      "ĠNew": 2123,
      "á»ķng": 2124,
      "ĠÄĳÃŃch": 2125,
      "Ġcha": 2126,
      "Ġquáº§n": 2127,
      "ĠtÃ²a": 2128,
      "ĠhÆ°Æ¡ng": 2129,
      "ĠBÃł": 2130,
      "Ġmáº½": 2131,
      "ly": 2132,
      "ĠnghÃ¬n": 2133,
      "Ä©a": 2134,
      "bar": 2135,
      "ĠBr": 2136,
      "ĠmáºŃt": 2137,
      "ĠtÃ´n": 2138,
      "áº¯k": 2139,
      "ian": 2140,
      "ĠPhÃ¡t": 2141,
      "ich": 2142,
      "kg": 2143,
      "TÃ´i": 2144,
      "KhÃ´ng": 2145,
      "ĠHiá»ĩn": 2146,
      "ta": 2147,
      "ĠbÃ¡nh": 2148,
      "ĠbÃło": 2149,
      "NG": 2150,
      "áº¹n": 2151,
      "ĠtrÃło": 2152,
      "ĠthÆ¡": 2153,
      "ĠlÃ¢y": 2154,
      "Ġtháº³ng": 2155,
      "ĠHá»": 2156,
      "Ġcoi": 2157,
      "ĠtháºŃm": 2158,
      "16": 2159,
      "Ġmiá»ħn": 2160,
      "ĠTiÃªn": 2161,
      "Ġcan": 2162,
      "ĠCáº£nh": 2163,
      "don": 2164,
      "Ġ&": 2165,
      "Ġchá»ĳt": 2166,
      "ĠPhÃºc": 2167,
      "ÄĲá»ĵng": 2168,
      "200": 2169,
      "Ġlá»¥c": 2170,
      "ĠThiÃªn": 2171,
      "ĠChÆ°Æ¡ng": 2172,
      "Ġtáº£ng": 2173,
      "Ġngáº¡i": 2174,
      "ĠkhÃ´": 2175,
      "ĠWorld": 2176,
      "ĠPhan": 2177,
      "ĠÄĲÃło": 2178,
      "ĠLÃ½": 2179,
      "ĠcháºŃm": 2180,
      "Ġnháº¯c": 2181,
      "Ġbu": 2182,
      "¥p": 2183,
      "Ãºng": 2184,
      "ĠPhong": 2185,
      "Ġtráº¯ng": 2186,
      "Ġgáº¯ng": 2187,
      "ĠphÃ³": 2188,
      "ord": 2189,
      "ĠLa": 2190,
      "CP": 2191,
      "ĠnhuáºŃn": 2192,
      "Ġgá»¡": 2193,
      "Ġmá»«ng": 2194,
      "if": 2195,
      "ĠBÃ¡o": 2196,
      "Ġthiá»ĩu": 2197,
      "Ġ197": 2198,
      "ĠkÃ¨": 2199,
      "ĠgÃ³i": 2200,
      "ers": 2201,
      "oan": 2202,
      "ĠTPHCM": 2203,
      "Ġduyá»ĩt": 2204,
      "ĠSt": 2205,
      "Ġkim": 2206,
      "Ġkhá»ķ": 2207,
      "Ġthiá»ĩt": 2208,
      "Ãºa": 2209,
      "Æ°á»Ŀn": 2210,
      "ĠpháºŃn": 2211,
      "ry": 2212,
      "Ġkháº©n": 2213,
      "ĠchÃ¡u": 2214,
      "io": 2215,
      "ideo": 2216,
      "art": 2217,
      "Ġthá»«a": 2218,
      "ĠDÃ¢n": 2219,
      "ĠdÃ¢y": 2220,
      "ore": 2221,
      "Ġngá»§": 2222,
      "Ġbáº¡i": 2223,
      "Ġthá»ĭt": 2224,
      "ĠtÃºy": 2225,
      "Ġtiá»ģm": 2226,
      "ĠNghá»ĩ": 2227,
      "ah": 2228,
      "Ġhy": 2229,
      "ens": 2230,
      "á»Ļp": 2231,
      "ĠHÃ¹ng": 2232,
      "ĠhoÃłng": 2233,
      "AR": 2234,
      "ĠthÃ¡ch": 2235,
      "ity": 2236,
      "ĠHÄĲND": 2237,
      "14": 2238,
      "ĠDÅ©ng": 2239,
      "Ġw": 2240,
      "Ġcá»±": 2241,
      "¥t": 2242,
      "ĠTrá»": 2243,
      "Ġháº§u": 2244,
      "Ġniá»ģm": 2245,
      "Ġchuá»Ĺi": 2246,
      "ĠGD": 2247,
      "ĠThe": 2248,
      "Ġliá»ģu": 2249,
      "ChÃ": 2250,
      "á»Ļn": 2251,
      "ran": 2252,
      "Ġbáº¡c": 2253,
      "ĠlÆ°á»Ľi": 2254,
      "ĠChÃºng": 2255,
      "ĠNÃ´ng": 2256,
      "ĠlÅ©": 2257,
      "ĠThá»§y": 2258,
      "Ġcáº§m": 2259,
      "Ġtá»ĩ": 2260,
      "ĠÄĳai": 2261,
      "Ġthiá»ĥu": 2262,
      "22": 2263,
      "ĠViá»ĩc": 2264,
      "Ġnáº¯ng": 2265,
      "ÄĲáº¡i": 2266,
      "Ġquáº£ng": 2267,
      "Ġ60": 2268,
      "ĠViá»ĩn": 2269,
      "ģm": 2270,
      "ĠDu": 2271,
      "Ġhiá»ĩp": 2272,
      "ĠgiÃłu": 2273,
      "ĠgiÃ¡p": 2274,
      "ĠmiÃªu": 2275,
      "LB": 2276,
      "Ġngá»¯": 2277,
      "ĠÄĳoÃ¡n": 2278,
      "Ġtá»Ŀ": 2279,
      "ht": 2280,
      "á»ĭa": 2281,
      "ĠgiÃ£n": 2282,
      "Ġtháº§y": 2283,
      "ĠrÃł": 2284,
      "do": 2285,
      "ĠTrang": 2286,
      "ort": 2287,
      "Ġdá»±a": 2288,
      "ĠkhÃºc": 2289,
      "Ġháº¡nh": 2290,
      "Ġthá»ıa": 2291,
      "ĠÄĳá»¡": 2292,
      "ĠCao": 2293,
      "ĠsÃłn": 2294,
      "Ġcháº¯n": 2295,
      "Æ°Æ¡i": 2296,
      "ĠTÆ°": 2297,
      "ĠPhÆ°á»Ľc": 2298,
      "ĠthoÃ¡t": 2299,
      "ĠCÃ´": 2300,
      "Ġchiáº¿u": 2301,
      "kh": 2302,
      "Ġquá»¹": 2303,
      "įt": 2304,
      "Ġká»ĭch": 2305,
      "ĠÄĲiá»ĩn": 2306,
      "ĠcÃł": 2307,
      "Ġtuyá»ĩt": 2308,
      "ev": 2309,
      "CÃ³": 2310,
      "ĠLÃło": 2311,
      "Ġgiáº£n": 2312,
      "all": 2313,
      "ĠQuáº£n": 2314,
      "Ġcháº·n": 2315,
      "TP": 2316,
      "ĠVÃ¢n": 2317,
      "ĠthÃº": 2318,
      "Ġtrá»¯": 2319,
      "Ġná»ķ": 2320,
      "ĠHÆ°Æ¡ng": 2321,
      "ĠkÃ©m": 2322,
      "Ġrau": 2323,
      "ĠNgoáº¡i": 2324,
      "ĠÄĳá»įc": 2325,
      "ĠmÆ°u": 2326,
      "Chá»§": 2327,
      "Ġru": 2328,
      "ĠCáº§n": 2329,
      "ĠHy": 2330,
      "Ġlá»ĳi": 2331,
      "ĠkÃªnh": 2332,
      "Ġláº¡nh": 2333,
      "ĠcÃº": 2334,
      "âĢĵ": 2335,
      "iáº¿ng": 2336,
      "oh": 2337,
      "Ġháº£i": 2338,
      "ĠÄĲáº¿n": 2339,
      "ĠÄĳÃ¢u": 2340,
      "ĠBÃªn": 2341,
      "CN": 2342,
      "ĠCá»Ļng": 2343,
      "Co": 2344,
      "ĠdÆ°": 2345,
      "ĠrÃ¡c": 2346,
      "qu": 2347,
      "ĠQuyáº¿t": 2348,
      "§i": 2349,
      "Ġngá»«ng": 2350,
      "ĠHuy": 2351,
      "ĠkhÃ¡ng": 2352,
      "45": 2353,
      "Ġhuyáº¿t": 2354,
      "Ġthua": 2355,
      "ber": 2356,
      "ĠÄĳen": 2357,
      "ĠhÆ¡i": 2358,
      "Ġphi": 2359,
      "ĠTáº¡i": 2360,
      "Ġsá»©": 2361,
      "ff": 2362,
      "Nhiá»ģu": 2363,
      "ÄĲá»ĳi": 2364,
      "ĠBH": 2365,
      "13": 2366,
      "Ġkhen": 2367,
      "ĠhÃłi": 2368,
      "Ġná»Ńa": 2369,
      "ĠtháºŃp": 2370,
      "Ġ2019": 2371,
      "ax": 2372,
      "Ġkiá»ĩm": 2373,
      "SN": 2374,
      "ĠTHPT": 2375,
      "ook": 2376,
      "Ġcháº½": 2377,
      "ĠvÃ©": 2378,
      "Ġláº¯ng": 2379,
      "ĠDN": 2380,
      "Ġthá»ķ": 2381,
      "ĠKhoa": 2382,
      "Ġrá»Ŀi": 2383,
      "ĠrÆ¡i": 2384,
      "PhÃ¡t": 2385,
      "ĠÄĲáº·c": 2386,
      "įa": 2387,
      "Ġbá»ĵi": 2388,
      "Ġtim": 2389,
      "ĠhÃ¨": 2390,
      "Ġthuyáº¿t": 2391,
      "ain": 2392,
      "ĠtrÆ°ng": 2393,
      "sk": 2394,
      "ÄĲÃ¢y": 2395,
      "2020": 2396,
      "uc": 2397,
      "Ġláº»": 2398,
      "60": 2399,
      "ĠCLB": 2400,
      "ĠVinh": 2401,
      "ĠbÃ£o": 2402,
      "ĠtrÄĥm": 2403,
      "ha": 2404,
      "ĠChiáº¿n": 2405,
      "Ġcháº³ng": 2406,
      "Ġcáº¥m": 2407,
      "Ľt": 2408,
      "ud": 2409,
      "Ġngá»ĵi": 2410,
      "Viá»ĩc": 2411,
      "ĠHá»į": 2412,
      "oy": 2413,
      "40": 2414,
      "ĠGiáº£i": 2415,
      "und": 2416,
      "ĠmÃ¡i": 2417,
      "ĠTT": 2418,
      "ĠNÃ³": 2419,
      "Ġcá»©ng": 2420,
      "Ġngá»į": 2421,
      "ĠCon": 2422,
      "ĠÄĲáº§u": 2423,
      "ĠNhiá»ģu": 2424,
      "ĠVN": 2425,
      "Ġngo": 2426,
      "ĠHuáº¿": 2427,
      "ĠtráºŃt": 2428,
      "ĠdÃłng": 2429,
      "ĠgÆ°Æ¡ng": 2430,
      "25": 2431,
      "nam": 2432,
      "Ġkiá»ĥu": 2433,
      "Ġtuy": 2434,
      "Ġliá»ģn": 2435,
      "man": 2436,
      "co": 2437,
      "Ġmá»ģm": 2438,
      "Ġchá»¥p": 2439,
      "uch": 2440,
      "ĠthÃ¡o": 2441,
      "GiÃ¡": 2442,
      "ĠHai": 2443,
      "ĠTrÆ°á»Ľc": 2444,
      "ĠLá»Ļc": 2445,
      "ĠVÃµ": 2446,
      "ĠrÃłng": 2447,
      "ast": 2448,
      "ĠLeague": 2449,
      "ier": 2450,
      "Ġgáº¥p": 2451,
      "Ġxáº¥u": 2452,
      "Ġcáº£ng": 2453,
      "vn": 2454,
      "CS": 2455,
      "²i": 2456,
      "ĠBl": 2457,
      "ĠÄĲá»Ļi": 2458,
      "Ġná»Ļp": 2459,
      "ĠkÃªu": 2460,
      "Ġpháº¥n": 2461,
      "ĠkÃŃnh": 2462,
      "¥y": 2463,
      "ip": 2464,
      "Ġro": 2465,
      "eg": 2466,
      "Tá»ķng": 2467,
      "ĠPr": 2468,
      "ĠThÆ¡": 2469,
      "Ġsáº¯t": 2470,
      "ĠHo": 2471,
      "ĠngÆ°á»£c": 2472,
      "Ġbá»Ŀ": 2473,
      "Ġmá»Ŀi": 2474,
      "ĠLai": 2475,
      "ĩt": 2476,
      "Náº¿u": 2477,
      "ĠkhÃŃch": 2478,
      "á»©c": 2479,
      "Ġngá»«a": 2480,
      "Cá»¥": 2481,
      "Ã£y": 2482,
      "Ġtáº¥m": 2483,
      "ĠÆ¡n": 2484,
      "Ġi": 2485,
      "ĠtrÃºc": 2486,
      "ĠHCM": 2487,
      "ext": 2488,
      "ĠvÆ°á»Ľng": 2489,
      "Ġchá»Ł": 2490,
      "Do": 2491,
      "á»ĳn": 2492,
      "ĠSp": 2493,
      "ĠNai": 2494,
      "Ġvideo": 2495,
      "ĠUn": 2496,
      "ĠtÆ°Æ¡i": 2497,
      "ĠTNH": 2498,
      "Ġmáº¡c": 2499,
      "ĠhÃ£y": 2500,
      "iss": 2501,
      "ack": 2502,
      "ĠbÃŃ": 2503,
      "Ġlá»Ĺi": 2504,
      "esia": 2505,
      "ĠTNHH": 2506,
      "Ġpha": 2507,
      "Ġ70": 2508,
      "Ġláº½": 2509,
      "Ġmáº¡ch": 2510,
      "ep": 2511,
      "era": 2512,
      "ĠÄĳÃłm": 2513,
      "Ã©p": 2514,
      "TS": 2515,
      "ĠNhÆ°": 2516,
      "ĠGiao": 2517,
      "com": 2518,
      "XVN": 2519,
      "CoV": 2520,
      "ĠbÄĥng": 2521,
      "ĠÄĲá»ĥ": 2522,
      "ĠÄĳÃ¡m": 2523,
      "ARS": 2524,
      "Ġsá»ĳt": 2525,
      "Ġ500": 2526,
      "Ġtháº»": 2527,
      "ĠbÃ¹ng": 2528,
      "24": 2529,
      "ĠtÃ¡": 2530,
      "ĠkÃ¨m": 2531,
      "Ġcá»±u": 2532,
      "ib": 2533,
      "Ġkháº¯p": 2534,
      "Ġhuá»ĳng": 2535,
      "Ġdá»©t": 2536,
      "Dá»±": 2537,
      "ĠbÃ¨": 2538,
      "ĠÄĳá»īnh": 2539,
      "Ġsá»£": 2540,
      "ĠngÃ´n": 2541,
      "ames": 2542,
      "Ġláº¡m": 2543,
      "ern": 2544,
      "Ġkhá»§ng": 2545,
      "Æ¯": 2546,
      "ĠÄĳem": 2547,
      "á»¯u": 2548,
      "ĠThÆ°á»£ng": 2549,
      "han": 2550,
      "ĠQuy": 2551,
      "son": 2552,
      "tern": 2553,
      "á»ŀ": 2554,
      "uk": 2555,
      "Ġláº«n": 2556,
      "ÃŃt": 2557,
      "ĠÄĲÃłi": 2558,
      "Ġ35": 2559,
      "SÃ¡ng": 2560,
      "ĠÄĳáº³ng": 2561,
      "Ġrá»§i": 2562,
      "ach": 2563,
      "HÃł": 2564,
      "Thá»Ŀi": 2565,
      "rus": 2566,
      "Ġbáº¯c": 2567,
      "ont": 2568,
      "nÄĥm": 2569,
      "Ġgáº¡o": 2570,
      "ĠrÃło": 2571,
      "ĠHá»¯u": 2572,
      "ĠtÃ³c": 2573,
      "ĠDuy": 2574,
      "da": 2575,
      "Ġxá»©": 2576,
      "ĠTÄ©nh": 2577,
      "ĠSARS": 2578,
      "ey": 2579,
      "Ġhá»§y": 2580,
      "áºŃc": 2581,
      "ĠThá»Ŀi": 2582,
      "donesia": 2583,
      "Ã³t": 2584,
      "ass": 2585,
      "500": 2586,
      "ĠchÃło": 2587,
      "TáºŃp": 2588,
      "Ġmá»¹": 2589,
      "Ġgiáº£ng": 2590,
      "ĠyÃªn": 2591,
      "Ġ2018": 2592,
      "Ġ80": 2593,
      "ĠÄĳoáº¡t": 2594,
      "Trung": 2595,
      "Ġcáº·p": 2596,
      "ft": 2597,
      "aw": 2598,
      "Ã£nh": 2599,
      "Ġáº¥m": 2600,
      "ĠhÃło": 2601,
      "Ġgh": 2602,
      "our": 2603,
      "Ġtrá»«": 2604,
      "ĠBÃ¹i": 2605,
      "ĠKáº¿t": 2606,
      "ĠCity": 2607,
      "ĠMal": 2608,
      "21": 2609,
      "ĠbáºŃc": 2610,
      "sia": 2611,
      "ĠLao": 2612,
      "lip": 2613,
      "ĠthÃ¹": 2614,
      "ĠPark": 2615,
      "ĠlÃłn": 2616,
      "¨n": 2617,
      "ÄĲáº¿n": 2618,
      "ĠÄĲá»Ĺ": 2619,
      "gi": 2620,
      "ĠÄĳá»©c": 2621,
      "Nguá»ĵn": 2622,
      "alia": 2623,
      "ĠlÃºa": 2624,
      "Ġkhung": 2625,
      "ĠÄĲá»ĳi": 2626,
      "ace": 2627,
      "Ġdá»¥": 2628,
      "ĠLÆ°Æ¡ng": 2629,
      "ĠdÃ¡ng": 2630,
      "ĠNhÃ": 2631,
      "Ġcháº¡m": 2632,
      "ĠphÃ¡n": 2633,
      "¹a": 2634,
      "ĠAS": 2635,
      "ĠtrÃºng": 2636,
      "ĠCá»ķ": 2637,
      "ĠHáºŃu": 2638,
      "Ġchá»©": 2639,
      "ĠÄĲÃ³": 2640,
      "ĠTrá»įng": 2641,
      "Ġngang": 2642,
      "ĠtÃ¢y": 2643,
      "Ġcuá»ĳn": 2644,
      "ĠKáº¿": 2645,
      "ĠtrÃ¹ng": 2646,
      "ChÃºng": 2647,
      "//": 2648,
      "ĠÄĳá»ĳt": 2649,
      "PhÃ³": 2650,
      "Ġhiáº¿n": 2651,
      "ĠMáº·t": 2652,
      "SG": 2653,
      "ĠCá»¥": 2654,
      "Ġháº¹n": 2655,
      "Ġ196": 2656,
      "ĠKiá»ĥm": 2657,
      "Ġlá»įc": 2658,
      "Sá»±": 2659,
      "Ġváº¿t": 2660,
      "ĠvÆ°á»Ŀn": 2661,
      "ĠCÆ°á»Ŀng": 2662,
      "ĠbÃ£i": 2663,
      "km": 2664,
      "uro": 2665,
      "ĠIndonesia": 2666,
      "ĠlÃ¢m": 2667,
      "Ġthai": 2668,
      "Ġkhiá»ĥn": 2669,
      "ĠTháº¯ng": 2670,
      "ĠlÃłnh": 2671,
      "ĠTiá»ģn": 2672,
      "Anh": 2673,
      "ĠXÃ¢y": 2674,
      "Ġha": 2675,
      "ation": 2676,
      "Ġbáº¯n": 2677,
      "ĠmÃª": 2678,
      "CÅ©ng": 2679,
      "ĠcÄĥng": 2680,
      "ĠTuyÃªn": 2681,
      "CÃ¹ng": 2682,
      "ThÃ´ng": 2683,
      "ines": 2684,
      "ĠVÃł": 2685,
      "35": 2686,
      "Ġtext": 2687,
      "LÄĲ": 2688,
      "á»ĳt": 2689,
      "ĠÄĳÃ£i": 2690,
      "Ġcháº¥n": 2691,
      "Ġthá»Ł": 2692,
      "BÃł": 2693,
      "TrÃªn": 2694,
      "ĠNghÄ©a": 2695,
      "Ġmáº¯n": 2696,
      "27": 2697,
      "yl": 2698,
      "Ġchá»¥c": 2699,
      "ĠgÃ³c": 2700,
      "á»¥c": 2701,
      "Ġtá»¥": 2702,
      "ĠÄĲáº¯k": 2703,
      "end": 2704,
      "ĠII": 2705,
      "Ġá»ŀ": 2706,
      "Ġhá»©ng": 2707,
      "Ġvinh": 2708,
      "Ġxo": 2709,
      "ĠThá»©": 2710,
      "80": 2711,
      "ĠÄĳá»£i": 2712,
      "99": 2713,
      "ĠdÃ´ng": 2714,
      "ĠnÃ©t": 2715,
      "ĠCamp": 2716,
      "Ġdá»ĭ": 2717,
      "Ġsáº¯m": 2718,
      "ĠTrá»ĭ": 2719,
      "Ġ300": 2720,
      "Ġláº¡": 2721,
      "ĠLá»ħ": 2722,
      "ĠhÃ¢m": 2723,
      "Ġ90": 2724,
      "Ġáº©n": 2725,
      "ata": 2726,
      "Ġof": 2727,
      "ĠBar": 2728,
      "ĠchÃºc": 2729,
      "Ġthuyá»ģn": 2730,
      "ĠngáºŃp": 2731,
      "ĠTrÆ°Æ¡ng": 2732,
      "ĠHáº¡": 2733,
      "Ġkáº»": 2734,
      "Ġ2025": 2735,
      "ĠkhuÃ´n": 2736,
      "ĠÄĳÃłi": 2737,
      "ĠtÃºc": 2738,
      "NhÃł": 2739,
      "rid": 2740,
      "CO": 2741,
      "ĠphÃ¡o": 2742,
      "Ġtráº¡m": 2743,
      "ĠtháºŃn": 2744,
      "ĠtrÃŃch": 2745,
      "ĠÄĳÃ²i": 2746,
      "rom": 2747,
      "ĠNgÃ´": 2748,
      "Ġxong": 2749,
      "Thá»§": 2750,
      "26": 2751,
      "VÃło": 2752,
      "Ã´m": 2753,
      "Ġláº¯p": 2754,
      "ĠÄĳáºŃu": 2755,
      "Ġsá»¯a": 2756,
      "ĠtÃ¡n": 2757,
      "ĠgiáºŃt": 2758,
      "ick": 2759,
      "ĠSing": 2760,
      "CT": 2761,
      "ĠÄĳÃ¡o": 2762,
      "ĠCan": 2763,
      "Ġlá»«a": 2764,
      "ĠcÆ°á»Ľi": 2765,
      "ĠchÃºt": 2766,
      "sen": 2767,
      "ĠÄĲa": 2768,
      "âĢĻ": 2769,
      "Ġmá»ĩnh": 2770,
      "mp": 2771,
      "ĠghÃ": 2772,
      "Ġcháº¥m": 2773,
      "ĠSÃłi": 2774,
      "ĠThá»į": 2775,
      "ĠcáºŃu": 2776,
      "Ġal": 2777,
      "ĠphÃº": 2778,
      "ĠGiá»": 2779,
      "Ġtá»ķn": 2780,
      "ĠsÃºng": 2781,
      "Ġnon": 2782,
      "ĠxÃ¢m": 2783,
      "ustr": 2784,
      "ĠthÃ´i": 2785,
      "ĠtÃ¹y": 2786,
      "ant": 2787,
      "ĠMy": 2788,
      "ĠnÃłng": 2789,
      "Ġ2016": 2790,
      "ĠvÆ°Æ¡ng": 2791,
      "ron": 2792,
      "Chiá»ģu": 2793,
      "ĠIs": 2794,
      "line": 2795,
      "ĠGÃ²n": 2796,
      "Ġe": 2797,
      "apore": 2798,
      "28": 2799,
      "90": 2800,
      "ĠSá»ĳ": 2801,
      "Ġhiáº¿m": 2802,
      "amb": 2803,
      "Ġvirus": 2804,
      "Ġung": 2805,
      "ĠtáºŃt": 2806,
      "Ġvua": 2807,
      "onal": 2808,
      "Ġkhuáº©n": 2809,
      "ĠToÃłn": 2810,
      "ez": 2811,
      "Ġ45": 2812,
      "ĠAF": 2813,
      "Ġngá»įt": 2814,
      "ĠhÃ¹ng": 2815,
      "AT": 2816,
      "36": 2817,
      "ĠCar": 2818,
      "ĠngoÃ¡i": 2819,
      "tá»": 2820,
      "Ġcháº£y": 2821,
      "Ġlá»Ĺ": 2822,
      "ĠAs": 2823,
      "ĠNháº¥t": 2824,
      "Ġsáº¡n": 2825,
      "ĠkiÃªn": 2826,
      "ee": 2827,
      "Ġáº©m": 2828,
      "ĠÄĲÆ°á»Ŀng": 2829,
      "70": 2830,
      "Ġuy": 2831,
      "ĠTÃłu": 2832,
      "ĠÄĳÃ¨n": 2833,
      "Ġthá»Ŀ": 2834,
      "Ã£ng": 2835,
      "ĠDÃ¹": 2836,
      "ĠHÃłng": 2837,
      "ĠtÃºi": 2838,
      "la": 2839,
      "ĠQuÃ½": 2840,
      "Ġmai": 2841,
      "Ġhuynh": 2842,
      "ĠGr": 2843,
      "ada": 2844,
      "Ã³i": 2845,
      "ĠSá»±": 2846,
      "NN": 2847,
      "uchia": 2848,
      "Ġtriá»ĩt": 2849,
      "Ġkháº¥u": 2850,
      "ps": 2851,
      "ĠgÃł": 2852,
      "Káº¿t": 2853,
      "Ġá»ĳng": 2854,
      "ĠAm": 2855,
      "ĠLÆ°u": 2856,
      "Ġngon": 2857,
      "nd": 2858,
      "/.": 2859,
      "ĠÄĳá»©a": 2860,
      "ĠTrÃł": 2861,
      "oo": 2862,
      "ĠthÆ°á»£ng": 2863,
      "ĠMáº¡nh": 2864,
      "Ġgiá»ıi": 2865,
      "ĠTiá»ĥu": 2866,
      "Æ°á»£u": 2867,
      "ĠthÃ©p": 2868,
      "ĠngÆ°á»¡ng": 2869,
      "ame": 2870,
      "Thá»©": 2871,
      "ĠDi": 2872,
      "Ġdinh": 2873,
      "ĠÄĲH": 2874,
      "Ġ2017": 2875,
      "ĠÄĳuá»ķi": 2876,
      "29": 2877,
      "ĠnhÆ°á»£ng": 2878,
      "ĠNhá»": 2879,
      "tt": 2880,
      "ĠPháºŃt": 2881,
      "ĠLoan": 2882,
      "CB": 2883,
      "ÄĲÆ°á»£c": 2884,
      "Ġtiá»ħn": 2885,
      "ĠSingapore": 2886,
      "ert": 2887,
      "ug": 2888,
      "ĠÄĳiá»ĥn": 2889,
      "ĠTruyá»ģn": 2890,
      "Ġgá»Ĺ": 2891,
      "://": 2892,
      "ĠbuÃ´n": 2893,
      "75": 2894,
      "ĠQuá»³nh": 2895,
      "ebook": 2896,
      "ĠmÆ¡": 2897,
      "enn": 2898,
      "Ġbáº¡o": 2899,
      "ĠviÃªm": 2900,
      "ĠCáº§u": 2901,
      "iver": 2902,
      "Ġloáº¡n": 2903,
      "Ġvs": 2904,
      "Ġcá»Ļt": 2905,
      "oáº£ng": 2906,
      "Ġcáº£n": 2907,
      "Ġhá»ĵng": 2908,
      "ĠQua": 2909,
      "ĠVin": 2910,
      "ĠbÃ³": 2911,
      "ĠdÃły": 2912,
      "ĠcÆ¡n": 2913,
      "ĠtuÃ¢n": 2914,
      "Ġrá»ĳi": 2915,
      "ĠXÃ£": 2916,
      "ĠvÃŃ": 2917,
      "Ġmu": 2918,
      "ĠniÃªm": 2919,
      "ool": 2920,
      "bank": 2921,
      "acebook": 2922,
      "Ġ194": 2923,
      "á»Ļm": 2924,
      "EAN": 2925,
      "ĠTÃ¢m": 2926,
      "Ġbá»¯a": 2927,
      "Ġmá»ĳc": 2928,
      "Ľp": 2929,
      "ĠÄĲáº·ng": 2930,
      "ĠCampuchia": 2931,
      "Æ°á»Ľp": 2932,
      "ĠbÆ°á»Ľ": 2933,
      "Ġdao": 2934,
      "Ġmáº¥y": 2935,
      "Ġtrá»¥c": 2936,
      "ĠÄĳe": 2937,
      "ate": 2938,
      "ĠrÆ°á»£u": 2939,
      "Ġ195": 2940,
      "Ġ36": 2941,
      "ĠÄĳáº¿": 2942,
      "ĠTriá»ģu": 2943,
      "Ġ2015": 2944,
      "ĠThá»¥y": 2945,
      "Ġ32": 2946,
      "Ġbáº¡ch": 2947,
      "Ġsá»¹": 2948,
      "lÆ°á»£ng": 2949,
      "ĠngÃłn": 2950,
      "ĠSa": 2951,
      "DÃ¹": 2952,
      "ĠGames": 2953,
      "ĠnhÃ¡nh": 2954,
      "Ġhoáº£ng": 2955,
      "ĠTam": 2956,
      "Ġ2010": 2957,
      "ÄĲiá»ģu": 2958,
      "ock": 2959,
      "ĠcÆ¡m": 2960,
      "TVT": 2961,
      "ĠchÄĥn": 2962,
      "Ġnáº¥u": 2963,
      "ĠEm": 2964,
      "ĠcÆ°á»Ŀi": 2965,
      "ork": 2966,
      "ico": 2967,
      "ĠCP": 2968,
      "Ġdá»įa": 2969,
      "ge": 2970,
      "ĠbÃ¹": 2971,
      "Ġsh": 2972,
      "NT": 2973,
      "ink": 2974,
      "ĠChu": 2975,
      "Ġtung": 2976,
      "ĠdáºŃy": 2977,
      "ĠAustr": 2978,
      "ĠgiÃł": 2979,
      "TX": 2980,
      "ĠCÃ²n": 2981,
      "ĠBHXH": 2982,
      "ĠThá»ķ": 2983,
      "ĠCÃ¹ng": 2984,
      "ĠÄĳÃł": 2985,
      "ĠTÃ¹ng": 2986,
      "Ġtráº¡i": 2987,
      "Ġvá»¡": 2988,
      "Thá»±c": 2989,
      "Lá»": 2990,
      "ĠEU": 2991,
      "ĠThá»ĥ": 2992,
      "ĠÄĳáº¡n": 2993,
      "ĠBáº±ng": 2994,
      "ĠHá»įc": 2995,
      "á»·": 2996,
      "Ġbuá»ĵn": 2997,
      "Ġcá»ĳt": 2998,
      "VÃ¬": 2999,
      "aysia": 3000,
      "ĠHoÃłn": 3001,
      "amin": 3002,
      "Ġgháº¿": 3003,
      "ĠHuá»³nh": 3004,
      "Ġxáº¿": 3005,
      "Ġbá»¥ng": 3006,
      "ĠHá»£p": 3007,
      "ĠEl": 3008,
      "ĠlÃ´": 3009,
      "ĠASEAN": 3010,
      "ĠBÃ¡c": 3011,
      "DC": 3012,
      "istan": 3013,
      "TTQ": 3014,
      "ters": 3015,
      "Phone": 3016,
      "ĠAir": 3017,
      "ĠThá»±c": 3018,
      "age": 3019,
      "ngÃły": 3020,
      "34": 3021,
      "ĠbÃ²": 3022,
      "Ġcá»Ŀ": 3023,
      "ĠthÄĥng": 3024,
      "./.": 3025,
      "ĠÃ©p": 3026,
      "ÄĲáº·c": 3027,
      "ĠbÃ¡": 3028,
      "sea": 3029,
      "ĠtÃłng": 3030,
      "yr": 3031,
      "Ġthe": 3032,
      "ĠHoÃłi": 3033,
      "ĠchÃ³": 3034,
      "ĠQuá»¹": 3035,
      "ĠApp": 3036,
      "Ġgiam": 3037,
      "ĠdÆ°á»£c": 3038,
      "Ġtrá»©ng": 3039,
      "ĠSong": 3040,
      "Ġ2030": 3041,
      "ĠbÆ°á»Ľm": 3042,
      "á»ĥ": 3043,
      "ĠNhÄ©": 3044,
      "hÃ³m": 3045,
      "Ġmá»±c": 3046,
      "mar": 3047,
      "land": 3048,
      "31": 3049,
      "ĠKiÃªn": 3050,
      "ĠmÃ¢y": 3051,
      "ĠVÃło": 3052,
      "ans": 3053,
      "ĠHáº±ng": 3054,
      "ited": 3055,
      "Ġnhi": 3056,
      "orn": 3057,
      "ĠMad": 3058,
      "roup": 3059,
      "Ġweb": 3060,
      "Æ°Æ¡n": 3061,
      "UBND": 3062,
      "ros": 3063,
      "jp": 3064,
      "01": 3065,
      "ĠsÃºt": 3066,
      "Ã¹a": 3067,
      "elsea": 3068,
      "ĠtrÃ´ng": 3069,
      "Ngay": 3070,
      "38": 3071,
      "ĠmÃ¡t": 3072,
      "ĠÄĲá»ģ": 3073,
      "Ġbá»ĳn": 3074,
      "ini": 3075,
      "Ġven": 3076,
      "ĠkÃŃn": 3077,
      "ty": 3078,
      "hÃŃnh": 3079,
      "Ġyáº¿t": 3080,
      "lipp": 3081,
      "£n": 3082,
      "ĠÄĳá»Ľi": 3083,
      "ĠAustralia": 3084,
      "):": 3085,
      "ternet": 3086,
      "ĠSer": 3087,
      "old": 3088,
      "ĠMalaysia": 3089,
      "Ġsá»ķ": 3090,
      "CH": 3091,
      "ĠÃļ": 3092,
      "ester": 3093,
      "Ġrá»Ńa": 3094,
      "Ġcá»§ng": 3095,
      "37": 3096,
      "ĠGiÃ¡": 3097,
      "chá»": 3098,
      "ĠPro": 3099,
      "ind": 3100,
      "ica": 3101,
      "ite": 3102,
      "Ġhá»ıa": 3103,
      "ĠÄĳáºŃm": 3104,
      "jpg": 3105,
      "Ġgiáº¿t": 3106,
      "na": 3107,
      "ca": 3108,
      "Ġclip": 3109,
      "Ġga": 3110,
      "AS": 3111,
      "ĠNgÃ£i": 3112,
      "ĠGTVT": 3113,
      "Ġcanh": 3114,
      "ĠcÆ°Æ¡ng": 3115,
      "oe": 3116,
      "Há»Ļi": 3117,
      "ana": 3118,
      "Ġ38": 3119,
      "Ġgá»įn": 3120,
      "ashi": 3121,
      "ĠHar": 3122,
      "ood": 3123,
      "ĠthÃ³": 3124,
      "Ġngáº§m": 3125,
      "Ġhoang": 3126,
      "ĠbÃ¡m": 3127,
      "iá»ĩng": 3128,
      "Ġde": 3129,
      "TC": 3130,
      ".\"": 3131,
      "ĠNhiá»ĩt": 3132,
      "Ġtráº§m": 3133,
      "Ġbá»į": 3134,
      "ĠmÃ¬": 3135,
      "ĠPl": 3136,
      "ĠSEA": 3137,
      "ĠÄĳá»ģn": 3138,
      "ĠlÃ£m": 3139,
      "Giá»": 3140,
      "ĠThá»«a": 3141,
      "TTXVN": 3142,
      "ĠNhi": 3143,
      "ĠÄĲT": 3144,
      "ver": 3145,
      "sinh": 3146,
      "Ġtang": 3147,
      "95": 3148,
      "Ġná»Ĺi": 3149,
      "ĠÄĲáº¥t": 3150,
      "ĠnÃ©": 3151,
      "ĠnhÃ£n": 3152,
      "ĠCai": 3153,
      "ĠKhá»": 3154,
      "ram": 3155,
      "Ġmá»ı": 3156,
      "ath": 3157,
      "¹y": 3158,
      "ĠxÆ°Æ¡ng": 3159,
      "ĠBá»Łi": 3160,
      "Ġhá»Ļp": 3161,
      "ĠiPhone": 3162,
      "Ġháº±ng": 3163,
      "ĠTrÃªn": 3164,
      "ĠÄĲinh": 3165,
      "NhÆ°": 3166,
      "ĠTháº£o": 3167,
      "ĠMau": 3168,
      "onaldo": 3169,
      "Ġmiá»ĩng": 3170,
      "ĠxuÃ¢n": 3171,
      "Ġhá»ģ": 3172,
      "Ġ34": 3173,
      "áº¥c": 3174,
      "xy": 3175,
      "lymp": 3176,
      "ĠHuyá»ĩn": 3177,
      "Má»Ľi": 3178,
      "ĠMTTQ": 3179,
      "ĠsÃ´i": 3180,
      "Ġxá»©ng": 3181,
      "ĠPV": 3182,
      "Ġon": 3183,
      "ĠKhÃ": 3184,
      "QH": 3185,
      "ĠmÃ£i": 3186,
      "ĠhÆ°": 3187,
      "ma": 3188,
      "Ġtrá»ĳn": 3189,
      "Ġ37": 3190,
      "Ġnháº¯n": 3191,
      "III": 3192,
      "Ġbáº¿n": 3193,
      "HÃ¬nh": 3194,
      "ĠCr": 3195,
      "ĠquÃªn": 3196,
      "tre": 3197,
      "iden": 3198,
      "ĠVá»¥": 3199,
      "ĠThá»ĳng": 3200,
      "ĠBÄĲ": 3201,
      "Ã¨n": 3202,
      "Ġquang": 3203,
      "ke": 3204,
      "ĠNá»¯": 3205,
      "%;": 3206,
      "ĠÃĿ": 3207,
      "ĠTáº¥n": 3208,
      "ĠMá»Ĺi": 3209,
      "Ġbáº¿p": 3210,
      "Ġchá»ĳi": 3211,
      "Ġlá»Ł": 3212,
      "LiÃªn": 3213,
      "Qua": 3214,
      "CÆ¡": 3215,
      "ĠxÃ³m": 3216,
      "ĠtÃ´ng": 3217,
      "ĠUnited": 3218,
      "ĠÄĳá»ĵn": 3219,
      "Ġkia": 3220,
      "ChÃŃnh": 3221,
      "'.": 3222,
      "bum": 3223,
      "Ġnhá»ĭp": 3224,
      "ĠBáº¿n": 3225,
      "BS": 3226,
      "ĠPhilipp": 3227,
      "raz": 3228,
      "ĠÄĳeo": 3229,
      "ÃŃch": 3230,
      "ĠGu": 3231,
      "Máº·c": 3232,
      "ĠngÃ£": 3233,
      "app": 3234,
      "Ġláº¯m": 3235,
      "Ġruá»Ļt": 3236,
      "ÄĲV": 3237,
      "ĠnÃ£o": 3238,
      "ĠThÆ°": 3239,
      "ions": 3240,
      "ĠthÆ°á»Ľc": 3241,
      "Ġla": 3242,
      "uters": 3243,
      "ĠTÃº": 3244,
      "ona": 3245,
      "Ġtriá»ģu": 3246,
      "ĠVÅ©ng": 3247,
      "ĠxÆ°a": 3248,
      "Ġhá»©a": 3249,
      "Ġsu": 3250,
      "ti": 3251,
      "Le": 3252,
      "ail": 3253,
      "oun": 3254,
      "ĠchÃ¬": 3255,
      "ĠtÃ¢n": 3256,
      "bia": 3257,
      "39": 3258,
      "QÄĲ": 3259,
      "iáº¿c": 3260,
      "Hai": 3261,
      "ĠHuá»ĩ": 3262,
      "ĠNH": 3263,
      "ĠhÃłm": 3264,
      "ĠSan": 3265,
      "ĠcÃ£i": 3266,
      "ĠDe": 3267,
      "ĠphÃ¡i": 3268,
      "ĠMU": 3269,
      "ĠOlymp": 3270,
      "ĠnhÅ©ng": 3271,
      "Ġtáº¯t": 3272,
      "ĠVá»ģ": 3273,
      "ĠTáº¥t": 3274,
      "Ġshi": 3275,
      "ĠChelsea": 3276,
      "88": 3277,
      "ohn": 3278,
      "ĠÄĲÄĥng": 3279,
      "ĠvÆ°Æ¡n": 3280,
      "Con": 3281,
      "Ġxinh": 3282,
      "Ġ01": 3283,
      "ĠXV": 3284,
      "Ġ,": 3285,
      "Ġvá»ı": 3286,
      "ĠÄĲÃ´": 3287,
      "áº³": 3288,
      "Ġ=": 3289,
      "ĠFacebook": 3290,
      "Ġthang": 3291,
      "áº«y": 3292,
      "ĠÄĳiá»ĩu": 3293,
      "Ġhá»ıng": 3294,
      "ĠCÃł": 3295,
      "ĠdÃ£": 3296,
      "xÃ£": 3297,
      "ech": 3298,
      "á»įi": 3299,
      "Ġchuyá»ģn": 3300,
      "©o": 3301,
      "ĠCH": 3302,
      "ek": 3303,
      "ĠlÃ£ng": 3304,
      "ĠApple": 3305,
      "ĠtrÃłn": 3306,
      "ĠChung": 3307,
      "ĠVietnam": 3308,
      "ĠchÃ¹a": 3309,
      "Ġtráº§n": 3310,
      "á»±u": 3311,
      "ĠtÃ´m": 3312,
      "yo": 3313,
      "thá»": 3314,
      "ĠcÃ¡t": 3315,
      "ĠMÃ£": 3316,
      "ĠThÃ¹y": 3317,
      "ĠDoanh": 3318,
      "ĠvÄ©": 3319,
      "Ġmáº¡o": 3320,
      "Ġ33": 3321,
      "ĠtÃ¡ch": 3322,
      "ĠthÃ³i": 3323,
      "Ban": 3324,
      "á»Ńu": 3325,
      "oph": 3326,
      "Ġlá»ĩch": 3327,
      "Ġtrá»Ļm": 3328,
      "Ãģ": 3329,
      "ĠThÃ¡p": 3330,
      "ĠMÃ´i": 3331,
      "ĠQuáºŃn": 3332,
      "ĠBiá»ĥn": 3333,
      "ani": 3334,
      "Ġmáº§m": 3335,
      "ĠbÃª": 3336,
      "PhÃ": 3337,
      "TÃŃnh": 3338,
      "khÃ´ng": 3339,
      "Ġ2014": 3340,
      "Ġtuá»ĩ": 3341,
      "ara": 3342,
      "Ġdá»įc": 3343,
      "ĠÄĳiá»ĩp": 3344,
      "71": 3345,
      "ĠMáº·c": 3346,
      "xin": 3347,
      "ĠUy": 3348,
      "ĠHiáº¿u": 3349,
      "hÃŃa": 3350,
      "ĠTrá»ĭnh": 3351,
      "ĠAnd": 3352,
      "ĠChamp": 3353,
      "Ġnhá»±a": 3354,
      "ThÃ¡ng": 3355,
      "ĠTim": 3356,
      "ost": 3357,
      "Ġtháº£m": 3358,
      "Ġ2011": 3359,
      "ĠCuá»Ļc": 3360,
      "YT": 3361,
      "ies": 3362,
      "Ġphá»ıng": 3363,
      "Ġ55": 3364,
      "ĠCÃ¡t": 3365,
      "GS": 3366,
      "Ã¨o": 3367,
      "Ġ150": 3368,
      "Ġcamera": 3369,
      "Ġ.": 3370,
      "61": 3371,
      "65": 3372,
      "ĠBáº¡n": 3373,
      "Ġkhoe": 3374,
      "con": 3375,
      "Giáº£i": 3376,
      "lor": 3377,
      "ĠQuan": 3378,
      "ota": 3379,
      "Ġmá»ıi": 3380,
      "ThÃłnh": 3381,
      "ĠTS": 3382,
      "ĠdÃ¡m": 3383,
      "',": 3384,
      "ĠngÆ°": 3385,
      "ea": 3386,
      "ĠSam": 3387,
      "ize": 3388,
      "lin": 3389,
      "essi": 3390,
      "Ġlá»£n": 3391,
      "Ġlang": 3392,
      "ley": 3393,
      "ight": 3394,
      "BC": 3395,
      "ĠTháº¡ch": 3396,
      "ngÆ°á»Ŀi": 3397,
      "Ġ400": 3398,
      "TrÆ°á»Ŀng": 3399,
      "Ġgiá»įng": 3400,
      "ĠChÃ¡nh": 3401,
      "Ġbá»Ļt": 3402,
      "Ġfrom": 3403,
      "FA": 3404,
      "senal": 3405,
      "Ġmá»ĩt": 3406,
      "Ġthan": 3407,
      "Ġthoáº£i": 3408,
      "ĠchÃłng": 3409,
      "ĠkhoÃ¡ng": 3410,
      "Ġgá»£i": 3411,
      "Ġgan": 3412,
      "Ġmuá»ĳi": 3413,
      "Ġsáº¡t": 3414,
      "ÄĲá»Ļi": 3415,
      "Chá»ī": 3416,
      "33": 3417,
      "razil": 3418,
      "ĠGo": 3419,
      "lo": 3420,
      "ĠCA": 3421,
      "Ġat": 3422,
      "ĠThÃ¡ng": 3423,
      "pool": 3424,
      "Ġtop": 3425,
      "ĠBiden": 3426,
      "Ġcá»ĳng": 3427,
      "ĠThÃº": 3428,
      "tel": 3429,
      "Ġkhuyáº¿t": 3430,
      "áº³n": 3431,
      "ĠSch": 3432,
      "rael": 3433,
      "ĠÄĳÃ¡n": 3434,
      "tin": 3435,
      "ĠNhÆ¡n": 3436,
      "81": 3437,
      "ĠReuters": 3438,
      "ĠmÃ¹i": 3439,
      "Ġsa": 3440,
      "ĠxÃ³a": 3441,
      "Bá»": 3442,
      "Ġtiáº¿c": 3443,
      "ĠCáº©m": 3444,
      "CÃ²n": 3445,
      "Bank": 3446,
      "ĠtrÃł": 3447,
      "Ġpháº«u": 3448,
      "ĠBN": 3449,
      "eal": 3450,
      "ĠtrÃ²n": 3451,
      "ĠLiÃªu": 3452,
      "ĠMa": 3453,
      "Ġ65": 3454,
      "ĠPhá»¥": 3455,
      "ix": 3456,
      "Ġcá»ķng": 3457,
      "ĠCáº£": 3458,
      "ĠTháº¡nh": 3459,
      "ĠSo": 3460,
      "Ġlá»ıng": 3461,
      "va": 3462,
      "SND": 3463,
      "ĠHTX": 3464,
      "ĠTÃ²a": 3465,
      "ĠthÃ¹ng": 3466,
      "NhÃ¢n": 3467,
      "ĠLá»£i": 3468,
      "ĠÄĳá»«ng": 3469,
      "ĠvÃ¡y": 3470,
      "ĠlÆ°ng": 3471,
      "iverpool": 3472,
      "ĠcÆ°á»Ľp": 3473,
      "ÃŃn": 3474,
      "ĠMiss": 3475,
      "itamin": 3476,
      "Ġ2024": 3477,
      "ĠkhÆ¡i": 3478,
      "Ġtill": 3479,
      "100": 3480,
      "cel": 3481,
      "85": 3482,
      "Ġhtt": 3483,
      "ĠReal": 3484,
      "Ġbá»Ľt": 3485,
      "ĠCam": 3486,
      "ĠÄĳáºŃp": 3487,
      "di": 3488,
      "Ġcá»¥m": 3489,
      "ĠYork": 3490,
      "ĠCN": 3491,
      "Ġbá»ģ": 3492,
      "ĠNgay": 3493,
      "Sá»Ł": 3494,
      "ªnh": 3495,
      "ĠLáº¯k": 3496,
      "TM": 3497,
      "NÄĲ": 3498,
      "CÃ´": 3499,
      "Lá»ĭch": 3500,
      "Má»¹": 3501,
      "Ġpin": 3502,
      "ĠGiáº¥y": 3503,
      "ĠTu": 3504,
      "ark": 3505,
      "ĠIII": 3506,
      "Ġháº£o": 3507,
      "ox": 3508,
      "ĠOlympic": 3509,
      "Ġvá»Ŀi": 3510,
      "huyá»ĩn": 3511,
      "ei": 3512,
      "Ġná»ģ": 3513,
      "ĠRonaldo": 3514,
      "ĠCol": 3515,
      "ĠtÆ°á»Ŀng": 3516,
      "ĠXÃ´": 3517,
      "XS": 3518,
      "Ġtá»ĳn": 3519,
      "ĠBáº¡ch": 3520,
      "Ġche": 3521,
      "Ġ75": 3522,
      "Ġgame": 3523,
      "ĠhÆ°u": 3524,
      "tor": 3525,
      "Khu": 3526,
      "Ind": 3527,
      "ĠdÃłn": 3528,
      "ĠLá»ĩ": 3529,
      "ĠTHCS": 3530,
      "Ġdáº¯t": 3531,
      "Tin": 3532,
      "Sá»ĳ": 3533,
      "2025": 3534,
      "ĠDá»ĭch": 3535,
      "Ġtest": 3536,
      "Ġngá»¥": 3537,
      "ĠlÃ¹i": 3538,
      "Ġháº³n": 3539,
      "ĠPháº§n": 3540,
      "Tiáº¿p": 3541,
      "199": 3542,
      "Ġháº¹p": 3543,
      "Cuá»Ļc": 3544,
      "Ġtrá»ĳng": 3545,
      "ĠTÄĥng": 3546,
      "ĠbÃ©o": 3547,
      "ĠTrÄĥng": 3548,
      "ĠEr": 3549,
      "ĠCháº¥p": 3550,
      "ĠBrazil": 3551,
      "ice": 3552,
      "ĠsÄĥn": 3553,
      "NQ": 3554,
      "05": 3555,
      "ĠPhilippines": 3556,
      "Ġmáº£nh": 3557,
      "ĠOm": 3558,
      "Ġáº£o": 3559,
      "32": 3560,
      "ĠmÃ©t": 3561,
      ",...": 3562,
      "ĠthoÃ¡i": 3563,
      "Ġráº»": 3564,
      "ĠBáº¡c": 3565,
      "ĠTÃ¬nh": 3566,
      "ĠkhÃ´i": 3567,
      "Ġhá»ĳi": 3568,
      "Ġngáº¡ch": 3569,
      "ĠSinh": 3570,
      "ĠdÃ¢u": 3571,
      "Ġtáº¿t": 3572,
      "ĠJohn": 3573,
      "mm": 3574,
      "ĠLá»±c": 3575,
      "ĠthÆ¡m": 3576,
      "ĠÃļc": 3577,
      "Ġtan": 3578,
      "Ġláº§m": 3579,
      "Æ°á»£n": 3580,
      "ĠTá»Ń": 3581,
      "47": 3582,
      "ĠCÃ¡ch": 3583,
      "Ġáº¥p": 3584,
      "Ġ2013": 3585,
      "ĠduyÃªn": 3586,
      "IC": 3587,
      "ĠXuyÃªn": 3588,
      "ĠkhÃ¡t": 3589,
      "ĠThá»ĭnh": 3590,
      "Ġdiá»ĩt": 3591,
      "ĠrÃ¨n": 3592,
      "ĠrÃ£i": 3593,
      "ĠIsrael": 3594,
      "Ġonline": 3595,
      "2019": 3596,
      "¥i": 3597,
      "ium": 3598,
      "Ġheo": 3599,
      "thÃ¡ng": 3600,
      "Ġthuáº§n": 3601,
      "ĠSc": 3602,
      "ĠsÃ³t": 3603,
      "ile": 3604,
      "ĠChampions": 3605,
      "Nam": 3606,
      "Ġbom": 3607,
      "ĠCT": 3608,
      "ĠKH": 3609,
      "Ġnháº£y": 3610,
      "ĠrÃ²ng": 3611,
      "ĠCanada": 3612,
      "ĠdÃ¢ng": 3613,
      "Â²": 3614,
      "ĠTriá»ĩu": 3615,
      "ĠVÃłng": 3616,
      "Index": 3617,
      "ĠCl": 3618,
      "ĠAd": 3619,
      "ĠchÃŃn": 3620,
      "ĠSeo": 3621,
      "ky": 3622,
      "ĠbÃ¢y": 3623,
      "Ġ39": 3624,
      "ĠkhÃ¢u": 3625,
      "ĠvÃ¢y": 3626,
      "Ġ48": 3627,
      "NhÆ°ng": 3628,
      "ym": 3629,
      "Ġtreo": 3630,
      "Ġtruyá»ĩn": 3631,
      "ĠHá»ĩ": 3632,
      "Ġváº¯ng": 3633,
      "olf": 3634,
      "ĠSÃ³c": 3635,
      "ĠGeo": 3636,
      "ww": 3637,
      "49": 3638,
      "Ġfan": 3639,
      "Ġtrá»įn": 3640,
      "ane": 3641,
      "áº¹t": 3642,
      "ĠgiÃ¡n": 3643,
      "ĠMos": 3644,
      "ĠDung": 3645,
      "46": 3646,
      "BÃ¡o": 3647,
      "ĠCS": 3648,
      "Nghá»": 3649,
      "ĠÄĲá»ĭa": 3650,
      "ĠgÃ¬n": 3651,
      "ĠBá»ĵ": 3652,
      "ĠYo": 3653,
      "ĠlÃ´ng": 3654,
      "ĠArsenal": 3655,
      "ĠkhÃ³c": 3656,
      "ics": 3657,
      "lex": 3658,
      "Ġtháº£": 3659,
      "ĠtrÆ°a": 3660,
      "ĠThÃºy": 3661,
      "Ġthuáº«n": 3662,
      "ero": 3663,
      "Ġ2000": 3664,
      "Ġhá»ķ": 3665,
      "tu": 3666,
      "ĠLÄĲ": 3667,
      "ĠMadrid": 3668,
      "ham": 3669,
      "Viá»ĩt": 3670,
      "Ġtrá»į": 3671,
      "ĠTiáº¿p": 3672,
      "ĠÄĳáº¯t": 3673,
      "ĠLH": 3674,
      ":(": 3675,
      "ĠgiÆ°á»Ŀng": 3676,
      "pl": 3677,
      "berg": 3678,
      "onts": 3679,
      "Thanh": 3680,
      "ĠÃ¡i": 3681,
      "48": 3682,
      "ĠgiÃ¢y": 3683,
      "ĠMus": 3684,
      "%/": 3685,
      "ĠFC": 3686,
      "55": 3687,
      "AG": 3688,
      "ĠHÃłnh": 3689,
      "ĠHang": 3690,
      "Ġviá»ħn": 3691,
      "ĠghÃ©p": 3692,
      "ĠKar": 3693,
      "ĠCo": 3694,
      "ĠLiverpool": 3695,
      "Ġshow": 3696,
      "ĠNa": 3697,
      "ĠIt": 3698,
      "ĠHá»ĵi": 3699,
      "ĠKon": 3700,
      "ale": 3701,
      "ĠMessi": 3702,
      "ĠDáº§u": 3703,
      "ĠBÃłi": 3704,
      "ontsize": 3705,
      "Ã¹m": 3706,
      "ĠÄĳá»Ĺ": 3707,
      "Ġoxy": 3708,
      "ĠnhiÃªu": 3709,
      "CÃ¡ch": 3710,
      "ĠPC": 3711,
      "aceae": 3712,
      "ĠThiáº¿t": 3713,
      "á»£": 3714,
      "gent": 3715,
      "ĠdÆ°á»Ŀng": 3716,
      "ĠPhÆ°á»£ng": 3717,
      "Ġlá»įt": 3718,
      "ĠRom": 3719,
      "Ġcáº¥t": 3720,
      "ĠRá»ĭa": 3721,
      "ĠÄĳam": 3722,
      "ary": 3723,
      "300": 3724,
      "alo": 3725,
      "ĠÄĳáº¡p": 3726,
      "Ġkg": 3727,
      "ĠMil": 3728,
      "TÃ¬nh": 3729,
      "ĠVáºŃn": 3730,
      "MT": 3731,
      "OS": 3732,
      "ĠÄĳÄ©a": 3733,
      "Ġtáº¯m": 3734,
      "Ġcá»ı": 3735,
      "ash": 3736,
      "ĠsÃ¡nh": 3737,
      "ĠLÃºc": 3738,
      "ĠDiá»ħn": 3739,
      "Ġalbum": 3740,
      "Ġváº½": 3741,
      "Ġlá»ĵ": 3742,
      "ĠsÃ©t": 3743,
      "ith": 3744,
      "ner": 3745,
      "Chá»ĭ": 3746,
      "ĠGroup": 3747,
      "ÄĲoÃłn": 3748,
      "Ġtá»įa": 3749,
      "Ġchim": 3750,
      "Ġbá»ĳc": 3751,
      "ĠquÃ©t": 3752,
      "tain": 3753,
      "mart": 3754,
      "68": 3755,
      "Ã½t": 3756,
      "QT": 3757,
      "ĠHuyá»ģn": 3758,
      "ka": 3759,
      "ĠAi": 3760,
      "ĠEd": 3761,
      "ĠbÆ¡i": 3762,
      "77": 3763,
      "ensis": 3764,
      "ĠTrÃŃ": 3765,
      "Ġvitamin": 3766,
      "ĠPrem": 3767,
      "Ġ2008": 3768,
      "tÃ´": 3769,
      "ĠTÃŃnh": 3770,
      "ĠKr": 3771,
      "sh": 3772,
      "Ġxá»ī": 3773,
      "ĠSu": 3774,
      "Ġnhan": 3775,
      "icron": 3776,
      "ĠlÃŃnh": 3777,
      "ĠDáº§n": 3778,
      "Ġ2012": 3779,
      "Ġand": 3780,
      "ĠmÃ£n": 3781,
      "ĠÃ¢n": 3782,
      "ĠAb": 3783,
      "eta": 3784,
      "ĠkhuyÃªn": 3785,
      "ĠChá»©ng": 3786,
      "Ġkhá»ķng": 3787,
      "Ġhoan": 3788,
      "ear": 3789,
      "giá»": 3790,
      "Ġhá»¥t": 3791,
      "ĠFr": 3792,
      "ĠTN": 3793,
      "Ġkhá»Ľp": 3794,
      "ĠIran": 3795,
      "etr": 3796,
      "LÃ£nh": 3797,
      "Ġ120": 3798,
      "ĠKho": 3799,
      "ĠTÃ´": 3800,
      "ĠSÆ°": 3801,
      "td": 3802,
      "ĠÄĲáº¡o": 3803,
      "go": 3804,
      "ĠtÄ©nh": 3805,
      "eth": 3806,
      "ĠBV": 3807,
      "Ġ+": 3808,
      "Lá»±c": 3809,
      "Ġváº£i": 3810,
      "ĠtÆ°á»Ľc": 3811,
      "Ġshift": 3812,
      "ĠAf": 3813,
      "Ġváº¹n": 3814,
      "ott": 3815,
      "ĠTrÃ¡i": 3816,
      "Ġháº§m": 3817,
      "Ġgiáº¥u": 3818,
      "Ġgiáº¥c": 3819,
      "tein": 3820,
      "Ġsoáº¡n": 3821,
      "ĠLy": 3822,
      "oll": 3823,
      "Ġfontsize": 3824,
      "LÃł": 3825,
      "Ġmm": 3826,
      "League": 3827,
      "Ġthá»±": 3828,
      "ĠTo": 3829,
      "ĠAI": 3830,
      "ĠCSG": 3831,
      "EC": 3832,
      "CCC": 3833,
      "urg": 3834,
      "ĠtÃ¡o": 3835,
      "Ġtháº¯t": 3836,
      "Ġmáº£ng": 3837,
      "66": 3838,
      "ĠTrinh": 3839,
      "á»Ĺ": 3840,
      "ĠmÃ³c": 3841,
      "An": 3842,
      "ĠrÄĥng": 3843,
      "Ġtrá»«ng": 3844,
      ":(-": 3845,
      "ino": 3846,
      "ĠCSGT": 3847,
      "ĠÄĲiá»ĥn": 3848,
      "ĠHiá»ģn": 3849,
      "Bá»ĩnh": 3850,
      "EO": 3851,
      "Ã¹n": 3852,
      "Ġráº£i": 3853,
      "ĠnÃºt": 3854,
      "Ġcá»¡": 3855,
      "Ġbia": 3856,
      "ĠkiÃªm": 3857,
      "ĠÄĲÆ°á»£c": 3858,
      "ford": 3859,
      "ĠNhá»Ŀ": 3860,
      "ola": 3861,
      "arb": 3862,
      "ĠNghi": 3863,
      "ĠLiÃªm": 3864,
      "ari": 3865,
      "ĠVI": 3866,
      "Ġná»ĵng": 3867,
      "tá»«": 3868,
      "ĠKiá»ģu": 3869,
      "Ġdáº¡": 3870,
      "ĠTTXVN": 3871,
      "ĠLÃ£nh": 3872,
      "ĠlÅ©y": 3873,
      "ho": 3874,
      "ĠXIII": 3875,
      "iá»ħu": 3876,
      "ĠngÃµ": 3877,
      "Ġ2007": 3878,
      "ĠvÃµ": 3879,
      "gentina": 3880,
      "Ġlá»ĳc": 3881,
      "ĠCÃ¡i": 3882,
      "ĠbÃ³n": 3883,
      "44": 3884,
      "ya": 3885,
      "ĠDel": 3886,
      "to": 3887,
      "ial": 3888,
      "Ġva": 3889,
      "Ġthiá»ĩp": 3890,
      "Ġsáº¡c": 3891,
      "Ġbá»ķng": 3892,
      "ĠCáº£ng": 3893,
      "CV": 3894,
      "Ġkhoáº£nh": 3895,
      "Ġlá»ĵng": 3896,
      "ĠCho": 3897,
      "ĠHÃ¡n": 3898,
      "Ġngá»Ļ": 3899,
      "AM": 3900,
      "ĠgiÃły": 3901,
      "Ġsá»¥t": 3902,
      "Ġleo": 3903,
      "mer": 3904,
      "ĠÄĲan": 3905,
      "Ġkhiáº¿u": 3906,
      "Ġxoay": 3907,
      "ĠNguá»ĵn": 3908,
      "67": 3909,
      "Chi": 3910,
      "Ġngá»£i": 3911,
      "enz": 3912,
      "ÃĢ": 3913,
      "ĠÄĲáº¡t": 3914,
      "Ġtá»±u": 3915,
      "ĠHiá»ĩu": 3916,
      "ĠOmicron": 3917,
      "Ġmiáº¿ng": 3918,
      "ĠThi": 3919,
      "Danh": 3920,
      "ct": 3921,
      "eng": 3922,
      "TW": 3923,
      "Chia": 3924,
      "ĠJu": 3925,
      "Ġ42": 3926,
      "aka": 3927,
      "ĠTok": 3928,
      "ĠSal": 3929,
      "ĠInternet": 3930,
      "ĠÄĳáº¯p": 3931,
      "Ġváº£": 3932,
      "Ġ47": 3933,
      "ATO": 3934,
      "Ġtá»§": 3935,
      "Vá»¥": 3936,
      "ĠCal": 3937,
      "lÃŃt": 3938,
      "02": 3939,
      "ĠQL": 3940,
      "ĠHáº¡nh": 3941,
      "Ġhá»ĵn": 3942,
      "ide": 3943,
      "ĠÃ´m": 3944,
      "Ġchua": 3945,
      "Ġ2006": 3946,
      "Æ¡m": 3947,
      "ĠSÃ´ng": 3948,
      "Ġcáº©n": 3949,
      "Thá»ĭ": 3950,
      "PG": 3951,
      "ĠThiáº¿u": 3952,
      "BÃ¬nh": 3953,
      "Ġráº¯n": 3954,
      "ris": 3955,
      "Ġ95": 3956,
      "GT": 3957,
      "Ġmá»¡": 3958,
      "ĠRob": 3959,
      "Báº¡n": 3960,
      "BÆ°á»Ľc": 3961,
      "Ġáº¢": 3962,
      "Ġphá»ķi": 3963,
      "ĠhoÃ£n": 3964,
      "Ġná»Ł": 3965,
      "ĠLáº¡c": 3966,
      "ĠBu": 3967,
      "69": 3968,
      "ĠCÅ©ng": 3969,
      "ĠAg": 3970,
      "Ġst": 3971,
      "bo": 3972,
      "Ġpro": 3973,
      "ĠArgentina": 3974,
      "NháºŃn": 3975,
      "áº±n": 3976,
      "ĠWil": 3977,
      "08": 3978,
      "ĠGrand": 3979,
      "lad": 3980,
      "Ġ43": 3981,
      "ĠmÃ¢u": 3982,
      "hÃŃch": 3983,
      "ĠMin": 3984,
      ",âĢ¦": 3985,
      "Ġá»ĳc": 3986,
      "ĠtrÃ´i": 3987,
      "aly": 3988,
      "ella": 3989,
      "Ġchip": 3990,
      "ĠTop": 3991,
      "07": 3992,
      "ĠTá»±": 3993,
      "ĠLáº¡ng": 3994,
      "ĠParis": 3995,
      "ond": 3996,
      "ĠPal": 3997,
      "Ġ02": 3998,
      "á»ĳm": 3999,
      "ĠPremier": 4000,
      "ĠsÆ¡n": 4001,
      "ThÃ": 4002,
      "ĠÄĲiá»ģn": 4003,
      "±ng": 4004,
      "cÃ³": 4005,
      "thÃ": 4006,
      "tra": 4007,
      "Ġláº¥n": 4008,
      "ĠláºŃu": 4009,
      "ĠRiÃªng": 4010,
      "ĠLee": 4011,
      "Ġlong": 4012,
      "ĠÄĲá»Ļng": 4013,
      "ĠHÆ¡n": 4014,
      "ĠtÃłn": 4015,
      "Ġkhá»©": 4016,
      "Ġ2009": 4017,
      "63": 4018,
      "ĠchÃºa": 4019,
      "Ã©o": 4020,
      "ĠchÃ¢m": 4021,
      "AND": 4022,
      "ĠVi": 4023,
      "ĠgÃ¡nh": 4024,
      "ChÆ°Æ¡ng": 4025,
      "Ġváº¥t": 4026,
      "Quáº£ng": 4027,
      "Ġngá»±c": 4028,
      "ler": 4029,
      "ĠTik": 4030,
      "ghan": 4031,
      "org": 4032,
      "ĠGre": 4033,
      "ĠÃĲ": 4034,
      "ĠMi": 4035,
      "89": 4036,
      "trong": 4037,
      "Ġxáº£": 4038,
      "Ġdá»įn": 4039,
      "Ġchinh": 4040,
      "HO": 4041,
      "onda": 4042,
      "site": 4043,
      "ama": 4044,
      "ĠmÆ°á»£n": 4045,
      "Ġnháº¡y": 4046,
      "á»«a": 4047,
      "oyota": 4048,
      "ĠFed": 4049,
      "Ġ600": 4050,
      "ĠNghiÃªn": 4051,
      "09": 4052,
      "ĠTÃ´ng": 4053,
      "xi": 4054,
      ".,": 4055,
      "ogle": 4056,
      "ano": 4057,
      "ĠMC": 4058,
      "ĠPCCC": 4059,
      "ĠChá»ĭ": 4060,
      "ĠSun": 4061,
      "ĠBHYT": 4062,
      "ĠÄĲá»ĵn": 4063,
      "ĠBÃ¡": 4064,
      "ĠnhÃłng": 4065,
      "orm": 4066,
      "400": 4067,
      "ĠEuro": 4068,
      "ann": 4069,
      "%),": 4070,
      "¹m": 4071,
      "Ġcai": 4072,
      "eon": 4073,
      "ĠAng": 4074,
      "ĠnhÃ©": 4075,
      "Ġláº¥p": 4076,
      "Ġtiá»ĩc": 4077,
      "ĠCom": 4078,
      "Ġkhá»ĳng": 4079,
      "ĠSte": 4080,
      "Phá»": 4081,
      "IA": 4082,
      "Ġco": 4083,
      "Ġmá»ĵ": 4084,
      "ĠLáº¡t": 4085,
      "ĠsÃ¡u": 4086,
      "Ġtrá»Ļi": 4087,
      "ĠdáºŃp": 4088,
      "ĠPhá»ķ": 4089,
      ".)": 4090,
      "ghanistan": 4091,
      "Ġa": 4092,
      "ĠHÄĲQT": 4093,
      "Ar": 4094,
      "Ġhá»Ĺn": 4095,
      "ĠTw": 4096,
      "´n": 4097,
      "Ġtá»©": 4098,
      "Ġ67": 4099,
      "ĠchiÃªu": 4100,
      "tream": 4101,
      "les": 4102,
      "Trao": 4103,
      "Ġláº·ng": 4104,
      "ump": 4105,
      "Tá»ķ": 4106,
      "ĠÃģnh": 4107,
      "ngton": 4108,
      "ĠBay": 4109,
      "ĠchÃ¬m": 4110,
      "Ġ51": 4111,
      "Ġ49": 4112,
      "ĠUtd": 4113,
      "ive": 4114,
      "ous": 4115,
      "Ġgom": 4116,
      "Ġ68": 4117,
      "ĠrÃ©t": 4118,
      "ĠTÃ´n": 4119,
      "ish": 4120,
      "ashington": 4121,
      "ĠIV": 4122,
      "Hoa": 4123,
      "ĠMer": 4124,
      "%)": 4125,
      "ĠMc": 4126,
      "ĠxÆ°á»Łng": 4127,
      "ĠKiáº¿n": 4128,
      "ĠLam": 4129,
      "2018": 4130,
      "HLV": 4131,
      "men": 4132,
      "Ġdá»¡": 4133,
      "Ġsan": 4134,
      "ĠlÆ°á»Ŀng": 4135,
      "Ġluá»ĵng": 4136,
      "BN": 4137,
      "ĠAfghanistan": 4138,
      "ĠÄĲB": 4139,
      "Ġrá»¡": 4140,
      "ĠThiá»ĩn": 4141,
      "Ġthá»į": 4142,
      "79": 4143,
      "Ná»¯": 4144,
      "ĠbÃ¬": 4145,
      "ii": 4146,
      "Ġvang": 4147,
      "Ġcáº¯p": 4148,
      "ĠTháºŃm": 4149,
      "ĠDav": 4150,
      "The": 4151,
      "bao": 4152,
      "aria": 4153,
      "ĠHÃ¬nh": 4154,
      "42": 4155,
      "Ġsá»ĳc": 4156,
      "ED": 4157,
      "Ġu": 4158,
      "ube": 4159,
      "ToÃłn": 4160,
      "ien": 4161,
      "HÃ´m": 4162,
      "him": 4163,
      "ĠTham": 4164,
      "ala": 4165,
      "yn": 4166,
      "ĠVÄĲV": 4167,
      "ĠYou": 4168,
      "ĠEn": 4169,
      "PC": 4170,
      "yc": 4171,
      "aul": 4172,
      "Ã²i": 4173,
      "ĠcÆ°á»Ľc": 4174,
      "Æ°á»Ľt": 4175,
      "ĠSÄ©": 4176,
      "ors": 4177,
      "Ġmuá»Ļn": 4178,
      "ĠThuáº¿": 4179,
      "ĠDanh": 4180,
      "ĠÄĳá»±ng": 4181,
      "Ļi": 4182,
      "ius": 4183,
      "Ġ56": 4184,
      "Ġá»©c": 4185,
      "Ľn": 4186,
      "Ġ2005": 4187,
      "Ġ2004": 4188,
      "utin": 4189,
      "Ġnhá»Ł": 4190,
      "ĠVF": 4191,
      "Ġ66": 4192,
      "ĠÄĳáº¥y": 4193,
      "Ġcháº©n": 4194,
      "ĠWashington": 4195,
      "ĠGl": 4196,
      "ĠÄĲáº¿": 4197,
      "ĠSao": 4198,
      "att": 4199,
      "ĠGiÃ³": 4200,
      "ena": 4201,
      "ania": 4202,
      "ĠMÃ£o": 4203,
      "Ġdá»ĵn": 4204,
      "Al": 4205,
      "Ġdá»ĳc": 4206,
      "ĠkÃ¬": 4207,
      "má»Ļt": 4208,
      "Má»Ĺi": 4209,
      "ose": 4210,
      "ĠNATO": 4211,
      "ĠlÃ£o": 4212,
      "ba": 4213,
      "chester": 4214,
      "ja": 4215,
      "ĠSáº£n": 4216,
      "ĠTum": 4217,
      "Ġbá»¥i": 4218,
      "Gia": 4219,
      "Ġ54": 4220,
      "Nguyá»ħn": 4221,
      "Viet": 4222,
      "ĠÄĳá»ĩ": 4223,
      "Ġtáº§n": 4224,
      "ĠOr": 4225,
      "Ġeuro": 4226,
      "eh": 4227,
      "ĠAFP": 4228,
      "'s": 4229,
      "Ġ57": 4230,
      "ĠcÃºng": 4231,
      "NguyÃªn": 4232,
      "ĠYáº¿n": 4233,
      "Ġ44": 4234,
      "DI": 4235,
      "pa": 4236,
      "ĠlÆ°á»¡ng": 4237,
      "Tham": 4238,
      "ĠPSG": 4239,
      "Ġtrá»Ļn": 4240,
      "Ġchá»«ng": 4241,
      "quáºŃn": 4242,
      "otte": 4243,
      "JC": 4244,
      "ĠThÄĥng": 4245,
      "ĠÃ¹n": 4246,
      "ĠNhÃ³m": 4247,
      "TTg": 4248,
      "ĠTÃŃn": 4249,
      "Ġlá»Ļc": 4250,
      "800": 4251,
      "HÆ¡n": 4252,
      "ĠÄĳá»©t": 4253,
      "Ġná»Ľi": 4254,
      "ĠMac": 4255,
      "ĠMas": 4256,
      "TA": 4257,
      "ON": 4258,
      "Ġhttps": 4259,
      "ĠÄĳÃ¢m": 4260,
      "Ġvu": 4261,
      "ĠÃ´tÃ´": 4262,
      "ĠAlex": 4263,
      "ĠMo": 4264,
      "03": 4265,
      "AGL": 4266,
      "Ġ41": 4267,
      "Ho": 4268,
      "Ġnáº¡p": 4269,
      "SI": 4270,
      "Ġdá»Ŀi": 4271,
      "600": 4272,
      "Ġkhá»Ń": 4273,
      "sung": 4274,
      "iel": 4275,
      "ĠtrÃ¢n": 4276,
      "Xem": 4277,
      "ĠsÆ°u": 4278,
      "lig": 4279,
      "Ġj": 4280,
      "Ġngá»±": 4281,
      "ĠvÃ³c": 4282,
      "ĠbÃ¡t": 4283,
      "ĠHe": 4284,
      "ĠÄĳÃ³i": 4285,
      "Ġ46": 4286,
      "TN": 4287,
      "ĠBer": 4288,
      "ĠKhá»ĳi": 4289,
      "ĠSÃ¡ng": 4290,
      "ĠThÃ¡nh": 4291,
      "Ġráº¡ng": 4292,
      "illa": 4293,
      "ĠPer": 4294,
      "yp": 4295,
      "CÄĲ": 4296,
      "ĠAra": 4297,
      "itter": 4298,
      "ĠQuyá»ģn": 4299,
      "Ġnáº¿p": 4300,
      "ĠlÃ¢n": 4301,
      "78": 4302,
      "ĠSol": 4303,
      "ĠcáºŃy": 4304,
      "ĠBe": 4305,
      "ĠAt": 4306,
      "Ġ[": 4307,
      "51": 4308,
      "ES": 4309,
      "ĠCÃ¢u": 4310,
      "ĠÃ¡c": 4311,
      "Ġngá»įn": 4312,
      "Ġ1990": 4313,
      "ĠTR": 4314,
      "ĠTre": 4315,
      "--": 4316,
      "ĠMáº¹": 4317,
      "ĠNhÃ¢m": 4318,
      "ĠGoogle": 4319,
      "ĠTokyo": 4320,
      "Ġxáº¡": 4321,
      "Ġbá»įc": 4322,
      "Ġmáº·n": 4323,
      "Ġphun": 4324,
      "IN": 4325,
      "ĠNhung": 4326,
      "ĠdÃŃnh": 4327,
      "Ġ52": 4328,
      "Ġ|": 4329,
      "Ã¼": 4330,
      "ure": 4331,
      "ĠCa": 4332,
      "ĠViÃªn": 4333,
      "á»ĳp": 4334,
      "ĠKá»¹": 4335,
      "Ġlá»©a": 4336,
      "ĠngÆ¡i": 4337,
      "ĠBÄĲS": 4338,
      "ĠChÃº": 4339,
      "ĠEx": 4340,
      "ĠCáºŃp": 4341,
      "PhÃŃa": 4342,
      "IV": 4343,
      "ĠPutin": 4344,
      "ÄĲáº§u": 4345,
      "CK": 4346,
      "ĠMÆ°á»Ŀng": 4347,
      "ake": 4348,
      "ĠVáºŃy": 4349,
      "let": 4350,
      "ational": 4351,
      "och": 4352,
      "rist": 4353,
      "ĠLon": 4354,
      "ys": 4355,
      "Ġhung": 4356,
      "Em": 4357,
      "Ġcu": 4358,
      "atar": 4359,
      "ĠSen": 4360,
      "NhÃ³m": 4361,
      "ĠHam": 4362,
      "Ngh": 4363,
      "2017": 4364,
      "oid": 4365,
      "ĠchÃªnh": 4366,
      "ĠÆ°a": 4367,
      "ĠKy": 4368,
      "ney": 4369,
      "combank": 4370,
      "ÄĲÃ³": 4371,
      "ĠMod": 4372,
      "ÄĲÃ¡ng": 4373,
      "ĠSe": 4374,
      "ĠkhÃ©o": 4375,
      "Ġ63": 4376,
      "ĠKhÃª": 4377,
      "ĠnÃ©m": 4378,
      "ĠthÃ¡p": 4379,
      "ĠOanh": 4380,
      "ĠBÃŃch": 4381,
      "Ġ250": 4382,
      "á»ĭn": 4383,
      "de": 4384,
      "ĠbÃ¡ch": 4385,
      "ĠAP": 4386,
      "Ġtá»±a": 4387,
      "ĠToyota": 4388,
      "43": 4389,
      "06": 4390,
      "ĠbáºŃn": 4391,
      "ĠOs": 4392,
      "ĠGDP": 4393,
      "Ġ85": 4394,
      "Ġngá»±a": 4395,
      "Ãºy": 4396,
      "COP": 4397,
      "Ġrá»±c": 4398,
      "ĠCá»Ńa": 4399,
      "ĠlÃµi": 4400,
      "giá»Ŀ": 4401,
      "ĠWal": 4402,
      "anmar": 4403,
      "ĠgÃ£y": 4404,
      "ĠChar": 4405,
      "ĠkhoÃ¡c": 4406,
      "Ġ/": 4407,
      "ĠVTV": 4408,
      "ĠvÃłnh": 4409,
      "car": 4410,
      "ĠGal": 4411,
      "Tuá»ķi": 4412,
      "Thu": 4413,
      "KT": 4414,
      "ĠTÆ°á»Ŀng": 4415,
      "ĠgiáºŃn": 4416,
      "Tháº¿": 4417,
      "Ġnáº¥m": 4418,
      "QG": 4419,
      "ĠLÃł": 4420,
      "ĠlÃ²": 4421,
      "ĠMich": 4422,
      "ĠÄĳáº»": 4423,
      "Ġ59": 4424,
      "Ġgáº¯t": 4425,
      "Diá»ħn": 4426,
      "BP": 4427,
      "AN": 4428,
      "ĠVH": 4429,
      "Tok": 4430,
      "outh": 4431,
      "akh": 4432,
      "Ġ99": 4433,
      "ĠChá»£": 4434,
      "Nhá»": 4435,
      "HÃłng": 4436,
      "ĠThÃ¢n": 4437,
      "BÃŃ": 4438,
      "ĠkhÃ©p": 4439,
      "ĠCor": 4440,
      "¯a": 4441,
      "á»Ŀi": 4442,
      "ĠTAND": 4443,
      "ĠBel": 4444,
      "ĠViettel": 4445,
      "ĠCá»Ńu": 4446,
      "Ġsá»£i": 4447,
      "41": 4448,
      "Ġ58": 4449,
      "EU": 4450,
      "ĠBang": 4451,
      "Ġong": 4452,
      "ene": 4453,
      "Æ°á»Łi": 4454,
      "Ġlog": 4455,
      "ĠLá»¥c": 4456,
      "ĠÄĳuÃ´i": 4457,
      "ĠLondon": 4458,
      "ÄĲiá»ĥm": 4459,
      "%).": 4460,
      "Ġbáº¿": 4461,
      "Ġlá»¥t": 4462,
      "Ġcháº·ng": 4463,
      "Ġcá»ĳc": 4464,
      "ve": 4465,
      "ĠBÃ¡i": 4466,
      "ĠbÃ´ng": 4467,
      "ĠÄĲiá»ĥm": 4468,
      "ĠÃ¡m": 4469,
      "ĠÄĲÆ¡n": 4470,
      "ĠTráº¡m": 4471,
      "ĠTM": 4472,
      "ĠAFF": 4473,
      "ĠNN": 4474,
      "Tá»ĳi": 4475,
      "59": 4476,
      "á»įn": 4477,
      "Ãºn": 4478,
      "Æ°á»¡i": 4479,
      "eck": 4480,
      "Ġ72": 4481,
      "ĠTháº§n": 4482,
      "ĠHÃ£y": 4483,
      "âĢĿ;": 4484,
      "ĠâĢĺ": 4485,
      "Ġmáº¡n": 4486,
      "Há»įc": 4487,
      "CL": 4488,
      "ĠhÃ¡i": 4489,
      "ĠÄĳá»ĵi": 4490,
      "uel": 4491,
      "Ġranh": 4492,
      "ĠMor": 4493,
      "ust": 4494,
      "NhÃ": 4495,
      "Ġxá»ķ": 4496,
      "ĠVÃ¹ng": 4497,
      "ĠCB": 4498,
      "ĠKCN": 4499,
      "ova": 4500,
      "Ġdá»ĵi": 4501,
      "ĠHonda": 4502,
      "itco": 4503,
      "ounce": 4504,
      "PN": 4505,
      "TB": 4506,
      "Cuá»ĳi": 4507,
      "Ġ800": 4508,
      "ĠtÃŃm": 4509,
      "sp": 4510,
      "Ġruá»Ļng": 4511,
      "ĠSJC": 4512,
      "erm": 4513,
      "ĠÄĳÃ¡y": 4514,
      "PhÃ¢n": 4515,
      "ÃĤ": 4516,
      "Ġmá»ķ": 4517,
      "gr": 4518,
      "Ġ1999": 4519,
      "Ġngáº¡c": 4520,
      "iev": 4521,
      "ital": 4522,
      "ĠHS": 4523,
      "ĠÄĳáº§m": 4524,
      "VÄĥn": 4525,
      "Chiáº¿n": 4526,
      "ĠdÃ¢m": 4527,
      "ĠXanh": 4528,
      "isa": 4529,
      "DP": 4530,
      "ĠÄĲBQH": 4531,
      "Ġ2001": 4532,
      "ĠManchester": 4533,
      "ĠTá»·": 4534,
      "ĠTal": 4535,
      "Ġ03": 4536,
      "ĠthoÃ¡ng": 4537,
      "ĠnÆ°á»Ľng": 4538,
      "ĠSon": 4539,
      "ĠHAGL": 4540,
      "ives": 4541,
      "Ġvá»Ļi": 4542,
      "ji": 4543,
      "celona": 4544,
      "ĠÃºy": 4545,
      "iá»ģng": 4546,
      "ĠkÃ©p": 4547,
      "ĠLá»ĭch": 4548,
      "ĠLig": 4549,
      "BÃłi": 4550,
      "Ġ2003": 4551,
      "Ġwebsite": 4552,
      "ĠÃ´n": 4553,
      "ĠUS": 4554,
      "ĠVÃŃ": 4555,
      "ĠJoe": 4556,
      "ĠMyanmar": 4557,
      "áº¾": 4558,
      "ĠPhÃ¹ng": 4559,
      "Ġtháº¥u": 4560,
      "igh": 4561,
      "Ġ189": 4562,
      "Ġ:": 4563,
      "yria": 4564,
      "ĠhÃ´i": 4565,
      "ime": 4566,
      "HÃłnh": 4567,
      "700": 4568,
      "62": 4569,
      "Ġngáº¯m": 4570,
      "Ġvá»£t": 4571,
      "ĠTrÃ¬": 4572,
      "ĠKhang": 4573,
      "ĠLáº¡p": 4574,
      "04": 4575,
      "Æ¯á»": 4576,
      "Cáº§n": 4577,
      "ĠlÃ´i": 4578,
      "ĠPhá»§": 4579,
      "Ġ09": 4580,
      "ĠsÃ¡p": 4581,
      "Ġnháº«n": 4582,
      "72": 4583,
      "ĠthÃ¢m": 4584,
      "ĠMÃ´n": 4585,
      "ÄĲÃł": 4586,
      "ĠBáº¥t": 4587,
      "Ġmáº¿n": 4588,
      "Ġ700": 4589,
      "XÃ£": 4590,
      "yd": 4591,
      "uba": 4592,
      "ire": 4593,
      "ĠTwitter": 4594,
      "ĠFran": 4595,
      "ĠGen": 4596,
      "ĠngÃło": 4597,
      "ĠÄĲÃ¡ng": 4598,
      "Ġcáº¯m": 4599,
      "PTNT": 4600,
      "ĠcÃłi": 4601,
      "ings": 4602,
      "ĠFI": 4603,
      "ment": 4604,
      "Ġ53": 4605,
      "táº¥n": 4606,
      "ĠLáºŃp": 4607,
      "ĩn": 4608,
      "Ĺng": 4609,
      "etro": 4610,
      "ĠDuyÃªn": 4611,
      "err": 4612,
      "ĠCuá»ĳi": 4613,
      "ward": 4614,
      "Ġ2002": 4615,
      "ĠMark": 4616,
      "ĠbuÃ½t": 4617,
      "ĠTrump": 4618,
      "ĠTiáº¿ng": 4619,
      "ect": 4620,
      "TÄĥng": 4621,
      "Ġlá»¡": 4622,
      "ĠMá»¥c": 4623,
      "ĠÃģo": 4624,
      "ĠTV": 4625,
      "ĠGiá»Ŀ": 4626,
      "ĠMon": 4627,
      "ali": 4628,
      "Ġ98": 4629,
      "ĠcÆ°á»¡ng": 4630,
      "Ġ06": 4631,
      "Ġkáº¹t": 4632,
      "nham": 4633,
      "Nhiá»ĩt": 4634,
      "....": 4635,
      "ÄĲá»ĭa": 4636,
      "tÄĥng": 4637,
      "Ġ05": 4638,
      "pt": 4639,
      "ĠkhÃ³i": 4640,
      "are": 4641,
      "TÆ°Æ¡ng": 4642,
      "ĠHa": 4643,
      "ĠSÃ¢n": 4644,
      "ĠchÃ©p": 4645,
      "ĠCung": 4646,
      "58": 4647,
      "Ġthá»£": 4648,
      "Cho": 4649,
      "ĠdÃ²": 4650,
      "ura": 4651,
      "ĠDon": 4652,
      "ĠCap": 4653,
      "anth": 4654,
      "ĠVal": 4655,
      "ĠxÆ¡": 4656,
      "Lá»ħ": 4657,
      "ĠOCOP": 4658,
      "ĠOn": 4659,
      "īa": 4660,
      "ĠNG": 4661,
      "vent": 4662,
      "ĠMá»Ľi": 4663,
      "Ġnáº¡i": 4664,
      "KS": 4665,
      "que": 4666,
      "Ġkem": 4667,
      "uz": 4668,
      "ĠUA": 4669,
      "DA": 4670,
      "ĠSport": 4671,
      "ĠPGS": 4672,
      "ĠluÃ¢n": 4673,
      "ĠInd": 4674,
      "Ġsay": 4675,
      "tá»īnh": 4676,
      "ĠBá»ī": 4677,
      "Ġcm": 4678,
      "Ġcá»ĵn": 4679,
      "ĠmÃłng": 4680,
      "ĠHCV": 4681,
      "Ġ\\": 4682,
      "64": 4683,
      "Ġmáº»": 4684,
      "Ġcarb": 4685,
      "Ġno": 4686,
      "Báº£n": 4687,
      "ĠKiáº¿m": 4688,
      "ĠCEO": 4689,
      "ĠTp": 4690,
      "Ġnghiá»ĩn": 4691,
      "Quang": 4692,
      "row": 4693,
      "Ġchai": 4694,
      "Ġmá»ıng": 4695,
      "ĠMÃ´ng": 4696,
      "2016": 4697,
      "ĠCSÄĲT": 4698,
      "ĠMed": 4699,
      "ĠTrÆ°ng": 4700,
      "Ġgay": 4701,
      "ander": 4702,
      "ĠHÆ°á»Ľng": 4703,
      "ĠTikTok": 4704,
      "ĠSamsung": 4705,
      "ÃĶ": 4706,
      "Ġnháº§m": 4707,
      "anc": 4708,
      "ĠHiáº¿n": 4709,
      "ĠPol": 4710,
      "ĠlÄĥng": 4711,
      "ĠTin": 4712,
      "Ġvá»Ł": 4713,
      "ĠWest": 4714,
      "Fast": 4715,
      "Háº£i": 4716,
      "ĠVP": 4717,
      "ĠmÃºa": 4718,
      "ĠDÆ°á»£c": 4719,
      "Ġtá»ħ": 4720,
      "Cáº£nh": 4721,
      "Ġtiá»ĩm": 4722,
      "ĠMay": 4723,
      "GiÃ¡m": 4724,
      "St": 4725,
      "istics": 4726,
      "Ġá»ĵn": 4727,
      "PP": 4728,
      "ĠNews": 4729,
      "ĠVá»ĭ": 4730,
      "Ġdá»ĩt": 4731,
      "ĠBen": 4732,
      "ĠMV": 4733,
      "ski": 4734,
      ".âĢĿ": 4735,
      "SE": 4736,
      "ÄĲá»ģ": 4737,
      "ko": 4738,
      "Ġcáº¡n": 4739,
      "Ġnáº£y": 4740,
      "iban": 4741,
      "Táº¥t": 4742,
      "ThÃ¡i": 4743,
      "ance": 4744,
      "ĠNÆ°á»Ľc": 4745,
      "ĠHong": 4746,
      "ille": 4747,
      "ĠHag": 4748,
      "ĠtrÆ°á»£t": 4749,
      "In": 4750,
      "Ġsuá»ĳi": 4751,
      "ĠNS": 4752,
      "ĠSaudi": 4753,
      "pr": 4754,
      "ĠTÆ°Æ¡ng": 4755,
      "sá»Ńa": 4756,
      "su": 4757,
      "biz": 4758,
      "cow": 4759,
      "ĠsÆ°Æ¡ng": 4760,
      "ĠBo": 4761,
      "ĠÃĶ": 4762,
      "Ġ69": 4763,
      "ĳc": 4764,
      "LoÃłi": 4765,
      "ign": 4766,
      "cho": 4767,
      "Tá»·": 4768,
      "exico": 4769,
      "ĠBS": 4770,
      "thÃ¹ng": 4771,
      "ĠLÄĲLÄĲ": 4772,
      "Ġdá»Ļi": 4773,
      "Ġmen": 4774,
      "ĠNÄĥng": 4775,
      "theo": 4776,
      "ottenham": 4777,
      "ĠkhÃ¡nh": 4778,
      "ĠInter": 4779,
      "¨ng": 4780,
      "Ġhiá»ĥn": 4781,
      "arao": 4782,
      "ĠlÃŃt": 4783,
      "che": 4784,
      "burg": 4785,
      "Báº£o": 4786,
      "ĠVáº¡n": 4787,
      "khoáº£ng": 4788,
      "ĠThÃŃch": 4789,
      "HC": 4790,
      "ĠchÃ©": 4791,
      "UY": 4792,
      "Ġruá»ĵi": 4793,
      "ĠBÃ¡ch": 4794,
      "ĠBarcelona": 4795,
      "ĠNor": 4796,
      "ĠLi": 4797,
      "ĠCÃºc": 4798,
      "Ġdá»ĭu": 4799,
      "ĠÄĳÃºc": 4800,
      "Ġnháº¯m": 4801,
      "lines": 4802,
      "DÃ¢n": 4803,
      "ealand": 4804,
      "tainer": 4805,
      "Ġchuá»Ļt": 4806,
      "ĠVy": 4807,
      "ĠTX": 4808,
      "Ġinch": 4809,
      "AP": 4810,
      "ĠNTM": 4811,
      "LÃłm": 4812,
      "ĠVND": 4813,
      "Cá»¥c": 4814,
      "USD": 4815,
      "NhÃ¬n": 4816,
      "Ġ61": 4817,
      "´i": 4818,
      "Ġ64": 4819,
      "ĠMá»Ļc": 4820,
      "Ġthá»ĭnh": 4821,
      "áº·m": 4822,
      "Bá»ĭ": 4823,
      "ĠSl": 4824,
      "ĠJe": 4825,
      "Thay": 4826,
      "iano": 4827,
      "Ġlá»ģ": 4828,
      "int": 4829,
      "Ġ()": 4830,
      "ĠDr": 4831,
      "áº«m": 4832,
      "atch": 4833,
      "ars": 4834,
      "Ġvá»įt": 4835,
      "ĠZealand": 4836,
      "Ġhuyá»ģn": 4837,
      "ĠCTCP": 4838,
      "Cáº£": 4839,
      "ĠThay": 4840,
      "ck": 4841,
      "ĠKháº¯c": 4842,
      "52": 4843,
      "rey": 4844,
      "Ġkiá»ĩt": 4845,
      "ĠÄĳÃ´n": 4846,
      "col": 4847,
      "Ġ62": 4848,
      "Ġbáº£y": 4849,
      "Xe": 4850,
      "opter": 4851,
      "ĠÃĤm": 4852,
      "ĠSyria": 4853,
      "Doanh": 4854,
      "iana": 4855,
      "phone": 4856,
      "ĠFPT": 4857,
      "ĠTuá»ķi": 4858,
      "57": 4859,
      "ĠAirlines": 4860,
      "ett": 4861,
      "act": 4862,
      "á»µ": 4863,
      "Ġgolf": 4864,
      "87": 4865,
      "ĠAT": 4866,
      "ĠRes": 4867,
      "ĠCÆ°Æ¡ng": 4868,
      "KH": 4869,
      "ĠNhu": 4870,
      "ĠmÄĥng": 4871,
      "á»©": 4872,
      "Khoáº£ng": 4873,
      "LÃºc": 4874,
      "Ġcontainer": 4875,
      "ĠcÃºp": 4876,
      "Ġká»ģ": 4877,
      "ĠAngel": 4878,
      "ĠquÃ£ng": 4879,
      "ĠTráº»": 4880,
      "ĠSup": 4881,
      "ĠChuyÃªn": 4882,
      "LC": 4883,
      "Ġ1997": 4884,
      "ull": 4885,
      "Ġtháº¡ch": 4886,
      "iforn": 4887,
      "Ġhiáº¿u": 4888,
      "Nghá»ĩ": 4889,
      "aland": 4890,
      "Ġhot": 4891,
      "ĠNLÄĲ": 4892,
      "Ġtour": 4893,
      "TráºŃn": 4894,
      "ĠKiev": 4895,
      "Há»ĩ": 4896,
      "way": 4897,
      "NÃ³i": 4898,
      "ĠSang": 4899,
      "ĠMoscow": 4900,
      "ĠUB": 4901,
      "Ġ1995": 4902,
      "ĠHol": 4903,
      "Ġháº¡m": 4904,
      "ĠdÃ¡n": 4905,
      "Iá»": 4906,
      "oáº¡n": 4907,
      "Tiá»ģn": 4908,
      "ĠthÃ¡nh": 4909,
      "ĠÄĲá»ĳng": 4910,
      "LÃ½": 4911,
      "Ká»ĥ": 4912,
      "ĠMexico": 4913,
      "ĠJack": 4914,
      "Ġnhá»ĩn": 4915,
      "ĠrÅ©": 4916,
      "Ġlá»Ļn": 4917,
      "ĠAN": 4918,
      "ael": 4919,
      "Há»į": 4920,
      "ĠdÆ°a": 4921,
      "Ġbá»ıng": 4922,
      "Ġcá»įc": 4923,
      "ĠkhÃ¡i": 4924,
      "Ġchanh": 4925,
      "IM": 4926,
      "my": 4927,
      "undai": 4928,
      "Ġmá»įc": 4929,
      "ins": 4930,
      "Ġná»ĵi": 4931,
      "erb": 4932,
      "ĠmÃ¨o": 4933,
      "Gáº§n": 4934,
      "ĠMilan": 4935,
      "ĠXuáº¥t": 4936,
      "Ġrá»Ļn": 4937,
      "Ca": 4938,
      "oom": 4939,
      "Ġmá»Ŀ": 4940,
      "ĠMag": 4941,
      "Ġváº¡n": 4942,
      "ĠTiÃªu": 4943,
      "osa": 4944,
      "á»«ng": 4945,
      "uts": 4946,
      "ĠPhiÃªn": 4947,
      "ml": 4948,
      "pper": 4949,
      "ois": 4950,
      "ifornia": 4951,
      "86": 4952,
      "VÃł": 4953,
      "ida": 4954,
      "ÄĲÆ°á»Ŀng": 4955,
      "ĠbÃºt": 4956,
      "Ġquyáº¿n": 4957,
      "ĠMá»įi": 4958,
      "itt": 4959,
      "Ġ1998": 4960,
      "NA": 4961,
      "tÆ°Æ¡ng": 4962,
      "Ã©c": 4963,
      "ovic": 4964,
      "ome": 4965,
      "ĠSH": 4966,
      "mi": 4967,
      "ĠCuba": 4968,
      "ĠTuyáº¿t": 4969,
      "ĠTráº¡ch": 4970,
      "DÆ°á»Ľi": 4971,
      "ĠtÃ²": 4972,
      "ĠBlack": 4973,
      "oz": 4974,
      "Ġprotein": 4975,
      "§a": 4976,
      "à¸": 4977,
      "Ġnháº¡t": 4978,
      "Ġchuá»Ļng": 4979,
      "Sh": 4980,
      "Åį": 4981,
      "Ġbl": 4982,
      "ĠÃĤn": 4983,
      "ĠEver": 4984,
      "ĠPH": 4985,
      "Ġphu": 4986,
      "Ġ2026": 4987,
      "ĠCÃºp": 4988,
      "Ġ110": 4989,
      "áº¹o": 4990,
      "MB": 4991,
      "ĠMÃ¹a": 4992,
      "ĠTrá»Ŀi": 4993,
      "CÃ¢u": 4994,
      "ĠKÃ´ng": 4995,
      "ĠPhÃ¹": 4996,
      "ĠFIFA": 4997,
      "MC": 4998,
      "ĠRang": 4999,
      "Pl": 5000,
      "ĠGP": 5001,
      "Ġim": 5002,
      "ĠTimes": 5003,
      "2015": 5004,
      "Ba": 5005,
      "ĠSá»¹": 5006,
      "ĠÄĳáº¯c": 5007,
      "ĠbÆ¡m": 5008,
      "Khá»": 5009,
      "TH": 5010,
      "ishi": 5011,
      "ĠHÃłm": 5012,
      "Pháº§n": 5013,
      "ĠtrÃ¡ng": 5014,
      "Ġ92": 5015,
      "ĠgÅ©i": 5016,
      "htt": 5017,
      "ĠUyÃªn": 5018,
      "Ġvoi": 5019,
      "HoÃłng": 5020,
      "ĠhÃł": 5021,
      "Ġbáº¯p": 5022,
      "ĠLou": 5023,
      "ĠTottenham": 5024,
      "Ġtá»¥ng": 5025,
      "ĠNÃªn": 5026,
      "ĠDavid": 5027,
      "itcoin": 5028,
      "PhÆ°Æ¡ng": 5029,
      "Ġlui": 5030,
      "ĠCalifornia": 5031,
      "vÃ¹ng": 5032,
      "ĠHuÃ¢n": 5033,
      "Ġhá»įng": 5034,
      "ĠMax": 5035,
      "aya": 5036,
      "ĠQR": 5037,
      "oss": 5038,
      "ĠUN": 5039,
      "Ġngáº·t": 5040,
      "ĠGÃ²": 5041,
      "ita": 5042,
      "ĠMáº¡ch": 5043,
      "ĠKong": 5044,
      "ĠBarca": 5045,
      "ĠBÃ³ng": 5046,
      "Ġkhoai": 5047,
      "ater": 5048,
      "IS": 5049,
      "erson": 5050,
      "Ġkhá»ī": 5051,
      "ĠPa": 5052,
      "Ġdáº£i": 5053,
      "á»¦y": 5054,
      "ER": 5055,
      "araoke": 5056,
      "Ġtrá»ħ": 5057,
      "atus": 5058,
      "ĠmÅ©": 5059,
      "ren": 5060,
      "QuÃ¡": 5061,
      "net": 5062,
      "GiÃ¡o": 5063,
      "ĠTriá»ĥn": 5064,
      "ĠCá»ķng": 5065,
      "ĠHáº§u": 5066,
      "ĠKhai": 5067,
      "Ġchuá»ĳi": 5068,
      "Ġinternet": 5069,
      "ĠEVN": 5070,
      "ĠMusk": 5071,
      "ĠÄĳÃ²n": 5072,
      "aff": 5073,
      "NháºŃt": 5074,
      "ĠHan": 5075,
      "ĠGeor": 5076,
      "ĠSai": 5077,
      "ĠvuÃ´ng": 5078,
      "Æł": 5079,
      "ĠFor": 5080,
      "ĠdÃ£y": 5081,
      "Ġeo": 5082,
      "iat": 5083,
      "Ã¶": 5084,
      "Tá»Ń": 5085,
      "ower": 5086,
      "Ġvá»ĭnh": 5087,
      "ĠvÆ°á»£ng": 5088,
      "Ġkaraoke": 5089,
      "¥n": 5090,
      "ĠQatar": 5091,
      "82": 5092,
      "73": 5093,
      "54": 5094,
      "TÃłi": 5095,
      "ĠCer": 5096,
      "Ġ1992": 5097,
      "ora": 5098,
      "ĠHung": 5099,
      "BÃ¡c": 5100,
      "ĠngÆ°ng": 5101,
      "Ġbi": 5102,
      "Ġthá»Ńa": 5103,
      "ĠLHPN": 5104,
      "Ġsiáº¿t": 5105,
      "Ġdá»«a": 5106,
      "Ġ1996": 5107,
      "Ġsoi": 5108,
      "ĠToÃ¡n": 5109,
      "ks": 5110,
      "Cáº§u": 5111,
      "ĠtrÃ¹m": 5112,
      "76": 5113,
      "Ġlives": 5114,
      "me": 5115,
      "ĠVinFast": 5116,
      "ĠdÅ©ng": 5117,
      "ĠArabia": 5118,
      "ĠLÄĥng": 5119,
      "ĠÄĳuá»ĳi": 5120,
      "QS": 5121,
      "ĠÄĳáº¯n": 5122,
      "áºł": 5123,
      "ĠláºŃt": 5124,
      "ĠTech": 5125,
      "iger": 5126,
      "Nga": 5127,
      "arm": 5128,
      "ĠxÃ¡": 5129,
      "ĠAnton": 5130,
      "liam": 5131,
      "53": 5132,
      "PhÃ²ng": 5133,
      "ĠÄĲáº£o": 5134,
      "ĠYouT": 5135,
      "ade": 5136,
      "Ġmáº¯m": 5137,
      "DL": 5138,
      "Ġgáº¡ch": 5139,
      "ula": 5140,
      "Ġ1991": 5141,
      "ĠmÃ³ng": 5142,
      "bapp": 5143,
      "UV": 5144,
      "Tá»īnh": 5145,
      "ĠNV": 5146,
      "use": 5147,
      "Lu": 5148,
      "Song": 5149,
      "Ġbá»Ļc": 5150,
      "Quy": 5151,
      "ternational": 5152,
      "Ġsen": 5153,
      "Ġtia": 5154,
      "ĠSiÃªu": 5155,
      "ĠNHNN": 5156,
      "ĠlÆ¡": 5157,
      "ny": 5158,
      "ÃĬ": 5159,
      "its": 5160,
      "DN": 5161,
      "ĠDelta": 5162,
      "Ġláº·p": 5163,
      "ĠQuáº¿": 5164,
      "wood": 5165,
      "ĠchÃ¨": 5166,
      "Ġ1993": 5167,
      "Man": 5168,
      "BA": 5169,
      "ĠchÃ¹m": 5170,
      "ĠVua": 5171,
      "ike": 5172,
      "Ġráº¡p": 5173,
      "ĠÄĳá»įng": 5174,
      "ĠSouth": 5175,
      "Báº£ng": 5176,
      "he": 5177,
      "ĠSi": 5178,
      "Ġngá»Ļt": 5179,
      "Ġ1980": 5180,
      "hip": 5181,
      "ĠlÄĥn": 5182,
      "ĠKhoáº£ng": 5183,
      "https": 5184,
      "ĠMá»©c": 5185,
      "Máº·t": 5186,
      "gia": 5187,
      "ĠLand": 5188,
      "ĠLÃłm": 5189,
      "ling": 5190,
      "ĠnÃ¢u": 5191,
      "izer": 5192,
      "fe": 5193,
      "Ġkhe": 5194,
      "ĠGS": 5195,
      "Ġtráº¯c": 5196,
      "els": 5197,
      "ĠngÃ´": 5198,
      "2024": 5199,
      "Ġ76": 5200,
      "bappe": 5201,
      "ĠInst": 5202,
      "axy": 5203,
      "ĠFDI": 5204,
      "ric": 5205,
      "ĠSil": 5206,
      "Ġsáº§u": 5207,
      "Ġhoáº¡i": 5208,
      "Quá»ĳc": 5209,
      "Ġlogistics": 5210,
      "Ġcarbon": 5211,
      "ĠMat": 5212,
      "Ġquyá»ĥn": 5213,
      "900": 5214,
      "ĠChrist": 5215,
      "ĠAc": 5216,
      "ĠHiá»ĥn": 5217,
      "ĠMe": 5218,
      "ĠvÃ²": 5219,
      "Huyá»ĩn": 5220,
      "Ġxao": 5221,
      "uss": 5222,
      "Ġax": 5223,
      "Ġsá»¥p": 5224,
      "phÆ°á»Ŀng": 5225,
      "aj": 5226,
      "seo": 5227,
      "ger": 5228,
      "ĠCDC": 5229,
      "Ġtáº©y": 5230,
      "Ġdáº¹p": 5231,
      "CÄĥn": 5232,
      "Ná»Ļi": 5233,
      "ĠPet": 5234,
      "iy": 5235,
      "ĠTuáº§n": 5236,
      "ĠÄĲen": 5237,
      "ĠVol": 5238,
      "84": 5239,
      "Ġtá»ĵi": 5240,
      "74": 5241,
      "nay": 5242,
      "ĠTá»©": 5243,
      "Ġá»Ľt": 5244,
      "AI": 5245,
      "Ġ1994": 5246,
      "ĠThom": 5247,
      "Ġtá»ĳng": 5248,
      "Æ¯T": 5249,
      "ise": 5250,
      "ĠTáº¡p": 5251,
      "2026": 5252,
      "ĠChÃºa": 5253,
      "ĠxÆ°ng": 5254,
      "ĠVic": 5255,
      "www": 5256,
      "ĠCáº¥p": 5257,
      "lu": 5258,
      "ĠSÃ¡u": 5259,
      "Ľc": 5260,
      "áº½n": 5261,
      "MÃ¹a": 5262,
      "ĠBayern": 5263,
      "á»ı": 5264,
      "Ġgá»ĳi": 5265,
      "Há»ĵ": 5266,
      "aph": 5267,
      "ĠKhÆ°Æ¡ng": 5268,
      "ele": 5269,
      "ceae": 5270,
      "ĠchÃ©o": 5271,
      "ĠBuÃ´n": 5272,
      "Ã©n": 5273,
      "Ġphanh": 5274,
      "ĠVen": 5275,
      "ĠRáºŃp": 5276,
      "ĠÄĲÃłm": 5277,
      "ĠBal": 5278,
      "oft": 5279,
      "Ġvá»īa": 5280,
      "agram": 5281,
      "ĠBá»ĳ": 5282,
      "ĠcÃ¡p": 5283,
      "Ġmini": 5284,
      "ĠláºŃn": 5285,
      "ĠÆ¡i": 5286,
      "ĠTaliban": 5287,
      "ĠsÃºc": 5288,
      "ĠRobert": 5289,
      "ĠCÄĥn": 5290,
      "Ġthá»ķi": 5291,
      "ĠnÃ¡t": 5292,
      "Ġmá»Ļc": 5293,
      "ÃŃa": 5294,
      "PV": 5295,
      "ĠMTV": 5296,
      "2014": 5297,
      "ĠchÃ¡n": 5298,
      "GP": 5299,
      "ami": 5300,
      "Tiáº¿n": 5301,
      "Ġbá»ĥ": 5302,
      "ĠBur": 5303,
      "ĠBÄĲBP": 5304,
      "Ġpháº¿": 5305,
      "RiÃªng": 5306,
      "ĠSw": 5307,
      "ĠhÃ²n": 5308,
      "ĠÄĳiá»ģn": 5309,
      "Sinh": 5310,
      "ĠInternational": 5311,
      "ĠmÆ°á»Ŀi": 5312,
      "ĠÐ": 5313,
      "per": 5314,
      "esla": 5315,
      "ĠIr": 5316,
      "Nhá»Ŀ": 5317,
      "gon": 5318,
      "Ġcua": 5319,
      "áº»o": 5320,
      "ChuyÃªn": 5321,
      "over": 5322,
      "fizer": 5323,
      "Ġpl": 5324,
      "ĠÄĳÃª": 5325,
      "ĠOld": 5326,
      "KSND": 5327,
      "Ġxen": 5328,
      "VÃ²ng": 5329,
      "oto": 5330,
      "Ġz": 5331,
      "ĠDiá»ĩp": 5332,
      "ĠDiá»ĩu": 5333,
      "ĠcÃ´n": 5334,
      "ĠHyundai": 5335,
      "ĠJo": 5336,
      "ĠnÃ²ng": 5337,
      "ĠLÄ©nh": 5338,
      "56": 5339,
      "ker": 5340,
      "ÄĤ": 5341,
      "ates": 5342,
      "ĠJames": 5343,
      "ĠngÃ¢m": 5344,
      "Ġ78": 5345,
      "ĠMart": 5346,
      "ove": 5347,
      "af": 5348,
      "ĠtrÄĥng": 5349,
      "ĠTen": 5350,
      "ony": 5351,
      "ĠBáº£y": 5352,
      "ĠArt": 5353,
      "ĠdÃło": 5354,
      "ĠÄĲáºŃu": 5355,
      "ĠChÃ¢n": 5356,
      "Chiáº¿c": 5357,
      "MS": 5358,
      "ĠXe": 5359,
      "ĠKT": 5360,
      "ĠKhuyáº¿n": 5361,
      "Ġneo": 5362,
      "Ġhá»Ł": 5363,
      "res": 5364,
      "ĠKhÃ¡ch": 5365,
      "Ġbá»Ļi": 5366,
      "NgÃ¢n": 5367,
      "Ġbáº¡": 5368,
      "ĠSm": 5369,
      "ĠShi": 5370,
      "Ġngháº½n": 5371,
      "Ġkhan": 5372,
      "ĠMel": 5373,
      "Ġtháº¯n": 5374,
      "ĠNiÃªn": 5375,
      "ĠTráº¯ng": 5376,
      "ĠmÃ²n": 5377,
      "Ġvá»ĭt": 5378,
      "Ġtha": 5379,
      "ĠÃło": 5380,
      "ĠTom": 5381,
      "ĠKá»·": 5382,
      "ĠNi": 5383,
      "edes": 5384,
      "Ġ77": 5385,
      "dar": 5386,
      "arus": 5387,
      "ĠtÃºng": 5388,
      "yan": 5389,
      "ĠQuÃ¡": 5390,
      "Ġgen": 5391,
      "rop": 5392,
      "za": 5393,
      "ĠLat": 5394,
      "ĠTuyáº¿n": 5395,
      "Ġloa": 5396,
      "ĠdÄ©": 5397,
      "ĠTáº¡": 5398,
      "phÃ": 5399,
      "Ġtháº§m": 5400,
      "Ġgai": 5401,
      "chi": 5402,
      "Ġser": 5403,
      "ÄĲÃ£": 5404,
      "ĠHi": 5405,
      "ĠMic": 5406,
      "ĠWe": 5407,
      "ĠCen": 5408,
      "83": 5409,
      "ĠquÃ¡t": 5410,
      "ĠBank": 5411,
      "ĠHarry": 5412,
      "Ġ2050": 5413,
      "ĠxÃ¡ch": 5414,
      "vel": 5415,
      "ĠcÃºm": 5416,
      "Ġcay": 5417,
      "rl": 5418,
      "tiáº¿ng": 5419,
      "ĠGiá»Ľi": 5420,
      "ĠKiá»ĩt": 5421,
      "ĠViáº¿t": 5422,
      "Ġá»ĳm": 5423,
      "ĠSá»©c": 5424,
      "alis": 5425,
      "ase": 5426,
      "ÄĲÃ¡nh": 5427,
      "Ġaxit": 5428,
      "ĠYouTube": 5429,
      "van": 5430,
      "ĠnÃ´n": 5431,
      "Báº¥t": 5432,
      "Ġ04": 5433,
      "ĠStr": 5434,
      "ĠOp": 5435,
      "ĠTráº¥n": 5436,
      "ĠngÃ³n": 5437,
      "Ġcong": 5438,
      "metr": 5439,
      "Sáº£n": 5440,
      "Ġhi": 5441,
      "ĠMun": 5442,
      "ĠGar": 5443,
      "Ġkiá»ģm": 5444,
      "ĠlÃŃ": 5445,
      "ĠPhÃ¢n": 5446,
      "port": 5447,
      "Ġsmart": 5448,
      "XX": 5449,
      "Ġ81": 5450,
      "Nháº±m": 5451,
      "Ġ1975": 5452,
      "Kim": 5453,
      "ĠSeoul": 5454,
      "ĠWilliam": 5455,
      "ira": 5456,
      "ĠPfizer": 5457,
      "out": 5458,
      "ĠCÃ¡": 5459,
      "Ġbáº©n": 5460,
      "ernand": 5461,
      "Báº¯c": 5462,
      "ĠXI": 5463,
      "ĠmÃ¢m": 5464,
      "Ġrá»ĩt": 5465,
      "Ġ74": 5466,
      "ĠNov": 5467,
      "ĠNet": 5468,
      "PA": 5469,
      "ĠGeometr": 5470,
      "ĠMbappe": 5471,
      "ĠKá»ĥ": 5472,
      "Ġkiá»ģu": 5473,
      "ĠKhÃŃ": 5474,
      "ĠGeometridae": 5475,
      "2001": 5476,
      "Ġtuyáº¿t": 5477,
      "92": 5478,
      "ĠrÃ¡p": 5479,
      "ĠGalaxy": 5480,
      "Sc": 5481,
      "ega": 5482,
      "TÃ¢n": 5483,
      "ĠAz": 5484,
      "ĠChÆ°a": 5485,
      "cast": 5486,
      "Ġ350": 5487,
      "een": 5488,
      "ĠItaly": 5489,
      "Ġhang": 5490,
      "Ġbá»©t": 5491,
      "PhiÃªn": 5492,
      "ĠTá»ĳng": 5493,
      "ĠViá»ħn": 5494,
      "Ġnhá»įn": 5495,
      "AF": 5496,
      "Ġná»¥": 5497,
      "Ġrao": 5498,
      "Ġtháº¥m": 5499,
      "any": 5500,
      "Ġ71": 5501,
      "Ġ180": 5502,
      "Quan": 5503,
      "mua": 5504,
      "ventus": 5505,
      "ĠFord": 5506,
      "ĠÄĲÃ£": 5507,
      "Há»": 5508,
      "Ġ08": 5509,
      "ĠGuard": 5510,
      "ĠLuÃ¢n": 5511,
      "ĠPhá»ĳ": 5512,
      "ÄĲá»©c": 5513,
      "Ġlivestream": 5514,
      "ĠTesla": 5515,
      "á»ģn": 5516,
      "onia": 5517,
      "XÃ¢y": 5518,
      "ĠLá»Ļ": 5519,
      "own": 5520,
      "ĠNhÃ¬n": 5521,
      "thÃłnh": 5522,
      "ĠgÃ¡c": 5523,
      "Ġcom": 5524,
      "ĠchÃª": 5525,
      "Ġ1989": 5526,
      "ĠLá»¯": 5527,
      "ĠPhÃŃa": 5528,
      "ĠRed": 5529,
      "ĠVietcombank": 5530,
      "utsal": 5531,
      "Ġráº½": 5532,
      "ĠchiÃªn": 5533,
      "Ġtháº¯c": 5534,
      "Ġtrinh": 5535,
      "ode": 5536,
      "Ġmá»¥n": 5537,
      "ĠInstagram": 5538,
      "ĠNguyá»ĩt": 5539,
      "stan": 5540,
      "ĠHD": 5541,
      "cm": 5542,
      "Thiáº¿u": 5543,
      "inn": 5544,
      "ĠkhÃŃa": 5545,
      "Ġ88": 5546,
      "ãĥ": 5547,
      "náº¿u": 5548,
      "ĠPhÆ°á»Ŀng": 5549,
      "ĠDiÃªn": 5550,
      "ĠtÆ°á»Ľi": 5551,
      "ĠÄĳÃ¹a": 5552,
      "ema": 5553,
      "ĠHá»Ĺ": 5554,
      "ĠYoung": 5555,
      "ĠDiá»ħm": 5556,
      "ĠVFF": 5557,
      "Ġtam": 5558,
      "ĠPan": 5559,
      "ĠBitcoin": 5560,
      "ĠxÃł": 5561,
      "ĠtrÃ¢u": 5562,
      "ons": 5563,
      "ĠAli": 5564,
      "ĠNhÃ£": 5565,
      "mann": 5566,
      "Ġrung": 5567,
      "ĠQuÃ¡n": 5568,
      "ĠsáºŃp": 5569,
      "BSCL": 5570,
      "uki": 5571,
      "ĠnÆ°Æ¡ng": 5572,
      "Ġ130": 5573,
      "TÃ¡c": 5574,
      "ĠhoÃłi": 5575,
      "ĠhoÃłnh": 5576,
      "ĠTháº¥t": 5577,
      "ĠnÃ©n": 5578,
      "ĠnghiÃªng": 5579,
      "ĠKháº£i": 5580,
      "ĠBill": 5581,
      "Ġlá»Ļi": 5582,
      "ĠLouis": 5583,
      "ĠMerc": 5584,
      "esh": 5585,
      "2013": 5586,
      "Ġhoáº¡n": 5587,
      "Ġnho": 5588,
      "ĠRam": 5589,
      "du": 5590,
      "NX": 5591,
      "ĠlÃ©o": 5592,
      "ement": 5593,
      "ThÆ°Æ¡ng": 5594,
      "ĠtÃ¡m": 5595,
      "Ġ73": 5596,
      "Hu": 5597,
      "inho": 5598,
      "Ġbar": 5599,
      "ĠQuyÃªn": 5600,
      "Ġxi": 5601,
      "ĠLáº§n": 5602,
      "Ġmi": 5603,
      "ĠHungary": 5604,
      "Ġ79": 5605,
      "ĠRT": 5606,
      "Ġbá»įn": 5607,
      "ĠÄĳÃŃnh": 5608,
      "ĠvÃº": 5609,
      "ĠSim": 5610,
      "ĠVá»ĭnh": 5611,
      "Ġmanh": 5612,
      "Ġthá»§ng": 5613,
      "ĠhÆ°á»Ľc": 5614,
      "ĠVKSND": 5615,
      "Ġchiáº¿t": 5616,
      "ĠGreen": 5617,
      "ĠNgÃłnh": 5618,
      "ĠsÆ°á»Ŀn": 5619,
      "ĠQU": 5620,
      "á»ĭt": 5621,
      "oni": 5622,
      "Ġdá»Ł": 5623,
      "ĠGiÃ¡p": 5624,
      "Ġtaxi": 5625,
      "ĠVlad": 5626,
      "Ġchay": 5627,
      "Vá»«a": 5628,
      "Ġao": 5629,
      "ss": 5630,
      "Ġkáº½": 5631,
      "ĠTraff": 5632,
      "ĠSá»Ń": 5633,
      "Thá»ĳng": 5634,
      "Ãªnh": 5635,
      "Ġphiá»ģn": 5636,
      "ĠLim": 5637,
      "Ġváº¡ch": 5638,
      "ĠtÃ¡ng": 5639,
      "ĠÄĳá»ĩm": 5640,
      "omes": 5641,
      "ĠKl": 5642,
      "ĠHay": 5643,
      "Du": 5644,
      "ĠHoáº¡t": 5645,
      "ban": 5646,
      "ĠhÃ£i": 5647,
      "aint": 5648,
      "MW": 5649,
      "ÄĲÆ¡n": 5650,
      "ĠCÄĲ": 5651,
      "Ġ1988": 5652,
      "Ġkhoanh": 5653,
      "Tiá»ĥu": 5654,
      "ĠIS": 5655,
      "ĠkÃ¨o": 5656,
      "ĠWHO": 5657,
      "Ġdá»ĳi": 5658,
      "aki": 5659,
      "Ġquá»µ": 5660,
      "ĠUr": 5661,
      "hÃ³a": 5662,
      "ĠBÃłn": 5663,
      "khá»": 5664,
      "ĠSUV": 5665,
      "ĠVÃłnh": 5666,
      "Ġhttp": 5667,
      "Ġmá»Ļng": 5668,
      "ĠBrun": 5669,
      "ĠTrafford": 5670,
      "Ġ89": 5671,
      "ĠcÃ´i": 5672,
      "HÄĲ": 5673,
      "oli": 5674,
      "Ä±": 5675,
      "ĠcháºŃt": 5676,
      "Ġ1970": 5677,
      "ĠCha": 5678,
      "atia": 5679,
      "ĠxÃ´ng": 5680,
      "ĠphÆ¡i": 5681,
      "ĠmÃ²": 5682,
      "iew": 5683,
      "ĠquyÃªn": 5684,
      "ori": 5685,
      "ĠghÃ©": 5686,
      "ĠFl": 5687,
      "ĠMÃ¬nh": 5688,
      "imir": 5689,
      "Ġsmartphone": 5690,
      "eri": 5691,
      "Ġláº·n": 5692,
      "awa": 5693,
      "ĠDai": 5694,
      "ĠSÃ¡ch": 5695,
      "ĠCro": 5696,
      "ĠTráºŃn": 5697,
      "ĠBID": 5698,
      "Ġgá»Ļp": 5699,
      "Ġtá»ıi": 5700,
      "Ġhá»ĳ": 5701,
      "Ġdáº¡n": 5702,
      "ĠHen": 5703,
      "Ġráº¯c": 5704,
      "ĠxÃŃch": 5705,
      "ĠNÃ³i": 5706,
      "Báº¯t": 5707,
      "by": 5708,
      "Ġ86": 5709,
      "ĠthiÃªng": 5710,
      "NgÃłnh": 5711,
      "Ġrob": 5712,
      "ĠxÃ´": 5713,
      "Ġ07": 5714,
      "rosoft": 5715,
      "ĠPaul": 5716,
      "So": 5717,
      "agen": 5718,
      "CDC": 5719,
      "Ġthoáº£ng": 5720,
      "Ġxoáº¯n": 5721,
      "ribank": 5722,
      "ĠxÃ¡m": 5723,
      "Ġmá»ĵi": 5724,
      "ĠATGT": 5725,
      "ĠTrÃºc": 5726,
      "Ġ96": 5727,
      "gen": 5728,
      "ĠLÆ°á»£ng": 5729,
      "ĠNe": 5730,
      "ĠRich": 5731,
      "ĠBáº£ng": 5732,
      "oot": 5733,
      "Ġcá»Łi": 5734,
      "iaceae": 5735,
      "HÃ£y": 5736,
      "cÃ¡c": 5737,
      "Ġnha": 5738,
      "ĠVan": 5739,
      "Ġrá»ĥ": 5740,
      "Cl": 5741,
      "Tu": 5742,
      "eca": 5743,
      "ĠLiá»ĩt": 5744,
      "ĠKm": 5745,
      "ĠÄĳáº¡m": 5746,
      "ĠLang": 5747,
      "Ġbáº¥y": 5748,
      "Ġ1945": 5749,
      "ĠXi": 5750,
      "ops": 5751,
      "ĠNgÅ©": 5752,
      "Ġ82": 5753,
      "Hoáº¡t": 5754,
      "ĠchÃ´n": 5755,
      "ĠCÃ¡n": 5756,
      "ĠMu": 5757,
      "ĠShin": 5758,
      "ield": 5759,
      "indow": 5760,
      "Ġgiá»įt": 5761,
      "Ã¹y": 5762,
      "Kinh": 5763,
      "Ġkhoan": 5764,
      "Ġstart": 5765,
      "SC": 5766,
      "ĠTri": 5767,
      "ĠGáº§n": 5768,
      "Äĳá»": 5769,
      "Ġam": 5770,
      "Trang": 5771,
      "ĠGold": 5772,
      "ĠlÃ¡t": 5773,
      "ĠCá»©": 5774,
      "ĠFLC": 5775,
      "page": 5776,
      "EM": 5777,
      "Video": 5778,
      "Ġ1982": 5779,
      "ĠTor": 5780,
      "Ġnghiá»ĩt": 5781,
      "ĠHÃ¨": 5782,
      "Ġtre": 5783,
      "onald": 5784,
      "ĠmÃ¡": 5785,
      "ĠKáº¡n": 5786,
      "Ġngá»įc": 5787,
      "ĠTinh": 5788,
      "sky": 5789,
      "agon": 5790,
      "Ġ1986": 5791,
      "ĠBro": 5792,
      "obal": 5793,
      "Ġ(+": 5794,
      "Má»¥c": 5795,
      "ĠRáº¥t": 5796,
      "eland": 5797,
      "ĠNoc": 5798,
      "ĠxÃ´n": 5799,
      "ĠHer": 5800,
      "ĠChiáº¿c": 5801,
      "GB": 5802,
      "TÃ¢y": 5803,
      "ĠmÃły": 5804,
      "ĠNgá»į": 5805,
      "Ġlá»¯": 5806,
      "OT": 5807,
      "ĠBelarus": 5808,
      "Giá»Ľi": 5809,
      "gin": 5810,
      "ĠBÄĥng": 5811,
      "Thiáº¿t": 5812,
      "ĠTá»ĭnh": 5813,
      "ĠbÆ°u": 5814,
      "ĠMiá»ģn": 5815,
      "Minh": 5816,
      "ĠGiai": 5817,
      "ĠKhanh": 5818,
      "ĠJuventus": 5819,
      "optera": 5820,
      "Ġkhuy": 5821,
      "Xuáº¥t": 5822,
      "ush": 5823,
      "Ġgu": 5824,
      "ĠÄĲá»ı": 5825,
      "ĠBor": 5826,
      "Ġdáº¡o": 5827,
      "Ġná»©t": 5828,
      "ĠTÃ¡c": 5829,
      "ze": 5830,
      "Ġtháº¯p": 5831,
      "ĠCháº³ng": 5832,
      "ĠHot": 5833,
      "ĠQuá»·": 5834,
      "RO": 5835,
      "áº»m": 5836,
      "ĠNoctu": 5837,
      "Vá»ĭ": 5838,
      "Ġbáº¥m": 5839,
      "Cá»±u": 5840,
      "rab": 5841,
      "ĠGT": 5842,
      "ĠJon": 5843,
      "Máº¹": 5844,
      "ĠTur": 5845,
      "Ġ93": 5846,
      "ody": 5847,
      "Ġláº¯c": 5848,
      "ĠNoctuidae": 5849,
      "ĠAv": 5850,
      "Ġlau": 5851,
      "Ġtriáº¿t": 5852,
      "ross": 5853,
      "ĠThuá»Ļt": 5854,
      "ĠZel": 5855,
      "oth": 5856,
      "Ġphe": 5857,
      "ĠDÆ°á»Ľi": 5858,
      "ĊĊ": 5859,
      "Ġthá»ģm": 5860,
      "ĠbÆ°á»Łi": 5861,
      "ĠnhÆ°á»Ŀng": 5862,
      "Ð¾": 5863,
      "ĠPhim": 5864,
      "ĠNÃºi": 5865,
      "Ġngoan": 5866,
      "Ġ83": 5867,
      "Ġac": 5868,
      "ory": 5869,
      "ĠxÃ´i": 5870,
      "etty": 5871,
      "Ká»³": 5872,
      "ĠJin": 5873,
      "2030": 5874,
      "Ð°": 5875,
      "VC": 5876,
      "ĠtÃ¹ng": 5877,
      "ĠPat": 5878,
      "ĠQuáº£": 5879,
      "Ġrá»ī": 5880,
      "ĠnÃ£": 5881,
      "ĠTá»ĳi": 5882,
      "ĠCop": 5883,
      "Ġ97": 5884,
      "ĠtrÃ¡n": 5885,
      "lan": 5886,
      "ĠCÆ°": 5887,
      "ĠCá»±u": 5888,
      "ĠLiga": 5889,
      "ĠThÃªm": 5890,
      "ĠZh": 5891,
      "AD": 5892,
      "GD": 5893,
      "asil": 5894,
      "Ġshowbiz": 5895,
      "ĠSuper": 5896,
      "EP": 5897,
      "ĠgiÃ´ng": 5898,
      "ci": 5899,
      "Kho": 5900,
      "Triá»ĥn": 5901,
      "der": 5902,
      "air": 5903,
      "Giá»Ŀ": 5904,
      "ĠSá»Ńu": 5905,
      "ĠWar": 5906,
      "Ġgiáº·t": 5907,
      "Ġex": 5908,
      "Wh": 5909,
      "pha": 5910,
      "ĠErik": 5911,
      "Ġhao": 5912,
      "KhÃ¡ch": 5913,
      "Láº§n": 5914,
      "ĠVictor": 5915,
      "ĠMÃª": 5916,
      "lÃł": 5917,
      "ĠthÆ°a": 5918,
      "ĠCas": 5919,
      "ĠEa": 5920,
      "ĠMáº«u": 5921,
      "Äĥk": 5922,
      "Ġluá»Ļc": 5923,
      "we": 5924,
      "of": 5925,
      "gh": 5926,
      "ĠBol": 5927,
      "ĠVladimir": 5928,
      "ĠBrent": 5929,
      "Má»įi": 5930,
      "esel": 5931,
      "cia": 5932,
      "ĠPak": 5933,
      "CÃ¡n": 5934,
      "ĠNgÃ´i": 5935,
      "Ġvan": 5936,
      "Dá»ĭch": 5937,
      "ĠPu": 5938,
      "Ġ1987": 5939,
      "Ġmá»ĭn": 5940,
      "ĠStar": 5941,
      "ĠMob": 5942,
      "Ġháº¡ch": 5943,
      "nes": 5944,
      "tic": 5945,
      "ĠbÃ³c": 5946,
      "Ġbá»Ĺng": 5947,
      "AC": 5948,
      "Nghá»ĭ": 5949,
      "ChÆ°a": 5950,
      "ĠNo": 5951,
      "Ġ160": 5952,
      "Ġkhoang": 5953,
      "Ġbá»ī": 5954,
      "1991": 5955,
      "ĠchiÃªm": 5956,
      "ĠMÅ©i": 5957,
      "áº¿ch": 5958,
      "ĠVÃ²ng": 5959,
      "Ġfor": 5960,
      "ĠTel": 5961,
      "Ġset": 5962,
      "ĠRON": 5963,
      "Vá»£": 5964,
      "Ġ91": 5965,
      "Ġ84": 5966,
      "á»įng": 5967,
      "chiáº¿m": 5968,
      "zy": 5969,
      "ĠPau": 5970,
      "ĠCCC": 5971,
      "ere": 5972,
      "ĠBlu": 5973,
      "Ġlam": 5974,
      "ĠnhÃŃ": 5975,
      "ĠAndre": 5976,
      "ensky": 5977,
      "ĠDis": 5978,
      "ĠÄĲBSCL": 5979,
      "pe": 5980,
      "ĠchÃ©m": 5981,
      "ki": 5982,
      "ĠBá»ĭ": 5983,
      "Mar": 5984,
      "itz": 5985,
      "ĠNSND": 5986,
      "Ġá»¨ng": 5987,
      "ĠÄĳan": 5988,
      "ĠFlor": 5989,
      "ĠNháºŃn": 5990,
      "ĠXII": 5991,
      "kva": 5992,
      "ĠTae": 5993,
      "azon": 5994,
      "ga": 5995,
      "':": 5996,
      "sa": 5997,
      "ĠÄĲá»ĵ": 5998,
      "tá»©c": 5999,
      "ĠOne": 6000,
      "ThÆ°á»£ng": 6001,
      "ĠJong": 6002,
      "ĠMartin": 6003,
      "Br": 6004,
      "lav": 6005,
      "nat": 6006,
      "ĠTháº§y": 6007,
      "Ghi": 6008,
      "dor": 6009,
      "Ġ1985": 6010,
      "ĠKhoáº£n": 6011,
      "cus": 6012,
      "ĠkÄ©": 6013,
      "ival": 6014,
      "Ġdáº·n": 6015,
      "ĠMot": 6016,
      "ĠÄĳáº¡c": 6017,
      "Ġtáº¡": 6018,
      "Phá»¥": 6019,
      "cá»ķ": 6020,
      "ĠmÃ¹ng": 6021,
      "ĠTay": 6022,
      "Ġgáº·t": 6023,
      "ĠGiÃ¡ng": 6024,
      "Ġbá»ĵn": 6025,
      "QuÃ¢n": 6026,
      "ĠCCCD": 6027,
      "ĠVá»ĩ": 6028,
      "Ġ87": 6029,
      "top": 6030,
      "Ġ900": 6031,
      "ĠLÃłng": 6032,
      "QuáºŃn": 6033,
      "ĠcÃłnh": 6034,
      "ĠPlay": 6035,
      "ĠOai": 6036,
      "ĠVáºŃt": 6037,
      "Ġ(-": 6038,
      "emb": 6039,
      "ĠThomas": 6040,
      "ãģ": 6041,
      "ĠJi": 6042,
      "thuá»Ļc": 6043,
      "ĠTCN": 6044,
      "ĠAp": 6045,
      "ĠCÄĲV": 6046,
      "ĠCháº¥t": 6047,
      "ĠÄĳá»¥ng": 6048,
      "ĠÄĳáº¿m": 6049,
      "ycidae": 6050,
      "ĠBloom": 6051,
      "ĠcháºŃu": 6052,
      "Ġgieo": 6053,
      "ife": 6054,
      "aba": 6055,
      "ĠÄĳáº·n": 6056,
      "ambycidae": 6057,
      "ĠPháº£i": 6058,
      "Quyáº¿t": 6059,
      "NÆ°á»Ľc": 6060,
      "ĠXÆ°Æ¡ng": 6061,
      "ĠCerambycidae": 6062,
      "ĠThÃ¬n": 6063,
      "thi": 6064,
      "fr": 6065,
      "ĠMicrosoft": 6066,
      "ĠCHQS": 6067,
      "ĠCÃ´n": 6068,
      "Tráº§n": 6069,
      "cÃ´ng": 6070,
      "oshi": 6071,
      "Ġ1960": 6072,
      "oma": 6073,
      "ĠcÆ°ng": 6074,
      "sá»ĳ": 6075,
      "Ġngu": 6076,
      "ĠhÃ©": 6077,
      "anda": 6078,
      "roid": 6079,
      "ĠJung": 6080,
      "Chu": 6081,
      "ĠÄĳÃłnh": 6082,
      "ical": 6083,
      "ole": 6084,
      "ĠxÃło": 6085,
      "Ġ128": 6086,
      "Ġdáº¡i": 6087,
      "ĠMá»": 6088,
      "NghiÃªn": 6089,
      "ĠchÄĥng": 6090,
      "ĠthÃ¬a": 6091,
      "press": 6092,
      "ĠJer": 6093,
      "ĠNhÃ¬": 6094,
      "ĠlÆ°á»¡i": 6095,
      "Ġnháº·t": 6096,
      "Phim": 6097,
      "Ġkáº¹o": 6098,
      "||": 6099,
      "Ġrá»§": 6100,
      "ĠHÃ£ng": 6101,
      "giáº£m": 6102,
      "ĠNat": 6103,
      "ĠkhÃ´n": 6104,
      "ĠthÃ¡m": 6105,
      "ĠbÃłng": 6106,
      "ĠBi": 6107,
      "ĠZalo": 6108,
      "Ġdáº·m": 6109,
      "ĠHal": 6110,
      "Ġkhao": 6111,
      "BÄĲ": 6112,
      "ĠTÃªn": 6113,
      "ĠHÃ´m": 6114,
      "ĠChuyá»ĥn": 6115,
      "Ġcáº¥y": 6116,
      "kho": 6117,
      "NS": 6118,
      "Ġnáº¯p": 6119,
      "Ġrá»ķ": 6120,
      "ĠMoskva": 6121,
      "ĠchuÃ´ng": 6122,
      "reb": 6123,
      "ĠbuÃ´ng": 6124,
      "Ġ140": 6125,
      "ĠTrÃ¢m": 6126,
      "qua": 6127,
      "ĠVÆ°á»Ŀn": 6128,
      "ĠChinh": 6129,
      "ĠChá»¯": 6130,
      "US": 6131,
      "ider": 6132,
      "po": 6133,
      "ĠLÃ²": 6134,
      "Má»Ŀi": 6135,
      "Ġval": 6136,
      "ĠGaz": 6137,
      "Ġgam": 6138,
      "Æ°Æ¡m": 6139,
      "ĠÂ": 6140,
      "Ġháº¯n": 6141,
      "ĠAgribank": 6142,
      "Ġrá»Ļ": 6143,
      "wa": 6144,
      "ĠHÃ¢n": 6145,
      "ĠtÃª": 6146,
      "Ġquáº¡t": 6147,
      "ĠFrank": 6148,
      "ĠLin": 6149,
      "ĠEV": 6150,
      "Ġgá»«ng": 6151,
      "ult": 6152,
      "Tráº£": 6153,
      "Ġhiá»ģn": 6154,
      "TU": 6155,
      "ence": 6156,
      "ll": 6157,
      "sch": 6158,
      "Ġ1984": 6159,
      "eneca": 6160,
      "ĠKaz": 6161,
      "ĠKu": 6162,
      "HS": 6163,
      "á»Ĳ": 6164,
      "ĠUAE": 6165,
      "ision": 6166,
      "ĠKhá»Łi": 6167,
      "Ġson": 6168,
      "Ġnáº¡": 6169,
      "Ġpháº³ng": 6170,
      "ato": 6171,
      "ĠJun": 6172,
      "ĠkhiÃªm": 6173,
      "ury": 6174,
      "ĠsÃ¢m": 6175,
      "raq": 6176,
      "Ġcá»į": 6177,
      "light": 6178,
      "Car": 6179,
      "html": 6180,
      "Tuyá»ĥn": 6181,
      "EFA": 6182,
      "kov": 6183,
      "Ġháº»m": 6184,
      "ĠJenn": 6185,
      "Ġcuá»Ļn": 6186,
      "¹i": 6187,
      "ĠNSÆ¯T": 6188,
      "ĠÄĲam": 6189,
      "ASA": 6190,
      "tá»±": 6191,
      "ĠTáº§n": 6192,
      "ĠEnter": 6193,
      "ĠPle": 6194,
      "yll": 6195,
      "ĠMichael": 6196,
      "aco": 6197,
      "ĠZelensky": 6198,
      "LÃª": 6199,
      "ĠháºŃn": 6200,
      "ThÃªm": 6201,
      "izen": 6202,
      "rys": 6203,
      "bert": 6204,
      "Ġnhiáº¿p": 6205,
      "ĠMÃ¹i": 6206,
      "Ġrá»ĵng": 6207,
      "lÃłm": 6208,
      "Vietnam": 6209,
      "ĠxÃŃ": 6210,
      "Ġá»§": 6211,
      "ĠAward": 6212,
      "nik": 6213,
      "MÃ´": 6214,
      "Ġná»ĳt": 6215,
      "eting": 6216,
      "itan": 6217,
      "Ġbáº«y": 6218,
      "ĠBig": 6219,
      "ĠÃºng": 6220,
      "gy": 6221,
      "ĠMW": 6222,
      "nhÆ°": 6223,
      "ĠLos": 6224,
      "ĠFernand": 6225,
      "CÃ¢y": 6226,
      "ĠhÃłn": 6227,
      "ĠPhá»¥c": 6228,
      "TrÆ°á»Łng": 6229,
      "CÃ¡": 6230,
      "aris": 6231,
      "ĠKháº£": 6232,
      "opp": 6233,
      "ĠTÃ¡m": 6234,
      "Ġâ": 6235,
      "Ġká»ī": 6236,
      "ÄĳÃ£": 6237,
      "ĠRos": 6238,
      "itch": 6239,
      "ĠPe": 6240,
      "ĠMercedes": 6241,
      "ĠÄĳiÃªu": 6242,
      "ĠWall": 6243,
      "ĠtrÃłng": 6244,
      "Ġdiesel": 6245,
      "ÄĲi": 6246,
      "Ġgá»ĳm": 6247,
      "ĠThá»Ľi": 6248,
      "ĠÄĲÃ´n": 6249,
      "2011": 6250,
      "Ġ94": 6251,
      "aku": 6252,
      "1981": 6253,
      "Long": 6254,
      "dro": 6255,
      "ĠMÆ°á»Ŀi": 6256,
      "ĠGlobal": 6257,
      "ĠNgá»¯": 6258,
      "ĠCá»ĳ": 6259,
      "ĠMB": 6260,
      "Ġhiáº¿p": 6261,
      "Data": 6262,
      "ĠRod": 6263,
      "mund": 6264,
      "ãĤ": 6265,
      "ÃŃp": 6266,
      "ESCO": 6267,
      "ĠFranc": 6268,
      "Sá»©c": 6269,
      "ĠÄĳáº¯ng": 6270,
      "LÆ°u": 6271,
      "Ġkhá»ĳc": 6272,
      "ĠBKS": 6273,
      "ĠFin": 6274,
      "ĠrÃ¡o": 6275,
      "ĠSÃ©c": 6276,
      "Ġquáº§y": 6277,
      "ĠAstra": 6278,
      "ĠMáº¡c": 6279,
      "ĠHaaland": 6280,
      "ĠLo": 6281,
      "ĠBloomberg": 6282,
      "ĠPost": 6283,
      "ĠlÃ¡ng": 6284,
      "NgÃ´i": 6285,
      "LA": 6286,
      "Ġmá»ī": 6287,
      "Ġngá»¡": 6288,
      "ĠNap": 6289,
      "Ġsp": 6290,
      "ĠBIDV": 6291,
      "ster": 6292,
      "Ġviáº¿ng": 6293,
      "ĠVir": 6294,
      "ĠNÆ¡i": 6295,
      "ĠCÃ¢y": 6296,
      "ĠÄĳÃ¨o": 6297,
      "kin": 6298,
      "ĠMÃ¡y": 6299,
      "Há»ĵi": 6300,
      "ĠphÃ¬": 6301,
      "olog": 6302,
      "Ġemail": 6303,
      "ĠÄĲÃłn": 6304,
      "¨m": 6305,
      "ĠDoÃ£n": 6306,
      "play": 6307,
      "Lo": 6308,
      "castle": 6309,
      "Ġtáº£n": 6310,
      "1961": 6311,
      "HáºŃu": 6312,
      "Phong": 6313,
      "98": 6314,
      "HÆ°á»Ľng": 6315,
      "Ġ1983": 6316,
      "Ġ2045": 6317,
      "ĠÃª": 6318,
      "ĠST": 6319,
      "ĠÄĳá»Ľn": 6320,
      "LuáºŃt": 6321,
      "ĠcÃ³c": 6322,
      "ĠxÆ°á»Ľng": 6323,
      "2012": 6324,
      "Ġvá»Ľt": 6325,
      "Æ¯á»Ľc": 6326,
      "1971": 6327,
      "Ġtáº¡ng": 6328,
      "á»«": 6329,
      "ĠSN": 6330,
      "ĠbÃ¡u": 6331,
      "UB": 6332,
      "ĠPCR": 6333,
      "TÃªn": 6334,
      "Ġ115": 6335,
      "Ġrobot": 6336,
      "ĠIraq": 6337,
      "ĠTÃ½": 6338,
      "ivers": 6339,
      "ĠchÃ¬a": 6340,
      "ĠMÃ´": 6341,
      "ĠUl": 6342,
      "ĠAmazon": 6343,
      "ĠJohnson": 6344,
      "ĠChiá»ĥu": 6345,
      "PEC": 6346,
      "vi": 6347,
      "----": 6348,
      "Ġhoi": 6349,
      "Ġviá»ĩt": 6350,
      "Giao": 6351,
      "ĠâĢĶ": 6352,
      "ĠÄĳáº±ng": 6353,
      "ĠNhuáºŃn": 6354,
      "tÃªn": 6355,
      "ĠÄĲi": 6356,
      "sau": 6357,
      "ĠPT": 6358,
      "ĠPakistan": 6359,
      "ĠKing": 6360,
      "ĠYÃªu": 6361,
      "urt": 6362,
      "ĠSar": 6363,
      "ĠÄĲÃ´i": 6364,
      "Ġghen": 6365,
      "be": 6366,
      "Zeneca": 6367,
      "ĠShop": 6368,
      "Æ¯u": 6369,
      "ĠXS": 6370,
      "Ġngáº«u": 6371,
      "Phi": 6372,
      "gá»ĵm": 6373,
      "ĠNháº¡c": 6374,
      "Lá»£i": 6375,
      "ĠItalia": 6376,
      "Ġxoa": 6377,
      "ĠMÃ£i": 6378,
      "Ġ1979": 6379,
      "ĠMaria": 6380,
      "ĠIreland": 6381,
      "Ġnan": 6382,
      "eu": 6383,
      "Dá»ĭp": 6384,
      "ĠtÃ³m": 6385,
      "Ġkhuáº¥t": 6386,
      "indows": 6387,
      "chÃ": 6388,
      "iku": 6389,
      "EL": 6390,
      "ĠBTS": 6391,
      "ĠÄĲÄĥk": 6392,
      "ĠÃģi": 6393,
      "ĠAll": 6394,
      "ĠÆ°á»Ľt": 6395,
      "Ġgá»¥c": 6396,
      "MA": 6397,
      "ĠbÆ¡": 6398,
      "ila": 6399,
      "Ġcáº¯n": 6400,
      "hoáº·c": 6401,
      "ĠTháºŃt": 6402,
      "aut": 6403,
      "plus": 6404,
      "Ġvalue": 6405,
      "ĠÄĳoan": 6406,
      "ĠquÃ¡i": 6407,
      "Ġsc": 6408,
      "ĠMunich": 6409,
      "won": 6410,
      "ÄĲá»Ļng": 6411,
      "Ġ1981": 6412,
      "ĠTan": 6413,
      "PhÃº": 6414,
      "ĠJose": 6415,
      "Ġgáº§m": 6416,
      "ĠBus": 6417,
      "ĠHIV": 6418,
      "ĠBin": 6419,
      "ĠkhoÄĥn": 6420,
      "VÅ©ng": 6421,
      "PGS": 6422,
      "off": 6423,
      "ĠCAND": 6424,
      "ÄĲiá»ĩn": 6425,
      "Ðµ": 6426,
      "ĠPhá»¥ng": 6427,
      "Ġ)": 6428,
      "ĠANTT": 6429,
      "Ġnghá»ĭch": 6430,
      "ago": 6431,
      "ĠCá»§": 6432,
      "ĠVer": 6433,
      "ĠlÅ©ng": 6434,
      "tim": 6435,
      "lec": 6436,
      "ĠÃºt": 6437,
      "ĠXÃ¡": 6438,
      "Bar": 6439,
      "NÃ¢ng": 6440,
      "bi": 6441,
      "Giai": 6442,
      "Ġni": 6443,
      "Ġchá»Ń": 6444,
      "ĠXin": 6445,
      "ÄĳÆ°á»£c": 6446,
      "ĠThiá»ĩu": 6447,
      "Ġnáº¥y": 6448,
      "ĠCNN": 6449,
      "br": 6450,
      "PCR": 6451,
      "ĠCáºŃu": 6452,
      "ĠÄĳá»ĳn": 6453,
      "ĠTMCP": 6454,
      "ĠTháº©m": 6455,
      "ĠIm": 6456,
      "Ġ00": 6457,
      "ĠCá»¥m": 6458,
      "ĠHNX": 6459,
      "ĠCroatia": 6460,
      "Ġ125": 6461,
      "ustin": 6462,
      "Ð¸": 6463,
      "cua": 6464,
      "Má»©c": 6465,
      "ĠComp": 6466,
      "Col": 6467,
      "Ġle": 6468,
      "Ġchuá»ĵng": 6469,
      "Ġ1972": 6470,
      "ais": 6471,
      "ĠKhmer": 6472,
      "ĠbÃ©n": 6473,
      "ĠIa": 6474,
      "ĠHá»ıa": 6475,
      "IT": 6476,
      "ĠNik": 6477,
      "\";": 6478,
      "ĠGetty": 6479,
      "âĢ¦,": 6480,
      "DT": 6481,
      "MÃ¡y": 6482,
      "bon": 6483,
      "ĠQuÃ¡ch": 6484,
      "ald": 6485,
      "ĠAstraZeneca": 6486,
      "Ġdai": 6487,
      "ĠTour": 6488,
      "ĠnháºŃu": 6489,
      "Kiá»ĥm": 6490,
      "ĠÄĳun": 6491,
      "ĠvÃ¡n": 6492,
      "ĠlÃ¹ng": 6493,
      "ĠCháº¿": 6494,
      "Chuyáº¿n": 6495,
      "ĠHoan": 6496,
      "ĠCharles": 6497,
      "ĠtrÄĥn": 6498,
      "edia": 6499,
      "ĠWhi": 6500,
      "Ġnuá»ĳi": 6501,
      "ingham": 6502,
      "ĠmÆ°Æ¡i": 6503,
      "ĠÃļt": 6504,
      "ways": 6505,
      "ĠNob": 6506,
      "ĠSerie": 6507,
      "ThÃŃ": 6508,
      "ĠrÃ²": 6509,
      "Ã¬a": 6510,
      "ĠIP": 6511,
      "ĠBTC": 6512,
      "ĠbÄĥn": 6513,
      "96": 6514,
      "abri": 6515,
      "ĠPep": 6516,
      "ĠTÃ¡o": 6517,
      "ĠAk": 6518,
      "ĠAndroid": 6519,
      "ĠUNESCO": 6520,
      "ĠLHQ": 6521,
      "ĠTD": 6522,
      "ict": 6523,
      "ĠmÃłi": 6524,
      "1931": 6525,
      "elle": 6526,
      "ĠrÃªu": 6527,
      "ĠMet": 6528,
      "ĠBÃ¡t": 6529,
      "tron": 6530,
      "ĠCrist": 6531,
      "Ġbuá»ĵng": 6532,
      "150": 6533,
      "VáºŃy": 6534,
      "Ġdá»Ĺ": 6535,
      "bÃ¬nh": 6536,
      "ati": 6537,
      "ĠThan": 6538,
      "oney": 6539,
      "ĠLáº¡i": 6540,
      "WHO": 6541,
      "ĠchÃ¨o": 6542,
      "ÅĤ": 6543,
      "ĠTuáº¥t": 6544,
      "Ġgiáº¿": 6545,
      "2010": 6546,
      "ĠYam": 6547,
      "ĠEs": 6548,
      "ĠNgÆ°á»£c": 6549,
      "ĠMik": 6550,
      "jaer": 6551,
      "bin": 6552,
      "SÃ¢n": 6553,
      "ima": 6554,
      "lá»": 6555,
      "Ġgiá»ģng": 6556,
      "¥a": 6557,
      "ĠAh": 6558,
      "Chung": 6559,
      "ĠMáº«n": 6560,
      "Ġvon": 6561,
      "ĠxÃ³t": 6562,
      "ĠRo": 6563,
      "ĠHáº£o": 6564,
      "lie": 6565,
      "ĠElon": 6566,
      "ĠChiá»ģu": 6567,
      "1951": 6568,
      "thá»ĭ": 6569,
      "ves": 6570,
      "ĠFA": 6571,
      "ĠHá»£i": 6572,
      "ĠgiÃ²n": 6573,
      "TK": 6574,
      "Ġlá»ĳp": 6575,
      "1911": 6576,
      "ĠHold": 6577,
      "ĠVideo": 6578,
      "ĠBÃłng": 6579,
      "Ġcá»Ĺ": 6580,
      "kraina": 6581,
      "ven": 6582,
      "Ġnet": 6583,
      "VáºŃn": 6584,
      "aro": 6585,
      "ĠVang": 6586,
      "ĠRap": 6587,
      "ĠTá»Ľi": 6588,
      "ĠThÆ°á»Łng": 6589,
      "Hiá»ĩp": 6590,
      "Chá»©ng": 6591,
      "iverse": 6592,
      "ĠtrÆ¡n": 6593,
      "TÃłu": 6594,
      "estine": 6595,
      "nhÃł": 6596,
      "ĠSel": 6597,
      "Å©a": 6598,
      "Ráº¥t": 6599,
      "ĠCapital": 6600,
      "ÃĬN": 6601,
      "UYá»": 6602,
      "Tuáº§n": 6603,
      "ĠChan": 6604,
      "ĠKia": 6605,
      "ĠÃ¢u": 6606,
      "ĠvÃ¢n": 6607,
      "QL": 6608,
      "ĠMoh": 6609,
      "ĠVill": 6610,
      "ĠSaint": 6611,
      "ĠlÃª": 6612,
      "Ġváº·t": 6613,
      "ĠDani": 6614,
      "HÃ£ng": 6615,
      "ĠvÄ©nh": 6616,
      "1936": 6617,
      "ĠSky": 6618,
      "Ġ105": 6619,
      "Ġthá»īnh": 6620,
      "ĠxoÃ¡y": 6621,
      "ĠSin": 6622,
      "ĠHÄĲXX": 6623,
      "ĠVilla": 6624,
      "Ukraine": 6625,
      "Ġ1976": 6626,
      "ĠbÃ¹n": 6627,
      "ouse": 6628,
      "skjaer": 6629,
      "thoid": 6630,
      "ĠNghiÃªm": 6631,
      "ĠgÃ£": 6632,
      "ĠÄĲá»ĳc": 6633,
      "den": 6634,
      "ĠBáº§u": 6635,
      "ĠVu": 6636,
      "Ġcuá»ĵng": 6637,
      "lian": 6638,
      "ÃĶNG": 6639,
      "Ġnhá»Ļn": 6640,
      "rich": 6641,
      "Ġ220": 6642,
      "ĠbÃºn": 6643,
      "ĠAlexander": 6644,
      "ĠCR": 6645,
      "Å©y": 6646,
      "thoidai": 6647,
      "Ngá»įc": 6648,
      "ĠNewcastle": 6649,
      "Ġtá»¥t": 6650,
      "97": 6651,
      "ĠBul": 6652,
      "1921": 6653,
      "ĠSE": 6654,
      "HÃłn": 6655,
      "Ġtáº¡c": 6656,
      "field": 6657,
      "ĠlÆ°á»Ľt": 6658,
      "Chuyá»ĩn": 6659,
      "%);": 6660,
      "Ġcháº£": 6661,
      "ĠÄĳáº¯m": 6662,
      "vo": 6663,
      "Ġcá»ĳi": 6664,
      "oga": 6665,
      "thoidaiplus": 6666,
      "ĠDa": 6667,
      "eek": 6668,
      "ĠWindows": 6669,
      "91": 6670,
      "JPG": 6671,
      "alk": 6672,
      "Ġthon": 6673,
      "ĠSev": 6674,
      "ĠmÃ¬n": 6675,
      "ĠDáºŃu": 6676,
      "Ġxáº¥p": 6677,
      "letico": 6678,
      "Ġham": 6679,
      "ĠFer": 6680,
      "zh": 6681,
      "ĠSav": 6682,
      "ĠmÃŃa": 6683,
      "Iáº¾": 6684,
      "brid": 6685,
      "odes": 6686,
      "iro": 6687,
      "Cá»ķ": 6688,
      "sil": 6689,
      "ĠVar": 6690,
      "aha": 6691,
      "Ġ450": 6692,
      "TTS": 6693,
      "ĠCáº£m": 6694,
      "ĠAmer": 6695,
      "ĠnÃ´": 6696,
      "ĠRá»ĵng": 6697,
      "Chuyá»ĥn": 6698,
      "inae": 6699,
      "âĢĿ-": 6700,
      "ortmund": 6701,
      "ye": 6702,
      "Ġ108": 6703,
      "93": 6704,
      "ĠUkraina": 6705,
      "MÃ¬nh": 6706,
      "ĠÄĲá»ģn": 6707,
      "ĠSG": 6708,
      "Ġapp": 6709,
      "HÃ²a": 6710,
      "Ġtrá»ĩ": 6711,
      "CA": 6712,
      "eymar": 6713,
      "ĠDub": 6714,
      "Ġlá»¥y": 6715,
      "viet": 6716,
      "ĠAsia": 6717,
      "ĠkhiÃªu": 6718,
      "ĠlÃ³t": 6719,
      "ten": 6720,
      "ĠBlue": 6721,
      "ĠTak": 6722,
      "ĠghÃ©t": 6723,
      "ĠVÃ´": 6724,
      "ĠkÃŃp": 6725,
      "ĠHyun": 6726,
      ")âĢ¦": 6727,
      "ĠvÃ£": 6728,
      "Ġmiá»ĩn": 6729,
      "uri": 6730,
      "erna": 6731,
      "Ac": 6732,
      "ias": 6733,
      "owski": 6734,
      "ĠrÃ£": 6735,
      "trÃ¡i": 6736,
      "Ġ1978": 6737,
      "ĠVáº¥p": 6738,
      "ĠHÃ²n": 6739,
      "ĠColom": 6740,
      "ĠHÃło": 6741,
      "ĠChat": 6742,
      "ĠSum": 6743,
      "ĠSV": 6744,
      "iola": 6745,
      "ĠTe": 6746,
      "1901": 6747,
      "94": 6748,
      "ĠSSI": 6749,
      "ĠxÃ¡t": 6750,
      "ĠAFC": 6751,
      "Tháº§y": 6752,
      "Hy": 6753,
      "ĠGeorge": 6754,
      "ĠUEFA": 6755,
      "cher": 6756,
      "ĠTÃło": 6757,
      "ĠVáº¥n": 6758,
      "ĠUniverse": 6759,
      "Ġel": 6760,
      "ĠBerlin": 6761,
      "Ġseries": 6762,
      "BiÃªn": 6763,
      "ĠOpen": 6764,
      "ĠTá»Ŀ": 6765,
      "ĠPalestine": 6766,
      "ĠTho": 6767,
      "ĠdÃ©p": 6768,
      "Ġchá»Ńi": 6769,
      "Ġnhá»©c": 6770,
      "ĠTai": 6771,
      "Ġrá»¥ng": 6772,
      "TháºŃt": 6773,
      "ĠchÆ°ng": 6774,
      "ĠBA": 6775,
      "ĠNiger": 6776,
      "uan": 6777,
      "Ġten": 6778,
      "Ġká»µ": 6779,
      "icus": 6780,
      "phi": 6781,
      "ĠÄĳÃ¨": 6782,
      "ĠBÆ°u": 6783,
      "ĠEng": 6784,
      "ĠTNG": 6785,
      "Ġxay": 6786,
      "Sá»Ń": 6787,
      "ĠChÆ°": 6788,
      "Táº¿t": 6789,
      "Ġman": 6790,
      "ĠKrÃ´ng": 6791,
      "ĠÄĳá»±c": 6792,
      "Ġfutsal": 6793,
      "ĠBÆ°á»Ľc": 6794,
      "Ġ1973": 6795,
      "EF": 6796,
      "Ġlá»¥a": 6797,
      "ĠTrá»±c": 6798,
      "ĠDan": 6799,
      "OC": 6800,
      "Ġ170": 6801,
      "Ġ1968": 6802,
      "ĠhÆ°ng": 6803,
      "Khá»Łi": 6804,
      "ĠAss": 6805,
      "ĠHye": 6806,
      "Ġkit": 6807,
      "Ġrá»ħ": 6808,
      "1881": 6809,
      "Ġyáº¿n": 6810,
      "PhÃ¡p": 6811,
      "hay": 6812,
      "Ġkhuya": 6813,
      "Bl": 6814,
      "ĠRoma": 6815,
      "!!": 6816,
      "ĠEreb": 6817,
      "Ġráº¡n": 6818,
      "ĠKhuÃª": 6819,
      "ĠPetr": 6820,
      "ÃĿ": 6821,
      "ĠSHB": 6822,
      "Báº±ng": 6823,
      "tuáº§n": 6824,
      "ĠPhÃ¡o": 6825,
      "pop": 6826,
      "ĠLoáº¡i": 6827,
      "Biáº¿n": 6828,
      "ĠLau": 6829,
      "unn": 6830,
      "aser": 6831,
      "inc": 6832,
      "Ġáº¢NH": 6833,
      "1871": 6834,
      "ĠKane": 6835,
      "ĠErebidae": 6836,
      "1861": 6837,
      "ĠTrÃ¢n": 6838,
      "VÅ©": 6839,
      "ĠChÄĥm": 6840,
      "ÄĲÃªm": 6841,
      "Äĳiá»ĥm": 6842,
      "ery": 6843,
      "ĠMeg": 6844,
      "ĠNhÃłn": 6845,
      "ĠBÃ£i": 6846,
      "Ġáº¡": 6847,
      "ĠHuáº¥n": 6848,
      "tainment": 6849,
      "á»¥y": 6850,
      "ÄĲÃ´ng": 6851,
      "ĠxoÃłi": 6852,
      "Má»Ł": 6853,
      "ĠÄĲá»«ng": 6854,
      "Ãļ": 6855,
      "ition": 6856,
      "ĠMir": 6857,
      "INH": 6858,
      ")...": 6859,
      "ouss": 6860,
      "Háº§u": 6861,
      "ĠXiao": 6862,
      "ĠKe": 6863,
      "TO": 6864,
      "thu": 6865,
      "oly": 6866,
      "ound": 6867,
      "BH": 6868,
      "ĠPhil": 6869,
      "uyen": 6870,
      "Ġphá»Ł": 6871,
      "ĠLED": 6872,
      "Ġuá»ĳn": 6873,
      "ĠBR": 6874,
      "dong": 6875,
      "fa": 6876,
      "ĠsÆ°ng": 6877,
      "áº¬": 6878,
      "Truyá»ģn": 6879,
      "ĠTTHC": 6880,
      "ĠchÆ°": 6881,
      "ĠDÃ²ng": 6882,
      "kok": 6883,
      "As": 6884,
      "įi": 6885,
      "Pháº¡m": 6886,
      "LO": 6887,
      "onidae": 6888,
      "Ġtrá»įt": 6889,
      "jan": 6890,
      "ĠDá»": 6891,
      "ĠIl": 6892,
      "Ngoáº¡i": 6893,
      "ĠBao": 6894,
      "avi": 6895,
      "Ġquáº¿": 6896,
      "lywood": 6897,
      "2008": 6898,
      "ĠNic": 6899,
      "ĠÄĳiÃªn": 6900,
      "Ġxáº»": 6901,
      "Ġcháº£o": 6902,
      "ĠNáºŃm": 6903,
      "El": 6904,
      "Ð½": 6905,
      "udi": 6906,
      "XÃ©t": 6907,
      "ĠKhÃ´i": 6908,
      "ĠAM": 6909,
      "ÄĳÆ°á»Ŀng": 6910,
      "ĠKi": 6911,
      "Ġgirl": 6912,
      "ĠEntertainment": 6913,
      "Ġrá»ĳt": 6914,
      "ĠHun": 6915,
      "Ai": 6916,
      "mon": 6917,
      "ĠTex": 6918,
      "eop": 6919,
      "ĠKÃ½": 6920,
      "Ġar": 6921,
      "ĠSmith": 6922,
      "Ġcalo": 6923,
      "ĠÄĳá»ĳng": 6924,
      "nhá»¯ng": 6925,
      "ĠDj": 6926,
      "Ġsáº¥y": 6927,
      "ĠPleiku": 6928,
      "ette": 6929,
      "ĠXX": 6930,
      "ĠAirways": 6931,
      "ĠTrÃłng": 6932,
      "ĠBec": 6933,
      "Ġtáº¥u": 6934,
      "eco": 6935,
      "elli": 6936,
      "ĠLÃ¢n": 6937,
      "ĠFrancis": 6938,
      "ĠGer": 6939,
      "ĠmÃŃt": 6940,
      "BTC": 6941,
      "ĠMur": 6942,
      "ats": 6943,
      "Ã³p": 6944,
      "ĠDortmund": 6945,
      "khá»§ng": 6946,
      "ĠChÃ¹a": 6947,
      "SiÃªu": 6948,
      "ĠBÃ©": 6949,
      "Sp": 6950,
      "Káº¿": 6951,
      "Ġgiáº·c": 6952,
      "ĠIch": 6953,
      "ets": 6954,
      "ÃĮ": 6955,
      "estival": 6956,
      "ĠgáºŃy": 6957,
      "Ġthen": 6958,
      "ĠPort": 6959,
      "Ġbá»ĩ": 6960,
      "sey": 6961,
      "ĠVÄ©": 6962,
      "ĠTáº¡o": 6963,
      "ĠrÆ°á»Ľc": 6964,
      "neum": 6965,
      "ĠLuc": 6966,
      "ĠHiá»ĥu": 6967,
      "amboo": 6968,
      "Ġnetizen": 6969,
      "Huáº¿": 6970,
      "Ġgiáº¿ng": 6971,
      "ĠWon": 6972,
      "ĠnghÃªnh": 6973,
      "enko": 6974,
      "liz": 6975,
      "Ġkhang": 6976,
      "ĠHua": 6977,
      "ĠMáº¡ng": 6978,
      "color": 6979,
      "omin": 6980,
      "ĠScot": 6981,
      "Ġchá»įc": 6982,
      "ĠDinh": 6983,
      "BÃłn": 6984,
      "Ġá»©": 6985,
      "Ġrong": 6986,
      "File": 6987,
      "Ġngáº§n": 6988,
      "ĠÃ¡": 6989,
      "VT": 6990,
      "ĠSaigon": 6991,
      "ĠSerbia": 6992,
      "ĠDes": 6993,
      "Ġ1977": 6994,
      "ado": 6995,
      "ĠQLTT": 6996,
      "rick": 6997,
      "ĠÆ°á»Ľp": 6998,
      "ĠBÃ¡n": 6999,
      "Ġcanxi": 7000,
      "ĠMaz": 7001,
      "á»įa": 7002,
      "ĠRai": 7003,
      "ĠXÃª": 7004,
      "omel": 7005,
      "ĠnhÆ°á»£c": 7006,
      "Ġcá»«": 7007,
      "ĠBern": 7008,
      "ĠCast": 7009,
      "ĠCos": 7010,
      "ĠFre": 7011,
      "ET": 7012,
      "oud": 7013,
      "ĠSlov": 7014,
      "nick": 7015,
      "ĠvÃ¡ch": 7016,
      "ĠUAV": 7017,
      "ĠlÃ¡nh": 7018,
      "ĠxuÃ´i": 7019,
      "ĠAtletico": 7020,
      "chá»§": 7021,
      "ĠRu": 7022,
      "MP": 7023,
      "Ġ1950": 7024,
      "ĠSuá»ĳi": 7025,
      "ĠHáº¡t": 7026,
      "áº¦": 7027,
      "Ġ//": 7028,
      "amil": 7029,
      "láº§n": 7030,
      "fer": 7031,
      "ĠCu": 7032,
      "ĠHoSE": 7033,
      "ĠLux": 7034,
      "ĠCarl": 7035,
      "abeth": 7036,
      "Ġ1974": 7037,
      "ĠGH": 7038,
      "wei": 7039,
      "ĠnÃłn": 7040,
      "ĠÄĲÃªm": 7041,
      "Ġradar": 7042,
      "esterol": 7043,
      "mit": 7044,
      "ĠxÃ¬": 7045,
      "ĠrÄĥn": 7046,
      "ĠthÃª": 7047,
      "andal": 7048,
      "KV": 7049,
      "ĠCCB": 7050,
      "ĠÄĲáº±ng": 7051,
      "GPT": 7052,
      "ĠgiÃłn": 7053,
      "oster": 7054,
      "ĠAngeles": 7055,
      "ĠNÃ¢ng": 7056,
      "min": 7057,
      "ĠÄĳinh": 7058,
      "ĠVenez": 7059,
      "RE": 7060,
      "Ġhydro": 7061,
      "ĠÃªm": 7062,
      "Ġnhiá»ħu": 7063,
      "ux": 7064,
      "ĠLuk": 7065,
      "OSE": 7066,
      "VÃŃ": 7067,
      "uck": 7068,
      "ĠSolskjaer": 7069,
      "ĠGiÃªng": 7070,
      "ĠCáº£i": 7071,
      "Ġtháº¡c": 7072,
      "ĠLÆ°": 7073,
      "osh": 7074,
      "ison": 7075,
      "Ġdáº»o": 7076,
      "ĠphÃ´": 7077,
      "ĠAwards": 7078,
      "avel": 7079,
      "ÃĲ": 7080,
      "ĠCat": 7081,
      "ther": 7082,
      "ĠhÃ£m": 7083,
      "ĠÄĲÃ¡": 7084,
      "Ġbong": 7085,
      "Ġlá»Ļt": 7086,
      "olia": 7087,
      "Di": 7088,
      "Ġnguá»Ļi": 7089,
      "ĠSant": 7090,
      "á»Ĺng": 7091,
      "Ġnhá»ĭ": 7092,
      "SNN": 7093,
      "ĠlÃ¡ch": 7094,
      "ĠTuyá»ģn": 7095,
      "ĠCristiano": 7096,
      "ĠEuropa": 7097,
      "QuÃ½": 7098,
      "ĠChuáº©n": 7099,
      "ÄĲáº©y": 7100,
      "2009": 7101,
      "áº¿m": 7102,
      "ĠÄĲV": 7103,
      "ÄĲáº£ng": 7104,
      "ĠLink": 7105,
      "Fed": 7106,
      "Ġxá»ĭt": 7107,
      "ĠquáºŃt": 7108,
      "ĠbÃ´i": 7109,
      "ĠThiÃªm": 7110,
      "Ġvá»©t": 7111,
      "ĠVá»£": 7112,
      "dr": 7113,
      "stal": 7114,
      "Viá»ĩn": 7115,
      "Top": 7116,
      "san": 7117,
      "ĠÄĲáº©y": 7118,
      "omb": 7119,
      "ĠTexas": 7120,
      "ĠgiÃ²": 7121,
      "no": 7122,
      "VA": 7123,
      "ĠSmart": 7124,
      "ĠDO": 7125,
      "ĠWales": 7126,
      "ĠRáº¡ch": 7127,
      "ĠsuÃ´n": 7128,
      "KhÃ¡nh": 7129,
      "TuyÃªn": 7130,
      "ĠcÃ²i": 7131,
      "ĠHaw": 7132,
      "chÆ°a": 7133,
      "rm": 7134,
      "SV": 7135,
      "Máº«u": 7136,
      "ĠXIV": 7137,
      "Ġsá»ıi": 7138,
      "uay": 7139,
      "TrÃ¡i": 7140,
      "aga": 7141,
      "ĠBos": 7142,
      "ĠNghiá»ĩp": 7143,
      "Ġngoáº¡n": 7144,
      "uchel": 7145,
      "ĠJan": 7146,
      "earch": 7147,
      "ĠThÃŃ": 7148,
      "so": 7149,
      "DÃ²ng": 7150,
      "ĠtÆ¡": 7151,
      "ÑĢ": 7152,
      "Ġoan": 7153,
      ",âĢĿ": 7154,
      "ĠQuáº§n": 7155,
      "ĠOk": 7156,
      "ĠÄĲá»Ļc": 7157,
      "eno": 7158,
      "ĠLew": 7159,
      "icester": 7160,
      "ĠColombia": 7161,
      "Ġkeo": 7162,
      "Ńng": 7163,
      "Ġnang": 7164,
      "Buá»ķi": 7165,
      "ĠWeb": 7166,
      "gar": 7167,
      "ni": 7168,
      "aud": 7169,
      "ĠSud": 7170,
      "ĠHollywood": 7171,
      "Ġcheck": 7172,
      "akhstan": 7173,
      "Tráº£i": 7174,
      "Ġ360": 7175,
      "HÆ°Æ¡ng": 7176,
      "ĠRá»ĵi": 7177,
      "Äĳi": 7178,
      "ĠMá»Ł": 7179,
      "áºµn": 7180,
      "ĠLÃ´": 7181,
      "ĠCáºŃn": 7182,
      "Ġmuá»Ĺi": 7183,
      "ĠSL": 7184,
      "Am": 7185,
      "ĠXem": 7186,
      "Ġ1971": 7187,
      "uela": 7188,
      "ĠTuyá»ĥn": 7189,
      "TI": 7190,
      "ÃĤN": 7191,
      "ild": 7192,
      "Ġtrau": 7193,
      "ĠVietin": 7194,
      "ĠVinhomes": 7195,
      "aker": 7196,
      "ĠkiÃªng": 7197,
      "ĠSoc": 7198,
      "ĠLion": 7199,
      "ĠGuardiola": 7200,
      "una": 7201,
      "ĠÄĲá»ķi": 7202,
      "Ġli": 7203,
      "XÃ¡c": 7204,
      "ĠTá»ĳ": 7205,
      "ĠMont": 7206,
      "ighton": 7207,
      "chá»ī": 7208,
      "2007": 7209,
      "oussier": 7210,
      "ense": 7211,
      "Ġtem": 7212,
      "ĠMah": 7213,
      "ealth": 7214,
      "Ex": 7215,
      "ican": 7216,
      "ĠthiÃªu": 7217,
      "ĠLisa": 7218,
      "rown": 7219,
      "ĠÄĲá»ĩ": 7220,
      "BNV": 7221,
      "Ġpr": 7222,
      "Ġláº«y": 7223,
      "gov": 7224,
      "ĠTroussier": 7225,
      "FTA": 7226,
      "ĠClub": 7227,
      "Ġhá»ķng": 7228,
      "ĠRh": 7229,
      "ĠAut": 7230,
      "ĠLeon": 7231,
      "ĠBrasil": 7232,
      "Ġ101": 7233,
      "Ġchol": 7234,
      "Ġngoáº·t": 7235,
      "ĠHoáº±ng": 7236,
      "Ġshipper": 7237,
      "ĠMoham": 7238,
      "ĠDaily": 7239,
      "Ġstr": 7240,
      "eda": 7241,
      "ĠOPEC": 7242,
      "ThÆ°á»Ŀng": 7243,
      "apor": 7244,
      ",\"": 7245,
      "IP": 7246,
      "ela": 7247,
      "ĠNeymar": 7248,
      "Ġnguyá»ĩt": 7249,
      "ĠMid": 7250,
      "ĠPas": 7251,
      "Ġáº¤": 7252,
      "ĠGPMB": 7253,
      "Net": 7254,
      "Ġmar": 7255,
      "ĠÄĳá»¥c": 7256,
      "Cao": 7257,
      "Tá»Ŀ": 7258,
      "Re": 7259,
      "aver": 7260,
      "yst": 7261,
      "ĠIM": 7262,
      "TVQH": 7263,
      "ĠTrá»¥": 7264,
      "ĠModerna": 7265,
      "Ġngá»ı": 7266,
      "FC": 7267,
      "ĠYe": 7268,
      "Ġ1943": 7269,
      "vá»Ľi": 7270,
      "Ġcholesterol": 7271,
      "king": 7272,
      "WS": 7273,
      "udio": 7274,
      "Ġti": 7275,
      "Ġmáº¯ng": 7276,
      "ĠbÃ³p": 7277,
      "Ġthá»¥c": 7278,
      "ĠKam": 7279,
      "Ġváº¥p": 7280,
      "ĠnhÃ´m": 7281,
      "Äĳáº¡t": 7282,
      "une": 7283,
      "ĠVá»«a": 7284,
      "ĠTháº¥y": 7285,
      "SB": 7286,
      "Iá»Ĩ": 7287,
      "vÃł": 7288,
      "ĠhÄĥng": 7289,
      "ThiÃªn": 7290,
      "ĠPlus": 7291,
      "Ġká»ĩ": 7292,
      "Ġgáº¥u": 7293,
      "ĠÄĲáº¥u": 7294,
      "TÃ¬m": 7295,
      "ĠNgá»¥y": 7296,
      "ĠPhu": 7297,
      "ĠDay": 7298,
      "ĠMÃ³ng": 7299,
      "Ġ1942": 7300,
      "ĠÄĲáº¯c": 7301,
      "ĠmáºŃp": 7302,
      "Váº¥n": 7303,
      "?\".": 7304,
      "ĠChÃºc": 7305,
      "Ġquáº¥y": 7306,
      "ĠGa": 7307,
      "ru": 7308,
      "ĠHymen": 7309,
      "ĠRichard": 7310,
      "ĠTuÃ¢n": 7311,
      "ophi": 7312,
      "ĠBOT": 7313,
      "ĠAC": 7314,
      "ĠAbd": 7315,
      "Pháº£i": 7316,
      "ĠFri": 7317,
      "umb": 7318,
      "ĠDao": 7319,
      "Vi": 7320,
      "Ag": 7321,
      "Pr": 7322,
      "ĠVII": 7323,
      "ĠsÃłnh": 7324,
      "win": 7325,
      "ĠmuÃ´n": 7326,
      "ĠBÃ¨": 7327,
      "ardo": 7328,
      "Ġgáº¡t": 7329,
      "ĠbÃ¬a": 7330,
      "cÃ¹ng": 7331,
      "aus": 7332,
      "board": 7333,
      "ogba": 7334,
      "ogan": 7335,
      "ĠchÃ¡o": 7336,
      "ĠNm": 7337,
      "hÆ¡n": 7338,
      "chain": 7339,
      "ná»¯": 7340,
      "ĠLá»Ľn": 7341,
      "dam": 7342,
      "Ġtháº¡o": 7343,
      "eol": 7344,
      "ĠÄĳÅ©a": 7345,
      "ĠSA": 7346,
      "Ġcáº©m": 7347,
      "BV": 7348,
      "Ġmáº¡": 7349,
      "ides": 7350,
      "ĠBáº¯t": 7351,
      "Bá»ĳ": 7352,
      "ĠDie": 7353,
      "ĠliÃªng": 7354,
      "ĠÄĳÃ¹i": 7355,
      "ĠKab": 7356,
      "ese": 7357,
      "ĠPo": 7358,
      "Thi": 7359,
      "ĠhÃ¡o": 7360,
      "ĠThÃºc": 7361,
      "okovic": 7362,
      "ĠCrim": 7363,
      "Ġmet": 7364,
      "cc": 7365,
      "ator": 7366,
      "Lá»Ŀi": 7367,
      "oad": 7368,
      "2000": 7369,
      "ĠÅ": 7370,
      "ior": 7371,
      "Ġlen": 7372,
      "ĠThai": 7373,
      "imex": 7374,
      "ball": 7375,
      "Ronaldo": 7376,
      "ĠLes": 7377,
      "ĠCry": 7378,
      "etsk": 7379,
      "Ġgas": 7380,
      "ĠKrem": 7381,
      "Bá»Łi": 7382,
      "ĠDonald": 7383,
      "tral": 7384,
      "ĠSn": 7385,
      "Cáº£m": 7386,
      "MU": 7387,
      "ĠBamboo": 7388,
      "ĠÄĲiá»ĩp": 7389,
      "ºp": 7390,
      "ÄĲoáº¡n": 7391,
      "ĠMang": 7392,
      "ĠDTTS": 7393,
      "ĠCorp": 7394,
      "ĠBangkok": 7395,
      "Ġ1967": 7396,
      "ĠRi": 7397,
      "Ġcar": 7398,
      "FF": 7399,
      "ave": 7400,
      "ĠVNPT": 7401,
      "rg": 7402,
      "ĠXá»Ń": 7403,
      "ĠNhá»ĭ": 7404,
      "Ġ1944": 7405,
      "Cha": 7406,
      "ĠKazakhstan": 7407,
      "Ġ1969": 7408,
      "250": 7409,
      "rad": 7410,
      "ĠIchneum": 7411,
      "Tuyáº¿n": 7412,
      "ĠVictoria": 7413,
      "__": 7414,
      "ĠIchneumonidae": 7415,
      "Giá»¯a": 7416,
      "ĠBell": 7417,
      "Ġ1940": 7418,
      "...,": 7419,
      "nataka": 7420,
      "ashford": 7421,
      "ĠCá»±c": 7422,
      "cent": 7423,
      "ĠZing": 7424,
      "+)": 7425,
      "lam": 7426,
      "ĠKarnataka": 7427,
      "VP": 7428,
      "Ġlá»į": 7429,
      "ĠtrÅ©ng": 7430,
      "Ġlogo": 7431,
      "Tiáº¿ng": 7432,
      "ivi": 7433,
      "Ãµm": 7434,
      "ĠCá»Ŀ": 7435,
      "Tráº»": 7436,
      "Äĳá»ĳi": 7437,
      "Ġá»§i": 7438,
      "ĠFlorida": 7439,
      "assage": 7440,
      "ĠâĢ¦": 7441,
      "ĠScotland": 7442,
      "ĠthÃ¨m": 7443,
      "Ġmuá»Ĺng": 7444,
      "\")": 7445,
      "ĠHenry": 7446,
      "ĠTer": 7447,
      "ĠGR": 7448,
      "App": 7449,
      "aby": 7450,
      "Ġ1965": 7451,
      "ĠNag": 7452,
      "VÃ¹ng": 7453,
      "ĠTÃ¹y": 7454,
      "OV": 7455,
      "Ġtáº£o": 7456,
      "ĠLaz": 7457,
      "ĠWin": 7458,
      "ChÃ¢u": 7459,
      "ĠPN": 7460,
      "ĠTrÃ¬nh": 7461,
      "ĠYang": 7462,
      "organ": 7463,
      "ait": 7464,
      "Ġchui": 7465,
      "ĠkÃ¬m": 7466,
      "²m": 7467,
      "suc": 7468,
      "ĠGame": 7469,
      "ĠvÃ¡c": 7470,
      "ream": 7471,
      "Æ¯Æł": 7472,
      "Ġhá»©c": 7473,
      "ĠgÃµ": 7474,
      "Ġhit": 7475,
      "ĠKan": 7476,
      "ason": 7477,
      "bÃ¡n": 7478,
      "avir": 7479,
      "ĠThá»¥c": 7480,
      "ĠMol": 7481,
      "ĠLigue": 7482,
      "ĠDong": 7483,
      "Ġchá»¯ng": 7484,
      "ĠVGP": 7485,
      "ĠhoÃ¡": 7486,
      "ĠTráº¡i": 7487,
      "shi": 7488,
      "ĠNho": 7489,
      "Hen": 7490,
      "Sao": 7491,
      "ĠTáº¿": 7492,
      "pháº£i": 7493,
      "ĠKhÃ¡m": 7494,
      "ĠBMW": 7495,
      "ills": 7496,
      "ĠDar": 7497,
      "ĠCNTT": 7498,
      "ĠAston": 7499,
      "MN": 7500,
      "ĠchoÃ¡ng": 7501,
      "khu": 7502,
      "bach": 7503,
      "Ġchá»ĳn": 7504,
      "Há»Ĺ": 7505,
      "ount": 7506,
      "lix": 7507,
      "ĠTHá»": 7508,
      "ville": 7509,
      "Sch": 7510,
      "EN": 7511,
      "ĠhÃŃ": 7512,
      "ĠHÃ³c": 7513,
      "ĠphÃ¡c": 7514,
      "ĠRáº«y": 7515,
      "ĠcÆ°á»£c": 7516,
      "ĠIU": 7517,
      "á»¨ng": 7518,
      "Æ¯ÆłNG": 7519,
      "ĠGh": 7520,
      "ĠTÃŃch": 7521,
      "ChÃº": 7522,
      "ÄĲá»«ng": 7523,
      "Ġnhá»§": 7524,
      "ockchain": 7525,
      "LÃ¢m": 7526,
      "eman": 7527,
      "Ġkhiáº¿p": 7528,
      "iatis": 7529,
      "ĠLeicester": 7530,
      "ĠMusic": 7531,
      "Ġ103": 7532,
      "ingroup": 7533,
      "sá»±": 7534,
      "Ġfacebook": 7535,
      "ĠMong": 7536,
      "Ġ1963": 7537,
      "rig": 7538,
      "Ġcá»«u": 7539,
      "VÆ°Æ¡ng": 7540,
      "Ġviá»ģn": 7541,
      "ĠTuchel": 7542,
      "ĠTNGT": 7543,
      "Ġmic": 7544,
      "uire": 7545,
      "VÄ©nh": 7546,
      "ĠMedia": 7547,
      "Ġlung": 7548,
      "ĠRoy": 7549,
      "ĠKen": 7550,
      "CÃ¡i": 7551,
      "XuÃ¢n": 7552,
      "ÄĤn": 7553,
      "ĠVCK": 7554,
      "uma": 7555,
      "ĠxÄĥm": 7556,
      "Ġsim": 7557,
      "ĠFred": 7558,
      "ĠcÃºc": 7559,
      "ĠÆ¯á»Ľc": 7560,
      "ÃĮNH": 7561,
      "cÆ¡": 7562,
      "ĠKn": 7563,
      "ĠTá»µ": 7564,
      "ĠTs": 7565,
      "Ġmiá»ĩt": 7566,
      "Ġ1954": 7567,
      "ĠJord": 7568,
      "ĠBruno": 7569,
      "Ġdáº¥y": 7570,
      "aster": 7571,
      "ĠJones": 7572,
      "ĠChiÃªu": 7573,
      "trá»«": 7574,
      "Ġphao": 7575,
      "ĠMáº§m": 7576,
      "ourn": 7577,
      "Ġkháº¯t": 7578,
      "ĠdÃª": 7579,
      "ĠChrys": 7580,
      "Soi": 7581,
      "cÃ²n": 7582,
      "ello": 7583,
      "Ġ1900": 7584,
      "gio": 7585,
      "ĠYout": 7586,
      "ĠChatGPT": 7587,
      "ä¸": 7588,
      "ĠLove": 7589,
      "ĠcÃ¡m": 7590,
      "ĠbÃ£": 7591,
      "ngu": 7592,
      "ĠBTV": 7593,
      "mÃ£": 7594,
      "Ġtá»¥y": 7595,
      "Ġcháº£nh": 7596,
      "ĠOli": 7597,
      "edan": 7598,
      "ĠÃ³c": 7599,
      "ĠAnt": 7600,
      "New": 7601,
      "Ġphiáº¿n": 7602,
      "âĢ¦.": 7603,
      "ĠChuyá»ĩn": 7604,
      "ĠBCH": 7605,
      "ĠCrimea": 7606,
      "ĠVIII": 7607,
      "ĠOd": 7608,
      "Ġgiang": 7609,
      "mo": 7610,
      "Ġtáº¡t": 7611,
      "ĠOscar": 7612,
      "vest": 7613,
      "ĠBinh": 7614,
      "ĠPower": 7615,
      "Ã¤": 7616,
      "phá»": 7617,
      "ĠáºŃp": 7618,
      "ĠRock": 7619,
      "ĠFestival": 7620,
      "ĠKo": 7621,
      "ĠRad": 7622,
      "Pad": 7623,
      "ĠSM": 7624,
      "ages": 7625,
      "Mart": 7626,
      "ĠASIA": 7627,
      "thá»Ŀi": 7628,
      "kÃŃp": 7629,
      "ĠAR": 7630,
      "ĠNASA": 7631,
      "Ġná»Ļ": 7632,
      "ĠRy": 7633,
      "Plot": 7634,
      "ĠTÃł": 7635,
      "ĠnháºŃm": 7636,
      "ĠNiÃª": 7637,
      "LÃło": 7638,
      "ĠOb": 7639,
      "ĠKÃŃnh": 7640,
      "Ġ1930": 7641,
      "Ġlay": 7642,
      "asp": 7643,
      "ĠKit": 7644,
      "ĠkWh": 7645,
      "ĠdÃ¬": 7646,
      "Ġdang": 7647,
      "Ġ102": 7648,
      "Ġje": 7649,
      "Com": 7650,
      "ĠgÃłng": 7651,
      "ĠmÃ¡c": 7652,
      "wan": 7653,
      "gan": 7654,
      "ĠthÃŃnh": 7655,
      "ĠRanh": 7656,
      "giáº£i": 7657,
      "NÃ³": 7658,
      "ĠMits": 7659,
      "ĠÄĳÃºp": 7660,
      "ĠVenezuela": 7661,
      "ĠhoÃ¡n": 7662,
      "ĠVina": 7663,
      "ĠHymenoptera": 7664,
      "khi": 7665,
      "ĠBÃ¢y": 7666,
      "Ġrock": 7667,
      "2006": 7668,
      "Ġ1964": 7669,
      "ope": 7670,
      "ĠCM": 7671,
      "ava": 7672,
      "Ġlá»Ļng": 7673,
      "cu": 7674,
      "ĠNSNN": 7675,
      "ĠHoldings": 7676,
      "ĠTy": 7677,
      "ĠsuÃ½t": 7678,
      "oisong": 7679,
      "khoed": 7680,
      "Ġdiá»ĩu": 7681,
      "ĠOnline": 7682,
      "ĠchÃ©n": 7683,
      "lizabeth": 7684,
      "Ġsá»«ng": 7685,
      "ĠIntel": 7686,
      "ĠChia": 7687,
      "ĠUng": 7688,
      "treet": 7689,
      "hy": 7690,
      "khoedoisong": 7691,
      "Ġ1966": 7692,
      "cl": 7693,
      "Ġquáº·ng": 7694,
      "ĠAnth": 7695,
      "Ġteh": 7696,
      "ĠnhÃ£": 7697,
      "ĠHel": 7698,
      "ĠPhÃºt": 7699,
      "Cá»Ļng": 7700,
      "ĠKremlin": 7701,
      "ĠÄĤ": 7702,
      "NHNN": 7703,
      "ĠEverton": 7704,
      "ĠHO": 7705,
      "ĠLNG": 7706,
      "ĠLife": 7707,
      "CD": 7708,
      "ĠTa": 7709,
      "Ġráº¡ch": 7710,
      "cha": 7711,
      "cr": 7712,
      "can": 7713,
      "athon": 7714,
      "jet": 7715,
      "trÃªn": 7716,
      "ĠBrighton": 7717,
      "ĠhÃ¡n": 7718,
      "ĠLá»Ŀi": 7719,
      "zo": 7720,
      "Ġ1941": 7721,
      "Ġphá»¥ng": 7722,
      "ĠKir": 7723,
      "Ġ?": 7724,
      "Ġáº¥u": 7725,
      "Há»£p": 7726,
      "ĠSports": 7727,
      "Ġ1962": 7728,
      "ĠBat": 7729,
      "ĠnhÃ¡t": 7730,
      "ĠVÆ°á»£ng": 7731,
      "ĠngÃłng": 7732,
      "ĠSab": 7733,
      "Ġnáº£n": 7734,
      "ĠJae": 7735,
      "Ġtehsil": 7736,
      "ĠRa": 7737,
      "Ġná»ĥ": 7738,
      "ĠJim": 7739,
      "PhÃºt": 7740,
      "eter": 7741,
      "ĠWat": 7742,
      "Ġbá»ĵ": 7743,
      "aptop": 7744,
      "Bá»©c": 7745,
      "ĠTMÄĲT": 7746,
      "tech": 7747,
      "ĠPeter": 7748,
      "via": 7749,
      "mad": 7750,
      "Cam": 7751,
      "ĠKal": 7752,
      "ĠHáº¡m": 7753,
      "Ġnhuá»Ļm": 7754,
      "ĠnhÃ³c": 7755,
      "ĠCarol": 7756,
      "Biá»ĥu": 7757,
      "Ġngáº¥t": 7758,
      "ĠPi": 7759,
      "duc": 7760,
      "Ġfanpage": 7761,
      "Ġhu": 7762,
      "ÄĲÃºng": 7763,
      "Tá»±": 7764,
      "ĠTÃ¬m": 7765,
      "Ġres": 7766,
      "Ġmá»ĳt": 7767,
      "Ġsá»į": 7768,
      "cert": 7769,
      "Ġkhiáº¿m": 7770,
      "ubishi": 7771,
      "ĠMobile": 7772,
      "Ġmod": 7773,
      "ieu": 7774,
      "Ġtá»ĳp": 7775,
      "ĠJac": 7776,
      "Ġ116": 7777,
      "ĠId": 7778,
      "Äĳáº¡i": 7779,
      "Ġbáº©m": 7780,
      "UN": 7781,
      "mat": 7782,
      "usta": 7783,
      "ĠPogba": 7784,
      "ĠSá»": 7785,
      "2005": 7786,
      "ĠxÃłi": 7787,
      "urn": 7788,
      "ĠKiatis": 7789,
      "La": 7790,
      "Ġná»©c": 7791,
      "tok": 7792,
      "ĠChang": 7793,
      "din": 7794,
      "ampton": 7795,
      "ote": 7796,
      "Ġvun": 7797,
      "ĠbÃªnh": 7798,
      "Ġgá»Ļi": 7799,
      "ĠAth": 7800,
      "ĠToáº£n": 7801,
      "Ġte": 7802,
      "Ġgl": 7803,
      "Ġliá»ħu": 7804,
      "ĠSand": 7805,
      "Ġthoa": 7806,
      "Khai": 7807,
      "ĠSir": 7808,
      "Ġrapper": 7809,
      "ĠTrÃ£i": 7810,
      "alan": 7811,
      "Ġsáº¥u": 7812,
      "Ġngá»©a": 7813,
      "Ġ2027": 7814,
      "Ġbody": 7815,
      "tri": 7816,
      "ĠVingroup": 7817,
      "ĠBon": 7818,
      "ĠAj": 7819,
      "ĠArc": 7820,
      "ĠVHTT": 7821,
      "ĠJean": 7822,
      "cá»": 7823,
      "ĠgáºŃp": 7824,
      "ĠTuá»ĩ": 7825,
      "enc": 7826,
      "baba": 7827,
      "hai": 7828,
      "ĠDig": 7829,
      "ĠLionel": 7830,
      "Ġbáº¡t": 7831,
      "Dr": 7832,
      "Ġsub": 7833,
      "Ġby": 7834,
      "Tá»«ng": 7835,
      "Ġ1000": 7836,
      "ĠBrit": 7837,
      "ĠvÃłn": 7838,
      "ourg": 7839,
      "ĠDubai": 7840,
      "âĢĿâĢ¦": 7841,
      "ĠOle": 7842,
      "Ġ(\"": 7843,
      "suckhoedoisong": 7844,
      "ĠCNCH": 7845,
      "And": 7846,
      "ĠBy": 7847,
      "ĠEv": 7848,
      "ĠphÃŃm": 7849,
      "oda": 7850,
      "ĠLáº§u": 7851,
      "ĠInf": 7852,
      "ĠLÃ£o": 7853,
      "Ġlá»µ": 7854,
      "ĠIX": 7855,
      "Ġ117": 7856,
      "ria": 7857,
      "ĠNVCC": 7858,
      "bek": 7859,
      "BG": 7860,
      "ĠDÆ°": 7861,
      "ĠHOSE": 7862,
      "Ġtro": 7863,
      "owell": 7864,
      "Ġis": 7865,
      "Cá»Ń": 7866,
      "ĠÃł": 7867,
      "Ġkhinh": 7868,
      "CCI": 7869,
      "Benz": 7870,
      "ĠTháº¡c": 7871,
      "ĠBá»Ŀ": 7872,
      "ĠMarc": 7873,
      "ĠCD": 7874,
      "ĠCanh": 7875,
      "ĠRashford": 7876,
      "ĠCá»ĳc": 7877,
      "ĠSP": 7878,
      "ĠThá»ıa": 7879,
      "Ġ240": 7880,
      "ĠOl": 7881,
      "Ġláº©n": 7882,
      "Ġtáº¥p": 7883,
      "ept": 7884,
      "YÃªu": 7885,
      "ĠAsian": 7886,
      "ĠLÃ¢u": 7887,
      "áº®": 7888,
      "ĠFerr": 7889,
      "Ġ1946": 7890,
      "ĠDÄ©nh": 7891,
      "ĠÃ¡ch": 7892,
      "ĠSom": 7893,
      "ĠtÃł": 7894,
      "Ġbá»įt": 7895,
      "ĠPhá»ĳi": 7896,
      "rit": 7897,
      "tone": 7898,
      "Im": 7899,
      "ĠPhÃ¡i": 7900,
      "Ġxáº¯n": 7901,
      "ĠThy": 7902,
      "gu": 7903,
      "ĠLá»ĩnh": 7904,
      "ĠYoon": 7905,
      "ĠASIAD": 7906,
      "TháºŃm": 7907,
      "Ð¾Ð": 7908,
      "ĠngÃłi": 7909,
      "eds": 7910,
      "flix": 7911,
      "Ġnhá»ĵi": 7912,
      "nÃ³ng": 7913,
      "RA": 7914,
      "siÃªu": 7915,
      "ĠBund": 7916,
      "ķi": 7917,
      "ĠÄĤn": 7918,
      "iness": 7919,
      "Ġ#": 7920,
      "SÆ¡n": 7921,
      "ĠhÃ©t": 7922,
      "ĠIndex": 7923,
      "uat": 7924,
      "kinh": 7925,
      "bes": 7926,
      "Ãĵ": 7927,
      "ĠRec": 7928,
      "xe": 7929,
      "ĠÄĲÃ¡nh": 7930,
      "zi": 7931,
      "ĠRÃªu": 7932,
      "ĠTÆ°á»Ľng": 7933,
      "ĠCá»Ń": 7934,
      "Trá»Ł": 7935,
      "Dá»¯": 7936,
      "thá»©": 7937,
      "CLB": 7938,
      "enia": 7939,
      "Ġstartup": 7940,
      "ĠLav": 7941,
      "Xin": 7942,
      "ĠHuawei": 7943,
      "inez": 7944,
      "ĠElizabeth": 7945,
      "Ġgáº§y": 7946,
      "Ġ123": 7947,
      "Ġ112": 7948,
      "HoÃłn": 7949,
      "Ġmassage": 7950,
      "Ġ175": 7951,
      "FO": 7952,
      "ĠSri": 7953,
      "hiá»ĩn": 7954,
      "ĠKhÃ¡i": 7955,
      "Ġthiá»ģn": 7956,
      "EV": 7957,
      "Ġbáº©y": 7958,
      "Ġchen": 7959,
      "Ġthá»ı": 7960,
      "ĠArteta": 7961,
      "ĠShow": 7962,
      "icon": 7963,
      "âĢ¢": 7964,
      "Ġlink": 7965,
      "ĠShark": 7966,
      "ĠNav": 7967,
      "Ġplay": 7968,
      "Â°": 7969,
      "ĠhÃ´ng": 7970,
      "chiáº¿n": 7971,
      "ĠDÄ©": 7972,
      "ology": 7973,
      "Láº¥y": 7974,
      "ĠSuz": 7975,
      "ĠDC": 7976,
      "garia": 7977,
      "Ġchá»įi": 7978,
      "ĠLeg": 7979,
      "ĦN": 7980,
      "Ġnhuyá»ħn": 7981,
      "ĠUP": 7982,
      "ĠTriáº¿t": 7983,
      "ĠTá»ĳt": 7984,
      "ĠrÃ¡ch": 7985,
      "ĠNobel": 7986,
      "Phan": 7987,
      "ĠChÄĥn": 7988,
      "evin": 7989,
      "ĠNÃł": 7990,
      "ĠvÃ©t": 7991,
      "ĠDjokovic": 7992,
      "ERS": 7993,
      "Ñģ": 7994,
      "Par": 7995,
      "jo": 7996,
      "ĠScott": 7997,
      "dinh": 7998,
      "ĠvÃ²i": 7999,
      "Ġráº«y": 8000,
      "ĠNorth": 8001,
      "ĠvÃ´i": 8002,
      "olor": 8003,
      "UA": 8004,
      "UNG": 8005,
      "ĠÄĳáº¥m": 8006,
      "2004": 8007,
      "med": 8008,
      "ĠFir": 8009,
      "ĠSeries": 8010,
      "ĠCross": 8011,
      "ĠIns": 8012,
      "±a": 8013,
      "ĠgiÃ£": 8014,
      "ĠFar": 8015,
      "Ġtá»īa": 8016,
      "Ġmix": 8017,
      "ĠKlopp": 8018,
      "ĠFu": 8019,
      ">>": 8020,
      "inus": 8021,
      "**": 8022,
      "TTP": 8023,
      "ĠSec": 8024,
      "Ġ113": 8025,
      "ures": 8026,
      "ĠgÃ³t": 8027,
      "ĠMaguire": 8028,
      "NV": 8029,
      "ĠAntonio": 8030,
      "je": 8031,
      "DR": 8032,
      "itar": 8033,
      "ĠbÃº": 8034,
      "CG": 8035,
      "ĠChina": 8036,
      "ype": 8037,
      "ĠTang": 8038,
      "ennis": 8039,
      "ika": 8040,
      "CÃł": 8041,
      "Ġmark": 8042,
      "Ġ111": 8043,
      "ĠGB": 8044,
      "Ġnuá»ĳt": 8045,
      "BÃ©": 8046,
      "ĠMazda": 8047,
      "Ġláº§y": 8048,
      "Tháº¥y": 8049,
      "ļI": 8050,
      "ĠTiáº¿t": 8051,
      "ĠgÃ¢n": 8052,
      "ĠNord": 8053,
      "ÑĤ": 8054,
      "ĠFel": 8055,
      "ual": 8056,
      "ĠVPBank": 8057,
      "cean": 8058,
      "ĠDonetsk": 8059,
      "ĠJam": 8060,
      "EX": 8061,
      "ĠmÃ´ng": 8062,
      "ourinho": 8063,
      "ĠhÃŃt": 8064,
      "NÃ´ng": 8065,
      "ĠGiá»ĳng": 8066,
      "FT": 8067,
      "MÆ°a": 8068,
      "Ġ104": 8069,
      "inea": 8070,
      "ĠHáº¡ng": 8071,
      "ĠMáºŃu": 8072,
      "ĠGHPG": 8073,
      "ĠNgáº¡n": 8074,
      "TPHCM": 8075,
      "ĠAlibaba": 8076,
      "esse": 8077,
      "Ġá»ĳp": 8078,
      "Ġbá»«ng": 8079,
      "ction": 8080,
      "ĠÄĳÃ¡i": 8081,
      "ĠDow": 8082,
      "atum": 8083,
      "ydney": 8084,
      "Ġrang": 8085,
      "ĠTNCS": 8086,
      "ĠmÆ°Æ¡ng": 8087,
      "KL": 8088,
      "cp": 8089,
      "ushi": 8090,
      "Ġ114": 8091,
      "ĠÄĳu": 8092,
      "å¤": 8093,
      "ĠChile": 8094,
      "ĠNgÃ£": 8095,
      "las": 8096,
      "ĠDy": 8097,
      "1945": 8098,
      "uez": 8099,
      "phÃºt": 8100,
      "ĠLatinh": 8101,
      "ĠRub": 8102,
      "ĠUz": 8103,
      "MÃłn": 8104,
      "ĠtÃ¡t": 8105,
      "ĠXÃ©t": 8106,
      "ĠvÃ²m": 8107,
      "ĠAntony": 8108,
      "ĠnÃªm": 8109,
      "ĠmÃ£nh": 8110,
      "ĠHá»©a": 8111,
      "ĠPalace": 8112,
      "Vin": 8113,
      "ĠTÆ°á»Łng": 8114,
      "Ã§": 8115,
      "Ġquá»·": 8116,
      "Há»ĵng": 8117,
      "Loáº¡i": 8118,
      "Å«": 8119,
      "ĠSimon": 8120,
      "ĠDiá»ĩc": 8121,
      "ĠAlbum": 8122,
      "ĠFan": 8123,
      "ĠnhÄĥn": 8124,
      "ĠBoe": 8125,
      "Ġsáº¯n": 8126,
      "ĠFox": 8127,
      "Ġnáº¿n": 8128,
      "liga": 8129,
      "olo": 8130,
      "chá»ĳng": 8131,
      "Ġsum": 8132,
      "ĠShe": 8133,
      "Ġthá»ĳn": 8134,
      "ĠSur": 8135,
      "ifer": 8136,
      "ever": 8137,
      "akar": 8138,
      "rov": 8139,
      "ĠNgÆ°": 8140,
      "ootball": 8141,
      "Ġthung": 8142,
      "ophyll": 8143,
      "Ġview": 8144,
      "oman": 8145,
      "Ġ135": 8146,
      "ĠSudan": 8147,
      "ooth": 8148,
      "Ġpháº«n": 8149,
      "ÄĲáº¡o": 8150,
      "kham": 8151,
      "350": 8152,
      "Ãį": 8153,
      "ĠlÃ©n": 8154,
      "ĠPháº£": 8155,
      "ĠPot": 8156,
      "ift": 8157,
      "ĠBenz": 8158,
      "ĠMoon": 8159,
      "kV": 8160,
      "ĠSáº§m": 8161,
      "ĠrÃ£nh": 8162,
      "ĠArab": 8163,
      "]]": 8164,
      "ĠGI": 8165,
      "KhÃ³": 8166,
      "ĠMÃł": 8167,
      "Cal": 8168,
      "ĠnÃ³n": 8169,
      "ĠHouse": 8170,
      "Ġchá»īn": 8171,
      "Ġ106": 8172,
      "vin": 8173,
      "ilis": 8174,
      "ĠMuá»ĳn": 8175,
      "vard": 8176,
      "Ġ%": 8177,
      "utnik": 8178,
      "red": 8179,
      "ĠSk": 8180,
      "á»ĩt": 8181,
      "Ġ1958": 8182,
      "ĠxÃ¡o": 8183,
      "ĠWatch": 8184,
      "ĠDal": 8185,
      "ĠlÃºng": 8186,
      "KD": 8187,
      "ĠKat": 8188,
      "ĠGrab": 8189,
      "ulin": 8190,
      "ĠGiÃłng": 8191,
      "ĠWang": 8192,
      "ĠrÃ¹a": 8193,
      "ĠGard": 8194,
      "ÄĲáº¯k": 8195,
      "ÄĲÃ´i": 8196,
      "OL": 8197,
      "á»Į": 8198,
      "ĠXÃºc": 8199,
      "Cáº·p": 8200,
      "Ġgr": 8201,
      "ĠRay": 8202,
      "umi": 8203,
      "Ġnhá»įc": 8204,
      "ĠBlues": 8205,
      "ĠThiá»ģn": 8206,
      "ĠÄĳá»ĳm": 8207,
      "há»įc": 8208,
      "Ġdel": 8209,
      "ĠThá»©c": 8210,
      "ĠSilva": 8211,
      "TiÃªu": 8212,
      "SA": 8213,
      "ĠSung": 8214,
      "ĠchÆ°á»Ľng": 8215,
      "ĠAle": 8216,
      "ĠLanka": 8217,
      "ĠFernandes": 8218,
      "ĠThao": 8219,
      "ĠJordan": 8220,
      "ef": 8221,
      "ĠATM": 8222,
      "dá»±": 8223,
      "ĠlÆ°á»£n": 8224,
      "ĠDaniel": 8225,
      "ĠiOS": 8226,
      "ĠÆ¯u": 8227,
      "ĠGiá»¯a": 8228,
      "trÆ°á»Ľc": 8229,
      "Ġgiá»¥c": 8230,
      "ĠNay": 8231,
      "Cháº¥t": 8232,
      "ĠQH": 8233,
      "ĠNigeria": 8234,
      "ĠKhiÃªm": 8235,
      "ĠTCT": 8236,
      "Ġmac": 8237,
      "ĠlÃºn": 8238,
      "ĠGV": 8239,
      "ĠJeff": 8240,
      "endy": 8241,
      "ĠKabul": 8242,
      "ĠNova": 8243,
      "ĠGaza": 8244,
      "UYá»ĦN": 8245,
      "ady": 8246,
      "Ġ155": 8247,
      "ĠAlb": 8248,
      "gá»įi": 8249,
      "ĠGolf": 8250,
      "åħ": 8251,
      "ĠHá»ķ": 8252,
      "táº¡i": 8253,
      "Ġ190": 8254,
      "idth": 8255,
      "si": 8256,
      "ĠMXH": 8257,
      "ĠUp": 8258,
      "?\"": 8259,
      "Pro": 8260,
      "ĠmÆ°á»£t": 8261,
      "ĠMeta": 8262,
      "emen": 8263,
      "ĠbÃ¨n": 8264,
      "ĠTDTT": 8265,
      "Ġchá»Ľp": 8266,
      "ĠLÃ£": 8267,
      "ĠBá»į": 8268,
      "ĠHee": 8269,
      "Giá»ĳng": 8270,
      "ĠYoutube": 8271,
      "ĠMartinez": 8272,
      "ĠAdam": 8273,
      "ations": 8274,
      "ĠPeru": 8275,
      "tá»ķng": 8276,
      "ĠBas": 8277,
      "tÃŃnh": 8278,
      "ĠElec": 8279,
      "Ra": 8280,
      "Ġtháº±ng": 8281,
      "ĠxÃ©": 8282,
      "ĠPha": 8283,
      "Ġit": 8284,
      "âĢ¦)": 8285,
      "ĠBulgaria": 8286,
      "Is": 8287,
      "ĠrÃ¡n": 8288,
      "ĠGiÃ¢y": 8289,
      "ĠBÃ´ng": 8290,
      "ĠNou": 8291,
      "Äĳá»ĵng": 8292,
      "abi": 8293,
      "ĠLiá»ħu": 8294,
      "ĠNetflix": 8295,
      "ĠThiáº¿n": 8296,
      "ĠlÃ¹m": 8297,
      "ĠSydney": 8298,
      "cuador": 8299,
      "ring": 8300,
      "Ġcl": 8301,
      "ÄĲá»ĭnh": 8302,
      "ĠBoy": 8303,
      "acom": 8304,
      "ĠthÃ²i": 8305,
      "ĠNad": 8306,
      "Ġ1961": 8307,
      "LX": 8308,
      "ĠCá»ĳng": 8309,
      "ĠSalah": 8310,
      "Ġlaptop": 8311,
      "ovo": 8312,
      "ĠNar": 8313,
      "ĠUnivers": 8314,
      "Hiá»ĩu": 8315,
      "ilon": 8316,
      "Ġacid": 8317,
      "ĠsÆ°á»Łi": 8318,
      "ĠgiÃ¡ng": 8319,
      "ĠGiáº£m": 8320,
      "ĠchÃ¡nh": 8321,
      "ĠDiá»ĩn": 8322,
      "Fran": 8323,
      "Ġgáº¯m": 8324,
      "ĠKSND": 8325,
      "HN": 8326,
      "ĠMua": 8327,
      "ĠSub": 8328,
      "ĠVn": 8329,
      "imb": 8330,
      "ĠÄĲÃºng": 8331,
      "ista": 8332,
      "Ġchuá»ĵn": 8333,
      "ĠResort": 8334,
      "ĠrÆ¡m": 8335,
      "esliga": 8336,
      "Sam": 8337,
      "ude": 8338,
      "Ġ1956": 8339,
      "Chelsea": 8340,
      "Ġáº¿ch": 8341,
      "ĠtrÃªu": 8342,
      "ĠCháº¥n": 8343,
      "ĠSanta": 8344,
      "ĠsÆ°á»Ľng": 8345,
      "rea": 8346,
      "ChÃ¢n": 8347,
      "Ġcent": 8348,
      "TÃ²a": 8349,
      "ĠFil": 8350,
      "ĠEdward": 8351,
      "ĠModel": 8352,
      "Ġlá»±u": 8353,
      "epal": 8354,
      "ĠLib": 8355,
      "azer": 8356,
      "Ã¨m": 8357,
      "times": 8358,
      "bekistan": 8359,
      "Ġtrá»ĵ": 8360,
      "var": 8361,
      "ĠKur": 8362,
      "ÃĢNG": 8363,
      "Ġrá»Ľt": 8364,
      "ĠGHPGVN": 8365,
      "Ġráº£nh": 8366,
      "ubl": 8367,
      "ĠÆ°Æ¡m": 8368,
      "ĠHÆ°á»Ŀng": 8369,
      "ĠchÃ³t": 8370,
      "Ġxáº£o": 8371,
      "ĠKang": 8372,
      "ĠRangnick": 8373,
      "als": 8374,
      "eld": 8375,
      "ĠXiaomi": 8376,
      "ĠÄĳao": 8377,
      "Ġ230": 8378,
      "IG": 8379,
      "ngá»¥": 8380,
      "Ġbe": 8381,
      "World": 8382,
      "amine": 8383,
      "ĠSáº¯c": 8384,
      "Ġvá»Ĺ": 8385,
      "round": 8386,
      "ific": 8387,
      "osp": 8388,
      "á»§": 8389,
      "Ġ109": 8390,
      "ĠHome": 8391,
      "ĠGran": 8392,
      "ĠResearch": 8393,
      "ĠOman": 8394,
      "ĠOcean": 8395,
      "LS": 8396,
      "dung": 8397,
      "Tá»Ľi": 8398,
      "KhÃ¡c": 8399,
      "ĠbÄĥm": 8400,
      "Ġki": 8401,
      "Táº¡o": 8402,
      "ikini": 8403,
      "ĠKa": 8404,
      "cá»±u": 8405,
      "JI": 8406,
      "wang": 8407,
      "ĠPhÃ³ng": 8408,
      "idge": 8409,
      "Ġxy": 8410,
      "Triá»ĩu": 8411,
      "how": 8412,
      "ĠTown": 8413,
      "ĠRet": 8414,
      "ĠVá»¹": 8415,
      "ĠWill": 8416,
      "bl": 8417,
      "Ġquá»³": 8418,
      "ÄĲa": 8419,
      "ĠKyo": 8420,
      "omelidae": 8421,
      "ĠFab": 8422,
      "ĠSLNA": 8423,
      "ĠAnthony": 8424,
      "CoM": 8425,
      "ĠgÃ²": 8426,
      "Ġrun": 8427,
      "ĠMill": 8428,
      "ĠTHA": 8429,
      "Ġtáº·c": 8430,
      "ÄĲÃłi": 8431,
      "raham": 8432,
      "bÃªn": 8433,
      "ĠGÃ³i": 8434,
      "Ġ107": 8435,
      "ather": 8436,
      "Ġpar": 8437,
      "ĠÄĲá»Ŀi": 8438,
      "BB": 8439,
      "ĠWol": 8440,
      "ĠBá»ĵng": 8441,
      "ĠChrysomelidae": 8442,
      "ĠnÃ³c": 8443,
      "cao": 8444,
      "Ġnhá»ĭn": 8445,
      "há»Ļ": 8446,
      "ĠGÃ³c": 8447,
      "...)": 8448,
      "ĠloÃ£ng": 8449,
      "ĠUÃ´ng": 8450,
      "ĠIC": 8451,
      "Ġáº¡t": 8452,
      "Cháº³ng": 8453,
      "Mua": 8454,
      "2003": 8455,
      "ĠFrancisco": 8456,
      "Nghi": 8457,
      "Hay": 8458,
      "ĠSancho": 8459,
      "Mai": 8460,
      "Ġ1955": 8461,
      "MI": 8462,
      "ĠXa": 8463,
      "120": 8464,
      "Ġsáº¹": 8465,
      "ĠTechcombank": 8466,
      "Ġnáº¡o": 8467,
      "rian": 8468,
      "ÄĲB": 8469,
      "ĠStan": 8470,
      "ĠHall": 8471,
      "ĠNghe": 8472,
      "esus": 8473,
      "Ġmau": 8474,
      "ĠrÆ°á»¡i": 8475,
      "real": 8476,
      "ĠTO": 8477,
      "Ġsáº¹o": 8478,
      "ĠRoll": 8479,
      "gáº§n": 8480,
      "Tam": 8481,
      "form": 8482,
      "ĠmÃŃ": 8483,
      "ĠLiá»ĩu": 8484,
      "Ġtá»³": 8485,
      "Nháº¡c": 8486,
      "ito": 8487,
      "dan": 8488,
      "ĠGor": 8489,
      "ĠOx": 8490,
      "ĠvÄĥng": 8491,
      "ithi": 8492,
      "Rob": 8493,
      "dy": 8494,
      "ĠShopee": 8495,
      "Quáº£": 8496,
      "Can": 8497,
      "ĠNCT": 8498,
      "Mal": 8499,
      "ĠSÆ¡": 8500,
      "ning": 8501,
      "ĠBlink": 8502,
      "arp": 8503,
      "ĠVirgin": 8504,
      "aine": 8505,
      "ts": 8506,
      "Ġse": 8507,
      "ĠHoáº·c": 8508,
      "giÃ¡": 8509,
      "ĠdÃ¨": 8510,
      "Or": 8511,
      "ĠMaster": 8512,
      "akia": 8513,
      "ange": 8514,
      "ĠtrÃ¹": 8515,
      "ju": 8516,
      "ĠtÄĥm": 8517,
      "seud": 8518,
      "Ã©r": 8519,
      "ELTS": 8520,
      "ĠMacron": 8521,
      "ĠvÃ¹i": 8522,
      "ĠTáº£": 8523,
      "ĠSpace": 8524,
      "ĠchÃ²m": 8525,
      "Ġsedan": 8526,
      "Ġthiá»ģu": 8527,
      "menia": 8528,
      "ĠCoun": 8529,
      "orsche": 8530,
      "eph": 8531,
      "ĠVietinBank": 8532,
      "Ġlanh": 8533,
      "Ġnhá»¥c": 8534,
      "Cá»©": 8535,
      "ĠMourinho": 8536,
      "Ãģo": 8537,
      "má»Ĺi": 8538,
      "Ġ1959": 8539,
      "999": 8540,
      "ĠGea": 8541,
      "ĠxÃ¹m": 8542,
      "Ġcá»¥t": 8543,
      "ĠDiv": 8544,
      "ĠMitsubishi": 8545,
      "TrÆ°a": 8546,
      "Ser": 8547,
      "ĠKha": 8548,
      "ĠWhite": 8549,
      "Messi": 8550,
      "ĠAy": 8551,
      "erc": 8552,
      "ĠUBKT": 8553,
      "ĠStore": 8554,
      "ved": 8555,
      "ĠDiego": 8556,
      "Náº±m": 8557,
      "ĠMak": 8558,
      "Trá»±c": 8559,
      "ĠBXH": 8560,
      "Ġtivi": 8561,
      "BI": 8562,
      "ĠEcuador": 8563,
      "alus": 8564,
      "Ġrá»Ĺng": 8565,
      "ĠPom": 8566,
      "the": 8567,
      "vá»ģ": 8568,
      "ĠngÃ²i": 8569,
      "ĠQuá»³": 8570,
      "Ġdiá»ħu": 8571,
      "Ġbo": 8572,
      "ĠSGK": 8573,
      "box": 8574,
      "gor": 8575,
      "áº¦N": 8576,
      "ĠGAS": 8577,
      "Ã²e": 8578,
      "NgÆ°á»£c": 8579,
      "tyle": 8580,
      "ĠMotor": 8581,
      "ĠÄĲáº§m": 8582,
      "ĠSputnik": 8583,
      "ogo": 8584,
      "TIN": 8585,
      "uka": 8586,
      "ĠGabri": 8587,
      "\"...": 8588,
      "Ġwidth": 8589,
      "ĠUzbekistan": 8590,
      "ĠHá»Ļ": 8591,
      "ĠBillboard": 8592,
      "CáºŃp": 8593,
      "Ġgiáº±ng": 8594,
      "nguyÃªn": 8595,
      "Ġsal": 8596,
      "Ġgym": 8597,
      "Äĳáº·c": 8598,
      "TR": 8599,
      "Ġdiá»ģu": 8600,
      "%...": 8601,
      "ĠCÃ¡nh": 8602,
      "ĠnÃ¡o": 8603,
      "bra": 8604,
      "Ġkáº½m": 8605,
      "Äģ": 8606,
      "Ġcáº©u": 8607,
      "giai": 8608,
      "Ġ''": 8609,
      "ĠVÄĲ": 8610,
      "ladesh": 8611,
      "ĠCATP": 8612,
      "Ġet": 8613,
      "Äĳá»ĭa": 8614,
      "ĠNapoli": 8615,
      "ĠBundesliga": 8616,
      "ĠiPad": 8617,
      "ĠJoh": 8618,
      "ridge": 8619,
      "Ġrá»Ĺi": 8620,
      "ĠBenzema": 8621,
      "well": 8622,
      "AID": 8623,
      "EVN": 8624,
      "hn": 8625,
      "ĠÄĲTQG": 8626,
      "sá»ĳng": 8627,
      "HÄĲND": 8628,
      "ĠGuardian": 8629,
      "ĠNDT": 8630,
      "ĠXu": 8631,
      "TÃ¢m": 8632,
      "asa": 8633,
      "Go": 8634,
      "ĠTiá»ĩp": 8635,
      "ĠpháºŃt": 8636,
      "Ġcor": 8637,
      "ĠSuzuki": 8638,
      "ĠPel": 8639,
      "ĠCPI": 8640,
      "ĠTIáº¾": 8641,
      "ĠACB": 8642,
      "áºłI": 8643,
      "occo": 8644,
      "ĠLÃ£ng": 8645,
      "ĠKai": 8646,
      "Ġhe": 8647,
      "ĠNhÆ°á»¡ng": 8648,
      "ĠXoÃłi": 8649,
      "ĠMiami": 8650,
      "ÅŁ": 8651,
      "ÄĲá»£t": 8652,
      "hot": 8653,
      "ande": 8654,
      "Hot": 8655,
      "ĠBuá»ķi": 8656,
      "ĠGil": 8657,
      "ĠDev": 8658,
      "ÄĲá»ķi": 8659,
      "Ġváº¯t": 8660,
      "ĠWood": 8661,
      "isia": 8662,
      "ĠAD": 8663,
      "ĠVNÄĲ": 8664,
      "á»Ŀ": 8665,
      "uguay": 8666,
      "Ġhorm": 8667,
      "ĠIELTS": 8668,
      "ĠVolod": 8669,
      "Uá»ĳng": 8670,
      "Ġngá»Ńa": 8671,
      "ĠNight": 8672,
      "ĠVAR": 8673,
      "ĠMÃ¢y": 8674,
      "sc": 8675,
      "ĠVá»ĳn": 8676,
      "ĠCÃ¹": 8677,
      "Ġhack": 8678,
      "ĠCty": 8679,
      "ĠFe": 8680,
      "Ġcá»Ľ": 8681,
      "ĠStreet": 8682,
      "Ġhormone": 8683,
      "ĠphiÃªu": 8684,
      "ĠBlinken": 8685,
      "player": 8686,
      "Image": 8687,
      "Nghe": 8688,
      "fon": 8689,
      "Ġnhá»ĳt": 8690,
      "KiÃªn": 8691,
      "ĠHarris": 8692,
      "PS": 8693,
      "ĠCTV": 8694,
      "Ġas": 8695,
      "Ġcá»Ļi": 8696,
      "ffe": 8697,
      "GAP": 8698,
      "Ġ1957": 8699,
      "ĠTrans": 8700,
      "Ġ1939": 8701,
      "ĠRomania": 8702,
      "ĠBiáº¿t": 8703,
      "Ġmáº¹o": 8704,
      "Ġwith": 8705,
      "Pháº£n": 8706,
      "able": 8707,
      "ĠHPG": 8708,
      "Ġbikini": 8709,
      "khÃ³a": 8710,
      "Ġá»ĵ": 8711,
      "ÄĲH": 8712,
      "OR": 8713,
      "Ġthá»ĳi": 8714,
      "ĠCav": 8715,
      "ĠTá»ĳc": 8716,
      "irus": 8717,
      "Ġmá»³": 8718,
      "Ká»·": 8719,
      "Ġur": 8720,
      "ĠTráº£i": 8721,
      "trÃº": 8722,
      "Er": 8723,
      "ĠNX": 8724,
      "ĠCenter": 8725,
      "ĠTaylor": 8726,
      "ĠPed": 8727,
      "ĠCrystal": 8728,
      "ĠUSB": 8729,
      "Ġgiáº¥m": 8730,
      "ĠGhi": 8731,
      "orus": 8732,
      "ĠNhiá»ĩm": 8733,
      "ĠsÃło": 8734,
      "ĠGhan": 8735,
      "Xá»Ń": 8736,
      "ĠLÃ¡": 8737,
      "Tranh": 8738,
      "å®": 8739,
      "issan": 8740,
      "Giáº£m": 8741,
      "ĠkiÃªu": 8742,
      "Ġ1947": 8743,
      "MÃ³n": 8744,
      "ador": 8745,
      "Ġ...": 8746,
      "Ġtháº¯m": 8747,
      "Thá»«a": 8748,
      "ĠSteph": 8749,
      "Ninh": 8750,
      "ĠDen": 8751,
      "ray": 8752,
      "ĠhÃ³c": 8753,
      "ĠPNJ": 8754,
      "ĠPenn": 8755,
      "Camp": 8756,
      "ĠYu": 8757,
      "Ġ1920": 8758,
      "ÄĲK": 8759,
      "ily": 8760,
      "Ġ132": 8761,
      "ĠÄĲáº£m": 8762,
      "ĠÆ°ng": 8763,
      "ĠThoáº¡i": 8764,
      "Äĳáº§u": 8765,
      "ĠBir": 8766,
      "alle": 8767,
      "ĠWoo": 8768,
      "ierre": 8769,
      "ĠVCB": 8770,
      "ĠLG": 8771,
      "ĠCá»©u": 8772,
      "ĠÄĲak": 8773,
      "ĠCáº§m": 8774,
      "Ġ550": 8775,
      "iff": 8776,
      "ulata": 8777,
      "chn": 8778,
      "ĠDV": 8779,
      "ĠCel": 8780,
      "Ġnit": 8781,
      "petro": 8782,
      "ĠThiá»ģu": 8783,
      "ĠphÃłn": 8784,
      "San": 8785,
      "ĠMinzy": 8786,
      "Ġdá»©a": 8787,
      "ĠBre": 8788,
      "BYT": 8789,
      "ĠVietNam": 8790,
      "ser": 8791,
      "ixel": 8792,
      "cz": 8793,
      "ĠnÃłnh": 8794,
      "ĠlÃ¬": 8795,
      "Ġtáº©u": 8796,
      "Ġmarketing": 8797,
      "ķng": 8798,
      "wplayer": 8799,
      "Háº¡": 8800,
      "ĠHav": 8801,
      "báº¯t": 8802,
      "ĠHá»Ľi": 8803,
      "egal": 8804,
      "cal": 8805,
      "PhÃ³ng": 8806,
      "ras": 8807,
      "áº¾T": 8808,
      "Ġngáº¯t": 8809,
      "Clip": 8810,
      "TrÆ°Æ¡ng": 8811,
      "MTTQ": 8812,
      "ĠArmenia": 8813,
      "ĠForbes": 8814,
      "Ġsex": 8815,
      "Ġngáº¡t": 8816,
      "ĠTar": 8817,
      "ĠBÃłu": 8818,
      "ĠRAM": 8819,
      "ĠlÆ°á»Ŀi": 8820,
      "Ã©m": 8821,
      "ĠThÃ´n": 8822,
      "ĠLP": 8823,
      "utter": 8824,
      "ĠLukaku": 8825,
      "Huáº¥n": 8826,
      "Ġbá»Ľi": 8827,
      "ĠVá»": 8828,
      "ĠArcti": 8829,
      "Ġ126": 8830,
      "ĠphÃł": 8831,
      "chu": 8832,
      "ĠCosta": 8833,
      "ĠImages": 8834,
      "Ġ650": 8835,
      "ĠCentral": 8836,
      "KCN": 8837,
      "for": 8838,
      "ĠArctiinae": 8839,
      "Ġdes": 8840,
      "ĠFootball": 8841,
      "ĠHigh": 8842,
      "ĠSX": 8843,
      "ĠMetro": 8844,
      "ĠDia": 8845,
      "Ġ210": 8846,
      "ique": 8847,
      "ĠWars": 8848,
      "=\"": 8849,
      "Äĩ": 8850,
      "2002": 8851,
      "Sáº½": 8852,
      "ĠLÃªn": 8853,
      "ĠKishi": 8854,
      "Nhu": 8855,
      "utt": 8856,
      "INK": 8857,
      "ĠrÃ³t": 8858,
      "Kiáº¿n": 8859,
      "µi": 8860,
      "Mo": 8861,
      "ĠDisney": 8862,
      "war": 8863,
      "ĠVietjet": 8864,
      "ĠBangladesh": 8865,
      "Ġnung": 8866,
      "idaceae": 8867,
      "rix": 8868,
      "ĠEURO": 8869,
      "ĠWi": 8870,
      "ĠRen": 8871,
      "urs": 8872,
      "ĠÄĲoan": 8873,
      "Ġngháº¹n": 8874,
      "Nhiá»ĩm": 8875,
      "Sing": 8876,
      "ĠBrand": 8877,
      "ĠKhÃ³a": 8878,
      "ĠKÃªnh": 8879,
      "uth": 8880,
      "Cháº¿": 8881,
      "andowski": 8882,
      "Ġmá»§": 8883,
      "ĠNá»ģn": 8884,
      "ĠGates": 8885,
      "Cap": 8886,
      "ĠÄĳiá»ģm": 8887,
      "Huy": 8888,
      "mg": 8889,
      "ĠTechn": 8890,
      "Ġna": 8891,
      "ĠTá»«ng": 8892,
      "ĠTÃºc": 8893,
      "ĠbÃºp": 8894,
      "ĠcÃµi": 8895,
      "Ãģp": 8896,
      "ĠKos": 8897,
      "Ġcabin": 8898,
      "ĠJoseph": 8899,
      "!\".": 8900,
      "len": 8901,
      "zone": 8902,
      "ĠNgÃłi": 8903,
      "har": 8904,
      "ilia": 8905,
      "Ŀn": 8906,
      "Ġgram": 8907,
      "NÆ¡i": 8908,
      "1975": 8909,
      "had": 8910,
      "Äĳoáº¡n": 8911,
      "RC": 8912,
      "ĠLeeds": 8913,
      "ĠDÃ¹ng": 8914,
      "ĠngáºŃm": 8915,
      "aux": 8916,
      "ĠInvest": 8917,
      "ĠVÄĲQG": 8918,
      "240": 8919,
      "Ġkali": 8920,
      "ĠGRDP": 8921,
      "ĠChá»ĵng": 8922,
      "ĠSuk": 8923,
      "orth": 8924,
      "etooth": 8925,
      "Ġkhiáº¿t": 8926,
      "TF": 8927,
      "BÃ¡nh": 8928,
      "Chuáº©n": 8929,
      "ĠvÃ¡": 8930,
      "rat": 8931,
      "Ġháº£": 8932,
      "Ġ119": 8933,
      "ÄĲÆ°a": 8934,
      "ĠPowell": 8935,
      "Ġ750": 8936,
      "ÄĲáº¥t": 8937,
      "Váº«n": 8938,
      "ĠSÃ¢m": 8939,
      "ĠLÃ¡ng": 8940,
      "Ġbá»ĵng": 8941,
      "ĠStream": 8942,
      "atin": 8943,
      "ify": 8944,
      "LÃłng": 8945,
      "Ġad": 8946,
      "DS": 8947,
      "Muá»ĳn": 8948,
      "omy": 8949,
      "ĠSak": 8950,
      "Báº¿n": 8951,
      "ĠKhÃ³": 8952,
      "hin": 8953,
      "fan": 8954,
      "ĠLind": 8955,
      "sin": 8956,
      "ĠMass": 8957,
      "hu": 8958,
      "Ġop": 8959,
      "ĠNgÃł": 8960,
      "ĠBil": 8961,
      "ĠLab": 8962,
      "ĠKevin": 8963,
      "Ġcá»ĵng": 8964,
      "NC": 8965,
      "ĠBom": 8966,
      "mut": 8967,
      "ĠUruguay": 8968,
      "ĠSul": 8969,
      "ÄĳÃ¡nh": 8970,
      "ylv": 8971,
      "ĠTL": 8972,
      "ĠBai": 8973,
      "á»įt": 8974,
      "ĠFul": 8975,
      "ĠCang": 8976,
      "ĠBiá»ĥu": 8977,
      "ĠChristian": 8978,
      "Ġtoan": 8979,
      "ĠOh": 8980,
      "ĠOsaka": 8981,
      "Ġsáº¿p": 8982,
      "CNCH": 8983,
      "ĠCBCS": 8984,
      "ĠPháº¥n": 8985,
      "Bá»ĳn": 8986,
      "Ġtoa": 8987,
      "?âĢĿ.": 8988,
      "igan": 8989,
      "ĠJackson": 8990,
      "uph": 8991,
      "''": 8992,
      "ĠFort": 8993,
      "enna": 8994,
      "ĠMen": 8995,
      "Ġgiá»ı": 8996,
      "ĠMP": 8997,
      "acombank": 8998,
      "ĠXá»ķ": 8999,
      "ĠTun": 9000,
      "TÆ°": 9001,
      "¹n": 9002,
      "DÆ°Æ¡ng": 9003,
      "ĠBoeing": 9004,
      "ĠXÃ¡c": 9005,
      "ĠNepal": 9006,
      "Lee": 9007,
      "RI": 9008,
      "Ġkáº¹p": 9009,
      "Thá»ĥ": 9010,
      "ĠvÃµng": 9011,
      "BÃ³ng": 9012,
      "Ġsá»įc": 9013,
      "UBTVQH": 9014,
      "ĠVolodym": 9015,
      "Sm": 9016,
      "ĠIsland": 9017,
      "ĠMary": 9018,
      "ĠUltra": 9019,
      "Ġcoll": 9020,
      "Ġ260": 9021,
      "Apple": 9022,
      "ĠPin": 9023,
      "right": 9024,
      "Ġngá»¥c": 9025,
      "ret": 9026,
      "lott": 9027,
      "MiÃªu": 9028,
      "ĠHit": 9029,
      "Ġphá»ĵn": 9030,
      "rin": 9031,
      "ĠBÃ¹": 9032,
      "Chá»£": 9033,
      "Ġhá»ĩt": 9034,
      "Ġbin": 9035,
      "Ġhybrid": 9036,
      "Ġháº¥u": 9037,
      "olas": 9038,
      "ĠTá»ģ": 9039,
      "ĠPhá»ķi": 9040,
      "Roy": 9041,
      "Ġquáº¥t": 9042,
      "ĠNáº¡n": 9043,
      "ĠBá»ĳn": 9044,
      "Ġyoga": 9045,
      "ÄĲá»Ŀi": 9046,
      "ĠGáº¡o": 9047,
      "ĠCá»ı": 9048,
      "ĠkhoÃ¡i": 9049,
      "ĠchiÃªng": 9050,
      "Ġnáº¡t": 9051,
      "Ġgene": 9052,
      "May": 9053,
      "ĠTÆ°á»£ng": 9054,
      "á»¡": 9055,
      "try": 9056,
      "Ad": 9057,
      "Ġmiáº¿u": 9058,
      "ĠVel": 9059,
      "work": 9060,
      "Ġ1953": 9061,
      "Ġráº§m": 9062,
      "ĠAndrew": 9063,
      "ĠNGUYá»ĦN": 9064,
      "Ġpop": 9065,
      "ĠMiáº¿u": 9066,
      "ĠCáº·p": 9067,
      "ĠkhÃ³m": 9068,
      "lÃ´": 9069,
      "ĠLog": 9070,
      "nom": 9071,
      "Ġghe": 9072,
      "uli": 9073,
      "Ġ1936": 9074,
      "ĠNghÃ": 9075,
      "Ġthuá»Ł": 9076,
      "aron": 9077,
      "cÃ´": 9078,
      "ovich": 9079,
      "ĠHealth": 9080,
      "ĠBT": 9081,
      "ĠAlexand": 9082,
      "ĠAnn": 9083,
      "rgb": 9084,
      "Ġout": 9085,
      "Ġ145": 9086,
      "ĠLÅ©ng": 9087,
      "ĠMao": 9088,
      "Ġmag": 9089,
      "ĠDá»¯": 9090,
      "opsis": 9091,
      "Ġrap": 9092,
      "ken": 9093,
      "Ġbá»±c": 9094,
      "Ġsolo": 9095,
      "Trá»įng": 9096,
      "unt": 9097,
      "emy": 9098,
      "danh": 9099,
      "âĢĶ": 9100,
      "Æ°á»Ŀm": 9101,
      "Ġáº£m": 9102,
      "ifolia": 9103,
      "ĠquÃ¢y": 9104,
      "ental": 9105,
      "ĠngÃ¢y": 9106,
      "athan": 9107,
      "Ġ118": 9108,
      "mail": 9109,
      "Ġcat": 9110,
      "Ġcháº£i": 9111,
      "Táº¡m": 9112,
      "ĠloÃ©t": 9113,
      "ĠÄĲá»īnh": 9114,
      "Ġtao": 9115,
      "ĠHamas": 9116,
      "ĠChen": 9117,
      "ĠTáº¡ng": 9118,
      "ĠBHTN": 9119,
      "Ġdáº¡t": 9120,
      "Indonesia": 9121,
      "Ġsáº£nh": 9122,
      "GÄĲ": 9123,
      "ĠNÃłng": 9124,
      "elin": 9125,
      "On": 9126,
      "ĠFerrari": 9127,
      "idi": 9128,
      "ĠgÄĥng": 9129,
      "wich": 9130,
      "Ġme": 9131,
      "ĠRog": 9132,
      "Ġjeans": 9133,
      "Phá»ĳi": 9134,
      "ĠcÃły": 9135,
      "iki": 9136,
      "ĠvÃŃa": 9137,
      "ĠVolodymyr": 9138,
      "Sang": 9139,
      "NÃªn": 9140,
      "ĠTáº§m": 9141,
      "ĠNas": 9142,
      "atic": 9143,
      "ĠCháº¯c": 9144,
      "ĠXH": 9145,
      "left": 9146,
      "ĠMÆ¡": 9147,
      "ĠLight": 9148,
      "ĠCháº¡p": 9149,
      "ĠBad": 9150,
      "ĠTráº£ng": 9151,
      "gray": 9152,
      "Tiáº¿t": 9153,
      "quy": 9154,
      "ĠSlovakia": 9155,
      "ĠID": 9156,
      "ĠdÆ°ng": 9157,
      "Ġfl": 9158,
      "ĠNev": 9159,
      "tiá»ģn": 9160,
      "Cung": 9161,
      "ÃŃu": 9162,
      "Linh": 9163,
      "Ġuáº¥t": 9164,
      "Ġlá»Ńng": 9165,
      "YÃªn": 9166,
      "ĠType": 9167,
      "ĠFBNV": 9168,
      "CMO": 9169,
      "ibo": 9170,
      "aii": 9171,
      "Ġtua": 9172,
      "TiÃªm": 9173,
      "ST": 9174,
      "Ġ320": 9175,
      "........": 9176,
      "ĠBL": 9177,
      "ĠSat": 9178,
      "EUT": 9179,
      "ĠLamb": 9180,
      "LÆ°á»£ng": 9181,
      "ĠPorsche": 9182,
      "ĠquÃ½t": 9183,
      "Chá»ĵng": 9184,
      "Ġ1948": 9185,
      "esc": 9186,
      "ĠNgÃ´n": 9187,
      "irect": 9188,
      "ĠNTK": 9189,
      "Ġmáº©n": 9190,
      "ĠMount": 9191,
      "ĠBá»Ńu": 9192,
      "Háº¡t": 9193,
      "Ġ144": 9194,
      "Arsenal": 9195,
      "ĠGiÃ¡c": 9196,
      "John": 9197,
      "Ġ@": 9198,
      "ĠEun": 9199,
      "ĠColle": 9200,
      "tar": 9201,
      "ichi": 9202,
      "otti": 9203,
      "Ġvá»¥n": 9204,
      "Ġcuá»ĳng": 9205,
      "ĠTC": 9206,
      "ĠThuáºŃt": 9207,
      "EUTERS": 9208,
      "ĠPhilippe": 9209,
      "Mang": 9210,
      "Real": 9211,
      "Ġ1949": 9212,
      "BT": 9213,
      "ĠFood": 9214,
      "Ġngháº¹t": 9215,
      "2027": 9216,
      "1999": 9217,
      "Ŀm": 9218,
      "ĠMáºŃt": 9219,
      "FI": 9220,
      "ĠKhÃ¡ng": 9221,
      "ĠVá»įng": 9222,
      "ĠBBC": 9223,
      "ĠTá»įa": 9224,
      "uber": 9225,
      "ĠtoÃ¡t": 9226,
      "ĠTimor": 9227,
      "ĠnhÃłn": 9228,
      "oides": 9229,
      "fl": 9230,
      "ĠBÃ¡nh": 9231,
      "exus": 9232,
      "ĠSony": 9233,
      "ĠDNA": 9234,
      "ĠWh": 9235,
      "Ġngá»¥y": 9236,
      "ĠHK": 9237,
      "Ġanime": 9238,
      "aea": 9239,
      "ĠAmerica": 9240,
      "MÃłu": 9241,
      "thur": 9242,
      "Ġkhuáº¥y": 9243,
      "jin": 9244,
      "ĠVai": 9245,
      "ĠTrao": 9246,
      "Ġrá»¥i": 9247,
      "ĠHab": 9248,
      "ĠMT": 9249,
      "odo": 9250,
      "ĢN": 9251,
      "ĠDA": 9252,
      "ĠTCTD": 9253,
      "Quá»¹": 9254,
      "kel": 9255,
      "cuá»Ļc": 9256,
      "ĠrÃ¢u": 9257,
      "ĠÄĳÃ²": 9258,
      "ĠGDÄĲT": 9259,
      "vis": 9260,
      "LÆ°Æ¡ng": 9261,
      "ĠThá»¥": 9262,
      "SH": 9263,
      "ĠLÃ¡i": 9264,
      "OO": 9265,
      "Ġchat": 9266,
      "Ġphá»ĵng": 9267,
      "ĠNguy": 9268,
      "Ġid": 9269,
      "inger": 9270,
      "bass": 9271,
      "SP": 9272,
      "ophouse": 9273,
      "iravir": 9274,
      "Xu": 9275,
      "DÃ¹ng": 9276,
      "Covid": 9277,
      "Ġincr": 9278,
      "Ġ{": 9279,
      "Khá»ĳi": 9280,
      "reen": 9281,
      "ĠRaf": 9282,
      "erbai": 9283,
      "room": 9284,
      "Ġguitar": 9285,
      "ĠChris": 9286,
      "ĠWag": 9287,
      "ĠTháºŃp": 9288,
      "ĠMasan": 9289,
      "ĠTeleg": 9290,
      "Äĳá»ĥ": 9291,
      "frac": 9292,
      "ĠKid": 9293,
      "báº£n": 9294,
      "ĠLive": 9295,
      "Ġ[[": 9296,
      "ÄĲá»ĵ": 9297,
      "Ġ1938": 9298,
      "ĠthÃªu": 9299,
      "Har": 9300,
      "LÅ©y": 9301,
      "ÄĳÆ¡n": 9302,
      "Ġmg": 9303,
      "á»©ng": 9304,
      "Ġhom": 9305,
      "PM": 9306,
      "Khoa": 9307,
      "ĠDelhi": 9308,
      "Scale": 9309,
      "ĠMall": 9310,
      "LVT": 9311,
      "CTCP": 9312,
      "ĠPay": 9313,
      "ÄĲTB": 9314,
      "ĠWTI": 9315,
      "Ðº": 9316,
      "ĠRau": 9317,
      "ĠMail": 9318,
      "ĠUV": 9319,
      "ĠVarane": 9320,
      "erbaijan": 9321,
      "eni": 9322,
      "bus": 9323,
      "ĠEsp": 9324,
      "Ste": 9325,
      "nghá»": 9326,
      "ister": 9327,
      "ĠnCoV": 9328,
      "ĠDOJI": 9329,
      "Kháº£": 9330,
      "Ġ1952": 9331,
      "ĠCru": 9332,
      "ĠPop": 9333,
      "ĠDol": 9334,
      "alli": 9335,
      "Chá»ĳt": 9336,
      "Web": 9337,
      "tis": 9338,
      "ĠTÃ³c": 9339,
      "htm": 9340,
      "ĠÄĲá»ķng": 9341,
      "Vá»ĳn": 9342,
      "Ġder": 9343,
      "Ġå": 9344,
      "Ġhá»§": 9345,
      "ĠLáº¥y": 9346,
      "ĠVietNamNet": 9347,
      "ĠWolf": 9348,
      "ĠTrÃ¹ng": 9349,
      "Ġná»į": 9350,
      "ĠSevilla": 9351,
      "ĠGabriel": 9352,
      "ĠráºŃp": 9353,
      "Fi": 9354,
      "ĠChiá»ģng": 9355,
      "ĠCÃº": 9356,
      "ĠArn": 9357,
      "Ġau": 9358,
      "Ġincrement": 9359,
      "ĠKá»ĭch": 9360,
      "ĠAug": 9361,
      "ĠHor": 9362,
      "ĠMÃłn": 9363,
      "ScaleM": 9364,
      "ĠGirl": 9365,
      "ĠphÃ´i": 9366,
      "Land": 9367,
      "ĠVTC": 9368,
      "ĠNan": 9369,
      "ĠBud": 9370,
      "Ġquáº¥n": 9371,
      "ĠChampionship": 9372,
      "Bu": 9373,
      "kip": 9374,
      "ĠMatt": 9375,
      "ĠAjax": 9376,
      "ĠnhÃ¡i": 9377,
      "edo": 9378,
      "ĠDam": 9379,
      "Ġáº": 9380,
      "ĠDmit": 9381,
      "roc": 9382,
      "ĠThuá»ĳc": 9383,
      "cá»§a": 9384,
      "Ġngáº£": 9385,
      "ãĢ": 9386,
      "Ġft": 9387,
      "KhÃ¡m": 9388,
      "Colors": 9389,
      "Ġpol": 9390,
      "ĠTime": 9391,
      "ĠSach": 9392,
      "ĠGam": 9393,
      "tai": 9394,
      "zig": 9395,
      "ĠFutsal": 9396,
      "BNN": 9397,
      "!\"": 9398,
      "vÃŃ": 9399,
      "apan": 9400,
      "Ġstream": 9401,
      "ĠMorocco": 9402,
      "VÃ´": 9403,
      "ĠChuyáº¿n": 9404,
      "ĠSáº½": 9405,
      "ĠCOP": 9406,
      "Ġ1951": 9407,
      "Ġresort": 9408,
      "Ġper": 9409,
      "HT": 9410,
      "Ġnilon": 9411,
      "uture": 9412,
      "tá»ķ": 9413,
      "ĠGuinea": 9414,
      "âĢĿ...": 9415,
      "ĠChoi": 9416,
      "eva": 9417,
      "Ġ280": 9418,
      "unk": 9419,
      "PlotData": 9420,
      "ĠYong": 9421,
      "ĠÃģp": 9422,
      "ĠCX": 9423,
      "PhÆ°á»Ŀng": 9424,
      "Mic": 9425,
      "tric": 9426,
      "ĠRÄĥng": 9427,
      "chá»¯": 9428,
      "ĠPes": 9429,
      "ĠBrunei": 9430,
      "omo": 9431,
      "ĠDÃ£": 9432,
      "VÆ°á»£t": 9433,
      "ĠLuis": 9434,
      "ĠQuáº¥t": 9435,
      "emon": 9436,
      "ĠPen": 9437,
      "arreal": 9438,
      "mark": 9439,
      "ateridae": 9440,
      "view": 9441,
      "ĠSC": 9442,
      "Ġhanh": 9443,
      "ĠCit": 9444,
      "ĠCÃłng": 9445,
      "ĠSher": 9446,
      "bit": 9447,
      "iko": 9448,
      "ĠXVII": 9449,
      "De": 9450,
      "ĠÃįt": 9451,
      "ulus": 9452,
      "cept": 9453,
      "ournal": 9454,
      "adi": 9455,
      "ĠChic": 9456,
      "Ġlá»Ŀ": 9457,
      "ĠYok": 9458,
      "ĠODA": 9459,
      "CáºŃu": 9460,
      "aza": 9461,
      "ĠtrÃºt": 9462,
      "ĠTravel": 9463,
      "ÄĳÃ³ng": 9464,
      "ĠECMO": 9465,
      "ĠZapor": 9466,
      "Ġwon": 9467,
      "VÃµ": 9468,
      "ĠBluetooth": 9469,
      "ĠOtt": 9470,
      "ĠHCB": 9471,
      "ĠDragon": 9472,
      "Ġlá»«ng": 9473,
      "log": 9474,
      "Ġins": 9475,
      "inidae": 9476,
      "VÆ°á»Ŀn": 9477,
      "ĠXK": 9478,
      "ĠmáºŃn": 9479,
      "ĠVAT": 9480,
      "ÄĲang": 9481,
      "Ġ122": 9482,
      "thá»±c": 9483,
      "elf": 9484,
      "230": 9485,
      "ĠHCÄĲ": 9486,
      "ĠBrad": 9487,
      "ĠMá»ļI": 9488,
      "Ġgrid": 9489,
      "ĠJos": 9490,
      "BÃ£o": 9491,
      "dio": 9492,
      "ĠrÃ¡t": 9493,
      "ĠMA": 9494,
      "ĠSouthampton": 9495,
      "Ġnhai": 9496,
      "ĠGener": 9497,
      "táº¡m": 9498,
      "Ġchá»£t": 9499,
      "PTPP": 9500,
      "ĠInc": 9501,
      "olla": 9502,
      "ĠMÃłu": 9503,
      "Ġtrá»ķ": 9504,
      "Quáº£n": 9505,
      "Ġ1937": 9506,
      "ĠBest": 9507,
      "eet": 9508,
      "ĠBiáº¿n": 9509,
      "ká»ĥ": 9510,
      "Ĺı": 9511,
      "ĠChÃłm": 9512,
      "ĠBrentford": 9513,
      "ĠSoh": 9514,
      "ĠPap": 9515,
      "Ġæ": 9516,
      "ĠDream": 9517,
      "ĠLewandowski": 9518,
      "Ġsáº£o": 9519,
      "rama": 9520,
      "earl": 9521,
      "ĠBurn": 9522,
      "emiro": 9523,
      "ĠKherson": 9524,
      "Dá»±a": 9525,
      "elly": 9526,
      "agh": 9527,
      "Ġ330": 9528,
      "sy": 9529,
      "alin": 9530,
      "ĠÄĳáº«m": 9531,
      "ĠNXB": 9532,
      "ĠbÃºa": 9533,
      "ĠWay": 9534,
      "ĠCopy": 9535,
      "ĠDáº¡": 9536,
      "ĠFTA": 9537,
      "Ġ121": 9538,
      "estay": 9539,
      "Un": 9540,
      "ĠNá»ķi": 9541,
      "ĠCy": 9542,
      "ĠcÆ°a": 9543,
      "Cá»Ńa": 9544,
      "MÃ´i": 9545,
      "ĠÄĳáºŃy": 9546,
      "Ġ270": 9547,
      "SÃ´ng": 9548,
      "ĠKáº»": 9549,
      "bu": 9550,
      "ÄĲá»Ĺ": 9551,
      "NgÃ´": 9552,
      "ears": 9553,
      "barra": 9554,
      "ĠUPCoM": 9555,
      "ĠExpress": 9556,
      "Ġstress": 9557,
      "rach": 9558,
      "ĠReg": 9559,
      "160": 9560,
      "Ġvá»ın": 9561,
      "Æ¯á»ľ": 9562,
      "Ġ;": 9563,
      "TrÃł": 9564,
      "Loáº¡t": 9565,
      "Ġgridcolor": 9566,
      "ĠLen": 9567,
      "ĠOlympia": 9568,
      "phÃ¡t": 9569,
      "ĠBá»ķ": 9570,
      "Ġláº±n": 9571,
      "RNA": 9572,
      "ekong": 9573,
      "Ġ138": 9574,
      "ASS": 9575,
      "ĠOut": 9576,
      "ĠCz": 9577,
      "ree": 9578,
      "Vua": 9579,
      "Äĳáº¿n": 9580,
      "hÃłng": 9581,
      "Ġcháº±ng": 9582,
      "==": 9583,
      "elm": 9584,
      "CSXH": 9585,
      "eed": 9586,
      "ĠXá»©": 9587,
      "ĠMiG": 9588,
      "Ná»ģn": 9589,
      "Ġshop": 9590,
      "ces": 9591,
      "ness": 9592,
      "ĠTrÃ¡ch": 9593,
      "grey": 9594,
      "asia": 9595,
      "Ġnhá»Ŀn": 9596,
      "Ġbá»īm": 9597,
      "ĠMari": 9598,
      "á»Ĩ": 9599,
      "edit": 9600,
      "ĠKiá»ĥu": 9601,
      "TrÃ¬nh": 9602,
      "ĠkhoÃ¡t": 9603,
      "ĠFED": 9604,
      "GC": 9605,
      "cap": 9606,
      "ĠlÃ³c": 9607,
      "Ġspa": 9608,
      "trung": 9609,
      "ĠvÃ£n": 9610,
      "ĠNovaland": 9611,
      "Ġcháº¡p": 9612,
      "ĠMáº¯t": 9613,
      "Ġvisa": 9614,
      "ngh": 9615,
      "ATGT": 9616,
      "atri": 9617,
      "iri": 9618,
      "ĠtrÃ¨o": 9619,
      "ĠCamb": 9620,
      "âĢ¦âĢĿ.": 9621,
      "ĠKer": 9622,
      "elia": 9623,
      "ĠMÃ©": 9624,
      "ĠJol": 9625,
      "usa": 9626,
      "ĠFried": 9627,
      "ĠRio": 9628,
      "ĠBá»©c": 9629,
      "ĠWilliams": 9630,
      "Å¡": 9631,
      "ĠHil": 9632,
      "máº¥t": 9633,
      "Æ°Æ¡u": 9634,
      "ĠHill": 9635,
      "Ġmicro": 9636,
      "ĠTrich": 9637,
      "thanh": 9638,
      "Ġbáº»": 9639,
      "ĠBeau": 9640,
      "ĠLÅ©y": 9641,
      "ĠÂ°": 9642,
      "ĠAuto": 9643,
      "ĠComm": 9644,
      "ĠKishida": 9645,
      "hoa": 9646,
      "lightgrey": 9647,
      "Ġor": 9648,
      "darkg": 9649,
      "darkgrey": 9650,
      "130": 9651,
      "ĠSwift": 9652,
      "akarta": 9653,
      "á»Ķ": 9654,
      "nup": 9655,
      "ĠGarden": 9656,
      "Ġchá»ĩ": 9657,
      "tá»·": 9658,
      "ĠAnna": 9659,
      "Ġ127": 9660,
      "Kar": 9661,
      "andro": 9662,
[...]
